{
  "version": "1.0",
  "truncation": null,
  "padding": null,
  "added_tokens": [
    {
      "id": 0,
      "content": "[UNK]",
      "single_word": false,
      "lstrip": false,
      "rstrip": false,
      "normalized": false,
      "special": true
    },
    {
      "id": 1,
      "content": "[PAD]",
      "single_word": false,
      "lstrip": false,
      "rstrip": false,
      "normalized": false,
      "special": true
    },
    {
      "id": 2,
      "content": "[CLS]",
      "single_word": false,
      "lstrip": false,
      "rstrip": false,
      "normalized": false,
      "special": true
    },
    {
      "id": 3,
      "content": "[SEP]",
      "single_word": false,
      "lstrip": false,
      "rstrip": false,
      "normalized": false,
      "special": true
    },
    {
      "id": 4,
      "content": "[MASK]",
      "single_word": false,
      "lstrip": false,
      "rstrip": false,
      "normalized": false,
      "special": true
    }
  ],
  "normalizer": null,
  "pre_tokenizer": {
    "type": "Whitespace"
  },
  "post_processor": null,
  "decoder": null,
  "model": {
    "type": "BPE",
    "dropout": null,
    "unk_token": "[UNK]",
    "continuing_subword_prefix": null,
    "end_of_word_suffix": null,
    "fuse_unk": false,
    "byte_fallback": false,
    "ignore_merges": false,
    "vocab": {
      "[UNK]": 0,
      "[PAD]": 1,
      "[CLS]": 2,
      "[SEP]": 3,
      "[MASK]": 4,
      ".": 5,
      "0": 6,
      "1": 7,
      "2": 8,
      "3": 9,
      "4": 10,
      "5": 11,
      "6": 12,
      "7": 13,
      "8": 14,
      "9": 15,
      "A": 16,
      "B": 17,
      "C": 18,
      "D": 19,
      "E": 20,
      "F": 21,
      "G": 22,
      "H": 23,
      "I": 24,
      "J": 25,
      "K": 26,
      "L": 27,
      "M": 28,
      "N": 29,
      "O": 30,
      "P": 31,
      "Q": 32,
      "R": 33,
      "S": 34,
      "T": 35,
      "U": 36,
      "V": 37,
      "W": 38,
      "X": 39,
      "Y": 40,
      "Z": 41,
      "a": 42,
      "b": 43,
      "c": 44,
      "d": 45,
      "e": 46,
      "f": 47,
      "g": 48,
      "h": 49,
      "i": 50,
      "j": 51,
      "k": 52,
      "l": 53,
      "m": 54,
      "n": 55,
      "o": 56,
      "p": 57,
      "q": 58,
      "r": 59,
      "s": 60,
      "t": 61,
      "u": 62,
      "v": 63,
      "w": 64,
      "x": 65,
      "y": 66,
      "z": 67,
      "가": 68,
      "각": 69,
      "간": 70,
      "갇": 71,
      "갈": 72,
      "감": 73,
      "갑": 74,
      "값": 75,
      "갓": 76,
      "갔": 77,
      "강": 78,
      "갖": 79,
      "같": 80,
      "갚": 81,
      "개": 82,
      "객": 83,
      "갤": 84,
      "갭": 85,
      "갯": 86,
      "갱": 87,
      "갸": 88,
      "걀": 89,
      "거": 90,
      "걱": 91,
      "건": 92,
      "걷": 93,
      "걸": 94,
      "검": 95,
      "겁": 96,
      "것": 97,
      "겉": 98,
      "게": 99,
      "겐": 100,
      "겔": 101,
      "겜": 102,
      "겟": 103,
      "겠": 104,
      "겨": 105,
      "격": 106,
      "겪": 107,
      "견": 108,
      "결": 109,
      "겸": 110,
      "겹": 111,
      "겼": 112,
      "경": 113,
      "곁": 114,
      "계": 115,
      "고": 116,
      "곡": 117,
      "곤": 118,
      "곧": 119,
      "골": 120,
      "곰": 121,
      "곱": 122,
      "곳": 123,
      "공": 124,
      "곶": 125,
      "과": 126,
      "곽": 127,
      "관": 128,
      "괄": 129,
      "괌": 130,
      "광": 131,
      "괜": 132,
      "괭": 133,
      "괴": 134,
      "굉": 135,
      "교": 136,
      "구": 137,
      "국": 138,
      "군": 139,
      "굳": 140,
      "굴": 141,
      "굵": 142,
      "굼": 143,
      "굽": 144,
      "굿": 145,
      "궁": 146,
      "궈": 147,
      "권": 148,
      "궐": 149,
      "궤": 150,
      "귀": 151,
      "귄": 152,
      "규": 153,
      "균": 154,
      "귤": 155,
      "그": 156,
      "극": 157,
      "근": 158,
      "글": 159,
      "긁": 160,
      "금": 161,
      "급": 162,
      "긋": 163,
      "긍": 164,
      "기": 165,
      "긱": 166,
      "긴": 167,
      "길": 168,
      "김": 169,
      "깁": 170,
      "깃": 171,
      "깅": 172,
      "깊": 173,
      "까": 174,
      "깍": 175,
      "깎": 176,
      "깐": 177,
      "깔": 178,
      "깜": 179,
      "깝": 180,
      "깡": 181,
      "깥": 182,
      "깨": 183,
      "깬": 184,
      "깰": 185,
      "꺼": 186,
      "꺽": 187,
      "꺾": 188,
      "껌": 189,
      "껍": 190,
      "껏": 191,
      "껑": 192,
      "께": 193,
      "껴": 194,
      "꼈": 195,
      "꼬": 196,
      "꼭": 197,
      "꼴": 198,
      "꼼": 199,
      "꼽": 200,
      "꽁": 201,
      "꽂": 202,
      "꽃": 203,
      "꽈": 204,
      "꽉": 205,
      "꽤": 206,
      "꾀": 207,
      "꾸": 208,
      "꾼": 209,
      "꿀": 210,
      "꿈": 211,
      "꿉": 212,
      "꿋": 213,
      "꿔": 214,
      "꿨": 215,
      "꿰": 216,
      "뀌": 217,
      "뀐": 218,
      "뀔": 219,
      "뀝": 220,
      "끄": 221,
      "끈": 222,
      "끊": 223,
      "끌": 224,
      "끓": 225,
      "끔": 226,
      "끗": 227,
      "끝": 228,
      "끼": 229,
      "끽": 230,
      "낀": 231,
      "낄": 232,
      "낌": 233,
      "나": 234,
      "낙": 235,
      "낚": 236,
      "난": 237,
      "날": 238,
      "낡": 239,
      "남": 240,
      "납": 241,
      "낫": 242,
      "났": 243,
      "낭": 244,
      "낮": 245,
      "낯": 246,
      "낱": 247,
      "낳": 248,
      "내": 249,
      "낵": 250,
      "낸": 251,
      "낼": 252,
      "냄": 253,
      "냅": 254,
      "냈": 255,
      "냉": 256,
      "냐": 257,
      "냥": 258,
      "너": 259,
      "넉": 260,
      "넌": 261,
      "널": 262,
      "넓": 263,
      "넘": 264,
      "넙": 265,
      "넛": 266,
      "넣": 267,
      "네": 268,
      "넥": 269,
      "넨": 270,
      "넬": 271,
      "넵": 272,
      "넷": 273,
      "넸": 274,
      "녀": 275,
      "녁": 276,
      "년": 277,
      "념": 278,
      "녔": 279,
      "녕": 280,
      "녘": 281,
      "노": 282,
      "녹": 283,
      "논": 284,
      "놀": 285,
      "놈": 286,
      "놉": 287,
      "농": 288,
      "높": 289,
      "놓": 290,
      "놔": 291,
      "놨": 292,
      "뇌": 293,
      "뇨": 294,
      "뇽": 295,
      "누": 296,
      "눅": 297,
      "눈": 298,
      "눌": 299,
      "눔": 300,
      "눕": 301,
      "눠": 302,
      "눴": 303,
      "뉘": 304,
      "뉜": 305,
      "뉠": 306,
      "뉴": 307,
      "늄": 308,
      "늉": 309,
      "느": 310,
      "늑": 311,
      "는": 312,
      "늘": 313,
      "늙": 314,
      "늠": 315,
      "능": 316,
      "늦": 317,
      "늪": 318,
      "늬": 319,
      "니": 320,
      "닉": 321,
      "닌": 322,
      "닐": 323,
      "님": 324,
      "닙": 325,
      "닛": 326,
      "닝": 327,
      "다": 328,
      "닥": 329,
      "닦": 330,
      "단": 331,
      "닫": 332,
      "달": 333,
      "닭": 334,
      "닮": 335,
      "담": 336,
      "답": 337,
      "닷": 338,
      "당": 339,
      "닿": 340,
      "대": 341,
      "댄": 342,
      "댈": 343,
      "댐": 344,
      "댑": 345,
      "댓": 346,
      "댔": 347,
      "댠": 348,
      "더": 349,
      "덕": 350,
      "던": 351,
      "덜": 352,
      "덟": 353,
      "덤": 354,
      "덥": 355,
      "덧": 356,
      "덩": 357,
      "덮": 358,
      "데": 359,
      "덱": 360,
      "덴": 361,
      "델": 362,
      "뎅": 363,
      "뎌": 364,
      "뎠": 365,
      "도": 366,
      "독": 367,
      "돈": 368,
      "돋": 369,
      "돌": 370,
      "돔": 371,
      "돕": 372,
      "돗": 373,
      "동": 374,
      "돛": 375,
      "돤": 376,
      "돼": 377,
      "됐": 378,
      "되": 379,
      "된": 380,
      "될": 381,
      "됨": 382,
      "됩": 383,
      "두": 384,
      "둑": 385,
      "둔": 386,
      "둘": 387,
      "둠": 388,
      "둡": 389,
      "둥": 390,
      "둬": 391,
      "뒀": 392,
      "뒤": 393,
      "뒷": 394,
      "듀": 395,
      "듈": 396,
      "듐": 397,
      "드": 398,
      "득": 399,
      "든": 400,
      "듣": 401,
      "들": 402,
      "듬": 403,
      "듭": 404,
      "듯": 405,
      "등": 406,
      "디": 407,
      "딕": 408,
      "딘": 409,
      "딛": 410,
      "딜": 411,
      "딤": 412,
      "딥": 413,
      "딧": 414,
      "딩": 415,
      "딪": 416,
      "따": 417,
      "딱": 418,
      "딴": 419,
      "딸": 420,
      "땀": 421,
      "땄": 422,
      "땅": 423,
      "때": 424,
      "땐": 425,
      "땔": 426,
      "땜": 427,
      "땠": 428,
      "땡": 429,
      "떠": 430,
      "떡": 431,
      "떤": 432,
      "떨": 433,
      "떻": 434,
      "떼": 435,
      "뗀": 436,
      "뗄": 437,
      "뗐": 438,
      "또": 439,
      "똑": 440,
      "똘": 441,
      "똥": 442,
      "뚜": 443,
      "뚝": 444,
      "뚫": 445,
      "뚱": 446,
      "뛰": 447,
      "뛴": 448,
      "뛸": 449,
      "뜨": 450,
      "뜩": 451,
      "뜬": 452,
      "뜯": 453,
      "뜰": 454,
      "뜸": 455,
      "뜹": 456,
      "뜻": 457,
      "띄": 458,
      "띈": 459,
      "띔": 460,
      "띕": 461,
      "띠": 462,
      "띤": 463,
      "띵": 464,
      "라": 465,
      "락": 466,
      "란": 467,
      "랄": 468,
      "람": 469,
      "랍": 470,
      "랏": 471,
      "랐": 472,
      "랑": 473,
      "랗": 474,
      "래": 475,
      "랙": 476,
      "랜": 477,
      "랠": 478,
      "램": 479,
      "랩": 480,
      "랫": 481,
      "랬": 482,
      "랭": 483,
      "랴": 484,
      "략": 485,
      "량": 486,
      "러": 487,
      "럭": 488,
      "런": 489,
      "럴": 490,
      "럼": 491,
      "럽": 492,
      "럿": 493,
      "렀": 494,
      "렁": 495,
      "렇": 496,
      "레": 497,
      "렉": 498,
      "렌": 499,
      "렐": 500,
      "렘": 501,
      "렙": 502,
      "렛": 503,
      "려": 504,
      "력": 505,
      "련": 506,
      "렬": 507,
      "렴": 508,
      "렵": 509,
      "렷": 510,
      "렸": 511,
      "령": 512,
      "례": 513,
      "롄": 514,
      "로": 515,
      "록": 516,
      "론": 517,
      "롤": 518,
      "롬": 519,
      "롭": 520,
      "롯": 521,
      "롱": 522,
      "뢰": 523,
      "료": 524,
      "룟": 525,
      "룡": 526,
      "루": 527,
      "룩": 528,
      "룬": 529,
      "룰": 530,
      "룸": 531,
      "룹": 532,
      "룻": 533,
      "룽": 534,
      "뤄": 535,
      "뤘": 536,
      "뤼": 537,
      "류": 538,
      "륙": 539,
      "륜": 540,
      "률": 541,
      "륨": 542,
      "륭": 543,
      "르": 544,
      "른": 545,
      "를": 546,
      "름": 547,
      "릅": 548,
      "릇": 549,
      "릉": 550,
      "릍": 551,
      "릎": 552,
      "리": 553,
      "릭": 554,
      "린": 555,
      "릴": 556,
      "림": 557,
      "립": 558,
      "릿": 559,
      "링": 560,
      "마": 561,
      "막": 562,
      "만": 563,
      "많": 564,
      "맏": 565,
      "말": 566,
      "맑": 567,
      "맘": 568,
      "맙": 569,
      "맛": 570,
      "망": 571,
      "맞": 572,
      "맡": 573,
      "매": 574,
      "맥": 575,
      "맨": 576,
      "맴": 577,
      "맵": 578,
      "맷": 579,
      "맹": 580,
      "맺": 581,
      "먀": 582,
      "머": 583,
      "먹": 584,
      "먼": 585,
      "멀": 586,
      "멈": 587,
      "멉": 588,
      "멋": 589,
      "멍": 590,
      "멎": 591,
      "메": 592,
      "멕": 593,
      "멘": 594,
      "멜": 595,
      "멤": 596,
      "멧": 597,
      "며": 598,
      "면": 599,
      "멸": 600,
      "몄": 601,
      "명": 602,
      "몇": 603,
      "모": 604,
      "목": 605,
      "몫": 606,
      "몬": 607,
      "몰": 608,
      "몸": 609,
      "못": 610,
      "몽": 611,
      "묘": 612,
      "무": 613,
      "묵": 614,
      "묶": 615,
      "문": 616,
      "묻": 617,
      "물": 618,
      "뭄": 619,
      "뭇": 620,
      "뭉": 621,
      "뭐": 622,
      "뭔": 623,
      "뭘": 624,
      "뮌": 625,
      "뮐": 626,
      "뮤": 627,
      "뮬": 628,
      "므": 629,
      "믈": 630,
      "미": 631,
      "믹": 632,
      "민": 633,
      "믿": 634,
      "밀": 635,
      "밋": 636,
      "밌": 637,
      "밍": 638,
      "및": 639,
      "밑": 640,
      "바": 641,
      "박": 642,
      "밖": 643,
      "반": 644,
      "받": 645,
      "발": 646,
      "밝": 647,
      "밟": 648,
      "밤": 649,
      "밥": 650,
      "밧": 651,
      "방": 652,
      "밭": 653,
      "배": 654,
      "백": 655,
      "밴": 656,
      "밸": 657,
      "뱀": 658,
      "뱁": 659,
      "뱅": 660,
      "버": 661,
      "벅": 662,
      "번": 663,
      "벌": 664,
      "범": 665,
      "법": 666,
      "벗": 667,
      "벙": 668,
      "벚": 669,
      "베": 670,
      "벡": 671,
      "벤": 672,
      "벨": 673,
      "벳": 674,
      "벵": 675,
      "벼": 676,
      "벽": 677,
      "변": 678,
      "별": 679,
      "볍": 680,
      "볐": 681,
      "병": 682,
      "보": 683,
      "복": 684,
      "볶": 685,
      "본": 686,
      "볼": 687,
      "봄": 688,
      "봅": 689,
      "봇": 690,
      "봉": 691,
      "봐": 692,
      "봤": 693,
      "봬": 694,
      "뵈": 695,
      "뵌": 696,
      "부": 697,
      "북": 698,
      "분": 699,
      "불": 700,
      "붉": 701,
      "붐": 702,
      "붓": 703,
      "붕": 704,
      "붙": 705,
      "뷔": 706,
      "뷰": 707,
      "뷸": 708,
      "브": 709,
      "븐": 710,
      "블": 711,
      "비": 712,
      "빅": 713,
      "빈": 714,
      "빌": 715,
      "빔": 716,
      "빕": 717,
      "빗": 718,
      "빙": 719,
      "빚": 720,
      "빛": 721,
      "빠": 722,
      "빡": 723,
      "빤": 724,
      "빨": 725,
      "빵": 726,
      "빼": 727,
      "빽": 728,
      "뺀": 729,
      "뺏": 730,
      "뺨": 731,
      "뻐": 732,
      "뻔": 733,
      "뻗": 734,
      "뻘": 735,
      "뻤": 736,
      "뼈": 737,
      "뽀": 738,
      "뽐": 739,
      "뽑": 740,
      "뽕": 741,
      "뾰": 742,
      "뿌": 743,
      "뿍": 744,
      "뿐": 745,
      "뿔": 746,
      "뿜": 747,
      "쁘": 748,
      "쁜": 749,
      "쁠": 750,
      "쁨": 751,
      "삐": 752,
      "사": 753,
      "삭": 754,
      "산": 755,
      "살": 756,
      "삶": 757,
      "삼": 758,
      "삽": 759,
      "삿": 760,
      "샀": 761,
      "상": 762,
      "새": 763,
      "색": 764,
      "샌": 765,
      "샐": 766,
      "샘": 767,
      "샛": 768,
      "생": 769,
      "샤": 770,
      "샨": 771,
      "샴": 772,
      "샵": 773,
      "샷": 774,
      "샹": 775,
      "섀": 776,
      "서": 777,
      "석": 778,
      "섞": 779,
      "선": 780,
      "섣": 781,
      "설": 782,
      "섬": 783,
      "섭": 784,
      "섯": 785,
      "섰": 786,
      "성": 787,
      "세": 788,
      "섹": 789,
      "센": 790,
      "셀": 791,
      "셈": 792,
      "셉": 793,
      "셋": 794,
      "셍": 795,
      "셔": 796,
      "션": 797,
      "셜": 798,
      "셧": 799,
      "셨": 800,
      "셰": 801,
      "셸": 802,
      "소": 803,
      "속": 804,
      "솎": 805,
      "손": 806,
      "솔": 807,
      "솜": 808,
      "솝": 809,
      "솟": 810,
      "송": 811,
      "솥": 812,
      "쇄": 813,
      "쇠": 814,
      "쇳": 815,
      "쇼": 816,
      "숄": 817,
      "숍": 818,
      "숏": 819,
      "수": 820,
      "숙": 821,
      "순": 822,
      "술": 823,
      "숨": 824,
      "숩": 825,
      "숫": 826,
      "숭": 827,
      "숲": 828,
      "쉐": 829,
      "쉘": 830,
      "쉬": 831,
      "쉰": 832,
      "쉴": 833,
      "쉼": 834,
      "쉽": 835,
      "슈": 836,
      "슌": 837,
      "슐": 838,
      "슘": 839,
      "슝": 840,
      "스": 841,
      "슨": 842,
      "슬": 843,
      "슴": 844,
      "습": 845,
      "슷": 846,
      "승": 847,
      "시": 848,
      "식": 849,
      "신": 850,
      "싣": 851,
      "실": 852,
      "싫": 853,
      "심": 854,
      "십": 855,
      "싯": 856,
      "싱": 857,
      "싶": 858,
      "싸": 859,
      "싹": 860,
      "싼": 861,
      "쌀": 862,
      "쌈": 863,
      "쌉": 864,
      "쌌": 865,
      "쌍": 866,
      "쌓": 867,
      "쌤": 868,
      "써": 869,
      "썩": 870,
      "썬": 871,
      "썰": 872,
      "썸": 873,
      "썼": 874,
      "썽": 875,
      "쎄": 876,
      "쏘": 877,
      "쏙": 878,
      "쏜": 879,
      "쏟": 880,
      "쏠": 881,
      "쐈": 882,
      "쐐": 883,
      "쑤": 884,
      "쑥": 885,
      "쑨": 886,
      "쓰": 887,
      "쓱": 888,
      "쓴": 889,
      "쓸": 890,
      "씀": 891,
      "씌": 892,
      "씨": 893,
      "씩": 894,
      "씬": 895,
      "씹": 896,
      "씻": 897,
      "아": 898,
      "악": 899,
      "안": 900,
      "앉": 901,
      "않": 902,
      "알": 903,
      "앓": 904,
      "암": 905,
      "압": 906,
      "앗": 907,
      "았": 908,
      "앙": 909,
      "앞": 910,
      "애": 911,
      "액": 912,
      "앤": 913,
      "앨": 914,
      "앰": 915,
      "앱": 916,
      "앴": 917,
      "앵": 918,
      "야": 919,
      "약": 920,
      "얀": 921,
      "얄": 922,
      "얇": 923,
      "얌": 924,
      "얏": 925,
      "양": 926,
      "얕": 927,
      "얘": 928,
      "어": 929,
      "억": 930,
      "언": 931,
      "얹": 932,
      "얻": 933,
      "얼": 934,
      "얽": 935,
      "엄": 936,
      "업": 937,
      "없": 938,
      "엇": 939,
      "었": 940,
      "엉": 941,
      "엊": 942,
      "엌": 943,
      "엎": 944,
      "에": 945,
      "엑": 946,
      "엔": 947,
      "엘": 948,
      "엠": 949,
      "엣": 950,
      "여": 951,
      "역": 952,
      "엮": 953,
      "연": 954,
      "열": 955,
      "염": 956,
      "엽": 957,
      "엿": 958,
      "였": 959,
      "영": 960,
      "옆": 961,
      "예": 962,
      "옐": 963,
      "옛": 964,
      "오": 965,
      "옥": 966,
      "온": 967,
      "올": 968,
      "옮": 969,
      "옳": 970,
      "옴": 971,
      "옵": 972,
      "옷": 973,
      "옹": 974,
      "와": 975,
      "완": 976,
      "왈": 977,
      "왑": 978,
      "왓": 979,
      "왔": 980,
      "왕": 981,
      "왜": 982,
      "외": 983,
      "왼": 984,
      "요": 985,
      "욕": 986,
      "욘": 987,
      "욜": 988,
      "욤": 989,
      "용": 990,
      "우": 991,
      "욱": 992,
      "운": 993,
      "울": 994,
      "움": 995,
      "웃": 996,
      "웅": 997,
      "워": 998,
      "웍": 999,
      "원": 1000,
      "월": 1001,
      "웠": 1002,
      "웨": 1003,
      "웬": 1004,
      "웰": 1005,
      "웹": 1006,
      "웻": 1007,
      "위": 1008,
      "윈": 1009,
      "윌": 1010,
      "윔": 1011,
      "윗": 1012,
      "윙": 1013,
      "유": 1014,
      "육": 1015,
      "윤": 1016,
      "율": 1017,
      "윱": 1018,
      "윳": 1019,
      "융": 1020,
      "으": 1021,
      "은": 1022,
      "을": 1023,
      "음": 1024,
      "읍": 1025,
      "응": 1026,
      "의": 1027,
      "이": 1028,
      "익": 1029,
      "인": 1030,
      "일": 1031,
      "읽": 1032,
      "잃": 1033,
      "임": 1034,
      "입": 1035,
      "잇": 1036,
      "있": 1037,
      "잉": 1038,
      "잊": 1039,
      "잎": 1040,
      "자": 1041,
      "작": 1042,
      "잔": 1043,
      "잖": 1044,
      "잘": 1045,
      "잠": 1046,
      "잡": 1047,
      "잣": 1048,
      "장": 1049,
      "잦": 1050,
      "재": 1051,
      "잭": 1052,
      "잰": 1053,
      "잼": 1054,
      "잿": 1055,
      "쟁": 1056,
      "쟝": 1057,
      "쟤": 1058,
      "저": 1059,
      "적": 1060,
      "전": 1061,
      "절": 1062,
      "젊": 1063,
      "점": 1064,
      "접": 1065,
      "젓": 1066,
      "정": 1067,
      "젖": 1068,
      "제": 1069,
      "젝": 1070,
      "젠": 1071,
      "젤": 1072,
      "젬": 1073,
      "젯": 1074,
      "져": 1075,
      "젼": 1076,
      "졌": 1077,
      "조": 1078,
      "족": 1079,
      "존": 1080,
      "졸": 1081,
      "좀": 1082,
      "좁": 1083,
      "종": 1084,
      "좇": 1085,
      "좋": 1086,
      "좌": 1087,
      "좡": 1088,
      "죄": 1089,
      "죠": 1090,
      "죤": 1091,
      "주": 1092,
      "죽": 1093,
      "준": 1094,
      "줄": 1095,
      "줌": 1096,
      "줍": 1097,
      "중": 1098,
      "줘": 1099,
      "줬": 1100,
      "쥐": 1101,
      "쥔": 1102,
      "쥘": 1103,
      "쥬": 1104,
      "즈": 1105,
      "즉": 1106,
      "즌": 1107,
      "즐": 1108,
      "즘": 1109,
      "즙": 1110,
      "증": 1111,
      "지": 1112,
      "직": 1113,
      "진": 1114,
      "질": 1115,
      "짊": 1116,
      "짐": 1117,
      "집": 1118,
      "짓": 1119,
      "징": 1120,
      "짖": 1121,
      "짙": 1122,
      "짚": 1123,
      "짜": 1124,
      "짝": 1125,
      "짠": 1126,
      "짤": 1127,
      "짧": 1128,
      "짬": 1129,
      "짭": 1130,
      "짰": 1131,
      "짱": 1132,
      "째": 1133,
      "쨌": 1134,
      "쩌": 1135,
      "쩍": 1136,
      "쩔": 1137,
      "쩡": 1138,
      "쪼": 1139,
      "쪽": 1140,
      "쫄": 1141,
      "쫓": 1142,
      "쭉": 1143,
      "쭐": 1144,
      "쭤": 1145,
      "쯤": 1146,
      "찌": 1147,
      "찍": 1148,
      "찐": 1149,
      "찔": 1150,
      "찜": 1151,
      "찢": 1152,
      "차": 1153,
      "착": 1154,
      "찬": 1155,
      "찮": 1156,
      "찰": 1157,
      "참": 1158,
      "찹": 1159,
      "찻": 1160,
      "찼": 1161,
      "창": 1162,
      "찾": 1163,
      "채": 1164,
      "책": 1165,
      "챌": 1166,
      "챔": 1167,
      "챕": 1168,
      "챗": 1169,
      "챙": 1170,
      "챠": 1171,
      "챤": 1172,
      "처": 1173,
      "척": 1174,
      "천": 1175,
      "철": 1176,
      "첨": 1177,
      "첩": 1178,
      "첫": 1179,
      "청": 1180,
      "체": 1181,
      "첸": 1182,
      "첼": 1183,
      "쳐": 1184,
      "쳤": 1185,
      "초": 1186,
      "촉": 1187,
      "촌": 1188,
      "촘": 1189,
      "촛": 1190,
      "총": 1191,
      "촨": 1192,
      "촬": 1193,
      "촹": 1194,
      "최": 1195,
      "쵸": 1196,
      "추": 1197,
      "축": 1198,
      "춘": 1199,
      "출": 1200,
      "춤": 1201,
      "춧": 1202,
      "충": 1203,
      "춰": 1204,
      "췄": 1205,
      "췌": 1206,
      "취": 1207,
      "췼": 1208,
      "츄": 1209,
      "츠": 1210,
      "측": 1211,
      "츰": 1212,
      "층": 1213,
      "치": 1214,
      "칙": 1215,
      "친": 1216,
      "칠": 1217,
      "침": 1218,
      "칩": 1219,
      "칫": 1220,
      "칭": 1221,
      "카": 1222,
      "칵": 1223,
      "칸": 1224,
      "칼": 1225,
      "캄": 1226,
      "캅": 1227,
      "캉": 1228,
      "캐": 1229,
      "캔": 1230,
      "캘": 1231,
      "캠": 1232,
      "캡": 1233,
      "캥": 1234,
      "캬": 1235,
      "커": 1236,
      "컥": 1237,
      "컨": 1238,
      "컫": 1239,
      "컬": 1240,
      "컴": 1241,
      "컵": 1242,
      "컷": 1243,
      "컸": 1244,
      "케": 1245,
      "켄": 1246,
      "켈": 1247,
      "켐": 1248,
      "켓": 1249,
      "켜": 1250,
      "켠": 1251,
      "켰": 1252,
      "코": 1253,
      "콕": 1254,
      "콘": 1255,
      "콜": 1256,
      "콤": 1257,
      "콥": 1258,
      "콧": 1259,
      "콩": 1260,
      "콰": 1261,
      "콴": 1262,
      "쾌": 1263,
      "쾨": 1264,
      "쿄": 1265,
      "쿠": 1266,
      "쿡": 1267,
      "쿤": 1268,
      "쿨": 1269,
      "쿵": 1270,
      "쿼": 1271,
      "퀀": 1272,
      "퀄": 1273,
      "퀘": 1274,
      "퀴": 1275,
      "퀵": 1276,
      "퀸": 1277,
      "큅": 1278,
      "큐": 1279,
      "큘": 1280,
      "크": 1281,
      "큰": 1282,
      "클": 1283,
      "큼": 1284,
      "큽": 1285,
      "키": 1286,
      "킥": 1287,
      "킨": 1288,
      "킬": 1289,
      "킴": 1290,
      "킵": 1291,
      "킷": 1292,
      "킹": 1293,
      "타": 1294,
      "탁": 1295,
      "탄": 1296,
      "탈": 1297,
      "탐": 1298,
      "탑": 1299,
      "탓": 1300,
      "탔": 1301,
      "탕": 1302,
      "태": 1303,
      "택": 1304,
      "탠": 1305,
      "탤": 1306,
      "탬": 1307,
      "탭": 1308,
      "탰": 1309,
      "탱": 1310,
      "터": 1311,
      "턱": 1312,
      "턴": 1313,
      "털": 1314,
      "텀": 1315,
      "텁": 1316,
      "텃": 1317,
      "텄": 1318,
      "텅": 1319,
      "테": 1320,
      "텍": 1321,
      "텐": 1322,
      "텔": 1323,
      "템": 1324,
      "텝": 1325,
      "텨": 1326,
      "텼": 1327,
      "톈": 1328,
      "토": 1329,
      "톡": 1330,
      "톤": 1331,
      "톨": 1332,
      "톰": 1333,
      "톱": 1334,
      "통": 1335,
      "톺": 1336,
      "퇀": 1337,
      "퇴": 1338,
      "투": 1339,
      "툰": 1340,
      "툴": 1341,
      "툼": 1342,
      "퉁": 1343,
      "퉈": 1344,
      "퉨": 1345,
      "튀": 1346,
      "튄": 1347,
      "튈": 1348,
      "튕": 1349,
      "튜": 1350,
      "튠": 1351,
      "튤": 1352,
      "튬": 1353,
      "트": 1354,
      "특": 1355,
      "튼": 1356,
      "튿": 1357,
      "틀": 1358,
      "틈": 1359,
      "틍": 1360,
      "티": 1361,
      "틱": 1362,
      "틴": 1363,
      "틸": 1364,
      "팀": 1365,
      "팁": 1366,
      "팃": 1367,
      "팅": 1368,
      "파": 1369,
      "팍": 1370,
      "팎": 1371,
      "판": 1372,
      "팔": 1373,
      "팜": 1374,
      "팝": 1375,
      "팟": 1376,
      "팠": 1377,
      "팡": 1378,
      "팥": 1379,
      "패": 1380,
      "팩": 1381,
      "팬": 1382,
      "팰": 1383,
      "팸": 1384,
      "팹": 1385,
      "팻": 1386,
      "팽": 1387,
      "퍈": 1388,
      "퍼": 1389,
      "펀": 1390,
      "펄": 1391,
      "펌": 1392,
      "펍": 1393,
      "펑": 1394,
      "페": 1395,
      "펙": 1396,
      "펜": 1397,
      "펠": 1398,
      "펩": 1399,
      "펫": 1400,
      "펭": 1401,
      "펴": 1402,
      "편": 1403,
      "펼": 1404,
      "폈": 1405,
      "평": 1406,
      "폐": 1407,
      "포": 1408,
      "폭": 1409,
      "폰": 1410,
      "폴": 1411,
      "폼": 1412,
      "퐁": 1413,
      "표": 1414,
      "푸": 1415,
      "푹": 1416,
      "푼": 1417,
      "풀": 1418,
      "품": 1419,
      "풋": 1420,
      "풍": 1421,
      "퓌": 1422,
      "퓨": 1423,
      "퓰": 1424,
      "프": 1425,
      "픈": 1426,
      "플": 1427,
      "픔": 1428,
      "피": 1429,
      "픽": 1430,
      "핀": 1431,
      "필": 1432,
      "핌": 1433,
      "핍": 1434,
      "핏": 1435,
      "핑": 1436,
      "하": 1437,
      "학": 1438,
      "한": 1439,
      "할": 1440,
      "함": 1441,
      "합": 1442,
      "핫": 1443,
      "항": 1444,
      "해": 1445,
      "핵": 1446,
      "핸": 1447,
      "햄": 1448,
      "햇": 1449,
      "했": 1450,
      "행": 1451,
      "햐": 1452,
      "향": 1453,
      "허": 1454,
      "헌": 1455,
      "헐": 1456,
      "험": 1457,
      "헙": 1458,
      "헛": 1459,
      "헝": 1460,
      "헤": 1461,
      "헥": 1462,
      "헨": 1463,
      "헬": 1464,
      "헷": 1465,
      "헹": 1466,
      "혀": 1467,
      "혁": 1468,
      "현": 1469,
      "혈": 1470,
      "혐": 1471,
      "협": 1472,
      "혔": 1473,
      "형": 1474,
      "혜": 1475,
      "호": 1476,
      "혹": 1477,
      "혼": 1478,
      "홀": 1479,
      "홈": 1480,
      "홉": 1481,
      "홋": 1482,
      "홍": 1483,
      "화": 1484,
      "확": 1485,
      "환": 1486,
      "활": 1487,
      "황": 1488,
      "회": 1489,
      "획": 1490,
      "횟": 1491,
      "횡": 1492,
      "효": 1493,
      "후": 1494,
      "훈": 1495,
      "훌": 1496,
      "훑": 1497,
      "훔": 1498,
      "훗": 1499,
      "훙": 1500,
      "훨": 1501,
      "훼": 1502,
      "휘": 1503,
      "휠": 1504,
      "휩": 1505,
      "휴": 1506,
      "흉": 1507,
      "흐": 1508,
      "흑": 1509,
      "흔": 1510,
      "흘": 1511,
      "흙": 1512,
      "흠": 1513,
      "흡": 1514,
      "흥": 1515,
      "흩": 1516,
      "희": 1517,
      "흰": 1518,
      "히": 1519,
      "힌": 1520,
      "힐": 1521,
      "힘": 1522,
      "힙": 1523,
      "으로": 1524,
      "했다": 1525,
      "에서": 1526,
      "있다": 1527,
      "하는": 1528,
      "이다": 1529,
      "하고": 1530,
      "20": 1531,
      "00": 1532,
      "한다": 1533,
      "지난": 1534,
      "기업": 1535,
      "니다": 1536,
      "사업": 1537,
      "시장": 1538,
      "있는": 1539,
      "이라": 1540,
      "까지": 1541,
      "서울": 1542,
      "기술": 1543,
      "투자": 1544,
      "면서": 1545,
      "부터": 1546,
      "것으로": 1547,
      "한국": 1548,
      "금융": 1549,
      "습니다": 1550,
      "제공": 1551,
      "적으로": 1552,
      "비스": 1553,
      "통해": 1554,
      "10": 1555,
      "밝혔": 1556,
      "개발": 1557,
      "정부": 1558,
      "서비스": 1559,
      "가격": 1560,
      "대한": 1561,
      "된다": 1562,
      "위해": 1563,
      "밝혔다": 1564,
      "연구": 1565,
      "적인": 1566,
      "19": 1567,
      "가능": 1568,
      "보다": 1569,
      "하기": 1570,
      "억원": 1571,
      "지원": 1572,
      "국내": 1573,
      "들이": 1574,
      "됐다": 1575,
      "기자": 1576,
      "지만": 1577,
      "경제": 1578,
      "상승": 1579,
      "30": 1580,
      "이어": 1581,
      "올해": 1582,
      "산업": 1583,
      "말했다": 1584,
      "거래": 1585,
      "미국": 1586,
      "고객": 1587,
      "이번": 1588,
      "진행": 1589,
      "이라고": 1590,
      "글로": 1591,
      "전자": 1592,
      "에는": 1593,
      "글로벌": 1594,
      "정보": 1595,
      "202": 1596,
      "위한": 1597,
      "데이": 1598,
      "시스": 1599,
      "뉴스": 1600,
      "반기": 1601,
      "대표": 1602,
      "되는": 1603,
      "제품": 1604,
      "공급": 1605,
      "판매": 1606,
      "었다": 1607,
      "이상": 1608,
      "장은": 1609,
      "이후": 1610,
      "금리": 1611,
      "기준": 1612,
      "달러": 1613,
      "사진": 1614,
      "은행": 1615,
      "계획": 1616,
      "지난해": 1617,
      "등을": 1618,
      "성장": 1619,
      "레이": 1620,
      "라이": 1621,
      "관계": 1622,
      "대비": 1623,
      "환경": 1624,
      "1일": 1625,
      "최근": 1626,
      "에게": 1627,
      "르면": 1628,
      "관련": 1629,
      "겠다": 1630,
      "이용": 1631,
      "전망": 1632,
      "000": 1633,
      "상품": 1634,
      "자는": 1635,
      "하게": 1636,
      "관리": 1637,
      "상황": 1638,
      "물가": 1639,
      "도록": 1640,
      "프로": 1641,
      "하다": 1642,
      "세계": 1643,
      "너지": 1644,
      "하락": 1645,
      "따르면": 1646,
      "확대": 1647,
      "지역": 1648,
      "예정": 1649,
      "시간": 1650,
      "삼성": 1651,
      "데이터": 1652,
      "LG": 1653,
      "다양": 1654,
      "함께": 1655,
      "같은": 1656,
      "대상": 1657,
      "증가": 1658,
      "활용": 1659,
      "소비": 1660,
      "5일": 1661,
      "마트": 1662,
      "에너지": 1663,
      "에도": 1664,
      "경우": 1665,
      "하며": 1666,
      "4일": 1667,
      "경영": 1668,
      "경기": 1669,
      "분기": 1670,
      "기관": 1671,
      "사용": 1672,
      "증권": 1673,
      "우리": 1674,
      "다양한": 1675,
      "업계": 1676,
      "규모": 1677,
      "수출": 1678,
      "기록": 1679,
      "들의": 1680,
      "그룹": 1681,
      "최대": 1682,
      "따라": 1683,
      "스트": 1684,
      "전문": 1685,
      "운영": 1686,
      "위원": 1687,
      "디지": 1688,
      "정책": 1689,
      "12": 1690,
      "중국": 1691,
      "지속": 1692,
      "50": 1693,
      "만원": 1694,
      "성이": 1695,
      "성을": 1696,
      "바이": 1697,
      "회사": 1698,
      "디지털": 1699,
      "통신": 1700,
      "설명": 1701,
      "게임": 1702,
      "지난달": 1703,
      "11": 1704,
      "6월": 1705,
      "가장": 1706,
      "SK": 1707,
      "들은": 1708,
      "생산": 1709,
      "때문": 1710,
      "주택": 1711,
      "랜드": 1712,
      "대해": 1713,
      "대출": 1714,
      "평가": 1715,
      "들어": 1716,
      "력을": 1717,
      "수요": 1718,
      "반도": 1719,
      "로나": 1720,
      "에서는": 1721,
      "라인": 1722,
      "필요": 1723,
      "규제": 1724,
      "랫폼": 1725,
      "플랫폼": 1726,
      "분야": 1727,
      "기간": 1728,
      "안전": 1729,
      "반도체": 1730,
      "자산": 1731,
      "경쟁": 1732,
      "졌다": 1733,
      "코로나": 1734,
      "수준": 1735,
      "했다고": 1736,
      "인상": 1737,
      "연합": 1738,
      "현재": 1739,
      "았다": 1740,
      "오는": 1741,
      "하면": 1742,
      "주요": 1743,
      "되고": 1744,
      "이날": 1745,
      "전력": 1746,
      "현대": 1747,
      "특히": 1748,
      "으며": 1749,
      "발표": 1750,
      "100": 1751,
      "출시": 1752,
      "이는": 1753,
      "시스템": 1754,
      "13": 1755,
      "전기": 1756,
      "국제": 1757,
      "15": 1758,
      "있도록": 1759,
      "소비자": 1760,
      "수는": 1761,
      "2022": 1762,
      "회장": 1763,
      "센터": 1764,
      "하지": 1765,
      "해외": 1766,
      "매출": 1767,
      "40": 1768,
      "AI": 1769,
      "시아": 1770,
      "분석": 1771,
      "플레이": 1772,
      "업체": 1773,
      "최고": 1774,
      "개선": 1775,
      "시작": 1776,
      "카카": 1777,
      "관계자는": 1778,
      "참여": 1779,
      "하겠다": 1780,
      "전략": 1781,
      "사회": 1782,
      "아이": 1783,
      "기대": 1784,
      "예상": 1785,
      "추가": 1786,
      "구축": 1787,
      "개월": 1788,
      "하면서": 1789,
      "보험": 1790,
      "적용": 1791,
      "카카오": 1792,
      "였다": 1793,
      "보고": 1794,
      "강화": 1795,
      "추진": 1796,
      "해야": 1797,
      "자동": 1798,
      "스타": 1799,
      "것이": 1800,
      "실적": 1801,
      "상반기": 1802,
      "1년": 1803,
      "입니다": 1804,
      "5월": 1805,
      "우려": 1806,
      "러스": 1807,
      "항공": 1808,
      "나타": 1809,
      "중소": 1810,
      "파트": 1811,
      "개인": 1812,
      "리는": 1813,
      "회의": 1814,
      "건설": 1815,
      "스마트": 1816,
      "지는": 1817,
      "일본": 1818,
      "결과": 1819,
      "기반": 1820,
      "기존": 1821,
      "높은": 1822,
      "기를": 1823,
      "장을": 1824,
      "협력": 1825,
      "예정이다": 1826,
      "롯데": 1827,
      "사를": 1828,
      "주가": 1829,
      "문제": 1830,
      "코로나19": 1831,
      "대로": 1832,
      "주식": 1833,
      "결제": 1834,
      "하반기": 1835,
      "18": 1836,
      "연합뉴스": 1837,
      "만에": 1838,
      "성과": 1839,
      "코스": 1840,
      "14": 1841,
      "영향": 1842,
      "세대": 1843,
      "연구원": 1844,
      "부담": 1845,
      "사이": 1846,
      "장관": 1847,
      "7월": 1848,
      "혁신": 1849,
      "직원": 1850,
      "6일": 1851,
      "영상": 1852,
      "이를": 1853,
      "삼성전자": 1854,
      "브랜드": 1855,
      "치를": 1856,
      "자가": 1857,
      "가운": 1858,
      "아니": 1859,
      "지고": 1860,
      "하나": 1861,
      "국가": 1862,
      "200": 1863,
      "안정": 1864,
      "가운데": 1865,
      "했습니다": 1866,
      "계획이다": 1867,
      "감소": 1868,
      "발생": 1869,
      "페이": 1870,
      "전환": 1871,
      "지를": 1872,
      "확보": 1873,
      "등의": 1874,
      "다는": 1875,
      "등이": 1876,
      "마련": 1877,
      "뉴시스": 1878,
      "인트": 1879,
      "60": 1880,
      "대학": 1881,
      "과학": 1882,
      "17": 1883,
      "라고": 1884,
      "만큼": 1885,
      "업무": 1886,
      "있어": 1887,
      "로운": 1888,
      "동안": 1889,
      "유지": 1890,
      "화를": 1891,
      "위기": 1892,
      "한다고": 1893,
      "들을": 1894,
      "영업": 1895,
      "이에": 1896,
      "발전": 1897,
      "포인트": 1898,
      "설명했다": 1899,
      "이나": 1900,
      "조사": 1901,
      "3일": 1902,
      "교육": 1903,
      "보인": 1904,
      "선정": 1905,
      "콘텐": 1906,
      "확인": 1907,
      "이라며": 1908,
      "목표": 1909,
      "서비스를": 1910,
      "는데": 1911,
      "부산": 1912,
      "활동": 1913,
      "것이다": 1914,
      "대응": 1915,
      "벤트": 1916,
      "이벤트": 1917,
      "있다는": 1918,
      "많은": 1919,
      "미래": 1920,
      "적극": 1921,
      "중심": 1922,
      "카드": 1923,
      "평균": 1924,
      "내용": 1925,
      "이미": 1926,
      "24": 1927,
      "모두": 1928,
      "세를": 1929,
      "신규": 1930,
      "떨어": 1931,
      "앞으로": 1932,
      "뉴스1": 1933,
      "KT": 1934,
      "위원회": 1935,
      "16": 1936,
      "공동": 1937,
      "모델": 1938,
      "서는": 1939,
      "25": 1940,
      "수익": 1941,
      "이고": 1942,
      "해당": 1943,
      "보유": 1944,
      "신한": 1945,
      "콘텐츠": 1946,
      "다른": 1947,
      "20년": 1948,
      "이라는": 1949,
      "방안": 1950,
      "제도": 1951,
      "포함": 1952,
      "방식": 1953,
      "부는": 1954,
      "그램": 1955,
      "29": 1956,
      "라는": 1957,
      "라우": 1958,
      "강조": 1959,
      "비율": 1960,
      "결정": 1961,
      "과정": 1962,
      "등에": 1963,
      "부문": 1964,
      "침체": 1965,
      "도로": 1966,
      "운용": 1967,
      "계약": 1968,
      "사는": 1969,
      "이익": 1970,
      "시행": 1971,
      "처음": 1972,
      "공개": 1973,
      "점을": 1974,
      "가치": 1975,
      "구매": 1976,
      "전체": 1977,
      "바이오": 1978,
      "신청": 1979,
      "자동차": 1980,
      "새로운": 1981,
      "점검": 1982,
      "에서도": 1983,
      "늘어": 1984,
      "식품": 1985,
      "80": 1986,
      "따른": 1987,
      "조정": 1988,
      "것은": 1989,
      "리아": 1990,
      "기획": 1991,
      "조원": 1992,
      "때문에": 1993,
      "3년": 1994,
      "구성": 1995,
      "자리": 1996,
      "2020년": 1997,
      "메타": 1998,
      "하이": 1999,
      "라우드": 2000,
      "교수": 2001,
      "애플": 2002,
      "22": 2003,
      "각각": 2004,
      "다고": 2005,
      "플러스": 2006,
      "러시아": 2007,
      "전국": 2008,
      "대상으로": 2009,
      "공공": 2010,
      "성공": 2011,
      "수도": 2012,
      "오후": 2013,
      "자체": 2014,
      "클라우드": 2015,
      "한편": 2016,
      "비용": 2017,
      "우주": 2018,
      "하지만": 2019,
      "도입": 2020,
      "ES": 2021,
      "어려": 2022,
      "자의": 2023,
      "가입": 2024,
      "현장": 2025,
      "반영": 2026,
      "루션": 2027,
      "부분": 2028,
      "오전": 2029,
      "사업을": 2030,
      "열린": 2031,
      "차량": 2032,
      "2분기": 2033,
      "무역": 2034,
      "아파트": 2035,
      "여름": 2036,
      "현지": 2037,
      "70": 2038,
      "네이": 2039,
      "온라인": 2040,
      "유럽": 2041,
      "국민": 2042,
      "나라": 2043,
      "수입": 2044,
      "한다는": 2045,
      "솔루션": 2046,
      "났다": 2047,
      "리스": 2048,
      "비중": 2049,
      "가지": 2050,
      "방향": 2051,
      "버스": 2052,
      "전년": 2053,
      "등으로": 2054,
      "소재": 2055,
      "자를": 2056,
      "코스피": 2057,
      "개최": 2058,
      "사의": 2059,
      "아니라": 2060,
      "가상": 2061,
      "제작": 2062,
      "중소기업": 2063,
      "1만": 2064,
      "없이": 2065,
      "제로": 2066,
      "기능": 2067,
      "사고": 2068,
      "있다고": 2069,
      "보인다": 2070,
      "교통": 2071,
      "장이": 2072,
      "직접": 2073,
      "관심": 2074,
      "보호": 2075,
      "지수": 2076,
      "비롯": 2077,
      "부동": 2078,
      "유가": 2079,
      "있습니다": 2080,
      "리고": 2081,
      "마이": 2082,
      "이션": 2083,
      "프로그램": 2084,
      "27": 2085,
      "그러": 2086,
      "대형": 2087,
      "들과": 2088,
      "법인": 2089,
      "30일": 2090,
      "공정": 2091,
      "구글": 2092,
      "단계": 2093,
      "향후": 2094,
      "단지": 2095,
      "상을": 2096,
      "생각": 2097,
      "왔다": 2098,
      "핵심": 2099,
      "효과": 2100,
      "요금": 2101,
      "일리": 2102,
      "회장은": 2103,
      "기에": 2104,
      "여러": 2105,
      "원자": 2106,
      "할인": 2107,
      "준비": 2108,
      "중요": 2109,
      "플레이션": 2110,
      "도를": 2111,
      "암호": 2112,
      "전시": 2113,
      "8월": 2114,
      "들에게": 2115,
      "더욱": 2116,
      "본격": 2117,
      "자금": 2118,
      "네이버": 2119,
      "부동산": 2120,
      "수상": 2121,
      "크게": 2122,
      "탄소": 2123,
      "5년": 2124,
      "이동": 2125,
      "증시": 2126,
      "23": 2127,
      "그는": 2128,
      "역시": 2129,
      "본부": 2130,
      "생활": 2131,
      "인터": 2132,
      "행사": 2133,
      "외환": 2134,
      "가스": 2135,
      "세가": 2136,
      "자원": 2137,
      "기술을": 2138,
      "2년": 2139,
      "구조": 2140,
      "니스": 2141,
      "오른": 2142,
      "가는": 2143,
      "사람": 2144,
      "완화": 2145,
      "시장에서": 2146,
      "도가": 2147,
      "앞서": 2148,
      "유통": 2149,
      "진단": 2150,
      "참석": 2151,
      "체결": 2152,
      "판단": 2153,
      "했고": 2154,
      "거나": 2155,
      "인하": 2156,
      "주는": 2157,
      "00원": 2158,
      "공급망": 2159,
      "일반": 2160,
      "정부는": 2161,
      "28": 2162,
      "건강": 2163,
      "장기": 2164,
      "치료": 2165,
      "없는": 2166,
      "가능성이": 2167,
      "최초": 2168,
      "협약": 2169,
      "4월": 2170,
      "데일리": 2171,
      "정부가": 2172,
      "DB": 2173,
      "ne": 2174,
      "시설": 2175,
      "가격이": 2176,
      "또한": 2177,
      "스는": 2178,
      "스토": 2179,
      "위성": 2180,
      "가를": 2181,
      "모습": 2182,
      "수학": 2183,
      "집중": 2184,
      "환율": 2185,
      "코인": 2186,
      "co": 2187,
      "방문": 2188,
      "상태": 2189,
      "쇼핑": 2190,
      "진출": 2191,
      "전기차": 2192,
      "ESG": 2193,
      "계속": 2194,
      "이달": 2195,
      "이런": 2196,
      "친환경": 2197,
      "TV": 2198,
      "고려": 2199,
      "공간": 2200,
      "기가": 2201,
      "매매": 2202,
      "인수": 2203,
      "장비": 2204,
      "변동": 2205,
      "공사": 2206,
      "기념": 2207,
      "있을": 2208,
      "코리아": 2209,
      "기업의": 2210,
      "가능한": 2211,
      "현대차": 2212,
      "번째": 2213,
      "양자": 2214,
      "조치": 2215,
      "수요가": 2216,
      "역할": 2217,
      "특별": 2218,
      "경험": 2219,
      "노력": 2220,
      "지금": 2221,
      "필요한": 2222,
      "도시": 2223,
      "라이나": 2224,
      "신용": 2225,
      "원전": 2226,
      "일부": 2227,
      "당시": 2228,
      "선택": 2229,
      "전용": 2230,
      "가구": 2231,
      "알려": 2232,
      "금지": 2233,
      "회를": 2234,
      "모든": 2235,
      "프트": 2236,
      "혜택": 2237,
      "별로": 2238,
      "올랐": 2239,
      "제조": 2240,
      "90": 2241,
      "것을": 2242,
      "다시": 2243,
      "우크": 2244,
      "위를": 2245,
      "KB": 2246,
      "논의": 2247,
      "량을": 2248,
      "연금": 2249,
      "중앙": 2250,
      "사실": 2251,
      "변화": 2252,
      "상담": 2253,
      "설립": 2254,
      "인플레이션": 2255,
      "자인": 2256,
      "책임": 2257,
      "총리": 2258,
      "강조했다": 2259,
      "보면": 2260,
      "협회": 2261,
      "프로젝": 2262,
      "우크라이나": 2263,
      "er": 2264,
      "없다": 2265,
      "유플러스": 2266,
      "중이다": 2267,
      "체계": 2268,
      "프리": 2269,
      "대표는": 2270,
      "IT": 2271,
      "나온": 2272,
      "많이": 2273,
      "모바": 2274,
      "블록": 2275,
      "상장": 2276,
      "외국": 2277,
      "이뤄": 2278,
      "창업": 2279,
      "프로젝트": 2280,
      "모바일": 2281,
      "5G": 2282,
      "받은": 2283,
      "액은": 2284,
      "2019": 2285,
      "다만": 2286,
      "운송": 2287,
      "위험": 2288,
      "지적": 2289,
      "테크": 2290,
      "시장에": 2291,
      "과제": 2292,
      "연속": 2293,
      "제한": 2294,
      "주파": 2295,
      "LG유플러스": 2296,
      "않는": 2297,
      "이드": 2298,
      "체인": 2299,
      "가능하다": 2300,
      "전문가": 2301,
      "3월": 2302,
      "500": 2303,
      "국토": 2304,
      "노동": 2305,
      "높아": 2306,
      "되면서": 2307,
      "작년": 2308,
      "하기로": 2309,
      "때문이다": 2310,
      "선보": 2311,
      "수급": 2312,
      "기록했다": 2313,
      "FT": 2314,
      "오르": 2315,
      "의미": 2316,
      "중인": 2317,
      "처럼": 2318,
      "텔레": 2319,
      "우리나라": 2320,
      "이유": 2321,
      "해서": 2322,
      "LG전자": 2323,
      "나타났다": 2324,
      "의견": 2325,
      "메타버스": 2326,
      "비즈": 2327,
      "전했다": 2328,
      "통계": 2329,
      "력이": 2330,
      "받아": 2331,
      "사가": 2332,
      "요구": 2333,
      "차지": 2334,
      "2019년": 2335,
      "주파수": 2336,
      "물류": 2337,
      "수행": 2338,
      "인공": 2339,
      "종목": 2340,
      "거리": 2341,
      "수주": 2342,
      "이하": 2343,
      "제시": 2344,
      "통상": 2345,
      "상승률": 2346,
      "동시": 2347,
      "르게": 2348,
      "조직": 2349,
      "터리": 2350,
      "한화": 2351,
      "과학기술": 2352,
      "연결": 2353,
      "이전": 2354,
      "충전": 2355,
      "할당": 2356,
      "is": 2357,
      "대를": 2358,
      "받을": 2359,
      "정보를": 2360,
      "연구원은": 2361,
      "CE": 2362,
      "고용": 2363,
      "기는": 2364,
      "대전": 2365,
      "위치": 2366,
      "인정": 2367,
      "재생": 2368,
      "영향을": 2369,
      "검토": 2370,
      "담보": 2371,
      "원을": 2372,
      "인증": 2373,
      "있게": 2374,
      "공식": 2375,
      "두고": 2376,
      "마켓": 2377,
      "부가": 2378,
      "설계": 2379,
      "실제": 2380,
      "영국": 2381,
      "워크": 2382,
      "최저": 2383,
      "로봇": 2384,
      "배터리": 2385,
      "웨어": 2386,
      "담당": 2387,
      "오프": 2388,
      "프라": 2389,
      "매수": 2390,
      "않고": 2391,
      "이며": 2392,
      "이었다": 2393,
      "품질": 2394,
      "35": 2395,
      "그래": 2396,
      "자료": 2397,
      "지구": 2398,
      "억원으로": 2399,
      "데이터를": 2400,
      "또는": 2401,
      "원에": 2402,
      "종합": 2403,
      "스코": 2404,
      "역대": 2405,
      "측은": 2406,
      "확산": 2407,
      "1조": 2408,
      "문화": 2409,
      "조합": 2410,
      "품목": 2411,
      "NFT": 2412,
      "넘어": 2413,
      "량이": 2414,
      "사장": 2415,
      "주의": 2416,
      "통한": 2417,
      "파이": 2418,
      "26": 2419,
      "기도": 2420,
      "사례": 2421,
      "펀드": 2422,
      "합니다": 2423,
      "간담": 2424,
      "공유": 2425,
      "내년": 2426,
      "네트": 2427,
      "방침": 2428,
      "스포": 2429,
      "인천": 2430,
      "투자자": 2431,
      "2022년": 2432,
      "중심으로": 2433,
      "IS": 2434,
      "in": 2435,
      "ws": 2436,
      "교수는": 2437,
      "금을": 2438,
      "지정": 2439,
      "치는": 2440,
      "했던": 2441,
      "정부의": 2442,
      "광고": 2443,
      "렸다": 2444,
      "소프트": 2445,
      "원은": 2446,
      "마케": 2447,
      "비교": 2448,
      "으나": 2449,
      "큐브": 2450,
      "편의": 2451,
      "화폐": 2452,
      "이용자": 2453,
      "명이": 2454,
      "사전": 2455,
      "에선": 2456,
      "오픈": 2457,
      "지수는": 2458,
      "37": 2459,
      "공장": 2460,
      "기로": 2461,
      "정도": 2462,
      "통령": 2463,
      "하여": 2464,
      "텔레콤": 2465,
      "대통령": 2466,
      "원이": 2467,
      "원자재": 2468,
      "물론": 2469,
      "효율": 2470,
      "제공한다": 2471,
      "거래소": 2472,
      "정보통신": 2473,
      "SK텔레콤": 2474,
      "비즈니스": 2475,
      "디어": 2476,
      "분양": 2477,
      "전쟁": 2478,
      "확장": 2479,
      "기업이": 2480,
      "마케팅": 2481,
      "9월": 2482,
      "on": 2483,
      "보안": 2484,
      "원으로": 2485,
      "있고": 2486,
      "쳤다": 2487,
      "라이브": 2488,
      "8년": 2489,
      "근로": 2490,
      "드는": 2491,
      "라며": 2492,
      "부품": 2493,
      "소득": 2494,
      "실시": 2495,
      "테이": 2496,
      "가능성": 2497,
      "당국": 2498,
      "민간": 2499,
      "부채": 2500,
      "지급": 2501,
      "사업자": 2502,
      "제공하는": 2503,
      "상품을": 2504,
      "보고서": 2505,
      "파트너": 2506,
      "입장": 2507,
      "있으며": 2508,
      "자율": 2509,
      "조성": 2510,
      "주도": 2511,
      "통합": 2512,
      "나온다": 2513,
      "디자인": 2514,
      "반면": 2515,
      "방송": 2516,
      "표준": 2517,
      "가격은": 2518,
      "21": 2519,
      "다음": 2520,
      "되면": 2521,
      "만들": 2522,
      "반대": 2523,
      "업을": 2524,
      "우수": 2525,
      "원유": 2526,
      "명을": 2527,
      "되며": 2528,
      "바탕": 2529,
      "기여": 2530,
      "의료": 2531,
      "제품을": 2532,
      "1분기": 2533,
      "7일": 2534,
      "여전": 2535,
      "재무": 2536,
      "채널": 2537,
      "케이": 2538,
      "석유": 2539,
      "스를": 2540,
      "오늘": 2541,
      "참가": 2542,
      "스타트": 2543,
      "en": 2544,
      "거래일": 2545,
      "2021년": 2546,
      "ET": 2547,
      "누리": 2548,
      "받고": 2549,
      "설치": 2550,
      "세종": 2551,
      "원의": 2552,
      "줄어": 2553,
      "케어": 2554,
      "화된": 2555,
      "11월": 2556,
      "스마트폰": 2557,
      "과기": 2558,
      "피해": 2559,
      "시장의": 2560,
      "스토어": 2561,
      "바탕으로": 2562,
      "받는": 2563,
      "부회장": 2564,
      "비트": 2565,
      "생태": 2566,
      "억달러": 2567,
      "촬영": 2568,
      "했지만": 2569,
      "등급": 2570,
      "사와": 2571,
      "인력": 2572,
      "임상": 2573,
      "지능": 2574,
      "청년": 2575,
      "나갈": 2576,
      "되지": 2577,
      "레미": 2578,
      "에어": 2579,
      "우선": 2580,
      "이자": 2581,
      "호텔": 2582,
      "회복": 2583,
      "10년": 2584,
      "com": 2585,
      "1000": 2586,
      "2만": 2587,
      "300": 2588,
      "노조": 2589,
      "않은": 2590,
      "원에서": 2591,
      "작품": 2592,
      "취약": 2593,
      "우려가": 2594,
      "역할을": 2595,
      "레미콘": 2596,
      "5000": 2597,
      "집계": 2598,
      "둔화": 2599,
      "변경": 2600,
      "선을": 2601,
      "인한": 2602,
      "전달": 2603,
      "제약": 2604,
      "77": 2605,
      "GS": 2606,
      "물을": 2607,
      "벤처": 2608,
      "소개": 2609,
      "인프라": 2610,
      "주목": 2611,
      "청약": 2612,
      "동기": 2613,
      "마감": 2614,
      "설비": 2615,
      "임직원": 2616,
      "활성": 2617,
      "투자증권": 2618,
      "방안을": 2619,
      "베이": 2620,
      "성능": 2621,
      "올라": 2622,
      "정상": 2623,
      "주거": 2624,
      "지가": 2625,
      "지분": 2626,
      "시장을": 2627,
      "전망이다": 2628,
      "규모의": 2629,
      "대책": 2630,
      "리를": 2631,
      "상공": 2632,
      "지하": 2633,
      "CEO": 2634,
      "1월": 2635,
      "38": 2636,
      "IP": 2637,
      "수수": 2638,
      "업종": 2639,
      "임대": 2640,
      "중립": 2641,
      "상황을": 2642,
      "활용해": 2643,
      "외국인": 2644,
      "재생에너지": 2645,
      "네트워크": 2646,
      "스타트업": 2647,
      "료를": 2648,
      "사장은": 2649,
      "여부": 2650,
      "이노": 2651,
      "지도": 2652,
      "영업이익": 2653,
      "4년": 2654,
      "CJ": 2655,
      "매도": 2656,
      "명의": 2657,
      "으면": 2658,
      "정비": 2659,
      "출범": 2660,
      "news": 2661,
      "간담회": 2662,
      "등록": 2663,
      "매장": 2664,
      "받았다": 2665,
      "유치": 2666,
      "인재": 2667,
      "중단": 2668,
      "화학": 2669,
      "기준으로": 2670,
      "리스크": 2671,
      "newsis": 2672,
      "개정": 2673,
      "보장": 2674,
      "위는": 2675,
      "있지만": 2676,
      "철도": 2677,
      "통화": 2678,
      "나가": 2679,
      "복합": 2680,
      "움을": 2681,
      "주행": 2682,
      "프리미": 2683,
      "이해": 2684,
      "찾아": 2685,
      "협의": 2686,
      "인터넷": 2687,
      "먼트": 2688,
      "밖에": 2689,
      "분의": 2690,
      "수소": 2691,
      "연구소": 2692,
      "소비자물가": 2693,
      "내려": 2694,
      "달성": 2695,
      "대부분": 2696,
      "디오": 2697,
      "뱅크": 2698,
      "빠르게": 2699,
      "스크": 2700,
      "요인": 2701,
      "중구": 2702,
      "퇴직": 2703,
      "투자를": 2704,
      "기반으로": 2705,
      "비롯해": 2706,
      "가까": 2707,
      "먼저": 2708,
      "방법": 2709,
      "비전": 2710,
      "사항": 2711,
      "아시아": 2712,
      "점에서": 2713,
      "진다": 2714,
      "플라": 2715,
      "진행한다": 2716,
      "블록체인": 2717,
      "45": 2718,
      "구체": 2719,
      "만나": 2720,
      "만들어": 2721,
      "비상": 2722,
      "여행": 2723,
      "제를": 2724,
      "앞으로도": 2725,
      "배송": 2726,
      "수가": 2727,
      "아직": 2728,
      "이기": 2729,
      "해결": 2730,
      "했으며": 2731,
      "199": 2732,
      "8일": 2733,
      "DI": 2734,
      "at": 2735,
      "같이": 2736,
      "레드": 2737,
      "보를": 2738,
      "소통": 2739,
      "예측": 2740,
      "요청": 2741,
      "이와": 2742,
      "인사": 2743,
      "정통": 2744,
      "지면서": 2745,
      "포트": 2746,
      "동시에": 2747,
      "생태계": 2748,
      "2차": 2749,
      "ar": 2750,
      "가계": 2751,
      "기사": 2752,
      "보건": 2753,
      "시대": 2754,
      "있었다": 2755,
      "2030": 2756,
      "42": 2757,
      "검증": 2758,
      "그런": 2759,
      "기본": 2760,
      "량은": 2761,
      "쌍용": 2762,
      "근무": 2763,
      "금액": 2764,
      "내부": 2765,
      "자로": 2766,
      "주로": 2767,
      "차별": 2768,
      "인공지능": 2769,
      "..": 2770,
      "36": 2771,
      "단체": 2772,
      "보증": 2773,
      "식을": 2774,
      "의무": 2775,
      "이데일리": 2776,
      "학교": 2777,
      "현실": 2778,
      "억원을": 2779,
      "올랐다": 2780,
      "프리미엄": 2781,
      "to": 2782,
      "공모": 2783,
      "끌어": 2784,
      "됩니다": 2785,
      "리티": 2786,
      "발사": 2787,
      "점유": 2788,
      "조건": 2789,
      "가격을": 2790,
      "수도권": 2791,
      "그러나": 2792,
      "감독": 2793,
      "강남": 2794,
      "약품": 2795,
      "왼쪽": 2796,
      "전반": 2797,
      "산업통상": 2798,
      "경쟁력": 2799,
      "관측": 2800,
      "기다": 2801,
      "나선": 2802,
      "냈다": 2803,
      "덧붙": 2804,
      "보는": 2805,
      "차를": 2806,
      "채권": 2807,
      "형태": 2808,
      "필요하다": 2809,
      "페이지": 2810,
      "매각": 2811,
      "수를": 2812,
      "인해": 2813,
      "재정": 2814,
      "획득": 2815,
      "활용한": 2816,
      "최초로": 2817,
      "산업통상자원": 2818,
      "33": 2819,
      "거쳐": 2820,
      "급등": 2821,
      "섰다": 2822,
      "소유": 2823,
      "인을": 2824,
      "주년": 2825,
      "점유율": 2826,
      "lo": 2827,
      "들도": 2828,
      "마다": 2829,
      "비해": 2830,
      "스로": 2831,
      "윤석": 2832,
      "이마트": 2833,
      "폭이": 2834,
      "하루": 2835,
      "서울대": 2836,
      "경쟁력을": 2837,
      "페이스": 2838,
      "현지시간": 2839,
      "과기정통": 2840,
      "3000": 2841,
      "75": 2842,
      "al": 2843,
      "ho": 2844,
      "감을": 2845,
      "대역": 2846,
      "어렵": 2847,
      "작가": 2848,
      "총괄": 2849,
      "학생": 2850,
      "확실": 2851,
      "시장이": 2852,
      "바이러스": 2853,
      "오프라인": 2854,
      "an": 2855,
      "대회": 2856,
      "리오": 2857,
      "사에서": 2858,
      "시키": 2859,
      "연간": 2860,
      "전날": 2861,
      "최종": 2862,
      "증가했다": 2863,
      "2일": 2864,
      "나서": 2865,
      "리지": 2866,
      "만달러": 2867,
      "맞춤": 2868,
      "재고": 2869,
      "점이": 2870,
      "주유": 2871,
      "해도": 2872,
      "해양": 2873,
      "기업들이": 2874,
      "사회적": 2875,
      "비트코인": 2876,
      "2월": 2877,
      "39": 2878,
      "IC": 2879,
      "라도": 2880,
      "맞춰": 2881,
      "상당": 2882,
      "선도": 2883,
      "의약품": 2884,
      "재해": 2885,
      "포스코": 2886,
      "10월": 2887,
      "업계에": 2888,
      "수익률": 2889,
      "가상자산": 2890,
      "덧붙였다": 2891,
      "급증": 2892,
      "독자": 2893,
      "었던": 2894,
      "제고": 2895,
      "현황": 2896,
      "있는데": 2897,
      "48": 2898,
      "계좌": 2899,
      "신설": 2900,
      "움이": 2901,
      "최소": 2902,
      "2018": 2903,
      "금리를": 2904,
      "활동을": 2905,
      "이미지": 2906,
      "방침이다": 2907,
      "PC": 2908,
      "각종": 2909,
      "농업": 2910,
      "상환": 2911,
      "제외": 2912,
      "암호화폐": 2913,
      "윤석열": 2914,
      "가동": 2915,
      "것도": 2916,
      "공시": 2917,
      "렇게": 2918,
      "매입": 2919,
      "처리": 2920,
      "헬스": 2921,
      "증가한": 2922,
      "고도": 2923,
      "보내": 2924,
      "악화": 2925,
      "유류": 2926,
      "이상의": 2927,
      "상황이": 2928,
      "주가가": 2929,
      "코스닥": 2930,
      "57": 2931,
      "감염": 2932,
      "개의": 2933,
      "골프": 2934,
      "그린": 2935,
      "내린": 2936,
      "누적": 2937,
      "뛰어": 2938,
      "부족": 2939,
      "부회장은": 2940,
      "희망": 2941,
      "하는데": 2942,
      "늘어난": 2943,
      "기획재": 2944,
      "주유소": 2945,
      "2018년": 2946,
      "34": 2947,
      "것이라는": 2948,
      "대체": 2949,
      "동물": 2950,
      "실시간": 2951,
      "재판매": 2952,
      "과정에서": 2953,
      "1천": 2954,
      "49": 2955,
      "대면": 2956,
      "모니": 2957,
      "미만": 2958,
      "미디어": 2959,
      "배출": 2960,
      "원장": 2961,
      "이름": 2962,
      "일정": 2963,
      "임금": 2964,
      "조달": 2965,
      "하우": 2966,
      "협업": 2967,
      "신한은행": 2968,
      "마이크": 2969,
      "MO": 2970,
      "MZ": 2971,
      "그동안": 2972,
      "롭게": 2973,
      "부처": 2974,
      "하려": 2975,
      "후보": 2976,
      "고객이": 2977,
      "공공기관": 2978,
      "혜택을": 2979,
      "ic": 2980,
      "낮은": 2981,
      "로부터": 2982,
      "사태": 2983,
      "스의": 2984,
      "작용": 2985,
      "홍보": 2986,
      "2000": 2987,
      "관계자": 2988,
      "이벤트를": 2989,
      "알려졌다": 2990,
      "반대매매": 2991,
      "발굴": 2992,
      "시험": 2993,
      "좋은": 2994,
      "지상": 2995,
      "국내외": 2996,
      "금리가": 2997,
      "대학교": 2998,
      "과학기술정보통신": 2999,
      "낮아": 3000,
      "데믹": 3001,
      "부총리": 3002,
      "상위": 3003,
      "손해": 3004,
      "수립": 3005,
      "수산": 3006,
      "스와": 3007,
      "스테이": 3008,
      "인도": 3009,
      "전지": 3010,
      "진흥": 3011,
      "상황에서": 3012,
      "그룹의": 3013,
      "실적을": 3014,
      "장관은": 3015,
      "업무협약": 3016,
      "큐브위성": 3017,
      "모니터": 3018,
      "넘게": 3019,
      "되어": 3020,
      "무리": 3021,
      "상이": 3022,
      "에이": 3023,
      "완료": 3024,
      "주시": 3025,
      "개발을": 3026,
      "퇴직연금": 3027,
      "규정": 3028,
      "대규모": 3029,
      "바로": 3030,
      "봤다": 3031,
      "부진": 3032,
      "심의": 3033,
      "영역": 3034,
      "원장은": 3035,
      "이사": 3036,
      "일까지": 3037,
      "패키": 3038,
      "폭을": 3039,
      "흐름": 3040,
      "그룹은": 3041,
      "12월": 3042,
      "발표한": 3043,
      "7년": 3044,
      "건축": 3045,
      "급락": 3046,
      "보여": 3047,
      "신고": 3048,
      "신호": 3049,
      "심사": 3050,
      "아울": 3051,
      "지원을": 3052,
      "하락한": 3053,
      "하겠다는": 3054,
      "소프트웨어": 3055,
      "1위": 3056,
      "52": 3057,
      "58": 3058,
      "DA": 3059,
      "리더": 3060,
      "상대": 3061,
      "않을": 3062,
      "완성": 3063,
      "인식": 3064,
      "인앱": 3065,
      "하거나": 3066,
      "기업은": 3067,
      "증권사": 3068,
      "59": 3069,
      "ST": 3070,
      "기구": 3071,
      "동향": 3072,
      "리즈": 3073,
      "아닌": 3074,
      "요약": 3075,
      "인기": 3076,
      "작업": 3077,
      "지방": 3078,
      "차세대": 3079,
      "추정": 3080,
      "탑재": 3081,
      "하향": 3082,
      "고객에게": 3083,
      "시스템을": 3084,
      "예상된다": 3085,
      "처음으로": 3086,
      "비롯한": 3087,
      "공항": 3088,
      "권을": 3089,
      "대구": 3090,
      "디스": 3091,
      "란드": 3092,
      "부에": 3093,
      "뿐만": 3094,
      "어떻": 3095,
      "연계": 3096,
      "울산": 3097,
      "자본": 3098,
      "조선": 3099,
      "지에": 3100,
      "필수": 3101,
      "해제": 3102,
      "미국의": 3103,
      "계획을": 3104,
      "헬스케어": 3105,
      "5만": 3106,
      "ED": 3107,
      "관광": 3108,
      "보도": 3109,
      "손실": 3110,
      "쉽게": 3111,
      "스튜": 3112,
      "시가": 3113,
      "안에": 3114,
      "유튜": 3115,
      "적자": 3116,
      "지속적으로": 3117,
      "성과를": 3118,
      "탄소중립": 3119,
      "아울러": 3120,
      "3분기": 3121,
      "44": 3122,
      "살펴": 3123,
      "양성": 3124,
      "움직": 3125,
      "위가": 3126,
      "유니": 3127,
      "인이": 3128,
      "있기": 3129,
      "자신": 3130,
      "주문": 3131,
      "최적": 3132,
      "치솟": 3133,
      "트를": 3134,
      "하도록": 3135,
      "2017": 3136,
      "시장은": 3137,
      "개발한": 3138,
      "이번에": 3139,
      "설명이다": 3140,
      "계약을": 3141,
      "어려운": 3142,
      "6년": 3143,
      "le": 3144,
      "가량": 3145,
      "게이": 3146,
      "내놓": 3147,
      "농협": 3148,
      "스가": 3149,
      "와의": 3150,
      "인근": 3151,
      "태양": 3152,
      "트렌": 3153,
      "특징": 3154,
      "행복": 3155,
      "홈페이지": 3156,
      "영상을": 3157,
      "가족": 3158,
      "나는": 3159,
      "내고": 3160,
      "니까": 3161,
      "수의": 3162,
      "시리즈": 3163,
      "어떤": 3164,
      "에스": 3165,
      "전을": 3166,
      "카메": 3167,
      "했다는": 3168,
      "제공할": 3169,
      "부담을": 3170,
      "유튜브": 3171,
      "BS": 3172,
      "결국": 3173,
      "기회": 3174,
      "꾸준": 3175,
      "매년": 3176,
      "빠른": 3177,
      "센서": 3178,
      "액이": 3179,
      "육성": 3180,
      "자유": 3181,
      "재산": 3182,
      "전세": 3183,
      "전월": 3184,
      "제기": 3185,
      "토지": 3186,
      "했는데": 3187,
      "사업에": 3188,
      "경기침체": 3189,
      "위원장": 3190,
      "보유한": 3191,
      "3만": 3192,
      "re": 3193,
      "구현": 3194,
      "그리고": 3195,
      "르는": 3196,
      "생명": 3197,
      "안을": 3198,
      "인데": 3199,
      "주민": 3200,
      "캠페": 3201,
      "파악": 3202,
      "수수료": 3203,
      "어떻게": 3204,
      "DP": 3205,
      "가진": 3206,
      "가치를": 3207,
      "간의": 3208,
      "늘었다": 3209,
      "돌파": 3210,
      "옵션": 3211,
      "위축": 3212,
      "이른": 3213,
      "전경": 3214,
      "차가": 3215,
      "기업으로": 3216,
      "금융투자": 3217,
      "3개": 3218,
      "기금": 3219,
      "위반": 3220,
      "점에": 3221,
      "정확": 3222,
      "지표": 3223,
      "체험": 3224,
      "하기도": 3225,
      "수준으로": 3226,
      "전략을": 3227,
      "확인할": 3228,
      "적극적으로": 3229,
      "누리호": 3230,
      "활성화": 3231,
      "기획재정부": 3232,
      "2017년": 3233,
      "Ne": 3234,
      "st": 3235,
      "과의": 3236,
      "달라": 3237,
      "로드": 3238,
      "시민": 3239,
      "예방": 3240,
      "예비": 3241,
      "이러": 3242,
      "이스": 3243,
      "인지": 3244,
      "첨단": 3245,
      "분야의": 3246,
      "발표했다": 3247,
      "스튜디오": 3248,
      "카메라": 3249,
      "1억": 3250,
      "감사": 3251,
      "검사": 3252,
      "것이라고": 3253,
      "기기": 3254,
      "드러": 3255,
      "발행": 3256,
      "불확실": 3257,
      "속도": 3258,
      "원하는": 3259,
      "조금": 3260,
      "관련해": 3261,
      "회의를": 3262,
      "비중이": 3263,
      "국토교통": 3264,
      "디스플레이": 3265,
      "SS": 3266,
      "건물": 3267,
      "과거": 3268,
      "기아": 3269,
      "기후": 3270,
      "레일": 3271,
      "상의": 3272,
      "순환": 3273,
      "언급": 3274,
      "위로": 3275,
      "주장": 3276,
      "운영하는": 3277,
      "개인정보": 3278,
      "중요한": 3279,
      "모니터링": 3280,
      "31": 3281,
      "95": 3282,
      "NA": 3283,
      "기부": 3284,
      "달리": 3285,
      "리어": 3286,
      "병원": 3287,
      "불어": 3288,
      "않아": 3289,
      "올레드": 3290,
      "웨이": 3291,
      "자사": 3292,
      "학과": 3293,
      "합의": 3294,
      "협력을": 3295,
      "떨어졌다": 3296,
      "전시회": 3297,
      "경험을": 3298,
      "유류세": 3299,
      "2천": 3300,
      "4000": 3301,
      "5개": 3302,
      "공감": 3303,
      "공단": 3304,
      "돌아": 3305,
      "상용": 3306,
      "스터": 3307,
      "않았다": 3308,
      "유동": 3309,
      "전보다": 3310,
      "주력": 3311,
      "주를": 3312,
      "추경": 3313,
      "거래를": 3314,
      "하락했다": 3315,
      "경기도": 3316,
      "치료제": 3317,
      "집계됐다": 3318,
      "맞춤형": 3319,
      "인앱결제": 3320,
      "68": 3321,
      "SR": 3322,
      "가전": 3323,
      "겠습니다": 3324,
      "는다": 3325,
      "리서": 3326,
      "만든": 3327,
      "모집": 3328,
      "서를": 3329,
      "수록": 3330,
      "와이": 3331,
      "운드": 3332,
      "자에게": 3333,
      "주관": 3334,
      "필즈": 3335,
      "고객을": 3336,
      "분야에서": 3337,
      "사이트": 3338,
      "의견을": 3339,
      "추경호": 3340,
      "07": 3341,
      "32": 3342,
      "65": 3343,
      "검색": 3344,
      "고리": 3345,
      "고민": 3346,
      "나오": 3347,
      "높다": 3348,
      "메뉴": 3349,
      "무원": 3350,
      "보였다": 3351,
      "상한": 3352,
      "않았": 3353,
      "전해": 3354,
      "진입": 3355,
      "차질": 3356,
      "서울시": 3357,
      "연구개발": 3358,
      "이용할": 3359,
      "부담이": 3360,
      "장관이": 3361,
      "방식으로": 3362,
      "기능을": 3363,
      "기사내용": 3364,
      "이러한": 3365,
      "IB": 3366,
      "SM": 3367,
      "대신": 3368,
      "리가": 3369,
      "명품": 3370,
      "문을": 3371,
      "소상공": 3372,
      "여건": 3373,
      "외식": 3374,
      "이제": 3375,
      "있었": 3376,
      "자와": 3377,
      "재료": 3378,
      "전장": 3379,
      "테스트": 3380,
      "확정": 3381,
      "고객의": 3382,
      "무역수": 3383,
      "3개월": 3384,
      "4만": 3385,
      "메이션": 3386,
      "비슷": 3387,
      "언론": 3388,
      "열고": 3389,
      "제출": 3390,
      "주주": 3391,
      "제공하고": 3392,
      "겠다는": 3393,
      "수준이다": 3394,
      "47": 3395,
      "6개월": 3396,
      "결합": 3397,
      "당첨": 3398,
      "되기": 3399,
      "등은": 3400,
      "등에서": 3401,
      "어요": 3402,
      "엔터": 3403,
      "일을": 3404,
      "정기": 3405,
      "제어": 3406,
      "지배": 3407,
      "차례": 3408,
      "창출": 3409,
      "케이션": 3410,
      "쿠팡": 3411,
      "파업": 3412,
      "해소": 3413,
      "라이프": 3414,
      "1일부터": 3415,
      "대해서는": 3416,
      "삼성전자는": 3417,
      "목표로": 3418,
      "29일": 3419,
      "비중은": 3420,
      "여전히": 3421,
      "pho": 3422,
      "나노": 3423,
      "매우": 3424,
      "발언": 3425,
      "시기": 3426,
      "아트": 3427,
      "연료": 3428,
      "웹툰": 3429,
      "유명": 3430,
      "자들이": 3431,
      "접근": 3432,
      "커머": 3433,
      "테인": 3434,
      "특정": 3435,
      "하던": 3436,
      "화면": 3437,
      "화물": 3438,
      "회원": 3439,
      "성장률": 3440,
      "성장을": 3441,
      "정책을": 3442,
      "게임즈": 3443,
      "수준을": 3444,
      "시작으로": 3445,
      "기대한다": 3446,
      "photo": 3447,
      "널리": 3448,
      "됐습니다": 3449,
      "면적": 3450,
      "모듈": 3451,
      "목적": 3452,
      "뮤니": 3453,
      "별도": 3454,
      "불가": 3455,
      "비대면": 3456,
      "안내": 3457,
      "연준": 3458,
      "외에도": 3459,
      "이들": 3460,
      "재단": 3461,
      "전에": 3462,
      "절반": 3463,
      "제가": 3464,
      "차이": 3465,
      "커뮤니": 3466,
      "푸드": 3467,
      "사업은": 3468,
      "금융감독": 3469,
      "상황이다": 3470,
      "회장이": 3471,
      "양자암호": 3472,
      "스포츠": 3473,
      "2030년": 3474,
      "쌍용차": 3475,
      "단순": 3476,
      "마음": 3477,
      "모빌": 3478,
      "사무": 3479,
      "완전": 3480,
      "운동": 3481,
      "유사": 3482,
      "자회사": 3483,
      "제안": 3484,
      "피스": 3485,
      "합병": 3486,
      "한국의": 3487,
      "위해서는": 3488,
      "결과를": 3489,
      "2008년": 3490,
      "여러분의": 3491,
      "ETF": 3492,
      "산업통상자원부": 3493,
      "46": 3494,
      "DC": 3495,
      "LED": 3496,
      "가속": 3497,
      "경찰": 3498,
      "기조": 3499,
      "내다": 3500,
      "대화": 3501,
      "선물": 3502,
      "애니": 3503,
      "여파": 3504,
      "여기에": 3505,
      "원인": 3506,
      "취임": 3507,
      "측면": 3508,
      "커지고": 3509,
      "트리": 3510,
      "한은": 3511,
      "보다는": 3512,
      "기반의": 3513,
      "관심이": 3514,
      "위치한": 3515,
      "트렌드": 3516,
      "88": 3517,
      "94": 3518,
      "EU": 3519,
      "국의": 3520,
      "더라도": 3521,
      "백화": 3522,
      "베트": 3523,
      "사로": 3524,
      "응답": 3525,
      "치고": 3526,
      "향상": 3527,
      "으로부터": 3528,
      "기업을": 3529,
      "사실상": 3530,
      "리서치": 3531,
      "테인먼트": 3532,
      "베트남": 3533,
      "3천": 3534,
      "GDP": 3535,
      "NS": 3536,
      "개편": 3537,
      "구입": 3538,
      "디아": 3539,
      "박스": 3540,
      "반려": 3541,
      "신속": 3542,
      "아래": 3543,
      "앵커": 3544,
      "유전자": 3545,
      "집값": 3546,
      "테슬": 3547,
      "특허": 3548,
      "했으나": 3549,
      "대한민": 3550,
      "이어질": 3551,
      "전망했다": 3552,
      "업무를": 3553,
      "본격적인": 3554,
      "MZ세대": 3555,
      "소상공인": 3556,
      "가고": 3557,
      "감축": 3558,
      "국산": 3559,
      "대외": 3560,
      "도움이": 3561,
      "동일": 3562,
      "디폴": 3563,
      "이란": 3564,
      "중고": 3565,
      "지니": 3566,
      "채용": 3567,
      "컨설": 3568,
      "편리": 3569,
      "허브": 3570,
      "기업에": 3571,
      "업계의": 3572,
      "그러면서": 3573,
      "과학기술정보통신부": 3574,
      "디폴트": 3575,
      "it": 3576,
      "고속": 3577,
      "내는": 3578,
      "뉴욕": 3579,
      "베스트": 3580,
      "수치": 3581,
      "유일": 3582,
      "이렇게": 3583,
      "인간": 3584,
      "중한": 3585,
      "즐길": 3586,
      "커피": 3587,
      "기업들의": 3588,
      "은행은": 3589,
      "하다는": 3590,
      "추가로": 3591,
      "41": 3592,
      "67": 3593,
      "85": 3594,
      "99": 3595,
      "경매": 3596,
      "고물가": 3597,
      "관은": 3598,
      "긴축": 3599,
      "단독": 3600,
      "면제": 3601,
      "보이고": 3602,
      "않다": 3603,
      "없어": 3604,
      "역량을": 3605,
      "요소": 3606,
      "유망": 3607,
      "자이": 3608,
      "제주": 3609,
      "중견": 3610,
      "크다": 3611,
      "한일": 3612,
      "홍콩": 3613,
      "밝혔습니다": 3614,
      "증가율": 3615,
      "것이란": 3616,
      "콘텐츠를": 3617,
      "27일": 3618,
      "효과를": 3619,
      "통계청": 3620,
      "ent": 3621,
      "컨설팅": 3622,
      "87": 3623,
      "or": 3624,
      "동월": 3625,
      "레스": 3626,
      "맞아": 3627,
      "성에": 3628,
      "수신": 3629,
      "실천": 3630,
      "역량": 3631,
      "이야": 3632,
      "전세계": 3633,
      "조치를": 3634,
      "주간": 3635,
      "주고": 3636,
      "증정": 3637,
      "지로": 3638,
      "지지": 3639,
      "질환": 3640,
      "코레일": 3641,
      "폴리오": 3642,
      "2016": 3643,
      "산업의": 3644,
      "전망이": 3645,
      "활용할": 3646,
      "파이낸": 3647,
      "태양광": 3648,
      "모빌리티": 3649,
      "IM": 3650,
      "격을": 3651,
      "관한": 3652,
      "급격": 3653,
      "남아": 3654,
      "내에": 3655,
      "동의": 3656,
      "말까지": 3657,
      "상무": 3658,
      "실현": 3659,
      "었습니다": 3660,
      "외부": 3661,
      "재인": 3662,
      "적립": 3663,
      "초기": 3664,
      "타워": 3665,
      "합리": 3666,
      "휘발": 3667,
      "으로는": 3668,
      "라이트": 3669,
      "기록한": 3670,
      "안전보건": 3671,
      "시작한": 3672,
      "프로그램을": 3673,
      "지적했다": 3674,
      "포트폴리오": 3675,
      "2016년": 3676,
      "1명": 3677,
      "8000": 3678,
      "LS": 3679,
      "감안": 3680,
      "개국": 3681,
      "고정": 3682,
      "그간": 3683,
      "나다": 3684,
      "넘는": 3685,
      "년대": 3686,
      "다가": 3687,
      "립니다": 3688,
      "링크": 3689,
      "세로": 3690,
      "수단": 3691,
      "스페이스": 3692,
      "신뢰": 3693,
      "에만": 3694,
      "위에": 3695,
      "이슈": 3696,
      "입찰": 3697,
      "장소": 3698,
      "저렴": 3699,
      "종료": 3700,
      "취득": 3701,
      "치킨": 3702,
      "카이": 3703,
      "허용": 3704,
      "하고자": 3705,
      "지원한다": 3706,
      "상승했다": 3707,
      "2025년": 3708,
      "감소했다": 3709,
      "마감했다": 3710,
      "커머스": 3711,
      "3억": 3712,
      "55": 3713,
      "66": 3714,
      "GW": 3715,
      "KAI": 3716,
      "NG": 3717,
      "가정": 3718,
      "경유": 3719,
      "공략": 3720,
      "그렇": 3721,
      "나고": 3722,
      "등과": 3723,
      "믹스": 3724,
      "반응": 3725,
      "분위기": 3726,
      "불과": 3727,
      "불안": 3728,
      "상생": 3729,
      "시각": 3730,
      "양방향": 3731,
      "연방": 3732,
      "예금": 3733,
      "융합": 3734,
      "티브": 3735,
      "삼성S": 3736,
      "사용자": 3737,
      "평가를": 3738,
      "문제가": 3739,
      "문제를": 3740,
      "내용을": 3741,
      "떨어진": 3742,
      "상승률이": 3743,
      "상대적으로": 3744,
      "96": 3745,
      "MW": 3746,
      "갖고": 3747,
      "교류": 3748,
      "기초": 3749,
      "단기": 3750,
      "독일": 3751,
      "로는": 3752,
      "리에": 3753,
      "목소": 3754,
      "배럴": 3755,
      "사에": 3756,
      "설정": 3757,
      "신선": 3758,
      "실질": 3759,
      "유출": 3760,
      "일상": 3761,
      "일이": 3762,
      "자연": 3763,
      "접수": 3764,
      "총리는": 3765,
      "프라이": 3766,
      "행정": 3767,
      "환자": 3768,
      "휴가": 3769,
      "사업이": 3770,
      "시간이": 3771,
      "하겠다고": 3772,
      "아이폰": 3773,
      "영향으로": 3774,
      "포함한": 3775,
      "효과가": 3776,
      "여부를": 3777,
      "가까이": 3778,
      "손해보험": 3779,
      "꾸준히": 3780,
      "CC": 3781,
      "긍정": 3782,
      "능력": 3783,
      "더불어": 3784,
      "라마": 3785,
      "마쳤다": 3786,
      "모션": 3787,
      "법률": 3788,
      "실행": 3789,
      "양산": 3790,
      "재개": 3791,
      "점은": 3792,
      "주변": 3793,
      "출발": 3794,
      "케미": 3795,
      "폐기": 3796,
      "화로": 3797,
      "가능성을": 3798,
      "전망치": 3799,
      "경영자": 3800,
      "시작했다": 3801,
      "과정을": 3802,
      "이동통신": 3803,
      "담보비율": 3804,
      "휘발유": 3805,
      "1차": 3806,
      "9년": 3807,
      "RE": 3808,
      "가이드": 3809,
      "강제": 3810,
      "건을": 3811,
      "들에": 3812,
      "맞는": 3813,
      "보이는": 3814,
      "셈이다": 3815,
      "승인": 3816,
      "시는": 3817,
      "앞두고": 3818,
      "유예": 3819,
      "이행": 3820,
      "장중": 3821,
      "절감": 3822,
      "제3": 3823,
      "제조사": 3824,
      "채무": 3825,
      "포르": 3826,
      "풀이": 3827,
      "해왔다": 3828,
      "행사를": 3829,
      "허가를": 3830,
      "사업장": 3831,
      "서울경제": 3832,
      "면서도": 3833,
      "사진은": 3834,
      "규모는": 3835,
      "KT는": 3836,
      "위원회는": 3837,
      "하이닉": 3838,
      "지수가": 3839,
      "28일": 3840,
      "차지하는": 3841,
      "그래픽": 3842,
      "케미칼": 3843,
      "150": 3844,
      "Io": 3845,
      "NH": 3846,
      "OT": 3847,
      "개혁": 3848,
      "교신": 3849,
      "누구": 3850,
      "달하는": 3851,
      "대가": 3852,
      "도는": 3853,
      "문재인": 3854,
      "배경": 3855,
      "버그": 3856,
      "보상": 3857,
      "보이": 3858,
      "세다": 3859,
      "수밖에": 3860,
      "업데이": 3861,
      "운전자": 3862,
      "월드": 3863,
      "이재": 3864,
      "장치": 3865,
      "전면": 3866,
      "젊은": 3867,
      "점으로": 3868,
      "준다": 3869,
      "추첨": 3870,
      "크래": 3871,
      "금융당국": 3872,
      "정부와": 3873,
      "2023년": 3874,
      "규제를": 3875,
      "데일리안": 3876,
      "ing": 3877,
      "자율주행": 3878,
      "줄어들": 3879,
      "그런데": 3880,
      "과기정통부": 3881,
      "IoT": 3882,
      "05": 3883,
      "84": 3884,
      "가맹": 3885,
      "갖춘": 3886,
      "공업": 3887,
      "과도": 3888,
      "나섰다": 3889,
      "다운": 3890,
      "린다": 3891,
      "만의": 3892,
      "만족": 3893,
      "맥주": 3894,
      "상호": 3895,
      "선이": 3896,
      "세포": 3897,
      "수집": 3898,
      "스텝": 3899,
      "시범": 3900,
      "실제로": 3901,
      "양국": 3902,
      "원가": 3903,
      "유행": 3904,
      "유형": 3905,
      "재계": 3906,
      "저장": 3907,
      "점도": 3908,
      "제휴": 3909,
      "주당": 3910,
      "충돌": 3911,
      "투입": 3912,
      "팬데믹": 3913,
      "폴란드": 3914,
      "진행하고": 3915,
      "대표이사": 3916,
      "확대를": 3917,
      "전력수급": 3918,
      "매출은": 3919,
      "선정된": 3920,
      "선정됐다": 3921,
      "보유하고": 3922,
      "나선다": 3923,
      "테슬라": 3924,
      "SNS": 3925,
      "가공": 3926,
      "건의": 3927,
      "계열": 3928,
      "기회를": 3929,
      "대중": 3930,
      "드림": 3931,
      "라면": 3932,
      "선보인다": 3933,
      "소식": 3934,
      "었고": 3935,
      "오롱": 3936,
      "위기를": 3937,
      "제보": 3938,
      "최신": 3939,
      "출하": 3940,
      "코오롱": 3941,
      "택시": 3942,
      "해진": 3943,
      "현금": 3944,
      "후속": 3945,
      "SK하이닉": 3946,
      "15년": 3947,
      "매출액": 3948,
      "기대된다": 3949,
      "카카오뱅크": 3950,
      "호텔에서": 3951,
      "발사체": 3952,
      "64": 3953,
      "6000": 3954,
      "AR": 3955,
      "ion": 3956,
      "개별": 3957,
      "고가": 3958,
      "대폭": 3959,
      "빅데이터": 3960,
      "산물": 3961,
      "석탄": 3962,
      "스티": 3963,
      "스틱": 3964,
      "연장": 3965,
      "예약": 3966,
      "워치": 3967,
      "음식": 3968,
      "적정": 3969,
      "주얼": 3970,
      "차주": 3971,
      "캐나다": 3972,
      "홀딩": 3973,
      "4일부터": 3974,
      "14년": 3975,
      "교수가": 3976,
      "비중을": 3977,
      "원자력": 3978,
      "간담회에서": 3979,
      "대한민국": 3980,
      "6개": 3981,
      "계층": 3982,
      "다수": 3983,
      "대기업": 3984,
      "데다": 3985,
      "마블": 3986,
      "분간": 3987,
      "분을": 3988,
      "스스로": 3989,
      "아웃": 3990,
      "오를": 3991,
      "요일": 3992,
      "전담": 3993,
      "지주": 3994,
      "테라": 3995,
      "팀은": 3996,
      "프랑": 3997,
      "해석": 3998,
      "화제": 3999,
      "진행된다": 4000,
      "회사의": 4001,
      "회의에서": 4002,
      "처음이다": 4003,
      "관심을": 4004,
      "대형마트": 4005,
      "선보일": 4006,
      "벤처기업": 4007,
      "특징이다": 4008,
      "2개": 4009,
      "5천": 4010,
      "DT": 4011,
      "거주": 4012,
      "고등": 4013,
      "구역": 4014,
      "근거": 4015,
      "금감": 4016,
      "니아": 4017,
      "마무리": 4018,
      "무료": 4019,
      "배달": 4020,
      "사인": 4021,
      "서도": 4022,
      "세븐": 4023,
      "시세": 4024,
      "아마": 4025,
      "애로": 4026,
      "위의": 4027,
      "유기": 4028,
      "유입": 4029,
      "이차": 4030,
      "인의": 4031,
      "제보를": 4032,
      "지식": 4033,
      "지오": 4034,
      "컴퓨": 4035,
      "학습": 4036,
      "지원하는": 4037,
      "환경을": 4038,
      "주가는": 4039,
      "사이언": 4040,
      "본격화": 4041,
      "체결했다": 4042,
      "기다립니다": 4043,
      "파이낸셜": 4044,
      "4개": 4045,
      "7만": 4046,
      "97": 4047,
      "KDI": 4048,
      "국회": 4049,
      "늘고": 4050,
      "담은": 4051,
      "드로": 4052,
      "만기": 4053,
      "반등": 4054,
      "방어": 4055,
      "배당": 4056,
      "보니": 4057,
      "봉쇄": 4058,
      "블룸": 4059,
      "스탠": 4060,
      "시청": 4061,
      "신제품": 4062,
      "애널리": 4063,
      "원화": 4064,
      "인구": 4065,
      "적이": 4066,
      "지며": 4067,
      "폭염": 4068,
      "기술로": 4069,
      "억원에서": 4070,
      "지원할": 4071,
      "은행이": 4072,
      "데이터센터": 4073,
      "사용할": 4074,
      "만원을": 4075,
      "수준의": 4076,
      "러시아의": 4077,
      "고려해": 4078,
      "이노텍": 4079,
      "고도화": 4080,
      "1회": 4081,
      "130": 4082,
      "4천": 4083,
      "9시": 4084,
      "CI": 4085,
      "갔다": 4086,
      "강력": 4087,
      "그대로": 4088,
      "기지": 4089,
      "등도": 4090,
      "률이": 4091,
      "릭터": 4092,
      "매일": 4093,
      "머니": 4094,
      "명으로": 4095,
      "바다": 4096,
      "선호": 4097,
      "선보인": 4098,
      "성미": 4099,
      "소중한": 4100,
      "수원": 4101,
      "스턴": 4102,
      "원격": 4103,
      "이탈": 4104,
      "입주": 4105,
      "자세": 4106,
      "전개": 4107,
      "정식": 4108,
      "제재": 4109,
      "추천": 4110,
      "캐피": 4111,
      "캐릭터": 4112,
      "커넥": 4113,
      "표성미": 4114,
      "프레": 4115,
      "하자": 4116,
      "개발에": 4117,
      "진행할": 4118,
      "물가가": 4119,
      "LG이노텍": 4120,
      "13년": 4121,
      "스타일": 4122,
      "주식을": 4123,
      "구성된": 4124,
      "어려움을": 4125,
      "코스피가": 4126,
      "상태다": 4127,
      "그래서": 4128,
      "MOU": 4129,
      "이차전지": 4130,
      "2억": 4131,
      "SP": 4132,
      "SW": 4133,
      "ed": 4134,
      "ro": 4135,
      "가로": 4136,
      "거부": 4137,
      "거의": 4138,
      "곳에": 4139,
      "권에": 4140,
      "등장": 4141,
      "렉션": 4142,
      "메모": 4143,
      "방지": 4144,
      "백신": 4145,
      "새로": 4146,
      "시즌": 4147,
      "오피스": 4148,
      "음료": 4149,
      "의사": 4150,
      "적이고": 4151,
      "정을": 4152,
      "정도로": 4153,
      "지나": 4154,
      "직후": 4155,
      "진을": 4156,
      "체크": 4157,
      "파크": 4158,
      "함을": 4159,
      "사업의": 4160,
      "가격에": 4161,
      "달러로": 4162,
      "이용해": 4163,
      "시간을": 4164,
      "게임을": 4165,
      "분석했다": 4166,
      "카카오톡": 4167,
      "여름철": 4168,
      "외환위기": 4169,
      "이유로": 4170,
      "플라스틱": 4171,
      "움직임": 4172,
      "백화점": 4173,
      "AP": 4174,
      "EN": 4175,
      "TF": 4176,
      "km": 4177,
      "간편": 4178,
      "감이": 4179,
      "강원": 4180,
      "국채": 4181,
      "그라": 4182,
      "금은": 4183,
      "김방": 4184,
      "대기": 4185,
      "무신": 4186,
      "받았": 4187,
      "북한": 4188,
      "블루": 4189,
      "산하": 4190,
      "오름": 4191,
      "올리": 4192,
      "일부터": 4193,
      "적절": 4194,
      "준법": 4195,
      "줄었다": 4196,
      "콜라": 4197,
      "퍼런": 4198,
      "피부": 4199,
      "화가": 4200,
      "힌다": 4201,
      "으로써": 4202,
      "달러를": 4203,
      "전망된다": 4204,
      "혁신을": 4205,
      "제시했다": 4206,
      "차별화된": 4207,
      "주년을": 4208,
      "김방희": 4209,
      "01": 4210,
      "120": 4211,
      "23일": 4212,
      "건전": 4213,
      "공고": 4214,
      "나왔다": 4215,
      "너스": 4216,
      "넷마블": 4217,
      "노하우": 4218,
      "둘러": 4219,
      "레인": 4220,
      "많다": 4221,
      "많아": 4222,
      "민감": 4223,
      "발급": 4224,
      "법을": 4225,
      "베이션": 4226,
      "복지": 4227,
      "비판": 4228,
      "선박": 4229,
      "선언": 4230,
      "소를": 4231,
      "수온": 4232,
      "심화": 4233,
      "자녀": 4234,
      "장마": 4235,
      "적자를": 4236,
      "종로": 4237,
      "주차": 4238,
      "지연": 4239,
      "천연": 4240,
      "충남": 4241,
      "카페": 4242,
      "키우": 4243,
      "트는": 4244,
      "해운": 4245,
      "2012": 4246,
      "경제부총리": 4247,
      "최고경영자": 4248,
      "발생하는": 4249,
      "인터뷰": 4250,
      "협약을": 4251,
      "환율은": 4252,
      "진출을": 4253,
      "지금까지": 4254,
      "중앙회": 4255,
      "체계를": 4256,
      "이노베이션": 4257,
      "...": 4258,
      "형태로": 4259,
      "커뮤니티": 4260,
      "78": 4261,
      "LH": 4262,
      "내외": 4263,
      "높이": 4264,
      "당분간": 4265,
      "못한": 4266,
      "보수": 4267,
      "북미": 4268,
      "빗썸": 4269,
      "서로": 4270,
      "세부": 4271,
      "쉽지": 4272,
      "신혼": 4273,
      "어느": 4274,
      "원리": 4275,
      "위안": 4276,
      "유로": 4277,
      "유의": 4278,
      "의도": 4279,
      "자재": 4280,
      "주제로": 4281,
      "중장기": 4282,
      "지노": 4283,
      "착용": 4284,
      "측정": 4285,
      "크리스": 4286,
      "통과": 4287,
      "티빙": 4288,
      "포럼": 4289,
      "기업과": 4290,
      "기업들은": 4291,
      "환경부": 4292,
      "관리를": 4293,
      "상황에": 4294,
      "확보를": 4295,
      "비율이": 4296,
      "공정거래": 4297,
      "별로는": 4298,
      "마이크로": 4299,
      "애널리스트": 4300,
      "7000": 4301,
      "kr": 4302,
      "고양": 4303,
      "국무": 4304,
      "너무": 4305,
      "대의": 4306,
      "더해": 4307,
      "드경제": 4308,
      "리드": 4309,
      "미치는": 4310,
      "사상": 4311,
      "사우": 4312,
      "소형": 4313,
      "심사를": 4314,
      "씨는": 4315,
      "온실": 4316,
      "으면서": 4317,
      "이같이": 4318,
      "일제": 4319,
      "작은": 4320,
      "초과": 4321,
      "트로": 4322,
      "하겠습니다": 4323,
      "기업인": 4324,
      "기술과": 4325,
      "이용하는": 4326,
      "회사는": 4327,
      "필요가": 4328,
      "하나은행": 4329,
      "중심의": 4330,
      "국민연금": 4331,
      "솔루션을": 4332,
      "KAIST": 4333,
      "같다": 4334,
      "것과": 4335,
      "곡물": 4336,
      "나아": 4337,
      "당초": 4338,
      "대에": 4339,
      "동반": 4340,
      "등이다": 4341,
      "럴드경제": 4342,
      "명확": 4343,
      "발주": 4344,
      "부과": 4345,
      "부부": 4346,
      "분리": 4347,
      "소속": 4348,
      "실장은": 4349,
      "약속": 4350,
      "예고": 4351,
      "원료": 4352,
      "유도": 4353,
      "유리": 4354,
      "인스타": 4355,
      "입장을": 4356,
      "저희": 4357,
      "전송": 4358,
      "전통": 4359,
      "접속": 4360,
      "중개": 4361,
      "지출": 4362,
      "직장": 4363,
      "청사에서": 4364,
      "충분": 4365,
      "패션": 4366,
      "헤럴드경제": 4367,
      "형성": 4368,
      "대한항공": 4369,
      "지역의": 4370,
      "에너지솔루션": 4371,
      "경우가": 4372,
      "수출이": 4373,
      "매출이": 4374,
      "아이디어": 4375,
      "실적이": 4376,
      "항공우주": 4377,
      "적극적인": 4378,
      "방식을": 4379,
      "국민의": 4380,
      "코스피는": 4381,
      "외환보유": 4382,
      "체결했다고": 4383,
      "KBS": 4384,
      "국토교통부": 4385,
      "필즈상": 4386,
      "메모리": 4387,
      "3대": 4388,
      "31일": 4389,
      "EC": 4390,
      "GC": 4391,
      "LNG": 4392,
      "경남": 4393,
      "광주": 4394,
      "납품": 4395,
      "낮추": 4396,
      "다면": 4397,
      "레벨": 4398,
      "률은": 4399,
      "르고": 4400,
      "만드는": 4401,
      "메이드": 4402,
      "멤버": 4403,
      "사망": 4404,
      "새롭게": 4405,
      "선제": 4406,
      "시켜": 4407,
      "실리": 4408,
      "실험": 4409,
      "아니다": 4410,
      "압박": 4411,
      "어린": 4412,
      "없다는": 4413,
      "연동": 4414,
      "용산": 4415,
      "융자": 4416,
      "이내": 4417,
      "인플": 4418,
      "일자리": 4419,
      "적이다": 4420,
      "절차": 4421,
      "정치": 4422,
      "준이": 4423,
      "투명": 4424,
      "한전": 4425,
      "금융위기": 4426,
      "상승한": 4427,
      "진행하는": 4428,
      "규모로": 4429,
      "지속가능": 4430,
      "문제는": 4431,
      "있어서": 4432,
      "제도를": 4433,
      "가능성도": 4434,
      "우수한": 4435,
      "촬영을": 4436,
      "시키는": 4437,
      "최소화": 4438,
      "지배구조": 4439,
      "양자암호통신": 4440,
      "종로구": 4441,
      "400": 4442,
      "56": 4443,
      "63": 4444,
      "8만": 4445,
      "걸쳐": 4446,
      "계기로": 4447,
      "공무원": 4448,
      "극재": 4449,
      "놓고": 4450,
      "만한": 4451,
      "메인": 4452,
      "바뀌": 4453,
      "밸류": 4454,
      "사건": 4455,
      "싱가": 4456,
      "여신": 4457,
      "오랜": 4458,
      "올린": 4459,
      "운전": 4460,
      "원과": 4461,
      "웠다": 4462,
      "잡고": 4463,
      "크리": 4464,
      "테마": 4465,
      "한도": 4466,
      "했을": 4467,
      "기술이": 4468,
      "관련한": 4469,
      "프로모션": 4470,
      "업계는": 4471,
      "규모가": 4472,
      "대출을": 4473,
      "기간은": 4474,
      "출시했다": 4475,
      "최고의": 4476,
      "대학생": 4477,
      "가치가": 4478,
      "참석한": 4479,
      "등급을": 4480,
      "작품을": 4481,
      "시가총": 4482,
      "내다봤다": 4483,
      "풀이된다": 4484,
      "강력한": 4485,
      "140": 4486,
      "69": 4487,
      "82": 4488,
      "D램": 4489,
      "PG": 4490,
      "bp": 4491,
      "ce": 4492,
      "관에서": 4493,
      "그레이": 4494,
      "기의": 4495,
      "당부": 4496,
      "독립": 4497,
      "론칭": 4498,
      "리테": 4499,
      "방역": 4500,
      "세미": 4501,
      "세워": 4502,
      "스에서": 4503,
      "시도": 4504,
      "시너지": 4505,
      "엑스포": 4506,
      "였던": 4507,
      "오히": 4508,
      "외교": 4509,
      "이지만": 4510,
      "일환": 4511,
      "전선": 4512,
      "제2": 4513,
      "종사": 4514,
      "중에": 4515,
      "직전": 4516,
      "창립": 4517,
      "철저": 4518,
      "카테": 4519,
      "특수": 4520,
      "허가": 4521,
      "허준이": 4522,
      "현상": 4523,
      "힘을": 4524,
      "억원에": 4525,
      "스트리": 4526,
      "자산운용": 4527,
      "판단되는": 4528,
      "방문해": 4529,
      "노력하겠다": 4530,
      "피해를": 4531,
      "가계대출": 4532,
      "주시면": 4533,
      "애니메이션": 4534,
      "파이낸셜뉴스": 4535,
      "인스타그램": 4536,
      "오히려": 4537,
      "BC": 4538,
      "GP": 4539,
      "KIS": 4540,
      "ck": 4541,
      "개설": 4542,
      "당장": 4543,
      "로서": 4544,
      "률을": 4545,
      "리케이션": 4546,
      "마지": 4547,
      "무더": 4548,
      "받습니다": 4549,
      "분류": 4550,
      "선임": 4551,
      "수당": 4552,
      "시상": 4553,
      "었지만": 4554,
      "올렸다": 4555,
      "운행": 4556,
      "워드": 4557,
      "이루": 4558,
      "잠재": 4559,
      "절차를": 4560,
      "점포": 4561,
      "중간": 4562,
      "쿠폰": 4563,
      "거래가": 4564,
      "진행된": 4565,
      "진행했다": 4566,
      "기준금리": 4567,
      "은행의": 4568,
      "중국의": 4569,
      "사이클": 4570,
      "구글의": 4571,
      "모습을": 4572,
      "LG유플러스는": 4573,
      "나가겠다": 4574,
      "마이크론": 4575,
      "캠페인": 4576,
      "비슷한": 4577,
      "누구나": 4578,
      "프랑스": 4579,
      "원리금": 4580,
      "실리콘": 4581,
      "싱가포르": 4582,
      "53": 4583,
      "86": 4584,
      "CO": 4585,
      "가게": 4586,
      "가파": 4587,
      "값이": 4588,
      "꼽힌다": 4589,
      "노력을": 4590,
      "대는": 4591,
      "대만": 4592,
      "동참": 4593,
      "란다": 4594,
      "로그": 4595,
      "리포트": 4596,
      "메시": 4597,
      "바란다": 4598,
      "변화를": 4599,
      "부총리는": 4600,
      "비를": 4601,
      "상업": 4602,
      "속도를": 4603,
      "순매수": 4604,
      "시절": 4605,
      "신세계": 4606,
      "않도록": 4607,
      "없다고": 4608,
      "이프": 4609,
      "이들은": 4610,
      "인포": 4611,
      "점이다": 4612,
      "접목": 4613,
      "조회": 4614,
      "종의": 4615,
      "창구": 4616,
      "충족": 4617,
      "합동": 4618,
      "해상": 4619,
      "화질": 4620,
      "정부서울": 4621,
      "억원의": 4622,
      "대표가": 4623,
      "공급을": 4624,
      "사진영상": 4625,
      "관련된": 4626,
      "기관은": 4627,
      "규모다": 4628,
      "국제유가": 4629,
      "비율은": 4630,
      "가치나": 4631,
      "본부장": 4632,
      "장기화": 4633,
      "전문가들은": 4634,
      "영업이익은": 4635,
      "어렵다": 4636,
      "이름을": 4637,
      "디폴트옵션": 4638,
      "삼성SDI": 4639,
      "마지막": 4640,
      "15일": 4641,
      "43": 4642,
      "거듭": 4643,
      "경로": 4644,
      "공기": 4645,
      "기계": 4646,
      "기름": 4647,
      "노출": 4648,
      "달간": 4649,
      "도쿄": 4650,
      "돼야": 4651,
      "로이": 4652,
      "메가": 4653,
      "무엇": 4654,
      "밝힌": 4655,
      "부실": 4656,
      "뷰티": 4657,
      "브라": 4658,
      "세일": 4659,
      "소설": 4660,
      "시킬": 4661,
      "앱을": 4662,
      "이종": 4663,
      "장애": 4664,
      "재활용": 4665,
      "적은": 4666,
      "전일": 4667,
      "주재": 4668,
      "질문": 4669,
      "초등": 4670,
      "최악": 4671,
      "취업": 4672,
      "활발": 4673,
      "에서의": 4674,
      "부터는": 4675,
      "10만": 4676,
      "경제의": 4677,
      "고객들이": 4678,
      "제품은": 4679,
      "기관이": 4680,
      "지속적인": 4681,
      "규제가": 4682,
      "참여한": 4683,
      "중소벤처기업": 4684,
      "하나로": 4685,
      "목표를": 4686,
      "포함해": 4687,
      "참석했다": 4688,
      "국토부": 4689,
      "이유는": 4690,
      "거래일보다": 4691,
      "구체적인": 4692,
      "하려는": 4693,
      "지상국": 4694,
      "4분기": 4695,
      "83": 4696,
      "9만": 4697,
      "ER": 4698,
      "SC": 4699,
      "감지": 4700,
      "게시": 4701,
      "교환": 4702,
      "기한": 4703,
      "내에서": 4704,
      "넷플": 4705,
      "다소": 4706,
      "단행": 4707,
      "때는": 4708,
      "무선": 4709,
      "박람": 4710,
      "배우": 4711,
      "본사": 4712,
      "실장": 4713,
      "어링": 4714,
      "여개": 4715,
      "율을": 4716,
      "의존": 4717,
      "임무": 4718,
      "차단": 4719,
      "취재": 4720,
      "커질": 4721,
      "태그": 4722,
      "투기": 4723,
      "퍼스": 4724,
      "폴드": 4725,
      "한정": 4726,
      "가격으로": 4727,
      "198": 4728,
      "가능해": 4729,
      "이어지고": 4730,
      "진행됐다": 4731,
      "제품의": 4732,
      "공급하는": 4733,
      "연합회": 4734,
      "예상되는": 4735,
      "추진할": 4736,
      "뉴시스가": 4737,
      "반영하겠습니다": 4738,
      "본부장은": 4739,
      "변동성이": 4740,
      "보내주시면": 4741,
      "공감언론": 4742,
      "불가피": 4743,
      "제보받습니다": 4744,
      "화제성이": 4745,
      "아마존": 4746,
      "ENM": 4747,
      "퍼런스": 4748,
      "신혼부부": 4749,
      "사진영상부": 4750,
      "넷플릭": 4751,
      "04": 4752,
      "1위를": 4753,
      "2배": 4754,
      "51": 4755,
      "5대": 4756,
      "73": 4757,
      "CN": 4758,
      "UV": 4759,
      "ve": 4760,
      "가져": 4761,
      "가지고": 4762,
      "경신": 4763,
      "권의": 4764,
      "내수": 4765,
      "노벨": 4766,
      "높여": 4767,
      "단가": 4768,
      "대에서": 4769,
      "도심": 4770,
      "도전": 4771,
      "돌입": 4772,
      "들여": 4773,
      "마크": 4774,
      "물리": 4775,
      "보급": 4776,
      "상하이": 4777,
      "세는": 4778,
      "소폭": 4779,
      "시티": 4780,
      "신약": 4781,
      "에보": 4782,
      "여성": 4783,
      "열리는": 4784,
      "이던": 4785,
      "이로": 4786,
      "인기를": 4787,
      "있던": 4788,
      "적격": 4789,
      "점차": 4790,
      "제대로": 4791,
      "졌습니다": 4792,
      "조절": 4793,
      "중기": 4794,
      "질병": 4795,
      "취소": 4796,
      "팀장은": 4797,
      "표현": 4798,
      "현상이": 4799,
      "휴대": 4800,
      "2015년": 4801,
      "투자가": 4802,
      "가격도": 4803,
      "상승을": 4804,
      "판매를": 4805,
      "프로세": 4806,
      "확대해": 4807,
      "센터에서": 4808,
      "발생한": 4809,
      "결정을": 4810,
      "마이데이터": 4811,
      "증시가": 4812,
      "오르는": 4813,
      "근로자": 4814,
      "1998년": 4815,
      "강남구": 4816,
      "ICT": 4817,
      "완성차": 4818,
      "자신의": 4819,
      "이른바": 4820,
      "SSG": 4821,
      "상용화": 4822,
      "와이파이": 4823,
      "여파로": 4824,
      "무신사": 4825,
      "AM": 4826,
      "CP": 4827,
      "RI": 4828,
      "US": 4829,
      "개방": 4830,
      "곳은": 4831,
      "공격": 4832,
      "궤도": 4833,
      "극대화": 4834,
      "금액은": 4835,
      "메이": 4836,
      "명에": 4837,
      "물질": 4838,
      "미니": 4839,
      "발견": 4840,
      "벌어": 4841,
      "부서": 4842,
      "불편": 4843,
      "사들이": 4844,
      "시그": 4845,
      "신차": 4846,
      "열어": 4847,
      "였습니다": 4848,
      "오닉": 4849,
      "위메이드": 4850,
      "의결": 4851,
      "이끌어": 4852,
      "전주": 4853,
      "주일": 4854,
      "지면": 4855,
      "철강": 4856,
      "촉진": 4857,
      "취급": 4858,
      "컬러": 4859,
      "타임": 4860,
      "한계": 4861,
      "해수": 4862,
      "기술력": 4863,
      "기술력을": 4864,
      "금리인상": 4865,
      "사진제공": 4866,
      "확대할": 4867,
      "지역에": 4868,
      "LG에너지솔루션": 4869,
      "우리금융": 4870,
      "현대모": 4871,
      "업체의": 4872,
      "카카오게임즈": 4873,
      "직원들이": 4874,
      "안정적인": 4875,
      "감소한": 4876,
      "2300": 4877,
      "지하철": 4878,
      "최적의": 4879,
      "상한제": 4880,
      "컴퓨터": 4881,
      "캐피탈": 4882,
      "1개": 4883,
      "72": 4884,
      "76": 4885,
      "BT": 4886,
      "GM": 4887,
      "Mo": 4888,
      "ch": 4889,
      "th": 4890,
      "곳에서": 4891,
      "관이": 4892,
      "광역": 4893,
      "귀농": 4894,
      "눈에": 4895,
      "닷컴": 4896,
      "도와": 4897,
      "든요": 4898,
      "디션": 4899,
      "루닛": 4900,
      "물량": 4901,
      "물이": 4902,
      "번에": 4903,
      "보일": 4904,
      "불구": 4905,
      "상속": 4906,
      "상점": 4907,
      "스러": 4908,
      "열차": 4909,
      "와인": 4910,
      "유연": 4911,
      "이은": 4912,
      "이스타": 4913,
      "자격": 4914,
      "재미": 4915,
      "저가": 4916,
      "정리": 4917,
      "최선을": 4918,
      "테리어": 4919,
      "특화": 4920,
      "팝업": 4921,
      "한층": 4922,
      "00만원": 4923,
      "사업체": 4924,
      "미국과": 4925,
      "2024년": 4926,
      "이상을": 4927,
      "그룹이": 4928,
      "지속될": 4929,
      "출시한": 4930,
      "보험료": 4931,
      "롯데마트": 4932,
      "하나의": 4933,
      "공개했다": 4934,
      "애플리케이션": 4935,
      "성공했다": 4936,
      "비용이": 4937,
      "중요하다": 4938,
      "5년간": 4939,
      "담보대출": 4940,
      "비교해": 4941,
      "노조는": 4942,
      "활성화를": 4943,
      "연방준비": 4944,
      "2012년": 4945,
      "박람회": 4946,
      "PL": 4947,
      "PM": 4948,
      "un": 4949,
      "간호": 4950,
      "개념": 4951,
      "갤럭": 4952,
      "거든요": 4953,
      "교체": 4954,
      "구간": 4955,
      "구분": 4956,
      "그만큼": 4957,
      "김치": 4958,
      "나이": 4959,
      "리얼": 4960,
      "리조": 4961,
      "리베이": 4962,
      "마찬": 4963,
      "말씀": 4964,
      "면역": 4965,
      "명예": 4966,
      "모야": 4967,
      "못하고": 4968,
      "발간": 4969,
      "보행": 4970,
      "부상": 4971,
      "성수": 4972,
      "속에서": 4973,
      "순위": 4974,
      "순으로": 4975,
      "스페": 4976,
      "시공": 4977,
      "시코": 4978,
      "신경": 4979,
      "쏘카": 4980,
      "없을": 4981,
      "에코": 4982,
      "임원": 4983,
      "전남": 4984,
      "주기": 4985,
      "초반": 4986,
      "트레이": 4987,
      "티지": 4988,
      "판에": 4989,
      "포항": 4990,
      "함으로써": 4991,
      "협상": 4992,
      "00만": 4993,
      "가격의": 4994,
      "위해서": 4995,
      "상승에": 4996,
      "상승세를": 4997,
      "30대": 4998,
      "진행한": 4999,
      "판매하는": 5000,
      "금리는": 5001,
      "상품으로": 5002,
      "운영하고": 5003,
      "최고치를": 5004,
      "추진하고": 5005,
      "전환을": 5006,
      "어려워": 5007,
      "환율이": 5008,
      "고용노동": 5009,
      "오프닝": 5010,
      "줄어든": 5011,
      "비상경제": 5012,
      "RE100": 5013,
      "OTT": 5014,
      "정부서울청사에서": 5015,
      "16일": 5016,
      "61": 5017,
      "8천": 5018,
      "el": 5019,
      "경북": 5020,
      "고급": 5021,
      "나설": 5022,
      "내역": 5023,
      "높이는": 5024,
      "다하겠다": 5025,
      "리츠": 5026,
      "부의": 5027,
      "부장": 5028,
      "불리는": 5029,
      "블랙": 5030,
      "비가": 5031,
      "산정": 5032,
      "실무": 5033,
      "아요": 5034,
      "아우": 5035,
      "었는데": 5036,
      "엘리베이": 5037,
      "원칙": 5038,
      "유산": 5039,
      "이창": 5040,
      "이사회": 5041,
      "인테리어": 5042,
      "잇따라": 5043,
      "작동": 5044,
      "작업을": 5045,
      "제정": 5046,
      "주말": 5047,
      "췄다": 5048,
      "치열": 5049,
      "타이": 5050,
      "특약": 5051,
      "포털": 5052,
      "폭으로": 5053,
      "품을": 5054,
      "확충": 5055,
      "10일": 5056,
      "연구를": 5057,
      "상승으로": 5058,
      "산업계": 5059,
      "정보보호": 5060,
      "증권은": 5061,
      "주요국": 5062,
      "13일": 5063,
      "예상했다": 5064,
      "수익을": 5065,
      "시행령": 5066,
      "성공적으로": 5067,
      "참석해": 5068,
      "변동성": 5069,
      "번째로": 5070,
      "프로젝트를": 5071,
      "보고서를": 5072,
      "케이블": 5073,
      "받는다": 5074,
      "GS25": 5075,
      "전반에": 5076,
      "과기정통부는": 5077,
      "업무협약을": 5078,
      "전경련": 5079,
      "아이폰14": 5080,
      "SK하이닉스": 5081,
      "리테일": 5082,
      "이스타항공": 5083,
      "갤럭시": 5084,
      "마찬가지": 5085,
      "엘리베이터": 5086,
      "21일": 5087,
      "3조": 5088,
      "6만": 5089,
      "89": 5090,
      "DS": 5091,
      "DX": 5092,
      "ON": 5093,
      "TI": 5094,
      "경고": 5095,
      "공장을": 5096,
      "극복": 5097,
      "긴밀": 5098,
      "단렌": 5099,
      "도착": 5100,
      "동력": 5101,
      "되었다": 5102,
      "만이": 5103,
      "매주": 5104,
      "멘토": 5105,
      "바라": 5106,
      "박사": 5107,
      "배제": 5108,
      "분이": 5109,
      "비아": 5110,
      "샌드": 5111,
      "서초": 5112,
      "속도가": 5113,
      "수여": 5114,
      "신종": 5115,
      "약세": 5116,
      "어디": 5117,
      "에프": 5118,
      "엔진": 5119,
      "예술": 5120,
      "율은": 5121,
      "율이": 5122,
      "음을": 5123,
      "음극재": 5124,
      "이의": 5125,
      "정유": 5126,
      "존재": 5127,
      "종을": 5128,
      "즉시": 5129,
      "진정": 5130,
      "친구": 5131,
      "트윈": 5132,
      "한미": 5133,
      "협업을": 5134,
      "으로도": 5135,
      "서비스는": 5136,
      "됐다고": 5137,
      "산업부": 5138,
      "대표적인": 5139,
      "판매가": 5140,
      "레이션": 5141,
      "확대하고": 5142,
      "지역에서": 5143,
      "기관과": 5144,
      "SK이노베이션": 5145,
      "평가했다": 5146,
      "분야에": 5147,
      "전기요금": 5148,
      "구축해": 5149,
      "적용한": 5150,
      "강화해": 5151,
      "카드를": 5152,
      "24시간": 5153,
      "수익성": 5154,
      "신청을": 5155,
      "점검을": 5156,
      "반영해": 5157,
      "구글과": 5158,
      "수상한": 5159,
      "LG유플러스가": 5160,
      "않는다": 5161,
      "오르고": 5162,
      "편의점": 5163,
      "기여할": 5164,
      "임대주택": 5165,
      "보도했다": 5166,
      "게이단렌": 5167,
      "카이스트": 5168,
      "업데이트": 5169,
      "추첨을": 5170,
      "온실가스": 5171,
      "2조": 5172,
      "4호": 5173,
      "In": 5174,
      "OS": 5175,
      "am": 5176,
      "bi": 5177,
      "강한": 5178,
      "공매도": 5179,
      "관을": 5180,
      "국립": 5181,
      "권고": 5182,
      "기와": 5183,
      "멀티": 5184,
      "모아": 5185,
      "못했다": 5186,
      "범위": 5187,
      "복현": 5188,
      "봐야": 5189,
      "부여": 5190,
      "수석": 5191,
      "시내": 5192,
      "식용": 5193,
      "실태": 5194,
      "어도": 5195,
      "얼마": 5196,
      "여의도": 5197,
      "연말": 5198,
      "영화": 5199,
      "와트": 5200,
      "원장이": 5201,
      "일시": 5202,
      "임을": 5203,
      "자문": 5204,
      "재건축": 5205,
      "조기": 5206,
      "좋아": 5207,
      "지자체": 5208,
      "체감": 5209,
      "초청": 5210,
      "최대한": 5211,
      "추세": 5212,
      "커졌다": 5213,
      "클래": 5214,
      "토론": 5215,
      "틱스": 5216,
      "회계": 5217,
      "2014년": 5218,
      "한다면": 5219,
      "이용한": 5220,
      "기관의": 5221,
      "우리은행": 5222,
      "분석이": 5223,
      "구축을": 5224,
      "일본의": 5225,
      "마련했다": 5226,
      "모델을": 5227,
      "늘어날": 5228,
      "애플은": 5229,
      "본격적으로": 5230,
      "LG전자는": 5231,
      "자료사진": 5232,
      "대통령이": 5233,
      "SK텔레콤은": 5234,
      "부회장이": 5235,
      "패키지": 5236,
      "패키징": 5237,
      "흐름을": 5238,
      "IBK": 5239,
      "엔터테인먼트": 5240,
      "차이가": 5241,
      "반려동물": 5242,
      "블룸버그": 5243,
      "로이터": 5244,
      "54": 5245,
      "DSR": 5246,
      "Re": 5247,
      "ss": 5248,
      "개장": 5249,
      "겁니다": 5250,
      "공원": 5251,
      "국정": 5252,
      "기고": 5253,
      "달아": 5254,
      "도약": 5255,
      "마을": 5256,
      "만이다": 5257,
      "많았": 5258,
      "매체": 5259,
      "명은": 5260,
      "모색": 5261,
      "민생": 5262,
      "배틀": 5263,
      "밴드": 5264,
      "법에": 5265,
      "부정": 5266,
      "분에": 5267,
      "사출": 5268,
      "상향": 5269,
      "선사": 5270,
      "수혜": 5271,
      "승객": 5272,
      "이복현": 5273,
      "자들은": 5274,
      "장착": 5275,
      "전파": 5276,
      "주에": 5277,
      "중순": 5278,
      "지와": 5279,
      "차원의": 5280,
      "차원에서": 5281,
      "챌린": 5282,
      "출처": 5283,
      "치지": 5284,
      "컬렉션": 5285,
      "클럽": 5286,
      "통제": 5287,
      "포기": 5288,
      "포장": 5289,
      "행위": 5290,
      "현행": 5291,
      "20일": 5292,
      "금융위원회": 5293,
      "제공해": 5294,
      "이어가고": 5295,
      "정보기술": 5296,
      "이상이": 5297,
      "환경이": 5298,
      "에게는": 5299,
      "세계에서": 5300,
      "세계적인": 5301,
      "경영진": 5302,
      "업계에서는": 5303,
      "센터를": 5304,
      "아이템": 5305,
      "하반기에": 5306,
      "하반기에도": 5307,
      "발전을": 5308,
      "미래에": 5309,
      "해당하는": 5310,
      "조원을": 5311,
      "비용을": 5312,
      "가상화폐": 5313,
      "제조업": 5314,
      "차지했다": 5315,
      "사례를": 5316,
      "사전에": 5317,
      "구체적으로": 5318,
      "제외한": 5319,
      "감염증": 5320,
      "불확실성이": 5321,
      "합리적인": 5322,
      "배럴당": 5323,
      "노하우를": 5324,
      "국민의힘": 5325,
      "카테고리": 5326,
      "초등학교": 5327,
      "연방준비제도": 5328,
      "3배": 5329,
      "4시": 5330,
      "7천": 5331,
      "MS": 5332,
      "TO": 5333,
      "ct": 5334,
      "yn": 5335,
      "가시": 5336,
      "강도": 5337,
      "개미": 5338,
      "걱정": 5339,
      "국책": 5340,
      "균형": 5341,
      "네오": 5342,
      "년간": 5343,
      "담아": 5344,
      "드라마": 5345,
      "들었다": 5346,
      "량의": 5347,
      "명령": 5348,
      "모양": 5349,
      "무상": 5350,
      "미세": 5351,
      "민주당": 5352,
      "바람": 5353,
      "버추": 5354,
      "보완": 5355,
      "불법": 5356,
      "사퇴": 5357,
      "소스": 5358,
      "식에서": 5359,
      "신동": 5360,
      "신문": 5361,
      "안보": 5362,
      "여명이": 5363,
      "외에": 5364,
      "자주": 5365,
      "정의": 5366,
      "종가": 5367,
      "주최": 5368,
      "줄이": 5369,
      "줄일": 5370,
      "즐거": 5371,
      "축소": 5372,
      "충격": 5373,
      "토큰": 5374,
      "토레스": 5375,
      "특성": 5376,
      "핀테크": 5377,
      "으로서": 5378,
      "시장에서는": 5379,
      "서울의": 5380,
      "한국은행": 5381,
      "개발해": 5382,
      "진행되는": 5383,
      "기준을": 5384,
      "하락세를": 5385,
      "정책에": 5386,
      "만원으로": 5387,
      "플랫폼을": 5388,
      "인상에": 5389,
      "전략적": 5390,
      "카카오페이": 5391,
      "자동화": 5392,
      "영향이": 5393,
      "삼성전자가": 5394,
      "브랜드를": 5395,
      "내용의": 5396,
      "결정했다": 5397,
      "가상인간": 5398,
      "30일까지": 5399,
      "자금을": 5400,
      "신용융자": 5401,
      "사례가": 5402,
      "비교하면": 5403,
      "가까운": 5404,
      "가계부채": 5405,
      "행복주택": 5406,
      "동일한": 5407,
      "홀딩스": 5408,
      "버추얼": 5409,
      "1인": 5410,
      "4개월": 5411,
      "91": 5412,
      "HR": 5413,
      "갖춰": 5414,
      "기상": 5415,
      "꼽았다": 5416,
      "노트": 5417,
      "농산물": 5418,
      "돈을": 5419,
      "돼지고": 5420,
      "됐던": 5421,
      "들로": 5422,
      "리면서": 5423,
      "매니": 5424,
      "목적으로": 5425,
      "방통": 5426,
      "봉사": 5427,
      "설문": 5428,
      "성적": 5429,
      "세트": 5430,
      "수리": 5431,
      "스위": 5432,
      "실증": 5433,
      "악재": 5434,
      "양호": 5435,
      "어나": 5436,
      "엔데믹": 5437,
      "역전": 5438,
      "열었다": 5439,
      "온도": 5440,
      "원한": 5441,
      "유료": 5442,
      "이래": 5443,
      "인접": 5444,
      "임시": 5445,
      "전무": 5446,
      "제철": 5447,
      "즈를": 5448,
      "채택": 5449,
      "축적": 5450,
      "침공": 5451,
      "타운": 5452,
      "티어": 5453,
      "파리": 5454,
      "프린": 5455,
      "한때": 5456,
      "해주는": 5457,
      "한국전력": 5458,
      "10개": 5459,
      "개발하고": 5460,
      "올해는": 5461,
      "산업을": 5462,
      "거래되고": 5463,
      "고객들에게": 5464,
      "라이언": 5465,
      "하락할": 5466,
      "따라서": 5467,
      "회사가": 5468,
      "현대자동차": 5469,
      "개선을": 5470,
      "아이오닉": 5471,
      "1년간": 5472,
      "위원회를": 5473,
      "자리를": 5474,
      "차량을": 5475,
      "방향을": 5476,
      "사고가": 5477,
      "사람들이": 5478,
      "KB금융": 5479,
      "상승률은": 5480,
      "대책을": 5481,
      "정비사업": 5482,
      "유니폼": 5483,
      "전해졌다": 5484,
      "무역수지": 5485,
      "가속화": 5486,
      "스티벌": 5487,
      "어린이": 5488,
      "당부했다": 5489,
      "최악의": 5490,
      "휴대폰": 5491,
      "CF": 5492,
      "MC": 5493,
      "SUV": 5494,
      "ig": 5495,
      "가산": 5496,
      "공헌": 5497,
      "굉장": 5498,
      "길을": 5499,
      "냉장": 5500,
      "높이고": 5501,
      "다르": 5502,
      "단을": 5503,
      "달했다": 5504,
      "됐고": 5505,
      "많았다": 5506,
      "못하는": 5507,
      "반발": 5508,
      "본다": 5509,
      "사랑": 5510,
      "선발": 5511,
      "승진": 5512,
      "시연": 5513,
      "시점": 5514,
      "실패": 5515,
      "심리": 5516,
      "심리가": 5517,
      "연령": 5518,
      "자들의": 5519,
      "전력을": 5520,
      "조언": 5521,
      "조사를": 5522,
      "주류": 5523,
      "중대": 5524,
      "최휘": 5525,
      "충청": 5526,
      "코드": 5527,
      "퀘어": 5528,
      "특례": 5529,
      "페스티벌": 5530,
      "힘들": 5531,
      "에서만": 5532,
      "2010년": 5533,
      "까지는": 5534,
      "금융권": 5535,
      "10만원": 5536,
      "서비스에": 5537,
      "지원하기": 5538,
      "진행한다고": 5539,
      "대표이": 5540,
      "성장할": 5541,
      "최근에는": 5542,
      "규모를": 5543,
      "수출은": 5544,
      "운영한다": 5545,
      "기간을": 5546,
      "코로나바이러스": 5547,
      "인상을": 5548,
      "이날부터": 5549,
      "회장의": 5550,
      "분석해": 5551,
      "분석이다": 5552,
      "삼성전자의": 5553,
      "미래를": 5554,
      "들과의": 5555,
      "오른쪽": 5556,
      "책임자": 5557,
      "선보였다": 5558,
      "인증을": 5559,
      "사항을": 5560,
      "나오고": 5561,
      "2030년까지": 5562,
      "수치다": 5563,
      "가맹점": 5564,
      "고등과학": 5565,
      "천연가스": 5566,
      "현대모비스": 5567,
      "불구하고": 5568,
      "비상경제장관": 5569,
      "24일": 5570,
      "4대": 5571,
      "74": 5572,
      "7개": 5573,
      "EV": 5574,
      "IDC": 5575,
      "것에": 5576,
      "과실": 5577,
      "구독": 5578,
      "권역": 5579,
      "그쳤다": 5580,
      "그렇게": 5581,
      "금속": 5582,
      "급감": 5583,
      "급여": 5584,
      "길이": 5585,
      "나오는": 5586,
      "남부": 5587,
      "논란": 5588,
      "대우": 5589,
      "덕수": 5590,
      "독점": 5591,
      "됐지만": 5592,
      "리오프닝": 5593,
      "명에게": 5594,
      "모터": 5595,
      "미리": 5596,
      "바꾸": 5597,
      "방한": 5598,
      "버전": 5599,
      "부를": 5600,
      "생성": 5601,
      "서류": 5602,
      "소셜": 5603,
      "시켰": 5604,
      "신임": 5605,
      "신기술": 5606,
      "심각": 5607,
      "아무": 5608,
      "압력": 5609,
      "연세대": 5610,
      "예산": 5611,
      "위주로": 5612,
      "위믹스": 5613,
      "의류": 5614,
      "의원": 5615,
      "인은": 5616,
      "임명": 5617,
      "자기": 5618,
      "자에": 5619,
      "자영업": 5620,
      "장에서": 5621,
      "추구": 5622,
      "캠퍼스": 5623,
      "트랜": 5624,
      "팩트": 5625,
      "평양": 5626,
      "폭발": 5627,
      "피트": 5628,
      "함에": 5629,
      "해온": 5630,
      "혐의": 5631,
      "환불": 5632,
      "환전": 5633,
      "기술은": 5634,
      "개발사": 5635,
      "판매한다": 5636,
      "전망을": 5637,
      "상품은": 5638,
      "수출입": 5639,
      "위원장은": 5640,
      "디지털데일리": 5641,
      "주택담보대출": 5642,
      "플랫폼으로": 5643,
      "100만": 5644,
      "출시했다고": 5645,
      "소비자들이": 5646,
      "센터는": 5647,
      "안정화": 5648,
      "발전소": 5649,
      "방식이다": 5650,
      "현장에서": 5651,
      "생각한다": 5652,
      "2년간": 5653,
      "스토리": 5654,
      "기념촬영을": 5655,
      "과제를": 5656,
      "노동조합": 5657,
      "ISO": 5658,
      "취약계층": 5659,
      "요인으로": 5660,
      "ation": 5661,
      "나서고": 5662,
      "캠페인을": 5663,
      "증정한다": 5664,
      "저렴한": 5665,
      "긍정적인": 5666,
      "주얼리": 5667,
      "나아가": 5668,
      "멤버십": 5669,
      "세미나": 5670,
      "인포테인먼트": 5671,
      "03": 5672,
      "FDA": 5673,
      "ud": 5674,
      "각국": 5675,
      "갖추": 5676,
      "갤러": 5677,
      "겪고": 5678,
      "겼다": 5679,
      "고금리": 5680,
      "금이": 5681,
      "나누": 5682,
      "낙찰": 5683,
      "높았다": 5684,
      "도움을": 5685,
      "되도록": 5686,
      "런던": 5687,
      "리기": 5688,
      "물은": 5689,
      "반복": 5690,
      "보관": 5691,
      "보기": 5692,
      "세제": 5693,
      "순이익": 5694,
      "실을": 5695,
      "실에서": 5696,
      "안이": 5697,
      "알파": 5698,
      "엑스": 5699,
      "용품": 5700,
      "웹소설": 5701,
      "의지를": 5702,
      "이끌": 5703,
      "이르": 5704,
      "일각": 5705,
      "일으": 5706,
      "입증": 5707,
      "재개발": 5708,
      "적합": 5709,
      "전화": 5710,
      "조차": 5711,
      "지시": 5712,
      "지켜": 5713,
      "지향": 5714,
      "지에서": 5715,
      "프톤": 5716,
      "확진": 5717,
      "회선": 5718,
      "00억원": 5719,
      "지난주": 5720,
      "기술의": 5721,
      "금융시장": 5722,
      "금융자산": 5723,
      "서비스다": 5724,
      "30년": 5725,
      "상품의": 5726,
      "세계적으로": 5727,
      "대상을": 5728,
      "사용하는": 5729,
      "기록할": 5730,
      "바이든": 5731,
      "인상이": 5732,
      "소비자가": 5733,
      "기대하고": 5734,
      "적용할": 5735,
      "장관과": 5736,
      "안정을": 5737,
      "발생할": 5738,
      "유지할": 5739,
      "모델이": 5740,
      "현장의": 5741,
      "마이너스": 5742,
      "최저임금": 5743,
      "성능을": 5744,
      "lock": 5745,
      "정확한": 5746,
      "유동성": 5747,
      "아래로": 5748,
      "제3자": 5749,
      "이재용": 5750,
      "크래프톤": 5751,
      "DTx": 5752,
      "사이언스": 5753,
      "자세한": 5754,
      "일환으로": 5755,
      "굉장히": 5756,
      "11일": 5757,
      "79": 5758,
      "9000": 5759,
      "OLED": 5760,
      "PF": 5761,
      "ra": 5762,
      "격려": 5763,
      "격차": 5764,
      "경계": 5765,
      "고요": 5766,
      "고수온": 5767,
      "기재": 5768,
      "동결": 5769,
      "동원": 5770,
      "됨에": 5771,
      "두기": 5772,
      "드시": 5773,
      "뛰었다": 5774,
      "리터": 5775,
      "먹거리": 5776,
      "모드": 5777,
      "문화를": 5778,
      "바디": 5779,
      "받지": 5780,
      "별도로": 5781,
      "보드": 5782,
      "본점": 5783,
      "상시": 5784,
      "세운": 5785,
      "손을": 5786,
      "순매도": 5787,
      "식으로": 5788,
      "올려": 5789,
      "올리는": 5790,
      "운항": 5791,
      "위협": 5792,
      "음성": 5793,
      "일단": 5794,
      "입어": 5795,
      "장에": 5796,
      "줄여": 5797,
      "찾은": 5798,
      "처벌": 5799,
      "출산": 5800,
      "출신": 5801,
      "카지노": 5802,
      "캠프": 5803,
      "커버": 5804,
      "키로": 5805,
      "타입": 5806,
      "티몬": 5807,
      "퍼니": 5808,
      "퍼블": 5809,
      "포지": 5810,
      "한번": 5811,
      "했기": 5812,
      "행동": 5813,
      "화재": 5814,
      "화한": 5815,
      "회에서": 5816,
      "개발했다": 5817,
      "연구팀은": 5818,
      "겠다고": 5819,
      "대상은": 5820,
      "대상이": 5821,
      "활용하는": 5822,
      "기관에": 5823,
      "수요를": 5824,
      "40대": 5825,
      "구축하고": 5826,
      "적용해": 5827,
      "강화를": 5828,
      "강화하고": 5829,
      "우려를": 5830,
      "나타냈다": 5831,
      "코로나19로": 5832,
      "2009년": 5833,
      "활동에": 5834,
      "신한금융": 5835,
      "점검하고": 5836,
      "3년간": 5837,
      "도입을": 5838,
      "반영한": 5839,
      "수학자": 5840,
      "기념해": 5841,
      "자료를": 5842,
      "편의성을": 5843,
      "방송을": 5844,
      "채널을": 5845,
      "상공회의": 5846,
      "신호를": 5847,
      "자유롭게": 5848,
      "직장인": 5849,
      "31일까지": 5850,
      "인플루": 5851,
      "시가총액": 5852,
      "1대": 5853,
      "1호": 5854,
      "7개월": 5855,
      "CS": 5856,
      "EF": 5857,
      "Fed": 5858,
      "ou": 5859,
      "ri": 5860,
      "가중": 5861,
      "간접": 5862,
      "개를": 5863,
      "개척": 5864,
      "과열": 5865,
      "근본": 5866,
      "기타": 5867,
      "냉동": 5868,
      "놀로": 5869,
      "달한다": 5870,
      "답변": 5871,
      "됐으며": 5872,
      "렉스": 5873,
      "려는": 5874,
      "만두": 5875,
      "메리": 5876,
      "물량이": 5877,
      "반드시": 5878,
      "본인": 5879,
      "비행": 5880,
      "서민": 5881,
      "서버": 5882,
      "서부": 5883,
      "수면": 5884,
      "스럽": 5885,
      "스피": 5886,
      "시킨": 5887,
      "실내": 5888,
      "심을": 5889,
      "안마": 5890,
      "언제": 5891,
      "연대": 5892,
      "예를": 5893,
      "운반": 5894,
      "위니": 5895,
      "이더": 5896,
      "입법": 5897,
      "자릿": 5898,
      "작성": 5899,
      "조사업체": 5900,
      "지인": 5901,
      "진료": 5902,
      "집행": 5903,
      "채소": 5904,
      "청정": 5905,
      "촉구": 5906,
      "출연": 5907,
      "컨테이": 5908,
      "태원": 5909,
      "터를": 5910,
      "팀장": 5911,
      "팩토": 5912,
      "학부": 5913,
      "한덕수": 5914,
      "해시": 5915,
      "화해": 5916,
      "시장조사업체": 5917,
      "이라면": 5918,
      "한국투자증권": 5919,
      "개발과": 5920,
      "서비스와": 5921,
      "연구진": 5922,
      "지원하고": 5923,
      "이어갈": 5924,
      "이어서": 5925,
      "판매량은": 5926,
      "지역을": 5927,
      "증가할": 5928,
      "경영을": 5929,
      "경영시스템": 5930,
      "SKT": 5931,
      "수준에": 5932,
      "시작된": 5933,
      "참여할": 5934,
      "추진한다": 5935,
      "건설은": 5936,
      "기존에": 5937,
      "협력해": 5938,
      "대학원": 5939,
      "교육을": 5940,
      "내용이": 5941,
      "부문의": 5942,
      "무역금융": 5943,
      "시설을": 5944,
      "수학계": 5945,
      "코리아는": 5946,
      "특별한": 5947,
      "상담을": 5948,
      "설립된": 5949,
      "책임을": 5950,
      "외국환": 5951,
      "테크놀로": 5952,
      "의미가": 5953,
      "우리나라의": 5954,
      "제시한": 5955,
      "파트너십": 5956,
      "철도공사": 5957,
      "협의체": 5958,
      "감안하면": 5959,
      "가이드라인": 5960,
      "오피스텔": 5961,
      "그라운드": 5962,
      "선제적으로": 5963,
      "상공회의소": 5964,
      "컨테이너": 5965,
      "2위": 5966,
      "62": 5967,
      "98": 5968,
      "IR": 5969,
      "감면": 5970,
      "강연": 5971,
      "건으로": 5972,
      "공제": 5973,
      "그나": 5974,
      "기온": 5975,
      "기울": 5976,
      "김영": 5977,
      "나머": 5978,
      "농촌": 5979,
      "높일": 5980,
      "단일": 5981,
      "담긴": 5982,
      "대거": 5983,
      "더블": 5984,
      "로고": 5985,
      "리움": 5986,
      "말한다": 5987,
      "맞게": 5988,
      "멘트": 5989,
      "발령": 5990,
      "배치": 5991,
      "붕괴": 5992,
      "성도": 5993,
      "소송": 5994,
      "속에": 5995,
      "손보": 5996,
      "싶은": 5997,
      "쏟아": 5998,
      "아름": 5999,
      "아티": 6000,
      "알뜰": 6001,
      "액을": 6002,
      "어제": 6003,
      "오브": 6004,
      "외화": 6005,
      "유력": 6006,
      "이정": 6007,
      "이틀": 6008,
      "이같은": 6009,
      "인권": 6010,
      "일주일": 6011,
      "저축": 6012,
      "정밀": 6013,
      "제과": 6014,
      "종류": 6015,
      "중기부": 6016,
      "지목": 6017,
      "집단": 6018,
      "착수": 6019,
      "처방": 6020,
      "청구": 6021,
      "추측": 6022,
      "충전기": 6023,
      "크로": 6024,
      "타이어": 6025,
      "파워": 6026,
      "표시": 6027,
      "프렌": 6028,
      "학술": 6029,
      "항목": 6030,
      "호주": 6031,
      "회관에서": 6032,
      "흡수": 6033,
      "히는": 6034,
      "사업으로": 6035,
      "투자에": 6036,
      "투자하는": 6037,
      "196": 6038,
      "지원이": 6039,
      "상승이": 6040,
      "사진을": 6041,
      "성장이": 6042,
      "이용자가": 6043,
      "관리에": 6044,
      "확대하는": 6045,
      "삼성증권": 6046,
      "우리가": 6047,
      "정책이": 6048,
      "대해서도": 6049,
      "기간이": 6050,
      "적용된다": 6051,
      "우려로": 6052,
      "기존의": 6053,
      "확인됐다": 6054,
      "포함된": 6055,
      "하이브": 6056,
      "애플이": 6057,
      "클라우드팜": 6058,
      "무역적": 6059,
      "가스요금": 6060,
      "모습이다": 6061,
      "협회는": 6062,
      "의미다": 6063,
      "최저가": 6064,
      "거래소에": 6065,
      "만들고": 6066,
      "케이뱅크": 6067,
      "세종시": 6068,
      "loud": 6069,
      "제고를": 6070,
      "실시간으로": 6071,
      "하우스": 6072,
      "개인정보보호": 6073,
      "SRT": 6074,
      "유사한": 6075,
      "편리하게": 6076,
      "유일하게": 6077,
      "아웃링크": 6078,
      "충분히": 6079,
      "06": 6080,
      "3명": 6081,
      "6천": 6082,
      "AT": 6083,
      "ay": 6084,
      "강의": 6085,
      "검은": 6086,
      "경보": 6087,
      "경진": 6088,
      "그랜드": 6089,
      "기넥": 6090,
      "노후": 6091,
      "농림": 6092,
      "높였다": 6093,
      "높이기": 6094,
      "능력을": 6095,
      "다이": 6096,
      "단축": 6097,
      "대량": 6098,
      "대성": 6099,
      "동국제": 6100,
      "두산": 6101,
      "때마다": 6102,
      "리튬": 6103,
      "메일": 6104,
      "바나": 6105,
      "받게": 6106,
      "받기": 6107,
      "분명": 6108,
      "사내": 6109,
      "사장이": 6110,
      "상으로": 6111,
      "속도로": 6112,
      "수술": 6113,
      "수용": 6114,
      "아는": 6115,
      "언트": 6116,
      "여객": 6117,
      "예매": 6118,
      "원활": 6119,
      "위성을": 6120,
      "유성": 6121,
      "유전": 6122,
      "유치를": 6123,
      "이영": 6124,
      "인건": 6125,
      "인텔": 6126,
      "접어": 6127,
      "창원": 6128,
      "추산": 6129,
      "컴퍼니": 6130,
      "펼쳐": 6131,
      "폐지": 6132,
      "폭은": 6133,
      "플로": 6134,
      "한시": 6135,
      "해지": 6136,
      "헤드": 6137,
      "혔다": 6138,
      "혹은": 6139,
      "후원": 6140,
      "한국에서": 6141,
      "한국과학기술": 6142,
      "국내에서": 6143,
      "30분": 6144,
      "이어가": 6145,
      "되는데": 6146,
      "판매량이": 6147,
      "지난해부터": 6148,
      "관리할": 6149,
      "프로토": 6150,
      "예정인": 6151,
      "기록을": 6152,
      "전문기업": 6153,
      "생산하는": 6154,
      "규제혁신": 6155,
      "기간보다": 6156,
      "경쟁이": 6157,
      "발표를": 6158,
      "소비자의": 6159,
      "매출을": 6160,
      "최고치": 6161,
      "강화할": 6162,
      "자동으로": 6163,
      "주식재산": 6164,
      "위기에": 6165,
      "신한금융투자": 6166,
      "방안도": 6167,
      "22일": 6168,
      "차량용": 6169,
      "유가증권": 6170,
      "법인을": 6171,
      "준비하고": 6172,
      "00원으로": 6173,
      "쇼핑몰": 6174,
      "조치가": 6175,
      "논의를": 6176,
      "지적이": 6177,
      "인프라를": 6178,
      "스크린": 6179,
      "조건을": 6180,
      "왼쪽부터": 6181,
      "프라이빗": 6182,
      "기지국": 6183,
      "콜라겐": 6184,
      "해운대": 6185,
      "고용노동부": 6186,
      "기넥신": 6187,
      "08": 6188,
      "1개월": 6189,
      "2회": 6190,
      "250": 6191,
      "3가지": 6192,
      "6억": 6193,
      "8개월": 6194,
      "9개": 6195,
      "9천": 6196,
      "IN": 6197,
      "RA": 6198,
      "VS": 6199,
      "block": 6200,
      "et": 6201,
      "계산": 6202,
      "곳을": 6203,
      "기까지": 6204,
      "긴급": 6205,
      "남은": 6206,
      "냐는": 6207,
      "노선": 6208,
      "녹색": 6209,
      "농축": 6210,
      "늘려": 6211,
      "단말": 6212,
      "돌려": 6213,
      "뚜렷": 6214,
      "메디": 6215,
      "멕시코": 6216,
      "면담": 6217,
      "므로": 6218,
      "배추": 6219,
      "밸리": 6220,
      "보조": 6221,
      "비는": 6222,
      "사라": 6223,
      "생물": 6224,
      "서구": 6225,
      "석학": 6226,
      "세우": 6227,
      "센트": 6228,
      "스키": 6229,
      "시멘트": 6230,
      "신사업": 6231,
      "아산": 6232,
      "았던": 6233,
      "역을": 6234,
      "원희": 6235,
      "이처럼": 6236,
      "인류": 6237,
      "인사이트": 6238,
      "일은": 6239,
      "입금": 6240,
      "잠정": 6241,
      "재난": 6242,
      "정지": 6243,
      "조명": 6244,
      "준수": 6245,
      "직면": 6246,
      "질의": 6247,
      "찾는": 6248,
      "처는": 6249,
      "총장": 6250,
      "최우선": 6251,
      "커지면서": 6252,
      "타격": 6253,
      "타치": 6254,
      "탄생": 6255,
      "토대로": 6256,
      "페어": 6257,
      "표를": 6258,
      "합작": 6259,
      "흔들": 6260,
      "히고": 6261,
      "힘입어": 6262,
      "2013년": 6263,
      "서비스가": 6264,
      "된다는": 6265,
      "가능하며": 6266,
      "경제가": 6267,
      "경제적": 6268,
      "산업에": 6269,
      "미국에서": 6270,
      "2021": 6271,
      "제품이다": 6272,
      "공급이": 6273,
      "이상으로": 6274,
      "대비해": 6275,
      "물가는": 6276,
      "증가하는": 6277,
      "경우에는": 6278,
      "기록해": 6279,
      "평가가": 6280,
      "수준이": 6281,
      "전력수요가": 6282,
      "사회공헌": 6283,
      "이벤트도": 6284,
      "내용은": 6285,
      "모델링": 6286,
      "구성해": 6287,
      "자리에서": 6288,
      "러시아산": 6289,
      "사람이": 6290,
      "건강한": 6291,
      "상승률을": 6292,
      "한화솔루션": 6293,
      "간담회를": 6294,
      "레미콘운송": 6295,
      "소개했다": 6296,
      "출범한": 6297,
      "생태계를": 6298,
      "부족한": 6299,
      "손실을": 6300,
      "홈페이지에서": 6301,
      "기회가": 6302,
      "News": 6303,
      "카메라모듈": 6304,
      "주장했다": 6305,
      "목소리를": 6306,
      "휴가철": 6307,
      "과도한": 6308,
      "가공식품": 6309,
      "마이크로소프트": 6310,
      "이프랜드": 6311,
      "리조트": 6312,
      "스페셜": 6313,
      "yna": 6314,
      "돼지고기": 6315,
      "2명": 6316,
      "2주": 6317,
      "4배": 6318,
      "Bo": 6319,
      "C는": 6320,
      "GB": 6321,
      "객실": 6322,
      "공인": 6323,
      "나눠": 6324,
      "나섰": 6325,
      "나올": 6326,
      "네시아": 6327,
      "녹십": 6328,
      "다각": 6329,
      "다수의": 6330,
      "대와": 6331,
      "도어": 6332,
      "동구": 6333,
      "동아": 6334,
      "동남아": 6335,
      "드럼": 6336,
      "디젤": 6337,
      "딜라이브": 6338,
      "로켓": 6339,
      "리야": 6340,
      "마저": 6341,
      "만난": 6342,
      "만을": 6343,
      "무인": 6344,
      "문의": 6345,
      "법이": 6346,
      "복잡": 6347,
      "북구": 6348,
      "분당": 6349,
      "불러": 6350,
      "빨라": 6351,
      "사료": 6352,
      "사옥": 6353,
      "선진": 6354,
      "송금": 6355,
      "수정": 6356,
      "스퀘어": 6357,
      "역사": 6358,
      "월간": 6359,
      "의혹": 6360,
      "의원은": 6361,
      "이외에도": 6362,
      "일괄": 6363,
      "재배": 6364,
      "점점": 6365,
      "조한": 6366,
      "즐기는": 6367,
      "지리": 6368,
      "찾기": 6369,
      "철학": 6370,
      "추후": 6371,
      "키워": 6372,
      "타격을": 6373,
      "탄력": 6374,
      "토레": 6375,
      "투어": 6376,
      "풀어": 6377,
      "플래": 6378,
      "하위": 6379,
      "하회": 6380,
      "해왔": 6381,
      "해주": 6382,
      "향을": 6383,
      "홈쇼핑": 6384,
      "훨씬": 6385,
      "2011": 6386,
      "기업이다": 6387,
      "기술이다": 6388,
      "금융기관": 6389,
      "적으로는": 6390,
      "정부에서": 6391,
      "된다고": 6392,
      "1970": 6393,
      "고객은": 6394,
      "제품이": 6395,
      "환경에": 6396,
      "지역사회": 6397,
      "예정된": 6398,
      "LG화학": 6399,
      "지속가능성": 6400,
      "현재까지": 6401,
      "100만원": 6402,
      "국제표준": 6403,
      "참여를": 6404,
      "참여하는": 6405,
      "문제로": 6406,
      "사이에서": 6407,
      "있어야": 6408,
      "유지하고": 6409,
      "조정대상": 6410,
      "자체가": 6411,
      "관심과": 6412,
      "증시는": 6413,
      "장비를": 6414,
      "노력할": 6415,
      "올랐습니다": 6416,
      "테크노": 6417,
      "스코프": 6418,
      "재생에너지로": 6419,
      "아시아나": 6420,
      "플라즈": 6421,
      "요청했다": 6422,
      "의무를": 6423,
      "관측이": 6424,
      "and": 6425,
      "하려면": 6426,
      "IMF": 6427,
      "적절한": 6428,
      "건전성": 6429,
      "GC녹십": 6430,
      "넷플릭스": 6431,
      "스러운": 6432,
      "얼마나": 6433,
      "배틀그라운드": 6434,
      "매니저": 6435,
      "피트니스": 6436,
      "인플루언": 6437,
      "과열지구": 6438,
      "News1": 6439,
      "1억원": 6440,
      "14일": 6441,
      "2개월": 6442,
      "5조": 6443,
      "5억원": 6444,
      "DNA": 6445,
      "TK": 6446,
      "VR": 6447,
      "ap": 6448,
      "가에": 6449,
      "감도": 6450,
      "강릉": 6451,
      "고기": 6452,
      "고위": 6453,
      "곳이": 6454,
      "교보": 6455,
      "그때": 6456,
      "나왔": 6457,
      "나가는": 6458,
      "남기": 6459,
      "높게": 6460,
      "단지는": 6461,
      "당근": 6462,
      "당일": 6463,
      "데브": 6464,
      "뒤를": 6465,
      "등락": 6466,
      "딜링": 6467,
      "뜨거": 6468,
      "랑데브": 6469,
      "래곤": 6470,
      "레븐": 6471,
      "렌트": 6472,
      "매월": 6473,
      "맥북": 6474,
      "면세": 6475,
      "바닥": 6476,
      "보입니다": 6477,
      "복구": 6478,
      "부사장": 6479,
      "브리": 6480,
      "브로드": 6481,
      "사모": 6482,
      "상인": 6483,
      "생애": 6484,
      "선수": 6485,
      "세상을": 6486,
      "소요": 6487,
      "아르": 6488,
      "아야": 6489,
      "앞에서": 6490,
      "어질": 6491,
      "어비스": 6492,
      "없었다": 6493,
      "용인": 6494,
      "유진": 6495,
      "유효": 6496,
      "의사를": 6497,
      "이니": 6498,
      "이지": 6499,
      "인더": 6500,
      "일레븐": 6501,
      "있었던": 6502,
      "자사의": 6503,
      "제는": 6504,
      "즈는": 6505,
      "징계": 6506,
      "착공": 6507,
      "책을": 6508,
      "천안": 6509,
      "체제": 6510,
      "추락": 6511,
      "커지는": 6512,
      "컨퍼런스": 6513,
      "콘셉": 6514,
      "쾌적": 6515,
      "타깃": 6516,
      "태평양": 6517,
      "퍼즐": 6518,
      "펄어비스": 6519,
      "폭락": 6520,
      "학계": 6521,
      "한빛": 6522,
      "협조": 6523,
      "화장": 6524,
      "기술에": 6525,
      "한국형": 6526,
      "서비스도": 6527,
      "고객들의": 6528,
      "진행되고": 6529,
      "상품과": 6530,
      "하다고": 6531,
      "사용해": 6532,
      "증권가": 6533,
      "기록하며": 6534,
      "지속해서": 6535,
      "안전한": 6536,
      "출시를": 6537,
      "업체인": 6538,
      "참여했다": 6539,
      "롯데쇼핑": 6540,
      "부문에서": 6541,
      "애플의": 6542,
      "도입한": 6543,
      "현장에": 6544,
      "기능식품": 6545,
      "네이버는": 6546,
      "건강기능식품": 6547,
      "선택할": 6548,
      "전용회선": 6549,
      "논의했다": 6550,
      "과제가": 6551,
      "연결하는": 6552,
      "부가가치": 6553,
      "성능검증": 6554,
      "인재를": 6555,
      "방법을": 6556,
      "차별화": 6557,
      "현실화": 6558,
      "형태의": 6559,
      "페이스북": 6560,
      "현황을": 6561,
      "공시했다": 6562,
      "인도네시아": 6563,
      "보여주는": 6564,
      "기후변화": 6565,
      "필즈상을": 6566,
      "완전히": 6567,
      "자이언트": 6568,
      "급격한": 6569,
      "2025년까지": 6570,
      "실질적인": 6571,
      "폐기물": 6572,
      "무료로": 6573,
      "세븐일레븐": 6574,
      "이차전지소재": 6575,
      "이창양": 6576,
      "중대재해": 6577,
      "딜링룸": 6578,
      "3사": 6579,
      "3시": 6580,
      "71": 6581,
      "Ch": 6582,
      "HM": 6583,
      "OL": 6584,
      "PB": 6585,
      "VC": 6586,
      "WS": 6587,
      "ment": 6588,
      "ver": 6589,
      "강세": 6590,
      "강세를": 6591,
      "견인": 6592,
      "권한": 6593,
      "귀촌": 6594,
      "까요": 6595,
      "나우": 6596,
      "날씨": 6597,
      "돕는": 6598,
      "만으로": 6599,
      "말이": 6600,
      "맞이": 6601,
      "무기": 6602,
      "법무": 6603,
      "비비": 6604,
      "사막": 6605,
      "수사": 6606,
      "시나": 6607,
      "식당": 6608,
      "식약": 6609,
      "쓰고": 6610,
      "아동": 6611,
      "않으면": 6612,
      "앱마켓": 6613,
      "어로": 6614,
      "어워드": 6615,
      "연내": 6616,
      "연은": 6617,
      "연말까지": 6618,
      "위성이": 6619,
      "유정": 6620,
      "일어": 6621,
      "자랑": 6622,
      "잡았다": 6623,
      "장의": 6624,
      "저하": 6625,
      "전공": 6626,
      "점과": 6627,
      "제일": 6628,
      "졸업": 6629,
      "좋다": 6630,
      "주인": 6631,
      "중공업": 6632,
      "증여": 6633,
      "차는": 6634,
      "창의": 6635,
      "총재": 6636,
      "치즈": 6637,
      "카운": 6638,
      "커진": 6639,
      "컸다": 6640,
      "크루": 6641,
      "포괄": 6642,
      "한해": 6643,
      "합성": 6644,
      "행사는": 6645,
      "헤지": 6646,
      "훈련": 6647,
      "있다면": 6648,
      "서비스로": 6649,
      "대한상의": 6650,
      "경제인": 6651,
      "2027년": 6652,
      "제품으로": 6653,
      "공급예": 6654,
      "판매량": 6655,
      "달러에": 6656,
      "지속가능한": 6657,
      "회사인": 6658,
      "주택을": 6659,
      "평가에서": 6660,
      "기간에": 6661,
      "수준인": 6662,
      "시스템이": 6663,
      "1300원": 6664,
      "소비자들의": 6665,
      "강화에": 6666,
      "나타나": 6667,
      "롯데제과": 6668,
      "결제를": 6669,
      "안정적": 6670,
      "확보하고": 6671,
      "는데요": 6672,
      "24년": 6673,
      "떨어져": 6674,
      "떨어질": 6675,
      "제도가": 6676,
      "구매하는": 6677,
      "늘어나": 6678,
      "식품의약품": 6679,
      "자리에": 6680,
      "교수의": 6681,
      "가입자": 6682,
      "단계로": 6683,
      "고려하면": 6684,
      "공간을": 6685,
      "특별공급": 6686,
      "지금은": 6687,
      "혜택이": 6688,
      "사실을": 6689,
      "국토부는": 6690,
      "오르면서": 6691,
      "이유다": 6692,
      "소개하고": 6693,
      "수수료를": 6694,
      "네트워크를": 6695,
      "필요하다고": 6696,
      "골프웨어": 6697,
      "뛰어난": 6698,
      "리더십": 6699,
      "인데요": 6700,
      "않아도": 6701,
      "자사주": 6702,
      "급격히": 6703,
      "계열사": 6704,
      "스탠다": 6705,
      "지속가능경영": 6706,
      "투기과열지구": 6707,
      "보행자": 6708,
      "샌드박스": 6709,
      "서초구": 6710,
      "이더리움": 6711,
      "인건비": 6712,
      "프로토콜": 6713,
      "원희룡": 6714,
      "식품의약품안전": 6715,
      "5억": 6716,
      "7조": 6717,
      "9일": 6718,
      "B2": 6719,
      "Co": 6720,
      "SA": 6721,
      "gy": 6722,
      "가졌다": 6723,
      "개시": 6724,
      "거시": 6725,
      "것처럼": 6726,
      "게재": 6727,
      "겨냥": 6728,
      "고령": 6729,
      "고를": 6730,
      "공포": 6731,
      "공사는": 6732,
      "관람": 6733,
      "관세": 6734,
      "김상": 6735,
      "김주": 6736,
      "께서": 6737,
      "내놨": 6738,
      "내리": 6739,
      "넥스트": 6740,
      "높을": 6741,
      "니어": 6742,
      "다니": 6743,
      "독려": 6744,
      "동에": 6745,
      "둘째": 6746,
      "뒷받": 6747,
      "말을": 6748,
      "맞은": 6749,
      "매김": 6750,
      "모여": 6751,
      "뮤직": 6752,
      "미칠": 6753,
      "범위를": 6754,
      "법령": 6755,
      "법은": 6756,
      "분쟁": 6757,
      "불거": 6758,
      "빈티지": 6759,
      "사들의": 6760,
      "수영": 6761,
      "시에": 6762,
      "시중": 6763,
      "시총": 6764,
      "신영": 6765,
      "신작": 6766,
      "쓰레": 6767,
      "안심": 6768,
      "았습니다": 6769,
      "약화": 6770,
      "어붙": 6771,
      "억제": 6772,
      "엔지니": 6773,
      "원스토어": 6774,
      "위탁": 6775,
      "음악": 6776,
      "의회": 6777,
      "인원": 6778,
      "잔고": 6779,
      "장과": 6780,
      "전광": 6781,
      "전이": 6782,
      "정말": 6783,
      "제일제": 6784,
      "조리": 6785,
      "지다": 6786,
      "지불": 6787,
      "철회": 6788,
      "컨센서": 6789,
      "통보": 6790,
      "틱톡": 6791,
      "팀이": 6792,
      "평형": 6793,
      "포스": 6794,
      "플랜": 6795,
      "해질": 6796,
      "현장을": 6797,
      "호반": 6798,
      "홈앤": 6799,
      "힐스테이": 6800,
      "시장과": 6801,
      "기술혁신": 6802,
      "한국과": 6803,
      "한국철도공사": 6804,
      "10억": 6805,
      "지원금": 6806,
      "지원하겠다": 6807,
      "산업단지": 6808,
      "미국이": 6809,
      "이번이": 6810,
      "성장세를": 6811,
      "세계적": 6812,
      "확대될": 6813,
      "만원에": 6814,
      "디지털전환": 6815,
      "SK바이오": 6816,
      "대해서": 6817,
      "들어가": 6818,
      "분야로": 6819,
      "시작해": 6820,
      "기대감이": 6821,
      "실적은": 6822,
      "나타나고": 6823,
      "개인의": 6824,
      "페이지를": 6825,
      "확보한": 6826,
      "마련할": 6827,
      "조사됐다": 6828,
      "목표다": 6829,
      "대응하기": 6830,
      "이벤트는": 6831,
      "모델로": 6832,
      "방식이": 6833,
      "자리매김": 6834,
      "러시아가": 6835,
      "성공적인": 6836,
      "중소기업의": 6837,
      "진단했다": 6838,
      "4월부터": 6839,
      "현대차는": 6840,
      "알려져": 6841,
      "변화에": 6842,
      "설립한": 6843,
      "SK텔레콤과": 6844,
      "디자인을": 6845,
      "이마트24": 6846,
      "작가의": 6847,
      "수익률을": 6848,
      "있는데요": 6849,
      "협업해": 6850,
      "토지소유": 6851,
      "고리즘": 6852,
      "마음을": 6853,
      "측면에서": 6854,
      "신속하게": 6855,
      "중견기업": 6856,
      "적정성": 6857,
      "지식재산": 6858,
      "이탈리아": 6859,
      "철저히": 6860,
      "브라질": 6861,
      "멘토링": 6862,
      "챌린지": 6863,
      "2011년": 6864,
      "뒷받침": 6865,
      "힐스테이트": 6866,
      "23년": 6867,
      "3억달러": 6868,
      "600": 6869,
      "BN": 6870,
      "ag": 6871,
      "ir": 6872,
      "ll": 6873,
      "감상": 6874,
      "개로": 6875,
      "것입니다": 6876,
      "고환율": 6877,
      "공연": 6878,
      "과세": 6879,
      "김성": 6880,
      "나라는": 6881,
      "남미": 6882,
      "내렸다": 6883,
      "누릴": 6884,
      "늘면서": 6885,
      "단위": 6886,
      "단은": 6887,
      "대장": 6888,
      "더니": 6889,
      "도의": 6890,
      "동력을": 6891,
      "동영상": 6892,
      "듣고": 6893,
      "렌탈": 6894,
      "마친": 6895,
      "말했습니다": 6896,
      "매력": 6897,
      "면에": 6898,
      "목을": 6899,
      "버거": 6900,
      "변호": 6901,
      "부티": 6902,
      "부한": 6903,
      "빅스텝": 6904,
      "빠져": 6905,
      "산출": 6906,
      "상권": 6907,
      "선의": 6908,
      "세에": 6909,
      "손쉽게": 6910,
      "손잡고": 6911,
      "수력": 6912,
      "수렴": 6913,
      "수에": 6914,
      "수직": 6915,
      "순간": 6916,
      "스카": 6917,
      "스테": 6918,
      "신저": 6919,
      "아카": 6920,
      "안팎": 6921,
      "알고리즘": 6922,
      "앞세워": 6923,
      "양재": 6924,
      "옐런": 6925,
      "온넷": 6926,
      "올여름": 6927,
      "위니아": 6928,
      "유한": 6929,
      "이트": 6930,
      "인디": 6931,
      "입을": 6932,
      "입점": 6933,
      "장으로": 6934,
      "재판": 6935,
      "착륙": 6936,
      "체질": 6937,
      "최태원": 6938,
      "캐시": 6939,
      "쿠라": 6940,
      "편집": 6941,
      "해킹": 6942,
      "혈액": 6943,
      "혼합": 6944,
      "회전": 6945,
      "상승세가": 6946,
      "정보가": 6947,
      "정보와": 6948,
      "제품에": 6949,
      "공급하고": 6950,
      "달러화": 6951,
      "전망치를": 6952,
      "상품에": 6953,
      "예정입니다": 6954,
      "경기가": 6955,
      "기관으로": 6956,
      "사용되는": 6957,
      "우리의": 6958,
      "기록하고": 6959,
      "운영을": 6960,
      "설명하고": 6961,
      "평가다": 6962,
      "자산관리": 6963,
      "업체가": 6964,
      "업체들이": 6965,
      "개선에": 6966,
      "참여해": 6967,
      "적용되는": 6968,
      "추진하는": 6969,
      "항공기": 6970,
      "나타났": 6971,
      "주가를": 6972,
      "확보하기": 6973,
      "KT가": 6974,
      "침체가": 6975,
      "신청할": 6976,
      "늘어나는": 6977,
      "어려울": 6978,
      "어려움이": 6979,
      "무역적자": 6980,
      "유럽연합": 6981,
      "방향으로": 6982,
      "요금제": 6983,
      "이달부터": 6984,
      "현대차그룹": 6985,
      "인플레이션이": 6986,
      "이뤄졌다": 6987,
      "높아지고": 6988,
      "의미한다": 6989,
      "인천공항": 6990,
      "당국이": 6991,
      "보고서에": 6992,
      "에어컨": 6993,
      "GS리테일": 6994,
      "CJ제일제": 6995,
      "만나볼": 6996,
      "시대에": 6997,
      "반대매매가": 6998,
      "낮아질": 6999,
      "살펴보면": 7000,
      "웨이브": 7001,
      "애니온넷": 7002,
      "이야기를": 7003,
      "LS전선": 7004,
      "교신에": 7005,
      "고양시": 7006,
      "미래에셋": 7007,
      "국책연구": 7008,
      "프린스턴": 7009,
      "고등과학원": 7010,
      "동국제강": 7011,
      "사모펀드": 7012,
      "홈앤쇼핑": 7013,
      "부티크": 7014,
      "CJ제일제당": 7015,
      "1층": 7016,
      "25일": 7017,
      "3억원": 7018,
      "350": 7019,
      "4명": 7020,
      "8K": 7021,
      "Ad": 7022,
      "BMW": 7023,
      "GT": 7024,
      "ID": 7025,
      "LT": 7026,
      "mm": 7027,
      "pe": 7028,
      "se": 7029,
      "가가": 7030,
      "가뭄": 7031,
      "가슴": 7032,
      "개소": 7033,
      "거북": 7034,
      "거치": 7035,
      "건이": 7036,
      "검찰": 7037,
      "고유가": 7038,
      "공익": 7039,
      "과일": 7040,
      "교정": 7041,
      "구미": 7042,
      "국회의": 7043,
      "군요": 7044,
      "김광": 7045,
      "끝에": 7046,
      "나스": 7047,
      "나와": 7048,
      "나은": 7049,
      "낫콜": 7050,
      "넥슨": 7051,
      "뉴얼": 7052,
      "달성을": 7053,
      "답했다": 7054,
      "대까지": 7055,
      "대내외": 7056,
      "데미": 7057,
      "동남": 7058,
      "되길": 7059,
      "두낫콜": 7060,
      "라스": 7061,
      "라운": 7062,
      "러브": 7063,
      "렉트": 7064,
      "마사": 7065,
      "만명": 7066,
      "만약": 7067,
      "망원": 7068,
      "명시": 7069,
      "미팅": 7070,
      "배분": 7071,
      "번호": 7072,
      "블로그": 7073,
      "빅테크": 7074,
      "상관": 7075,
      "생생": 7076,
      "성남": 7077,
      "셀트리": 7078,
      "소화": 7079,
      "손님": 7080,
      "쉽고": 7081,
      "스미": 7082,
      "시기에": 7083,
      "시대를": 7084,
      "시점에": 7085,
      "신장": 7086,
      "신탁": 7087,
      "신산업": 7088,
      "신성장": 7089,
      "안에서": 7090,
      "알고": 7091,
      "알리": 7092,
      "압력이": 7093,
      "양식": 7094,
      "어촌": 7095,
      "얼어붙": 7096,
      "없고": 7097,
      "여야": 7098,
      "연초": 7099,
      "였고": 7100,
      "오미": 7101,
      "옮겨": 7102,
      "욕창": 7103,
      "용량": 7104,
      "원까지": 7105,
      "이례": 7106,
      "이었던": 7107,
      "인턴": 7108,
      "인기가": 7109,
      "있지": 7110,
      "잖아요": 7111,
      "제1": 7112,
      "제이": 7113,
      "종이": 7114,
      "주담": 7115,
      "증명": 7116,
      "지갑": 7117,
      "지의": 7118,
      "지침": 7119,
      "쪽으로": 7120,
      "창작": 7121,
      "첫날": 7122,
      "초격차": 7123,
      "코어": 7124,
      "탐색": 7125,
      "탱크": 7126,
      "팀의": 7127,
      "판을": 7128,
      "풍력": 7129,
      "학개미": 7130,
      "향상을": 7131,
      "호선": 7132,
      "사업이다": 7133,
      "서울에서": 7134,
      "한국을": 7135,
      "한국항공우주": 7136,
      "한국타이어": 7137,
      "금융사": 7138,
      "개발자": 7139,
      "지원에": 7140,
      "올해도": 7141,
      "산업진흥": 7142,
      "고객과": 7143,
      "지역이": 7144,
      "기관인": 7145,
      "최대전력": 7146,
      "정책의": 7147,
      "지속되고": 7148,
      "11번": 7149,
      "안전성을": 7150,
      "반도체를": 7151,
      "출시된": 7152,
      "하면서도": 7153,
      "보험료를": 7154,
      "건설이": 7155,
      "사이버": 7156,
      "마련하고": 7157,
      "마련됐다": 7158,
      "대응을": 7159,
      "대응할": 7160,
      "카드는": 7161,
      "공동으로": 7162,
      "방식의": 7163,
      "러시아와": 7164,
      "전국경제인": 7165,
      "소재를": 7166,
      "유가가": 7167,
      "구조를": 7168,
      "구조조정": 7169,
      "상태를": 7170,
      "알려진": 7171,
      "KB증권": 7172,
      "중앙은행": 7173,
      "이뤄진": 7174,
      "높아질": 7175,
      "거리두기": 7176,
      "역대급": 7177,
      "조합원": 7178,
      "스포메이션": 7179,
      "실시한": 7180,
      "당국은": 7181,
      "입장이다": 7182,
      "다음달": 7183,
      "만들었다": 7184,
      "end": 7185,
      "임대차": 7186,
      "1997년": 7187,
      "ata": 7188,
      "공모전": 7189,
      "시키고": 7190,
      "급증한": 7191,
      "신한은행은": 7192,
      "스테이지": 7193,
      "살펴보고": 7194,
      "여건이": 7195,
      "별도의": 7196,
      "특허청": 7197,
      "ity": 7198,
      "이야기": 7199,
      "스페이스X": 7200,
      "반응을": 7201,
      "제3차": 7202,
      "NH투자증권": 7203,
      "운전자보험": 7204,
      "드림타워": 7205,
      "유기농": 7206,
      "키우는": 7207,
      "크리스퍼": 7208,
      "국무총리": 7209,
      "일제히": 7210,
      "이종호": 7211,
      "무상증": 7212,
      "트랜스포메이션": 7213,
      "플라즈마": 7214,
      "인플루언서": 7215,
      "1200": 7216,
      "2시": 7217,
      "5명": 7218,
      "5세대": 7219,
      "6조": 7220,
      "81": 7221,
      "92": 7222,
      "AK": 7223,
      "AO": 7224,
      "CD": 7225,
      "Pro": 7226,
      "QR": 7227,
      "SE": 7228,
      "갈수록": 7229,
      "감시": 7230,
      "값은": 7231,
      "결론": 7232,
      "결의": 7233,
      "계기가": 7234,
      "관절": 7235,
      "광역시": 7236,
      "구를": 7237,
      "권은": 7238,
      "기서": 7239,
      "김동": 7240,
      "김종": 7241,
      "김진": 7242,
      "남성": 7243,
      "내가": 7244,
      "내릴": 7245,
      "느끼": 7246,
      "덕분에": 7247,
      "도서": 7248,
      "러닝": 7249,
      "맡고": 7250,
      "미술": 7251,
      "발을": 7252,
      "변이": 7253,
      "보낸": 7254,
      "보통": 7255,
      "부경": 7256,
      "부합": 7257,
      "분과": 7258,
      "분산": 7259,
      "비닐": 7260,
      "사물": 7261,
      "산화": 7262,
      "상단": 7263,
      "상대로": 7264,
      "석사": 7265,
      "성은": 7266,
      "스에": 7267,
      "스카이": 7268,
      "승인을": 7269,
      "시황": 7270,
      "시원한": 7271,
      "식자재": 7272,
      "신도시": 7273,
      "안으로": 7274,
      "았고": 7275,
      "앞장": 7276,
      "없습니다": 7277,
      "연이어": 7278,
      "영양": 7279,
      "오리지": 7280,
      "우유": 7281,
      "웃돌": 7282,
      "원스": 7283,
      "위에서": 7284,
      "이게": 7285,
      "이커머스": 7286,
      "재유행": 7287,
      "전혀": 7288,
      "전부터": 7289,
      "정해": 7290,
      "졌고": 7291,
      "조세": 7292,
      "증상": 7293,
      "지사": 7294,
      "집을": 7295,
      "차관": 7296,
      "청사": 7297,
      "청취": 7298,
      "추적": 7299,
      "춘천": 7300,
      "침해": 7301,
      "크기": 7302,
      "크레": 7303,
      "탈선": 7304,
      "퇴근": 7305,
      "트래": 7306,
      "팔로": 7307,
      "패턴": 7308,
      "페질": 7309,
      "폭등": 7310,
      "하드": 7311,
      "학원": 7312,
      "합격": 7313,
      "사업자가": 7314,
      "금융위는": 7315,
      "10대": 7316,
      "10일까지": 7317,
      "지원해": 7318,
      "국내에": 7319,
      "경제에": 7320,
      "이어졌다": 7321,
      "올해로": 7322,
      "산업부는": 7323,
      "진행될": 7324,
      "진행되며": 7325,
      "공급한다": 7326,
      "기준금리를": 7327,
      "계획에": 7328,
      "라이드": 7329,
      "환경에서": 7330,
      "상품군": 7331,
      "관리하는": 7332,
      "지역으로": 7333,
      "LGU": 7334,
      "증가세를": 7335,
      "업계에서": 7336,
      "위원은": 7337,
      "위원장이": 7338,
      "중국과": 7339,
      "중국이": 7340,
      "생산을": 7341,
      "들어서": 7342,
      "안전관리": 7343,
      "분석한": 7344,
      "개선이": 7345,
      "전략이다": 7346,
      "카카오엔터": 7347,
      "상반기에": 7348,
      "5월까지": 7349,
      "결과에": 7350,
      "직원들은": 7351,
      "2006년": 7352,
      "안정적으로": 7353,
      "확보할": 7354,
      "17일": 7355,
      "포인트를": 7356,
      "선정했다": 7357,
      "공개한": 7358,
      "자동차사고": 7359,
      "구성된다": 7360,
      "직접적인": 7361,
      "생각을": 7362,
      "준비했다": 7363,
      "자금이": 7364,
      "최초의": 7365,
      "집중하고": 7366,
      "조치로": 7367,
      "경험이": 7368,
      "인정받은": 7369,
      "배터리를": 7370,
      "설치된": 7371,
      "설비를": 7372,
      "지분을": 7373,
      "소통을": 7374,
      "쌍용자동차": 7375,
      "어렵다는": 7376,
      "스와미": 7377,
      "에스디": 7378,
      "로드맵": 7379,
      "예비력": 7380,
      "메뉴를": 7381,
      "무역수지는": 7382,
      "발언을": 7383,
      "고속도로": 7384,
      "단독으로": 7385,
      "유출지하": 7386,
      "라마스와미": 7387,
      "커넥트": 7388,
      "명확한": 7389,
      "외환보유액": 7390,
      "스트리밍": 7391,
      "SSG닷컴": 7392,
      "시그니": 7393,
      "Mobi": 7394,
      "아우르는": 7395,
      "한미글로벌": 7396,
      "CFD": 7397,
      "팩토리": 7398,
      "하이브리드": 7399,
      "화장품": 7400,
      "아카데미": 7401,
      "2층": 7402,
      "3D": 7403,
      "8조": 7404,
      "EP": 7405,
      "EX": 7406,
      "KG": 7407,
      "M2": 7408,
      "ad": 7409,
      "ain": 7410,
      "of": 7411,
      "갈아": 7412,
      "거를": 7413,
      "거점": 7414,
      "경상": 7415,
      "고성능": 7416,
      "곳으로": 7417,
      "공학": 7418,
      "공기업": 7419,
      "교섭": 7420,
      "국제공": 7421,
      "끌고": 7422,
      "내성": 7423,
      "노사": 7424,
      "높인": 7425,
      "다올": 7426,
      "도쿠라": 7427,
      "독보": 7428,
      "때보다": 7429,
      "라비아": 7430,
      "마곡": 7431,
      "마진": 7432,
      "맛을": 7433,
      "망을": 7434,
      "맞춘": 7435,
      "매장을": 7436,
      "맥스": 7437,
      "문자": 7438,
      "바꿔": 7439,
      "박성": 7440,
      "반환": 7441,
      "보로": 7442,
      "부지": 7443,
      "불안정": 7444,
      "비싸": 7445,
      "비자": 7446,
      "살아": 7447,
      "상금": 7448,
      "상세": 7449,
      "선착": 7450,
      "세무": 7451,
      "소각": 7452,
      "소주": 7453,
      "속한": 7454,
      "수기": 7455,
      "수량": 7456,
      "수백": 7457,
      "수십": 7458,
      "슈퍼": 7459,
      "스케": 7460,
      "스킨": 7461,
      "실물": 7462,
      "쓰는": 7463,
      "아라": 7464,
      "않게": 7465,
      "알아": 7466,
      "앱에서": 7467,
      "어스": 7468,
      "어야": 7469,
      "에퀴": 7470,
      "엔화": 7471,
      "여명의": 7472,
      "연맹": 7473,
      "연평균": 7474,
      "예치": 7475,
      "오래": 7476,
      "올릴": 7477,
      "원재료": 7478,
      "육박": 7479,
      "이르면": 7480,
      "입국": 7481,
      "자도": 7482,
      "잡을": 7483,
      "장면": 7484,
      "장표": 7485,
      "적지": 7486,
      "주체": 7487,
      "직무": 7488,
      "진로": 7489,
      "집에서": 7490,
      "최장": 7491,
      "축산": 7492,
      "축하": 7493,
      "출금": 7494,
      "층의": 7495,
      "탐사": 7496,
      "트위": 7497,
      "트의": 7498,
      "편입": 7499,
      "필름": 7500,
      "학적": 7501,
      "합류": 7502,
      "해저": 7503,
      "홈페이지를": 7504,
      "홍장표": 7505,
      "화상": 7506,
      "후반": 7507,
      "기업들과": 7508,
      "사업부": 7509,
      "기술적": 7510,
      "10여": 7511,
      "개발하는": 7512,
      "개발사업": 7513,
      "대한상공회의소": 7514,
      "연구데이터": 7515,
      "가능할": 7516,
      "판매는": 7517,
      "상황은": 7518,
      "대상이다": 7519,
      "우리나라는": 7520,
      "지속할": 7521,
      "게임의": 7522,
      "생산성": 7523,
      "현재는": 7524,
      "현재의": 7525,
      "분석된다": 7526,
      "플레이스토어": 7527,
      "업체들의": 7528,
      "기대가": 7529,
      "추진해": 7530,
      "개인이": 7531,
      "하반기에는": 7532,
      "180": 7533,
      "마련해": 7534,
      "해당한다": 7535,
      "신한라이프": 7536,
      "침체에": 7537,
      "구매할": 7538,
      "성공한": 7539,
      "도입해": 7540,
      "차량의": 7541,
      "효과적으로": 7542,
      "할인된": 7543,
      "집중적으로": 7544,
      "신용대출": 7545,
      "이뤄질": 7546,
      "과제에": 7547,
      "LG전자의": 7548,
      "담당은": 7549,
      "품목을": 7550,
      "넘어설": 7551,
      "공유하고": 7552,
      "사전지정": 7553,
      "대통령실": 7554,
      "ETRI": 7555,
      "나가고": 7556,
      "전날보다": 7557,
      "비트코인은": 7558,
      "영역을": 7559,
      "게이트": 7560,
      "기금운용": 7561,
      "시민들이": 7562,
      "커뮤니케이션": 7563,
      "원인으로": 7564,
      "디아라비아": 7565,
      "포트폴리오를": 7566,
      "제휴를": 7567,
      "코오롱글로벌": 7568,
      "바다거북": 7569,
      "민감한": 7570,
      "사우디아라비아": 7571,
      "이로써": 7572,
      "마찬가지로": 7573,
      "에프앤": 7574,
      "4호기": 7575,
      "양호한": 7576,
      "무역금융을": 7577,
      "아티스트": 7578,
      "검은사막": 7579,
      "BoB": 7580,
      "유진투자증권": 7581,
      "성능검증위성": 7582,
      "식품의약품안전처": 7583,
      "김광석": 7584,
      "망원경": 7585,
      "셀트리온": 7586,
      "오리지널": 7587,
      "에퀴닉": 7588,
      "1등": 7589,
      "1조원": 7590,
      "2의": 7591,
      "26일": 7592,
      "3분의": 7593,
      "4조": 7594,
      "6시": 7595,
      "93": 7596,
      "9조": 7597,
      "FO": 7598,
      "KI": 7599,
      "MD": 7600,
      "OCI": 7601,
      "PP": 7602,
      "RPG": 7603,
      "To": 7604,
      "UG": 7605,
      "UI": 7606,
      "UX": 7607,
      "cent": 7608,
      "kg": 7609,
      "간다": 7610,
      "개막": 7611,
      "개통": 7612,
      "겠지만": 7613,
      "경감": 7614,
      "경품": 7615,
      "고장": 7616,
      "고추": 7617,
      "공지": 7618,
      "과감": 7619,
      "급등으로": 7620,
      "기차": 7621,
      "김민": 7622,
      "낙폭을": 7623,
      "노무": 7624,
      "놀이": 7625,
      "농식품": 7626,
      "높고": 7627,
      "느낄": 7628,
      "단위로": 7629,
      "달라고": 7630,
      "담합": 7631,
      "담았다": 7632,
      "도매": 7633,
      "동을": 7634,
      "동작": 7635,
      "두드러": 7636,
      "때도": 7637,
      "뜻을": 7638,
      "레버": 7639,
      "렉터": 7640,
      "리모델링": 7641,
      "말레이": 7642,
      "머물": 7643,
      "머신": 7644,
      "무관": 7645,
      "미쳤다": 7646,
      "발효": 7647,
      "보냈다": 7648,
      "부스": 7649,
      "분들이": 7650,
      "사측": 7651,
      "선불": 7652,
      "선에서": 7653,
      "세와": 7654,
      "셀러": 7655,
      "소장": 7656,
      "신재생에너지": 7657,
      "씨티": 7658,
      "얘기": 7659,
      "었어요": 7660,
      "엔드": 7661,
      "여유": 7662,
      "연설": 7663,
      "였지만": 7664,
      "우대": 7665,
      "원천": 7666,
      "위와": 7667,
      "유용": 7668,
      "윤리": 7669,
      "윤종": 7670,
      "음에도": 7671,
      "이중": 7672,
      "이사장": 7673,
      "인덱": 7674,
      "일대": 7675,
      "임차": 7676,
      "전동": 7677,
      "전원": 7678,
      "접수를": 7679,
      "정체": 7680,
      "정해진": 7681,
      "줬다": 7682,
      "즈에": 7683,
      "청소": 7684,
      "청은": 7685,
      "카나": 7686,
      "캐스": 7687,
      "크고": 7688,
      "클레이": 7689,
      "키움": 7690,
      "텍은": 7691,
      "토지를": 7692,
      "특성을": 7693,
      "특유의": 7694,
      "파산": 7695,
      "파운드": 7696,
      "펄프": 7697,
      "표면": 7698,
      "피니": 7699,
      "피아": 7700,
      "하계": 7701,
      "하방": 7702,
      "해커": 7703,
      "해지고": 7704,
      "행보": 7705,
      "행보를": 7706,
      "형을": 7707,
      "화석": 7708,
      "환급": 7709,
      "힘든": 7710,
      "시장으로": 7711,
      "이라도": 7712,
      "투자한": 7713,
      "한국은": 7714,
      "한국경제": 7715,
      "한국전자": 7716,
      "금융소비자": 7717,
      "정부에": 7718,
      "위해선": 7719,
      "연구에": 7720,
      "기자가": 7721,
      "경제성장률": 7722,
      "상승과": 7723,
      "상승할": 7724,
      "이어진": 7725,
      "이어지는": 7726,
      "거래대": 7727,
      "고객사": 7728,
      "이번주": 7729,
      "진행해": 7730,
      "관계를": 7731,
      "관계부처": 7732,
      "상품권": 7733,
      "상품이": 7734,
      "세계박람회": 7735,
      "LG생활": 7736,
      "증가에": 7737,
      "증가하고": 7738,
      "경우도": 7739,
      "운영할": 7740,
      "중국은": 7741,
      "50년": 7742,
      "11개": 7743,
      "수요는": 7744,
      "수요예측": 7745,
      "규제개혁": 7746,
      "경쟁을": 7747,
      "출시하고": 7748,
      "센터장은": 7749,
      "아이언": 7750,
      "적용된": 7751,
      "기존에는": 7752,
      "협력사": 7753,
      "롯데온": 7754,
      "하반기부터": 7755,
      "14조": 7756,
      "7월부터": 7757,
      "브랜드로": 7758,
      "아니냐는": 7759,
      "전환이": 7760,
      "조사한": 7761,
      "대응해": 7762,
      "이미지를": 7763,
      "위원회가": 7764,
      "비율을": 7765,
      "부문은": 7766,
      "늘어났다": 7767,
      "구성됐다": 7768,
      "온라인으로": 7769,
      "기능성": 7770,
      "행사에서": 7771,
      "판단했다": 7772,
      "00원에": 7773,
      "현대차그룹은": 7774,
      "KB국민": 7775,
      "지적도": 7776,
      "3월부터": 7777,
      "높아진": 7778,
      "높아졌다": 7779,
      "의견이": 7780,
      "받아야": 7781,
      "물류비": 7782,
      "수행할": 7783,
      "종목은": 7784,
      "담당하는": 7785,
      "공유수면": 7786,
      "광고를": 7787,
      "석유류": 7788,
      "임상시험": 7789,
      "에어로": 7790,
      "IPO": 7791,
      "비전을": 7792,
      "여행을": 7793,
      "2차전지": 7794,
      "art": 7795,
      "산업통상자원부는": 7796,
      "농업인": 7797,
      "매입임대주택": 7798,
      "과학기술정보통신부는": 7799,
      "수산물": 7800,
      "영역에서": 7801,
      "치솟는": 7802,
      "꾸준한": 7803,
      "New": 7804,
      "공단은": 7805,
      "전장보다": 7806,
      "상무는": 7807,
      "라이트세일": 7808,
      "프라이즈": 7809,
      "배경으로": 7810,
      "업데이트를": 7811,
      "재계회의": 7812,
      "지오비전": 7813,
      "장마철": 7814,
      "이루어": 7815,
      "가파른": 7816,
      "질문에": 7817,
      "CNBC": 7818,
      "상점가": 7819,
      "치열한": 7820,
      "미세먼": 7821,
      "신동빈": 7822,
      "파리바": 7823,
      "시켰다": 7824,
      "리터당": 7825,
      "경진대회": 7826,
      "뜨거운": 7827,
      "프린스턴대": 7828,
      "나스닥": 7829,
      "Mobile": 7830,
      "말레이시아": 7831,
      "1시간": 7832,
      "2억원": 7833,
      "4차": 7834,
      "5개월": 7835,
      "Data": 7836,
      "MA": 7837,
      "Te": 7838,
      "VP": 7839,
      "cloud": 7840,
      "im": 7841,
      "iz": 7842,
      "kt": 7843,
      "us": 7844,
      "가득": 7845,
      "가면": 7846,
      "건데": 7847,
      "견본": 7848,
      "고강도": 7849,
      "골든": 7850,
      "구형": 7851,
      "그럼": 7852,
      "김대": 7853,
      "나눔": 7854,
      "남동": 7855,
      "네페질": 7856,
      "녹록": 7857,
      "농가": 7858,
      "누리는": 7859,
      "는지": 7860,
      "다리": 7861,
      "다섯": 7862,
      "다채": 7863,
      "다주택": 7864,
      "다누리": 7865,
      "대리": 7866,
      "대사": 7867,
      "대처": 7868,
      "도네페질": 7869,
      "동네": 7870,
      "드리": 7871,
      "로도": 7872,
      "로를": 7873,
      "리그": 7874,
      "마리": 7875,
      "목재": 7876,
      "미를": 7877,
      "민관": 7878,
      "민주": 7879,
      "바르": 7880,
      "받으며": 7881,
      "발맞춰": 7882,
      "법적": 7883,
      "법정": 7884,
      "벗어나": 7885,
      "부착": 7886,
      "부탁": 7887,
      "북극": 7888,
      "생긴": 7889,
      "세금": 7890,
      "숙박": 7891,
      "스누": 7892,
      "스태그": 7893,
      "신라": 7894,
      "신현": 7895,
      "실명": 7896,
      "안착": 7897,
      "앞둔": 7898,
      "앤드": 7899,
      "양도": 7900,
      "에디션": 7901,
      "연봉": 7902,
      "열차가": 7903,
      "예대": 7904,
      "오고": 7905,
      "오리": 7906,
      "완공": 7907,
      "완벽": 7908,
      "유발": 7909,
      "응모": 7910,
      "응을": 7911,
      "이건": 7912,
      "이때": 7913,
      "이온": 7914,
      "이메일": 7915,
      "인치": 7916,
      "인사를": 7917,
      "임기": 7918,
      "자극": 7919,
      "잔액은": 7920,
      "재직": 7921,
      "재편": 7922,
      "전인": 7923,
      "정규": 7924,
      "정병": 7925,
      "조립": 7926,
      "종전": 7927,
      "주방": 7928,
      "주제": 7929,
      "줄이기": 7930,
      "증설": 7931,
      "지기": 7932,
      "지키": 7933,
      "직을": 7934,
      "진한": 7935,
      "차주의": 7936,
      "총수": 7937,
      "추출": 7938,
      "추세가": 7939,
      "출고": 7940,
      "카즈": 7941,
      "투데이": 7942,
      "트라": 7943,
      "패널": 7944,
      "패드": 7945,
      "펙트": 7946,
      "평창": 7947,
      "포토": 7948,
      "푸르": 7949,
      "필드": 7950,
      "필리": 7951,
      "함과": 7952,
      "항해": 7953,
      "해보": 7954,
      "해졌다": 7955,
      "행성": 7956,
      "호흡": 7957,
      "회에": 7958,
      "에서다": 7959,
      "투자은행": 7960,
      "투자전략": 7961,
      "투자자가": 7962,
      "금융회사": 7963,
      "제공된다": 7964,
      "10분": 7965,
      "하기는": 7966,
      "기자입니다": 7967,
      "산업안전보건": 7968,
      "판매에": 7969,
      "이후에는": 7970,
      "전망도": 7971,
      "상품이다": 7972,
      "하락을": 7973,
      "하락폭이": 7974,
      "예정이며": 7975,
      "시간에": 7976,
      "함께하는": 7977,
      "증가로": 7978,
      "경우는": 7979,
      "우리는": 7980,
      "업계가": 7981,
      "수출액": 7982,
      "수출을": 7983,
      "기록하는": 7984,
      "12일": 7985,
      "만원의": 7986,
      "바이낸": 7987,
      "통신사": 7988,
      "SK브로드": 7989,
      "필요로": 7990,
      "분야를": 7991,
      "분야에서는": 7992,
      "안전성": 7993,
      "발표된": 7994,
      "발표할": 7995,
      "업체는": 7996,
      "카카오는": 7997,
      "예상하고": 7998,
      "건설사": 7999
    },
    "merges": [
      [
        "으",
        "로"
      ],
      [
        "했",
        "다"
      ],
      [
        "에",
        "서"
      ],
      [
        "있",
        "다"
      ],
      [
        "하",
        "는"
      ],
      [
        "이",
        "다"
      ],
      [
        "하",
        "고"
      ],
      [
        "2",
        "0"
      ],
      [
        "0",
        "0"
      ],
      [
        "한",
        "다"
      ],
      [
        "지",
        "난"
      ],
      [
        "기",
        "업"
      ],
      [
        "니",
        "다"
      ],
      [
        "사",
        "업"
      ],
      [
        "시",
        "장"
      ],
      [
        "있",
        "는"
      ],
      [
        "이",
        "라"
      ],
      [
        "까",
        "지"
      ],
      [
        "서",
        "울"
      ],
      [
        "기",
        "술"
      ],
      [
        "투",
        "자"
      ],
      [
        "면",
        "서"
      ],
      [
        "부",
        "터"
      ],
      [
        "것",
        "으로"
      ],
      [
        "한",
        "국"
      ],
      [
        "금",
        "융"
      ],
      [
        "습",
        "니다"
      ],
      [
        "제",
        "공"
      ],
      [
        "적",
        "으로"
      ],
      [
        "비",
        "스"
      ],
      [
        "통",
        "해"
      ],
      [
        "1",
        "0"
      ],
      [
        "밝",
        "혔"
      ],
      [
        "개",
        "발"
      ],
      [
        "정",
        "부"
      ],
      [
        "서",
        "비스"
      ],
      [
        "가",
        "격"
      ],
      [
        "대",
        "한"
      ],
      [
        "된",
        "다"
      ],
      [
        "위",
        "해"
      ],
      [
        "밝혔",
        "다"
      ],
      [
        "연",
        "구"
      ],
      [
        "적",
        "인"
      ],
      [
        "1",
        "9"
      ],
      [
        "가",
        "능"
      ],
      [
        "보",
        "다"
      ],
      [
        "하",
        "기"
      ],
      [
        "억",
        "원"
      ],
      [
        "지",
        "원"
      ],
      [
        "국",
        "내"
      ],
      [
        "들",
        "이"
      ],
      [
        "됐",
        "다"
      ],
      [
        "기",
        "자"
      ],
      [
        "지",
        "만"
      ],
      [
        "경",
        "제"
      ],
      [
        "상",
        "승"
      ],
      [
        "3",
        "0"
      ],
      [
        "이",
        "어"
      ],
      [
        "올",
        "해"
      ],
      [
        "산",
        "업"
      ],
      [
        "말",
        "했다"
      ],
      [
        "거",
        "래"
      ],
      [
        "미",
        "국"
      ],
      [
        "고",
        "객"
      ],
      [
        "이",
        "번"
      ],
      [
        "진",
        "행"
      ],
      [
        "이라",
        "고"
      ],
      [
        "글",
        "로"
      ],
      [
        "전",
        "자"
      ],
      [
        "에",
        "는"
      ],
      [
        "글로",
        "벌"
      ],
      [
        "정",
        "보"
      ],
      [
        "20",
        "2"
      ],
      [
        "위",
        "한"
      ],
      [
        "데",
        "이"
      ],
      [
        "시",
        "스"
      ],
      [
        "뉴",
        "스"
      ],
      [
        "반",
        "기"
      ],
      [
        "대",
        "표"
      ],
      [
        "되",
        "는"
      ],
      [
        "제",
        "품"
      ],
      [
        "공",
        "급"
      ],
      [
        "판",
        "매"
      ],
      [
        "었",
        "다"
      ],
      [
        "이",
        "상"
      ],
      [
        "장",
        "은"
      ],
      [
        "이",
        "후"
      ],
      [
        "금",
        "리"
      ],
      [
        "기",
        "준"
      ],
      [
        "달",
        "러"
      ],
      [
        "사",
        "진"
      ],
      [
        "은",
        "행"
      ],
      [
        "계",
        "획"
      ],
      [
        "지난",
        "해"
      ],
      [
        "등",
        "을"
      ],
      [
        "성",
        "장"
      ],
      [
        "레",
        "이"
      ],
      [
        "라",
        "이"
      ],
      [
        "관",
        "계"
      ],
      [
        "대",
        "비"
      ],
      [
        "환",
        "경"
      ],
      [
        "1",
        "일"
      ],
      [
        "최",
        "근"
      ],
      [
        "에",
        "게"
      ],
      [
        "르",
        "면"
      ],
      [
        "관",
        "련"
      ],
      [
        "겠",
        "다"
      ],
      [
        "이",
        "용"
      ],
      [
        "전",
        "망"
      ],
      [
        "00",
        "0"
      ],
      [
        "상",
        "품"
      ],
      [
        "자",
        "는"
      ],
      [
        "하",
        "게"
      ],
      [
        "관",
        "리"
      ],
      [
        "상",
        "황"
      ],
      [
        "물",
        "가"
      ],
      [
        "도",
        "록"
      ],
      [
        "프",
        "로"
      ],
      [
        "하",
        "다"
      ],
      [
        "세",
        "계"
      ],
      [
        "너",
        "지"
      ],
      [
        "하",
        "락"
      ],
      [
        "따",
        "르면"
      ],
      [
        "확",
        "대"
      ],
      [
        "지",
        "역"
      ],
      [
        "예",
        "정"
      ],
      [
        "시",
        "간"
      ],
      [
        "삼",
        "성"
      ],
      [
        "데이",
        "터"
      ],
      [
        "L",
        "G"
      ],
      [
        "다",
        "양"
      ],
      [
        "함",
        "께"
      ],
      [
        "같",
        "은"
      ],
      [
        "대",
        "상"
      ],
      [
        "증",
        "가"
      ],
      [
        "활",
        "용"
      ],
      [
        "소",
        "비"
      ],
      [
        "5",
        "일"
      ],
      [
        "마",
        "트"
      ],
      [
        "에",
        "너지"
      ],
      [
        "에",
        "도"
      ],
      [
        "경",
        "우"
      ],
      [
        "하",
        "며"
      ],
      [
        "4",
        "일"
      ],
      [
        "경",
        "영"
      ],
      [
        "경",
        "기"
      ],
      [
        "분",
        "기"
      ],
      [
        "기",
        "관"
      ],
      [
        "사",
        "용"
      ],
      [
        "증",
        "권"
      ],
      [
        "우",
        "리"
      ],
      [
        "다양",
        "한"
      ],
      [
        "업",
        "계"
      ],
      [
        "규",
        "모"
      ],
      [
        "수",
        "출"
      ],
      [
        "기",
        "록"
      ],
      [
        "들",
        "의"
      ],
      [
        "그",
        "룹"
      ],
      [
        "최",
        "대"
      ],
      [
        "따",
        "라"
      ],
      [
        "스",
        "트"
      ],
      [
        "전",
        "문"
      ],
      [
        "운",
        "영"
      ],
      [
        "위",
        "원"
      ],
      [
        "디",
        "지"
      ],
      [
        "정",
        "책"
      ],
      [
        "1",
        "2"
      ],
      [
        "중",
        "국"
      ],
      [
        "지",
        "속"
      ],
      [
        "5",
        "0"
      ],
      [
        "만",
        "원"
      ],
      [
        "성",
        "이"
      ],
      [
        "성",
        "을"
      ],
      [
        "바",
        "이"
      ],
      [
        "회",
        "사"
      ],
      [
        "디지",
        "털"
      ],
      [
        "통",
        "신"
      ],
      [
        "설",
        "명"
      ],
      [
        "게",
        "임"
      ],
      [
        "지난",
        "달"
      ],
      [
        "1",
        "1"
      ],
      [
        "6",
        "월"
      ],
      [
        "가",
        "장"
      ],
      [
        "S",
        "K"
      ],
      [
        "들",
        "은"
      ],
      [
        "생",
        "산"
      ],
      [
        "때",
        "문"
      ],
      [
        "주",
        "택"
      ],
      [
        "랜",
        "드"
      ],
      [
        "대",
        "해"
      ],
      [
        "대",
        "출"
      ],
      [
        "평",
        "가"
      ],
      [
        "들",
        "어"
      ],
      [
        "력",
        "을"
      ],
      [
        "수",
        "요"
      ],
      [
        "반",
        "도"
      ],
      [
        "로",
        "나"
      ],
      [
        "에서",
        "는"
      ],
      [
        "라",
        "인"
      ],
      [
        "필",
        "요"
      ],
      [
        "규",
        "제"
      ],
      [
        "랫",
        "폼"
      ],
      [
        "플",
        "랫폼"
      ],
      [
        "분",
        "야"
      ],
      [
        "기",
        "간"
      ],
      [
        "안",
        "전"
      ],
      [
        "반도",
        "체"
      ],
      [
        "자",
        "산"
      ],
      [
        "경",
        "쟁"
      ],
      [
        "졌",
        "다"
      ],
      [
        "코",
        "로나"
      ],
      [
        "수",
        "준"
      ],
      [
        "했다",
        "고"
      ],
      [
        "인",
        "상"
      ],
      [
        "연",
        "합"
      ],
      [
        "현",
        "재"
      ],
      [
        "았",
        "다"
      ],
      [
        "오",
        "는"
      ],
      [
        "하",
        "면"
      ],
      [
        "주",
        "요"
      ],
      [
        "되",
        "고"
      ],
      [
        "이",
        "날"
      ],
      [
        "전",
        "력"
      ],
      [
        "현",
        "대"
      ],
      [
        "특",
        "히"
      ],
      [
        "으",
        "며"
      ],
      [
        "발",
        "표"
      ],
      [
        "1",
        "00"
      ],
      [
        "출",
        "시"
      ],
      [
        "이",
        "는"
      ],
      [
        "시스",
        "템"
      ],
      [
        "1",
        "3"
      ],
      [
        "전",
        "기"
      ],
      [
        "국",
        "제"
      ],
      [
        "1",
        "5"
      ],
      [
        "있",
        "도록"
      ],
      [
        "소비",
        "자"
      ],
      [
        "수",
        "는"
      ],
      [
        "202",
        "2"
      ],
      [
        "회",
        "장"
      ],
      [
        "센",
        "터"
      ],
      [
        "하",
        "지"
      ],
      [
        "해",
        "외"
      ],
      [
        "매",
        "출"
      ],
      [
        "4",
        "0"
      ],
      [
        "A",
        "I"
      ],
      [
        "시",
        "아"
      ],
      [
        "분",
        "석"
      ],
      [
        "플",
        "레이"
      ],
      [
        "업",
        "체"
      ],
      [
        "최",
        "고"
      ],
      [
        "개",
        "선"
      ],
      [
        "시",
        "작"
      ],
      [
        "카",
        "카"
      ],
      [
        "관계",
        "자는"
      ],
      [
        "참",
        "여"
      ],
      [
        "하",
        "겠다"
      ],
      [
        "전",
        "략"
      ],
      [
        "사",
        "회"
      ],
      [
        "아",
        "이"
      ],
      [
        "기",
        "대"
      ],
      [
        "예",
        "상"
      ],
      [
        "추",
        "가"
      ],
      [
        "구",
        "축"
      ],
      [
        "개",
        "월"
      ],
      [
        "하",
        "면서"
      ],
      [
        "보",
        "험"
      ],
      [
        "적",
        "용"
      ],
      [
        "카카",
        "오"
      ],
      [
        "였",
        "다"
      ],
      [
        "보",
        "고"
      ],
      [
        "강",
        "화"
      ],
      [
        "추",
        "진"
      ],
      [
        "해",
        "야"
      ],
      [
        "자",
        "동"
      ],
      [
        "스",
        "타"
      ],
      [
        "것",
        "이"
      ],
      [
        "실",
        "적"
      ],
      [
        "상",
        "반기"
      ],
      [
        "1",
        "년"
      ],
      [
        "입",
        "니다"
      ],
      [
        "5",
        "월"
      ],
      [
        "우",
        "려"
      ],
      [
        "러",
        "스"
      ],
      [
        "항",
        "공"
      ],
      [
        "나",
        "타"
      ],
      [
        "중",
        "소"
      ],
      [
        "파",
        "트"
      ],
      [
        "개",
        "인"
      ],
      [
        "리",
        "는"
      ],
      [
        "회",
        "의"
      ],
      [
        "건",
        "설"
      ],
      [
        "스",
        "마트"
      ],
      [
        "지",
        "는"
      ],
      [
        "일",
        "본"
      ],
      [
        "결",
        "과"
      ],
      [
        "기",
        "반"
      ],
      [
        "기",
        "존"
      ],
      [
        "높",
        "은"
      ],
      [
        "기",
        "를"
      ],
      [
        "장",
        "을"
      ],
      [
        "협",
        "력"
      ],
      [
        "예정",
        "이다"
      ],
      [
        "롯",
        "데"
      ],
      [
        "사",
        "를"
      ],
      [
        "주",
        "가"
      ],
      [
        "문",
        "제"
      ],
      [
        "코로나",
        "19"
      ],
      [
        "대",
        "로"
      ],
      [
        "주",
        "식"
      ],
      [
        "결",
        "제"
      ],
      [
        "하",
        "반기"
      ],
      [
        "1",
        "8"
      ],
      [
        "연합",
        "뉴스"
      ],
      [
        "만",
        "에"
      ],
      [
        "성",
        "과"
      ],
      [
        "코",
        "스"
      ],
      [
        "1",
        "4"
      ],
      [
        "영",
        "향"
      ],
      [
        "세",
        "대"
      ],
      [
        "연구",
        "원"
      ],
      [
        "부",
        "담"
      ],
      [
        "사",
        "이"
      ],
      [
        "장",
        "관"
      ],
      [
        "7",
        "월"
      ],
      [
        "혁",
        "신"
      ],
      [
        "직",
        "원"
      ],
      [
        "6",
        "일"
      ],
      [
        "영",
        "상"
      ],
      [
        "이",
        "를"
      ],
      [
        "삼성",
        "전자"
      ],
      [
        "브",
        "랜드"
      ],
      [
        "치",
        "를"
      ],
      [
        "자",
        "가"
      ],
      [
        "가",
        "운"
      ],
      [
        "아",
        "니"
      ],
      [
        "지",
        "고"
      ],
      [
        "하",
        "나"
      ],
      [
        "국",
        "가"
      ],
      [
        "20",
        "0"
      ],
      [
        "안",
        "정"
      ],
      [
        "가운",
        "데"
      ],
      [
        "했",
        "습니다"
      ],
      [
        "계획",
        "이다"
      ],
      [
        "감",
        "소"
      ],
      [
        "발",
        "생"
      ],
      [
        "페",
        "이"
      ],
      [
        "전",
        "환"
      ],
      [
        "지",
        "를"
      ],
      [
        "확",
        "보"
      ],
      [
        "등",
        "의"
      ],
      [
        "다",
        "는"
      ],
      [
        "등",
        "이"
      ],
      [
        "마",
        "련"
      ],
      [
        "뉴",
        "시스"
      ],
      [
        "인",
        "트"
      ],
      [
        "6",
        "0"
      ],
      [
        "대",
        "학"
      ],
      [
        "과",
        "학"
      ],
      [
        "1",
        "7"
      ],
      [
        "라",
        "고"
      ],
      [
        "만",
        "큼"
      ],
      [
        "업",
        "무"
      ],
      [
        "있",
        "어"
      ],
      [
        "로",
        "운"
      ],
      [
        "동",
        "안"
      ],
      [
        "유",
        "지"
      ],
      [
        "화",
        "를"
      ],
      [
        "위",
        "기"
      ],
      [
        "한다",
        "고"
      ],
      [
        "들",
        "을"
      ],
      [
        "영",
        "업"
      ],
      [
        "이",
        "에"
      ],
      [
        "발",
        "전"
      ],
      [
        "포",
        "인트"
      ],
      [
        "설명",
        "했다"
      ],
      [
        "이",
        "나"
      ],
      [
        "조",
        "사"
      ],
      [
        "3",
        "일"
      ],
      [
        "교",
        "육"
      ],
      [
        "보",
        "인"
      ],
      [
        "선",
        "정"
      ],
      [
        "콘",
        "텐"
      ],
      [
        "확",
        "인"
      ],
      [
        "이라",
        "며"
      ],
      [
        "목",
        "표"
      ],
      [
        "서비스",
        "를"
      ],
      [
        "는",
        "데"
      ],
      [
        "부",
        "산"
      ],
      [
        "활",
        "동"
      ],
      [
        "것",
        "이다"
      ],
      [
        "대",
        "응"
      ],
      [
        "벤",
        "트"
      ],
      [
        "이",
        "벤트"
      ],
      [
        "있다",
        "는"
      ],
      [
        "많",
        "은"
      ],
      [
        "미",
        "래"
      ],
      [
        "적",
        "극"
      ],
      [
        "중",
        "심"
      ],
      [
        "카",
        "드"
      ],
      [
        "평",
        "균"
      ],
      [
        "내",
        "용"
      ],
      [
        "이",
        "미"
      ],
      [
        "2",
        "4"
      ],
      [
        "모",
        "두"
      ],
      [
        "세",
        "를"
      ],
      [
        "신",
        "규"
      ],
      [
        "떨",
        "어"
      ],
      [
        "앞",
        "으로"
      ],
      [
        "뉴스",
        "1"
      ],
      [
        "K",
        "T"
      ],
      [
        "위원",
        "회"
      ],
      [
        "1",
        "6"
      ],
      [
        "공",
        "동"
      ],
      [
        "모",
        "델"
      ],
      [
        "서",
        "는"
      ],
      [
        "2",
        "5"
      ],
      [
        "수",
        "익"
      ],
      [
        "이",
        "고"
      ],
      [
        "해",
        "당"
      ],
      [
        "보",
        "유"
      ],
      [
        "신",
        "한"
      ],
      [
        "콘텐",
        "츠"
      ],
      [
        "다",
        "른"
      ],
      [
        "20",
        "년"
      ],
      [
        "이라",
        "는"
      ],
      [
        "방",
        "안"
      ],
      [
        "제",
        "도"
      ],
      [
        "포",
        "함"
      ],
      [
        "방",
        "식"
      ],
      [
        "부",
        "는"
      ],
      [
        "그",
        "램"
      ],
      [
        "2",
        "9"
      ],
      [
        "라",
        "는"
      ],
      [
        "라",
        "우"
      ],
      [
        "강",
        "조"
      ],
      [
        "비",
        "율"
      ],
      [
        "결",
        "정"
      ],
      [
        "과",
        "정"
      ],
      [
        "등",
        "에"
      ],
      [
        "부",
        "문"
      ],
      [
        "침",
        "체"
      ],
      [
        "도",
        "로"
      ],
      [
        "운",
        "용"
      ],
      [
        "계",
        "약"
      ],
      [
        "사",
        "는"
      ],
      [
        "이",
        "익"
      ],
      [
        "시",
        "행"
      ],
      [
        "처",
        "음"
      ],
      [
        "공",
        "개"
      ],
      [
        "점",
        "을"
      ],
      [
        "가",
        "치"
      ],
      [
        "구",
        "매"
      ],
      [
        "전",
        "체"
      ],
      [
        "바이",
        "오"
      ],
      [
        "신",
        "청"
      ],
      [
        "자동",
        "차"
      ],
      [
        "새",
        "로운"
      ],
      [
        "점",
        "검"
      ],
      [
        "에서",
        "도"
      ],
      [
        "늘",
        "어"
      ],
      [
        "식",
        "품"
      ],
      [
        "8",
        "0"
      ],
      [
        "따",
        "른"
      ],
      [
        "조",
        "정"
      ],
      [
        "것",
        "은"
      ],
      [
        "리",
        "아"
      ],
      [
        "기",
        "획"
      ],
      [
        "조",
        "원"
      ],
      [
        "때문",
        "에"
      ],
      [
        "3",
        "년"
      ],
      [
        "구",
        "성"
      ],
      [
        "자",
        "리"
      ],
      [
        "20",
        "20년"
      ],
      [
        "메",
        "타"
      ],
      [
        "하",
        "이"
      ],
      [
        "라우",
        "드"
      ],
      [
        "교",
        "수"
      ],
      [
        "애",
        "플"
      ],
      [
        "2",
        "2"
      ],
      [
        "각",
        "각"
      ],
      [
        "다",
        "고"
      ],
      [
        "플",
        "러스"
      ],
      [
        "러",
        "시아"
      ],
      [
        "전",
        "국"
      ],
      [
        "대상",
        "으로"
      ],
      [
        "공",
        "공"
      ],
      [
        "성",
        "공"
      ],
      [
        "수",
        "도"
      ],
      [
        "오",
        "후"
      ],
      [
        "자",
        "체"
      ],
      [
        "클",
        "라우드"
      ],
      [
        "한",
        "편"
      ],
      [
        "비",
        "용"
      ],
      [
        "우",
        "주"
      ],
      [
        "하",
        "지만"
      ],
      [
        "도",
        "입"
      ],
      [
        "E",
        "S"
      ],
      [
        "어",
        "려"
      ],
      [
        "자",
        "의"
      ],
      [
        "가",
        "입"
      ],
      [
        "현",
        "장"
      ],
      [
        "반",
        "영"
      ],
      [
        "루",
        "션"
      ],
      [
        "부",
        "분"
      ],
      [
        "오",
        "전"
      ],
      [
        "사업",
        "을"
      ],
      [
        "열",
        "린"
      ],
      [
        "차",
        "량"
      ],
      [
        "2",
        "분기"
      ],
      [
        "무",
        "역"
      ],
      [
        "아",
        "파트"
      ],
      [
        "여",
        "름"
      ],
      [
        "현",
        "지"
      ],
      [
        "7",
        "0"
      ],
      [
        "네",
        "이"
      ],
      [
        "온",
        "라인"
      ],
      [
        "유",
        "럽"
      ],
      [
        "국",
        "민"
      ],
      [
        "나",
        "라"
      ],
      [
        "수",
        "입"
      ],
      [
        "한다",
        "는"
      ],
      [
        "솔",
        "루션"
      ],
      [
        "났",
        "다"
      ],
      [
        "리",
        "스"
      ],
      [
        "비",
        "중"
      ],
      [
        "가",
        "지"
      ],
      [
        "방",
        "향"
      ],
      [
        "버",
        "스"
      ],
      [
        "전",
        "년"
      ],
      [
        "등",
        "으로"
      ],
      [
        "소",
        "재"
      ],
      [
        "자",
        "를"
      ],
      [
        "코스",
        "피"
      ],
      [
        "개",
        "최"
      ],
      [
        "사",
        "의"
      ],
      [
        "아니",
        "라"
      ],
      [
        "가",
        "상"
      ],
      [
        "제",
        "작"
      ],
      [
        "중소",
        "기업"
      ],
      [
        "1",
        "만"
      ],
      [
        "없",
        "이"
      ],
      [
        "제",
        "로"
      ],
      [
        "기",
        "능"
      ],
      [
        "사",
        "고"
      ],
      [
        "있다",
        "고"
      ],
      [
        "보인",
        "다"
      ],
      [
        "교",
        "통"
      ],
      [
        "장",
        "이"
      ],
      [
        "직",
        "접"
      ],
      [
        "관",
        "심"
      ],
      [
        "보",
        "호"
      ],
      [
        "지",
        "수"
      ],
      [
        "비",
        "롯"
      ],
      [
        "부",
        "동"
      ],
      [
        "유",
        "가"
      ],
      [
        "있",
        "습니다"
      ],
      [
        "리",
        "고"
      ],
      [
        "마",
        "이"
      ],
      [
        "이",
        "션"
      ],
      [
        "프로",
        "그램"
      ],
      [
        "2",
        "7"
      ],
      [
        "그",
        "러"
      ],
      [
        "대",
        "형"
      ],
      [
        "들",
        "과"
      ],
      [
        "법",
        "인"
      ],
      [
        "30",
        "일"
      ],
      [
        "공",
        "정"
      ],
      [
        "구",
        "글"
      ],
      [
        "단",
        "계"
      ],
      [
        "향",
        "후"
      ],
      [
        "단",
        "지"
      ],
      [
        "상",
        "을"
      ],
      [
        "생",
        "각"
      ],
      [
        "왔",
        "다"
      ],
      [
        "핵",
        "심"
      ],
      [
        "효",
        "과"
      ],
      [
        "요",
        "금"
      ],
      [
        "일",
        "리"
      ],
      [
        "회",
        "장은"
      ],
      [
        "기",
        "에"
      ],
      [
        "여",
        "러"
      ],
      [
        "원",
        "자"
      ],
      [
        "할",
        "인"
      ],
      [
        "준",
        "비"
      ],
      [
        "중",
        "요"
      ],
      [
        "플레이",
        "션"
      ],
      [
        "도",
        "를"
      ],
      [
        "암",
        "호"
      ],
      [
        "전",
        "시"
      ],
      [
        "8",
        "월"
      ],
      [
        "들",
        "에게"
      ],
      [
        "더",
        "욱"
      ],
      [
        "본",
        "격"
      ],
      [
        "자",
        "금"
      ],
      [
        "네이",
        "버"
      ],
      [
        "부동",
        "산"
      ],
      [
        "수",
        "상"
      ],
      [
        "크",
        "게"
      ],
      [
        "탄",
        "소"
      ],
      [
        "5",
        "년"
      ],
      [
        "이",
        "동"
      ],
      [
        "증",
        "시"
      ],
      [
        "2",
        "3"
      ],
      [
        "그",
        "는"
      ],
      [
        "역",
        "시"
      ],
      [
        "본",
        "부"
      ],
      [
        "생",
        "활"
      ],
      [
        "인",
        "터"
      ],
      [
        "행",
        "사"
      ],
      [
        "외",
        "환"
      ],
      [
        "가",
        "스"
      ],
      [
        "세",
        "가"
      ],
      [
        "자",
        "원"
      ],
      [
        "기술",
        "을"
      ],
      [
        "2",
        "년"
      ],
      [
        "구",
        "조"
      ],
      [
        "니",
        "스"
      ],
      [
        "오",
        "른"
      ],
      [
        "가",
        "는"
      ],
      [
        "사",
        "람"
      ],
      [
        "완",
        "화"
      ],
      [
        "시장",
        "에서"
      ],
      [
        "도",
        "가"
      ],
      [
        "앞",
        "서"
      ],
      [
        "유",
        "통"
      ],
      [
        "진",
        "단"
      ],
      [
        "참",
        "석"
      ],
      [
        "체",
        "결"
      ],
      [
        "판",
        "단"
      ],
      [
        "했",
        "고"
      ],
      [
        "거",
        "나"
      ],
      [
        "인",
        "하"
      ],
      [
        "주",
        "는"
      ],
      [
        "00",
        "원"
      ],
      [
        "공급",
        "망"
      ],
      [
        "일",
        "반"
      ],
      [
        "정부",
        "는"
      ],
      [
        "2",
        "8"
      ],
      [
        "건",
        "강"
      ],
      [
        "장",
        "기"
      ],
      [
        "치",
        "료"
      ],
      [
        "없",
        "는"
      ],
      [
        "가능",
        "성이"
      ],
      [
        "최",
        "초"
      ],
      [
        "협",
        "약"
      ],
      [
        "4",
        "월"
      ],
      [
        "데",
        "일리"
      ],
      [
        "정부",
        "가"
      ],
      [
        "D",
        "B"
      ],
      [
        "n",
        "e"
      ],
      [
        "시",
        "설"
      ],
      [
        "가격",
        "이"
      ],
      [
        "또",
        "한"
      ],
      [
        "스",
        "는"
      ],
      [
        "스",
        "토"
      ],
      [
        "위",
        "성"
      ],
      [
        "가",
        "를"
      ],
      [
        "모",
        "습"
      ],
      [
        "수",
        "학"
      ],
      [
        "집",
        "중"
      ],
      [
        "환",
        "율"
      ],
      [
        "코",
        "인"
      ],
      [
        "c",
        "o"
      ],
      [
        "방",
        "문"
      ],
      [
        "상",
        "태"
      ],
      [
        "쇼",
        "핑"
      ],
      [
        "진",
        "출"
      ],
      [
        "전기",
        "차"
      ],
      [
        "ES",
        "G"
      ],
      [
        "계",
        "속"
      ],
      [
        "이",
        "달"
      ],
      [
        "이",
        "런"
      ],
      [
        "친",
        "환경"
      ],
      [
        "T",
        "V"
      ],
      [
        "고",
        "려"
      ],
      [
        "공",
        "간"
      ],
      [
        "기",
        "가"
      ],
      [
        "매",
        "매"
      ],
      [
        "인",
        "수"
      ],
      [
        "장",
        "비"
      ],
      [
        "변",
        "동"
      ],
      [
        "공",
        "사"
      ],
      [
        "기",
        "념"
      ],
      [
        "있",
        "을"
      ],
      [
        "코",
        "리아"
      ],
      [
        "기업",
        "의"
      ],
      [
        "가능",
        "한"
      ],
      [
        "현대",
        "차"
      ],
      [
        "번",
        "째"
      ],
      [
        "양",
        "자"
      ],
      [
        "조",
        "치"
      ],
      [
        "수요",
        "가"
      ],
      [
        "역",
        "할"
      ],
      [
        "특",
        "별"
      ],
      [
        "경",
        "험"
      ],
      [
        "노",
        "력"
      ],
      [
        "지",
        "금"
      ],
      [
        "필요",
        "한"
      ],
      [
        "도",
        "시"
      ],
      [
        "라이",
        "나"
      ],
      [
        "신",
        "용"
      ],
      [
        "원",
        "전"
      ],
      [
        "일",
        "부"
      ],
      [
        "당",
        "시"
      ],
      [
        "선",
        "택"
      ],
      [
        "전",
        "용"
      ],
      [
        "가",
        "구"
      ],
      [
        "알",
        "려"
      ],
      [
        "금",
        "지"
      ],
      [
        "회",
        "를"
      ],
      [
        "모",
        "든"
      ],
      [
        "프",
        "트"
      ],
      [
        "혜",
        "택"
      ],
      [
        "별",
        "로"
      ],
      [
        "올",
        "랐"
      ],
      [
        "제",
        "조"
      ],
      [
        "9",
        "0"
      ],
      [
        "것",
        "을"
      ],
      [
        "다",
        "시"
      ],
      [
        "우",
        "크"
      ],
      [
        "위",
        "를"
      ],
      [
        "K",
        "B"
      ],
      [
        "논",
        "의"
      ],
      [
        "량",
        "을"
      ],
      [
        "연",
        "금"
      ],
      [
        "중",
        "앙"
      ],
      [
        "사",
        "실"
      ],
      [
        "변",
        "화"
      ],
      [
        "상",
        "담"
      ],
      [
        "설",
        "립"
      ],
      [
        "인",
        "플레이션"
      ],
      [
        "자",
        "인"
      ],
      [
        "책",
        "임"
      ],
      [
        "총",
        "리"
      ],
      [
        "강조",
        "했다"
      ],
      [
        "보",
        "면"
      ],
      [
        "협",
        "회"
      ],
      [
        "프로",
        "젝"
      ],
      [
        "우크",
        "라이나"
      ],
      [
        "e",
        "r"
      ],
      [
        "없",
        "다"
      ],
      [
        "유",
        "플러스"
      ],
      [
        "중",
        "이다"
      ],
      [
        "체",
        "계"
      ],
      [
        "프",
        "리"
      ],
      [
        "대표",
        "는"
      ],
      [
        "I",
        "T"
      ],
      [
        "나",
        "온"
      ],
      [
        "많",
        "이"
      ],
      [
        "모",
        "바"
      ],
      [
        "블",
        "록"
      ],
      [
        "상",
        "장"
      ],
      [
        "외",
        "국"
      ],
      [
        "이",
        "뤄"
      ],
      [
        "창",
        "업"
      ],
      [
        "프로젝",
        "트"
      ],
      [
        "모바",
        "일"
      ],
      [
        "5",
        "G"
      ],
      [
        "받",
        "은"
      ],
      [
        "액",
        "은"
      ],
      [
        "20",
        "19"
      ],
      [
        "다",
        "만"
      ],
      [
        "운",
        "송"
      ],
      [
        "위",
        "험"
      ],
      [
        "지",
        "적"
      ],
      [
        "테",
        "크"
      ],
      [
        "시장",
        "에"
      ],
      [
        "과",
        "제"
      ],
      [
        "연",
        "속"
      ],
      [
        "제",
        "한"
      ],
      [
        "주",
        "파"
      ],
      [
        "LG",
        "유플러스"
      ],
      [
        "않",
        "는"
      ],
      [
        "이",
        "드"
      ],
      [
        "체",
        "인"
      ],
      [
        "가능",
        "하다"
      ],
      [
        "전문",
        "가"
      ],
      [
        "3",
        "월"
      ],
      [
        "5",
        "00"
      ],
      [
        "국",
        "토"
      ],
      [
        "노",
        "동"
      ],
      [
        "높",
        "아"
      ],
      [
        "되",
        "면서"
      ],
      [
        "작",
        "년"
      ],
      [
        "하기",
        "로"
      ],
      [
        "때문",
        "이다"
      ],
      [
        "선",
        "보"
      ],
      [
        "수",
        "급"
      ],
      [
        "기록",
        "했다"
      ],
      [
        "F",
        "T"
      ],
      [
        "오",
        "르"
      ],
      [
        "의",
        "미"
      ],
      [
        "중",
        "인"
      ],
      [
        "처",
        "럼"
      ],
      [
        "텔",
        "레"
      ],
      [
        "우리",
        "나라"
      ],
      [
        "이",
        "유"
      ],
      [
        "해",
        "서"
      ],
      [
        "LG",
        "전자"
      ],
      [
        "나타",
        "났다"
      ],
      [
        "의",
        "견"
      ],
      [
        "메타",
        "버스"
      ],
      [
        "비",
        "즈"
      ],
      [
        "전",
        "했다"
      ],
      [
        "통",
        "계"
      ],
      [
        "력",
        "이"
      ],
      [
        "받",
        "아"
      ],
      [
        "사",
        "가"
      ],
      [
        "요",
        "구"
      ],
      [
        "차",
        "지"
      ],
      [
        "2019",
        "년"
      ],
      [
        "주파",
        "수"
      ],
      [
        "물",
        "류"
      ],
      [
        "수",
        "행"
      ],
      [
        "인",
        "공"
      ],
      [
        "종",
        "목"
      ],
      [
        "거",
        "리"
      ],
      [
        "수",
        "주"
      ],
      [
        "이",
        "하"
      ],
      [
        "제",
        "시"
      ],
      [
        "통",
        "상"
      ],
      [
        "상승",
        "률"
      ],
      [
        "동",
        "시"
      ],
      [
        "르",
        "게"
      ],
      [
        "조",
        "직"
      ],
      [
        "터",
        "리"
      ],
      [
        "한",
        "화"
      ],
      [
        "과학",
        "기술"
      ],
      [
        "연",
        "결"
      ],
      [
        "이",
        "전"
      ],
      [
        "충",
        "전"
      ],
      [
        "할",
        "당"
      ],
      [
        "i",
        "s"
      ],
      [
        "대",
        "를"
      ],
      [
        "받",
        "을"
      ],
      [
        "정보",
        "를"
      ],
      [
        "연구원",
        "은"
      ],
      [
        "C",
        "E"
      ],
      [
        "고",
        "용"
      ],
      [
        "기",
        "는"
      ],
      [
        "대",
        "전"
      ],
      [
        "위",
        "치"
      ],
      [
        "인",
        "정"
      ],
      [
        "재",
        "생"
      ],
      [
        "영향",
        "을"
      ],
      [
        "검",
        "토"
      ],
      [
        "담",
        "보"
      ],
      [
        "원",
        "을"
      ],
      [
        "인",
        "증"
      ],
      [
        "있",
        "게"
      ],
      [
        "공",
        "식"
      ],
      [
        "두",
        "고"
      ],
      [
        "마",
        "켓"
      ],
      [
        "부",
        "가"
      ],
      [
        "설",
        "계"
      ],
      [
        "실",
        "제"
      ],
      [
        "영",
        "국"
      ],
      [
        "워",
        "크"
      ],
      [
        "최",
        "저"
      ],
      [
        "로",
        "봇"
      ],
      [
        "배",
        "터리"
      ],
      [
        "웨",
        "어"
      ],
      [
        "담",
        "당"
      ],
      [
        "오",
        "프"
      ],
      [
        "프",
        "라"
      ],
      [
        "매",
        "수"
      ],
      [
        "않",
        "고"
      ],
      [
        "이",
        "며"
      ],
      [
        "이",
        "었다"
      ],
      [
        "품",
        "질"
      ],
      [
        "3",
        "5"
      ],
      [
        "그",
        "래"
      ],
      [
        "자",
        "료"
      ],
      [
        "지",
        "구"
      ],
      [
        "억원",
        "으로"
      ],
      [
        "데이터",
        "를"
      ],
      [
        "또",
        "는"
      ],
      [
        "원",
        "에"
      ],
      [
        "종",
        "합"
      ],
      [
        "스",
        "코"
      ],
      [
        "역",
        "대"
      ],
      [
        "측",
        "은"
      ],
      [
        "확",
        "산"
      ],
      [
        "1",
        "조"
      ],
      [
        "문",
        "화"
      ],
      [
        "조",
        "합"
      ],
      [
        "품",
        "목"
      ],
      [
        "N",
        "FT"
      ],
      [
        "넘",
        "어"
      ],
      [
        "량",
        "이"
      ],
      [
        "사",
        "장"
      ],
      [
        "주",
        "의"
      ],
      [
        "통",
        "한"
      ],
      [
        "파",
        "이"
      ],
      [
        "2",
        "6"
      ],
      [
        "기",
        "도"
      ],
      [
        "사",
        "례"
      ],
      [
        "펀",
        "드"
      ],
      [
        "합",
        "니다"
      ],
      [
        "간",
        "담"
      ],
      [
        "공",
        "유"
      ],
      [
        "내",
        "년"
      ],
      [
        "네",
        "트"
      ],
      [
        "방",
        "침"
      ],
      [
        "스",
        "포"
      ],
      [
        "인",
        "천"
      ],
      [
        "투자",
        "자"
      ],
      [
        "2022",
        "년"
      ],
      [
        "중심",
        "으로"
      ],
      [
        "I",
        "S"
      ],
      [
        "i",
        "n"
      ],
      [
        "w",
        "s"
      ],
      [
        "교",
        "수는"
      ],
      [
        "금",
        "을"
      ],
      [
        "지",
        "정"
      ],
      [
        "치",
        "는"
      ],
      [
        "했",
        "던"
      ],
      [
        "정부",
        "의"
      ],
      [
        "광",
        "고"
      ],
      [
        "렸",
        "다"
      ],
      [
        "소",
        "프트"
      ],
      [
        "원",
        "은"
      ],
      [
        "마",
        "케"
      ],
      [
        "비",
        "교"
      ],
      [
        "으",
        "나"
      ],
      [
        "큐",
        "브"
      ],
      [
        "편",
        "의"
      ],
      [
        "화",
        "폐"
      ],
      [
        "이용",
        "자"
      ],
      [
        "명",
        "이"
      ],
      [
        "사",
        "전"
      ],
      [
        "에",
        "선"
      ],
      [
        "오",
        "픈"
      ],
      [
        "지",
        "수는"
      ],
      [
        "3",
        "7"
      ],
      [
        "공",
        "장"
      ],
      [
        "기",
        "로"
      ],
      [
        "정",
        "도"
      ],
      [
        "통",
        "령"
      ],
      [
        "하",
        "여"
      ],
      [
        "텔레",
        "콤"
      ],
      [
        "대",
        "통령"
      ],
      [
        "원",
        "이"
      ],
      [
        "원자",
        "재"
      ],
      [
        "물",
        "론"
      ],
      [
        "효",
        "율"
      ],
      [
        "제공",
        "한다"
      ],
      [
        "거래",
        "소"
      ],
      [
        "정보",
        "통신"
      ],
      [
        "SK",
        "텔레콤"
      ],
      [
        "비즈",
        "니스"
      ],
      [
        "디",
        "어"
      ],
      [
        "분",
        "양"
      ],
      [
        "전",
        "쟁"
      ],
      [
        "확",
        "장"
      ],
      [
        "기업",
        "이"
      ],
      [
        "마케",
        "팅"
      ],
      [
        "9",
        "월"
      ],
      [
        "o",
        "n"
      ],
      [
        "보",
        "안"
      ],
      [
        "원",
        "으로"
      ],
      [
        "있",
        "고"
      ],
      [
        "쳤",
        "다"
      ],
      [
        "라이",
        "브"
      ],
      [
        "8",
        "년"
      ],
      [
        "근",
        "로"
      ],
      [
        "드",
        "는"
      ],
      [
        "라",
        "며"
      ],
      [
        "부",
        "품"
      ],
      [
        "소",
        "득"
      ],
      [
        "실",
        "시"
      ],
      [
        "테",
        "이"
      ],
      [
        "가능",
        "성"
      ],
      [
        "당",
        "국"
      ],
      [
        "민",
        "간"
      ],
      [
        "부",
        "채"
      ],
      [
        "지",
        "급"
      ],
      [
        "사업",
        "자"
      ],
      [
        "제공",
        "하는"
      ],
      [
        "상품",
        "을"
      ],
      [
        "보고",
        "서"
      ],
      [
        "파트",
        "너"
      ],
      [
        "입",
        "장"
      ],
      [
        "있",
        "으며"
      ],
      [
        "자",
        "율"
      ],
      [
        "조",
        "성"
      ],
      [
        "주",
        "도"
      ],
      [
        "통",
        "합"
      ],
      [
        "나온",
        "다"
      ],
      [
        "디",
        "자인"
      ],
      [
        "반",
        "면"
      ],
      [
        "방",
        "송"
      ],
      [
        "표",
        "준"
      ],
      [
        "가격",
        "은"
      ],
      [
        "2",
        "1"
      ],
      [
        "다",
        "음"
      ],
      [
        "되",
        "면"
      ],
      [
        "만",
        "들"
      ],
      [
        "반",
        "대"
      ],
      [
        "업",
        "을"
      ],
      [
        "우",
        "수"
      ],
      [
        "원",
        "유"
      ],
      [
        "명",
        "을"
      ],
      [
        "되",
        "며"
      ],
      [
        "바",
        "탕"
      ],
      [
        "기",
        "여"
      ],
      [
        "의",
        "료"
      ],
      [
        "제품",
        "을"
      ],
      [
        "1",
        "분기"
      ],
      [
        "7",
        "일"
      ],
      [
        "여",
        "전"
      ],
      [
        "재",
        "무"
      ],
      [
        "채",
        "널"
      ],
      [
        "케",
        "이"
      ],
      [
        "석",
        "유"
      ],
      [
        "스",
        "를"
      ],
      [
        "오",
        "늘"
      ],
      [
        "참",
        "가"
      ],
      [
        "스타",
        "트"
      ],
      [
        "e",
        "n"
      ],
      [
        "거래",
        "일"
      ],
      [
        "202",
        "1년"
      ],
      [
        "E",
        "T"
      ],
      [
        "누",
        "리"
      ],
      [
        "받",
        "고"
      ],
      [
        "설",
        "치"
      ],
      [
        "세",
        "종"
      ],
      [
        "원",
        "의"
      ],
      [
        "줄",
        "어"
      ],
      [
        "케",
        "어"
      ],
      [
        "화",
        "된"
      ],
      [
        "11",
        "월"
      ],
      [
        "스마트",
        "폰"
      ],
      [
        "과",
        "기"
      ],
      [
        "피",
        "해"
      ],
      [
        "시장",
        "의"
      ],
      [
        "스토",
        "어"
      ],
      [
        "바탕",
        "으로"
      ],
      [
        "받",
        "는"
      ],
      [
        "부",
        "회장"
      ],
      [
        "비",
        "트"
      ],
      [
        "생",
        "태"
      ],
      [
        "억",
        "달러"
      ],
      [
        "촬",
        "영"
      ],
      [
        "했",
        "지만"
      ],
      [
        "등",
        "급"
      ],
      [
        "사",
        "와"
      ],
      [
        "인",
        "력"
      ],
      [
        "임",
        "상"
      ],
      [
        "지",
        "능"
      ],
      [
        "청",
        "년"
      ],
      [
        "나",
        "갈"
      ],
      [
        "되",
        "지"
      ],
      [
        "레",
        "미"
      ],
      [
        "에",
        "어"
      ],
      [
        "우",
        "선"
      ],
      [
        "이",
        "자"
      ],
      [
        "호",
        "텔"
      ],
      [
        "회",
        "복"
      ],
      [
        "10",
        "년"
      ],
      [
        "co",
        "m"
      ],
      [
        "1",
        "000"
      ],
      [
        "2",
        "만"
      ],
      [
        "3",
        "00"
      ],
      [
        "노",
        "조"
      ],
      [
        "않",
        "은"
      ],
      [
        "원",
        "에서"
      ],
      [
        "작",
        "품"
      ],
      [
        "취",
        "약"
      ],
      [
        "우려",
        "가"
      ],
      [
        "역할",
        "을"
      ],
      [
        "레미",
        "콘"
      ],
      [
        "5",
        "000"
      ],
      [
        "집",
        "계"
      ],
      [
        "둔",
        "화"
      ],
      [
        "변",
        "경"
      ],
      [
        "선",
        "을"
      ],
      [
        "인",
        "한"
      ],
      [
        "전",
        "달"
      ],
      [
        "제",
        "약"
      ],
      [
        "7",
        "7"
      ],
      [
        "G",
        "S"
      ],
      [
        "물",
        "을"
      ],
      [
        "벤",
        "처"
      ],
      [
        "소",
        "개"
      ],
      [
        "인",
        "프라"
      ],
      [
        "주",
        "목"
      ],
      [
        "청",
        "약"
      ],
      [
        "동",
        "기"
      ],
      [
        "마",
        "감"
      ],
      [
        "설",
        "비"
      ],
      [
        "임",
        "직원"
      ],
      [
        "활",
        "성"
      ],
      [
        "투자",
        "증권"
      ],
      [
        "방안",
        "을"
      ],
      [
        "베",
        "이"
      ],
      [
        "성",
        "능"
      ],
      [
        "올",
        "라"
      ],
      [
        "정",
        "상"
      ],
      [
        "주",
        "거"
      ],
      [
        "지",
        "가"
      ],
      [
        "지",
        "분"
      ],
      [
        "시장",
        "을"
      ],
      [
        "전망",
        "이다"
      ],
      [
        "규모",
        "의"
      ],
      [
        "대",
        "책"
      ],
      [
        "리",
        "를"
      ],
      [
        "상",
        "공"
      ],
      [
        "지",
        "하"
      ],
      [
        "CE",
        "O"
      ],
      [
        "1",
        "월"
      ],
      [
        "3",
        "8"
      ],
      [
        "I",
        "P"
      ],
      [
        "수",
        "수"
      ],
      [
        "업",
        "종"
      ],
      [
        "임",
        "대"
      ],
      [
        "중",
        "립"
      ],
      [
        "상황",
        "을"
      ],
      [
        "활용",
        "해"
      ],
      [
        "외국",
        "인"
      ],
      [
        "재생",
        "에너지"
      ],
      [
        "네트",
        "워크"
      ],
      [
        "스타트",
        "업"
      ],
      [
        "료",
        "를"
      ],
      [
        "사",
        "장은"
      ],
      [
        "여",
        "부"
      ],
      [
        "이",
        "노"
      ],
      [
        "지",
        "도"
      ],
      [
        "영업",
        "이익"
      ],
      [
        "4",
        "년"
      ],
      [
        "C",
        "J"
      ],
      [
        "매",
        "도"
      ],
      [
        "명",
        "의"
      ],
      [
        "으",
        "면"
      ],
      [
        "정",
        "비"
      ],
      [
        "출",
        "범"
      ],
      [
        "ne",
        "ws"
      ],
      [
        "간담",
        "회"
      ],
      [
        "등",
        "록"
      ],
      [
        "매",
        "장"
      ],
      [
        "받",
        "았다"
      ],
      [
        "유",
        "치"
      ],
      [
        "인",
        "재"
      ],
      [
        "중",
        "단"
      ],
      [
        "화",
        "학"
      ],
      [
        "기준",
        "으로"
      ],
      [
        "리스",
        "크"
      ],
      [
        "news",
        "is"
      ],
      [
        "개",
        "정"
      ],
      [
        "보",
        "장"
      ],
      [
        "위",
        "는"
      ],
      [
        "있",
        "지만"
      ],
      [
        "철",
        "도"
      ],
      [
        "통",
        "화"
      ],
      [
        "나",
        "가"
      ],
      [
        "복",
        "합"
      ],
      [
        "움",
        "을"
      ],
      [
        "주",
        "행"
      ],
      [
        "프리",
        "미"
      ],
      [
        "이",
        "해"
      ],
      [
        "찾",
        "아"
      ],
      [
        "협",
        "의"
      ],
      [
        "인터",
        "넷"
      ],
      [
        "먼",
        "트"
      ],
      [
        "밖",
        "에"
      ],
      [
        "분",
        "의"
      ],
      [
        "수",
        "소"
      ],
      [
        "연구",
        "소"
      ],
      [
        "소비자",
        "물가"
      ],
      [
        "내",
        "려"
      ],
      [
        "달",
        "성"
      ],
      [
        "대",
        "부분"
      ],
      [
        "디",
        "오"
      ],
      [
        "뱅",
        "크"
      ],
      [
        "빠",
        "르게"
      ],
      [
        "스",
        "크"
      ],
      [
        "요",
        "인"
      ],
      [
        "중",
        "구"
      ],
      [
        "퇴",
        "직"
      ],
      [
        "투자",
        "를"
      ],
      [
        "기반",
        "으로"
      ],
      [
        "비롯",
        "해"
      ],
      [
        "가",
        "까"
      ],
      [
        "먼",
        "저"
      ],
      [
        "방",
        "법"
      ],
      [
        "비",
        "전"
      ],
      [
        "사",
        "항"
      ],
      [
        "아",
        "시아"
      ],
      [
        "점",
        "에서"
      ],
      [
        "진",
        "다"
      ],
      [
        "플",
        "라"
      ],
      [
        "진행",
        "한다"
      ],
      [
        "블록",
        "체인"
      ],
      [
        "4",
        "5"
      ],
      [
        "구",
        "체"
      ],
      [
        "만",
        "나"
      ],
      [
        "만",
        "들어"
      ],
      [
        "비",
        "상"
      ],
      [
        "여",
        "행"
      ],
      [
        "제",
        "를"
      ],
      [
        "앞으로",
        "도"
      ],
      [
        "배",
        "송"
      ],
      [
        "수",
        "가"
      ],
      [
        "아",
        "직"
      ],
      [
        "이",
        "기"
      ],
      [
        "해",
        "결"
      ],
      [
        "했",
        "으며"
      ],
      [
        "19",
        "9"
      ],
      [
        "8",
        "일"
      ],
      [
        "D",
        "I"
      ],
      [
        "a",
        "t"
      ],
      [
        "같",
        "이"
      ],
      [
        "레",
        "드"
      ],
      [
        "보",
        "를"
      ],
      [
        "소",
        "통"
      ],
      [
        "예",
        "측"
      ],
      [
        "요",
        "청"
      ],
      [
        "이",
        "와"
      ],
      [
        "인",
        "사"
      ],
      [
        "정",
        "통"
      ],
      [
        "지",
        "면서"
      ],
      [
        "포",
        "트"
      ],
      [
        "동시",
        "에"
      ],
      [
        "생태",
        "계"
      ],
      [
        "2",
        "차"
      ],
      [
        "a",
        "r"
      ],
      [
        "가",
        "계"
      ],
      [
        "기",
        "사"
      ],
      [
        "보",
        "건"
      ],
      [
        "시",
        "대"
      ],
      [
        "있",
        "었다"
      ],
      [
        "20",
        "30"
      ],
      [
        "4",
        "2"
      ],
      [
        "검",
        "증"
      ],
      [
        "그",
        "런"
      ],
      [
        "기",
        "본"
      ],
      [
        "량",
        "은"
      ],
      [
        "쌍",
        "용"
      ],
      [
        "근",
        "무"
      ],
      [
        "금",
        "액"
      ],
      [
        "내",
        "부"
      ],
      [
        "자",
        "로"
      ],
      [
        "주",
        "로"
      ],
      [
        "차",
        "별"
      ],
      [
        "인공",
        "지능"
      ],
      [
        ".",
        "."
      ],
      [
        "3",
        "6"
      ],
      [
        "단",
        "체"
      ],
      [
        "보",
        "증"
      ],
      [
        "식",
        "을"
      ],
      [
        "의",
        "무"
      ],
      [
        "이",
        "데일리"
      ],
      [
        "학",
        "교"
      ],
      [
        "현",
        "실"
      ],
      [
        "억원",
        "을"
      ],
      [
        "올랐",
        "다"
      ],
      [
        "프리미",
[...]
