{
  "version": "1.0",
  "truncation": null,
  "padding": null,
  "added_tokens": [
    {
      "id": 0,
      "content": "[UNK]",
      "single_word": false,
      "lstrip": false,
      "rstrip": false,
      "normalized": false,
      "special": true
    },
    {
      "id": 1,
      "content": "[PAD]",
      "single_word": false,
      "lstrip": false,
      "rstrip": false,
      "normalized": false,
      "special": true
    },
    {
      "id": 2,
      "content": "[CLS]",
      "single_word": false,
      "lstrip": false,
      "rstrip": false,
      "normalized": false,
      "special": true
    },
    {
      "id": 3,
      "content": "[SEP]",
      "single_word": false,
      "lstrip": false,
      "rstrip": false,
      "normalized": false,
      "special": true
    },
    {
      "id": 4,
      "content": "[MASK]",
      "single_word": false,
      "lstrip": false,
      "rstrip": false,
      "normalized": false,
      "special": true
    }
  ],
  "normalizer": null,
  "pre_tokenizer": {
    "type": "Whitespace"
  },
  "post_processor": null,
  "decoder": null,
  "model": {
    "type": "BPE",
    "dropout": null,
    "unk_token": "[UNK]",
    "continuing_subword_prefix": null,
    "end_of_word_suffix": null,
    "fuse_unk": false,
    "byte_fallback": false,
    "ignore_merges": false,
    "vocab": {
      "[UNK]": 0,
      "[PAD]": 1,
      "[CLS]": 2,
      "[SEP]": 3,
      "[MASK]": 4,
      ".": 5,
      "0": 6,
      "1": 7,
      "2": 8,
      "3": 9,
      "4": 10,
      "5": 11,
      "6": 12,
      "7": 13,
      "8": 14,
      "9": 15,
      "A": 16,
      "B": 17,
      "C": 18,
      "D": 19,
      "E": 20,
      "F": 21,
      "G": 22,
      "H": 23,
      "I": 24,
      "J": 25,
      "K": 26,
      "L": 27,
      "M": 28,
      "N": 29,
      "O": 30,
      "P": 31,
      "Q": 32,
      "R": 33,
      "S": 34,
      "T": 35,
      "U": 36,
      "V": 37,
      "W": 38,
      "X": 39,
      "Y": 40,
      "Z": 41,
      "a": 42,
      "b": 43,
      "c": 44,
      "d": 45,
      "e": 46,
      "f": 47,
      "g": 48,
      "h": 49,
      "i": 50,
      "j": 51,
      "k": 52,
      "l": 53,
      "m": 54,
      "n": 55,
      "o": 56,
      "p": 57,
      "q": 58,
      "r": 59,
      "s": 60,
      "t": 61,
      "u": 62,
      "v": 63,
      "w": 64,
      "x": 65,
      "y": 66,
      "z": 67,
      "가": 68,
      "각": 69,
      "간": 70,
      "갇": 71,
      "갈": 72,
      "감": 73,
      "갑": 74,
      "값": 75,
      "갓": 76,
      "갔": 77,
      "강": 78,
      "갖": 79,
      "같": 80,
      "갚": 81,
      "개": 82,
      "객": 83,
      "갤": 84,
      "갭": 85,
      "갯": 86,
      "갱": 87,
      "갸": 88,
      "걀": 89,
      "거": 90,
      "걱": 91,
      "건": 92,
      "걷": 93,
      "걸": 94,
      "검": 95,
      "겁": 96,
      "것": 97,
      "겅": 98,
      "겉": 99,
      "게": 100,
      "겐": 101,
      "겔": 102,
      "겜": 103,
      "겟": 104,
      "겠": 105,
      "겨": 106,
      "격": 107,
      "겪": 108,
      "견": 109,
      "결": 110,
      "겸": 111,
      "겹": 112,
      "겼": 113,
      "경": 114,
      "곁": 115,
      "계": 116,
      "고": 117,
      "곡": 118,
      "곤": 119,
      "곧": 120,
      "골": 121,
      "곰": 122,
      "곱": 123,
      "곳": 124,
      "공": 125,
      "곶": 126,
      "과": 127,
      "곽": 128,
      "관": 129,
      "괄": 130,
      "괌": 131,
      "광": 132,
      "괜": 133,
      "괭": 134,
      "괴": 135,
      "굉": 136,
      "교": 137,
      "구": 138,
      "국": 139,
      "군": 140,
      "굳": 141,
      "굴": 142,
      "굵": 143,
      "굼": 144,
      "굽": 145,
      "굿": 146,
      "궁": 147,
      "궂": 148,
      "궈": 149,
      "권": 150,
      "궐": 151,
      "궜": 152,
      "궤": 153,
      "귀": 154,
      "규": 155,
      "균": 156,
      "귤": 157,
      "귬": 158,
      "그": 159,
      "극": 160,
      "근": 161,
      "글": 162,
      "긁": 163,
      "금": 164,
      "급": 165,
      "긋": 166,
      "긍": 167,
      "기": 168,
      "긱": 169,
      "긴": 170,
      "길": 171,
      "김": 172,
      "깁": 173,
      "깃": 174,
      "깅": 175,
      "깊": 176,
      "까": 177,
      "깍": 178,
      "깎": 179,
      "깐": 180,
      "깔": 181,
      "깜": 182,
      "깝": 183,
      "깡": 184,
      "깥": 185,
      "깨": 186,
      "깬": 187,
      "깰": 188,
      "깻": 189,
      "깼": 190,
      "꺼": 191,
      "꺽": 192,
      "꺾": 193,
      "껍": 194,
      "껏": 195,
      "껑": 196,
      "께": 197,
      "껴": 198,
      "꼈": 199,
      "꼐": 200,
      "꼬": 201,
      "꼭": 202,
      "꼰": 203,
      "꼴": 204,
      "꼼": 205,
      "꼽": 206,
      "꽁": 207,
      "꽂": 208,
      "꽃": 209,
      "꽈": 210,
      "꽉": 211,
      "꽤": 212,
      "꾀": 213,
      "꾸": 214,
      "꾼": 215,
      "꿀": 216,
      "꿈": 217,
      "꿉": 218,
      "꿋": 219,
      "꿔": 220,
      "꿨": 221,
      "꿰": 222,
      "뀌": 223,
      "뀐": 224,
      "뀔": 225,
      "뀜": 226,
      "뀝": 227,
      "끄": 228,
      "끈": 229,
      "끊": 230,
      "끌": 231,
      "끓": 232,
      "끔": 233,
      "끗": 234,
      "끝": 235,
      "끼": 236,
      "끽": 237,
      "낀": 238,
      "낄": 239,
      "낌": 240,
      "나": 241,
      "낙": 242,
      "낚": 243,
      "난": 244,
      "날": 245,
      "낡": 246,
      "남": 247,
      "납": 248,
      "낫": 249,
      "났": 250,
      "낭": 251,
      "낮": 252,
      "낯": 253,
      "낱": 254,
      "낳": 255,
      "내": 256,
      "낵": 257,
      "낸": 258,
      "낼": 259,
      "냄": 260,
      "냅": 261,
      "냈": 262,
      "냉": 263,
      "냐": 264,
      "냥": 265,
      "너": 266,
      "넉": 267,
      "넌": 268,
      "널": 269,
      "넓": 270,
      "넘": 271,
      "넙": 272,
      "넛": 273,
      "넣": 274,
      "네": 275,
      "넥": 276,
      "넨": 277,
      "넬": 278,
      "넵": 279,
      "넷": 280,
      "넸": 281,
      "녀": 282,
      "녁": 283,
      "년": 284,
      "념": 285,
      "녔": 286,
      "녕": 287,
      "녘": 288,
      "노": 289,
      "녹": 290,
      "논": 291,
      "놀": 292,
      "놈": 293,
      "농": 294,
      "높": 295,
      "놓": 296,
      "놔": 297,
      "놨": 298,
      "뇌": 299,
      "뇨": 300,
      "누": 301,
      "눈": 302,
      "눌": 303,
      "눔": 304,
      "눕": 305,
      "눠": 306,
      "눴": 307,
      "뉘": 308,
      "뉜": 309,
      "뉩": 310,
      "뉴": 311,
      "늄": 312,
      "느": 313,
      "늑": 314,
      "는": 315,
      "늘": 316,
      "늠": 317,
      "능": 318,
      "늦": 319,
      "늪": 320,
      "늬": 321,
      "니": 322,
      "닉": 323,
      "닌": 324,
      "닐": 325,
      "님": 326,
      "닙": 327,
      "닛": 328,
      "닝": 329,
      "다": 330,
      "닥": 331,
      "닦": 332,
      "단": 333,
      "닫": 334,
      "달": 335,
      "닭": 336,
      "닮": 337,
      "담": 338,
      "답": 339,
      "닷": 340,
      "당": 341,
      "닿": 342,
      "대": 343,
      "댄": 344,
      "댈": 345,
      "댐": 346,
      "댑": 347,
      "댓": 348,
      "댔": 349,
      "더": 350,
      "덕": 351,
      "던": 352,
      "덜": 353,
      "덟": 354,
      "덤": 355,
      "덥": 356,
      "덧": 357,
      "덩": 358,
      "덮": 359,
      "데": 360,
      "덱": 361,
      "덴": 362,
      "델": 363,
      "뎌": 364,
      "뎠": 365,
      "도": 366,
      "독": 367,
      "돈": 368,
      "돋": 369,
      "돌": 370,
      "돔": 371,
      "돕": 372,
      "돗": 373,
      "동": 374,
      "돛": 375,
      "돼": 376,
      "됐": 377,
      "되": 378,
      "된": 379,
      "될": 380,
      "됨": 381,
      "됩": 382,
      "두": 383,
      "둑": 384,
      "둔": 385,
      "둘": 386,
      "둠": 387,
      "둡": 388,
      "둥": 389,
      "둬": 390,
      "뒀": 391,
      "뒤": 392,
      "뒷": 393,
      "듀": 394,
      "듈": 395,
      "드": 396,
      "득": 397,
      "든": 398,
      "듣": 399,
      "들": 400,
      "듬": 401,
      "듭": 402,
      "듯": 403,
      "등": 404,
      "디": 405,
      "딕": 406,
      "딘": 407,
      "딛": 408,
      "딜": 409,
      "딤": 410,
      "딥": 411,
      "딧": 412,
      "딩": 413,
      "딪": 414,
      "따": 415,
      "딱": 416,
      "딴": 417,
      "딸": 418,
      "땀": 419,
      "땅": 420,
      "때": 421,
      "땐": 422,
      "땔": 423,
      "땜": 424,
      "땠": 425,
      "땡": 426,
      "떠": 427,
      "떡": 428,
      "떤": 429,
      "떨": 430,
      "떴": 431,
      "떻": 432,
      "떼": 433,
      "뗀": 434,
      "뗄": 435,
      "뗍": 436,
      "뗐": 437,
      "또": 438,
      "똑": 439,
      "똘": 440,
      "똥": 441,
      "똬": 442,
      "뚜": 443,
      "뚝": 444,
      "뚫": 445,
      "뚱": 446,
      "뛰": 447,
      "뛴": 448,
      "뛸": 449,
      "뜨": 450,
      "뜩": 451,
      "뜬": 452,
      "뜯": 453,
      "뜰": 454,
      "뜸": 455,
      "뜹": 456,
      "뜻": 457,
      "띄": 458,
      "띈": 459,
      "띔": 460,
      "띕": 461,
      "띠": 462,
      "띤": 463,
      "띵": 464,
      "라": 465,
      "락": 466,
      "란": 467,
      "랄": 468,
      "람": 469,
      "랍": 470,
      "랏": 471,
      "랐": 472,
      "랑": 473,
      "래": 474,
      "랙": 475,
      "랜": 476,
      "랠": 477,
      "램": 478,
      "랩": 479,
      "랫": 480,
      "랬": 481,
      "랭": 482,
      "랴": 483,
      "략": 484,
      "랸": 485,
      "량": 486,
      "러": 487,
      "럭": 488,
      "런": 489,
      "럴": 490,
      "럼": 491,
      "럽": 492,
      "럿": 493,
      "렀": 494,
      "렁": 495,
      "렇": 496,
      "레": 497,
      "렉": 498,
      "렌": 499,
      "렐": 500,
      "렘": 501,
      "렙": 502,
      "렛": 503,
      "려": 504,
      "력": 505,
      "련": 506,
      "렬": 507,
      "렴": 508,
      "렵": 509,
      "렷": 510,
      "렸": 511,
      "령": 512,
      "례": 513,
      "롄": 514,
      "롑": 515,
      "로": 516,
      "록": 517,
      "론": 518,
      "롤": 519,
      "롬": 520,
      "롭": 521,
      "롯": 522,
      "롱": 523,
      "뢰": 524,
      "료": 525,
      "룡": 526,
      "루": 527,
      "룩": 528,
      "룬": 529,
      "룰": 530,
      "룸": 531,
      "룹": 532,
      "룻": 533,
      "룽": 534,
      "뤄": 535,
      "뤘": 536,
      "뤼": 537,
      "류": 538,
      "륙": 539,
      "륜": 540,
      "률": 541,
      "륨": 542,
      "륭": 543,
      "르": 544,
      "른": 545,
      "를": 546,
      "름": 547,
      "릅": 548,
      "릇": 549,
      "릉": 550,
      "릍": 551,
      "릎": 552,
      "리": 553,
      "릭": 554,
      "린": 555,
      "릴": 556,
      "림": 557,
      "립": 558,
      "릿": 559,
      "링": 560,
      "마": 561,
      "막": 562,
      "만": 563,
      "많": 564,
      "맏": 565,
      "말": 566,
      "맑": 567,
      "맘": 568,
      "맙": 569,
      "맛": 570,
      "망": 571,
      "맞": 572,
      "맡": 573,
      "매": 574,
      "맥": 575,
      "맨": 576,
      "맴": 577,
      "맵": 578,
      "맷": 579,
      "맹": 580,
      "맺": 581,
      "머": 582,
      "먹": 583,
      "먼": 584,
      "멀": 585,
      "멈": 586,
      "멋": 587,
      "멍": 588,
      "멎": 589,
      "메": 590,
      "멕": 591,
      "멘": 592,
      "멜": 593,
      "멤": 594,
      "며": 595,
      "면": 596,
      "멸": 597,
      "명": 598,
      "몇": 599,
      "모": 600,
      "목": 601,
      "몫": 602,
      "몬": 603,
      "몰": 604,
      "몸": 605,
      "못": 606,
      "몽": 607,
      "묘": 608,
      "무": 609,
      "묵": 610,
      "묶": 611,
      "문": 612,
      "묻": 613,
      "물": 614,
      "묽": 615,
      "뭄": 616,
      "뭇": 617,
      "뭉": 618,
      "뭐": 619,
      "뭔": 620,
      "뭘": 621,
      "뭡": 622,
      "뮌": 623,
      "뮐": 624,
      "뮤": 625,
      "뮨": 626,
      "뮬": 627,
      "뮴": 628,
      "므": 629,
      "믈": 630,
      "믐": 631,
      "미": 632,
      "믹": 633,
      "민": 634,
      "믿": 635,
      "밀": 636,
      "밈": 637,
      "밋": 638,
      "밌": 639,
      "밍": 640,
      "및": 641,
      "밑": 642,
      "바": 643,
      "박": 644,
      "밖": 645,
      "반": 646,
      "받": 647,
      "발": 648,
      "밝": 649,
      "밟": 650,
      "밤": 651,
      "밥": 652,
      "방": 653,
      "밭": 654,
      "배": 655,
      "백": 656,
      "밴": 657,
      "밸": 658,
      "뱀": 659,
      "뱅": 660,
      "버": 661,
      "벅": 662,
      "번": 663,
      "벌": 664,
      "범": 665,
      "법": 666,
      "벗": 667,
      "벙": 668,
      "베": 669,
      "벡": 670,
      "벤": 671,
      "벨": 672,
      "벳": 673,
      "벵": 674,
      "벼": 675,
      "벽": 676,
      "변": 677,
      "별": 678,
      "볍": 679,
      "병": 680,
      "볕": 681,
      "보": 682,
      "복": 683,
      "볶": 684,
      "본": 685,
      "볼": 686,
      "봄": 687,
      "봅": 688,
      "봇": 689,
      "봉": 690,
      "봐": 691,
      "봤": 692,
      "봬": 693,
      "뵌": 694,
      "뵙": 695,
      "부": 696,
      "북": 697,
      "분": 698,
      "불": 699,
      "붉": 700,
      "붐": 701,
      "붓": 702,
      "붕": 703,
      "붙": 704,
      "뷔": 705,
      "뷰": 706,
      "뷸": 707,
      "브": 708,
      "븐": 709,
      "블": 710,
      "비": 711,
      "빅": 712,
      "빈": 713,
      "빌": 714,
      "빔": 715,
      "빗": 716,
      "빙": 717,
      "빚": 718,
      "빛": 719,
      "빠": 720,
      "빨": 721,
      "빵": 722,
      "빼": 723,
      "빽": 724,
      "뺀": 725,
      "뺏": 726,
      "뺨": 727,
      "뻐": 728,
      "뻑": 729,
      "뻔": 730,
      "뻗": 731,
      "뻘": 732,
      "뻥": 733,
      "뼈": 734,
      "뽀": 735,
      "뽐": 736,
      "뽑": 737,
      "뾰": 738,
      "뿌": 739,
      "뿍": 740,
      "뿐": 741,
      "뿔": 742,
      "뿜": 743,
      "쁘": 744,
      "쁜": 745,
      "쁨": 746,
      "삐": 747,
      "사": 748,
      "삭": 749,
      "산": 750,
      "살": 751,
      "삶": 752,
      "삼": 753,
      "삽": 754,
      "삿": 755,
      "샀": 756,
      "상": 757,
      "새": 758,
      "색": 759,
      "샌": 760,
      "샐": 761,
      "샘": 762,
      "샛": 763,
      "생": 764,
      "샤": 765,
      "샨": 766,
      "샴": 767,
      "샵": 768,
      "샷": 769,
      "샹": 770,
      "서": 771,
      "석": 772,
      "섞": 773,
      "선": 774,
      "섣": 775,
      "설": 776,
      "섬": 777,
      "섭": 778,
      "섯": 779,
      "섰": 780,
      "성": 781,
      "세": 782,
      "섹": 783,
      "센": 784,
      "셀": 785,
      "셈": 786,
      "셉": 787,
      "셋": 788,
      "셍": 789,
      "셔": 790,
      "션": 791,
      "셜": 792,
      "셧": 793,
      "셨": 794,
      "셰": 795,
      "셸": 796,
      "소": 797,
      "속": 798,
      "손": 799,
      "솔": 800,
      "솜": 801,
      "솟": 802,
      "송": 803,
      "솥": 804,
      "솽": 805,
      "쇄": 806,
      "쇠": 807,
      "쇳": 808,
      "쇼": 809,
      "숍": 810,
      "숏": 811,
      "수": 812,
      "숙": 813,
      "순": 814,
      "술": 815,
      "숨": 816,
      "숫": 817,
      "숭": 818,
      "숱": 819,
      "숲": 820,
      "쉐": 821,
      "쉘": 822,
      "쉬": 823,
      "쉴": 824,
      "쉼": 825,
      "쉽": 826,
      "슈": 827,
      "슐": 828,
      "슘": 829,
      "스": 830,
      "슨": 831,
      "슬": 832,
      "슴": 833,
      "습": 834,
      "슷": 835,
      "승": 836,
      "시": 837,
      "식": 838,
      "신": 839,
      "싣": 840,
      "실": 841,
      "싫": 842,
      "심": 843,
      "십": 844,
      "싯": 845,
      "싱": 846,
      "싶": 847,
      "싸": 848,
      "싹": 849,
      "싼": 850,
      "쌀": 851,
      "쌈": 852,
      "쌉": 853,
      "쌌": 854,
      "쌍": 855,
      "쌓": 856,
      "쌤": 857,
      "써": 858,
      "썩": 859,
      "썬": 860,
      "썰": 861,
      "썸": 862,
      "썹": 863,
      "썼": 864,
      "썽": 865,
      "쎄": 866,
      "쏘": 867,
      "쏙": 868,
      "쏜": 869,
      "쏟": 870,
      "쏠": 871,
      "쐐": 872,
      "쑤": 873,
      "쑥": 874,
      "쑨": 875,
      "쓰": 876,
      "쓱": 877,
      "쓴": 878,
      "쓸": 879,
      "씀": 880,
      "씌": 881,
      "씨": 882,
      "씩": 883,
      "씬": 884,
      "씰": 885,
      "씹": 886,
      "씻": 887,
      "아": 888,
      "악": 889,
      "안": 890,
      "앉": 891,
      "않": 892,
      "알": 893,
      "앓": 894,
      "암": 895,
      "압": 896,
      "앗": 897,
      "았": 898,
      "앙": 899,
      "앞": 900,
      "애": 901,
      "액": 902,
      "앤": 903,
      "앨": 904,
      "앰": 905,
      "앱": 906,
      "앵": 907,
      "야": 908,
      "약": 909,
      "얀": 910,
      "얄": 911,
      "얇": 912,
      "얌": 913,
      "양": 914,
      "얕": 915,
      "얘": 916,
      "어": 917,
      "억": 918,
      "언": 919,
      "얹": 920,
      "얻": 921,
      "얼": 922,
      "얽": 923,
      "엄": 924,
      "업": 925,
      "없": 926,
      "엇": 927,
      "었": 928,
      "엉": 929,
      "엎": 930,
      "에": 931,
      "엑": 932,
      "엔": 933,
      "엘": 934,
      "엠": 935,
      "엣": 936,
      "여": 937,
      "역": 938,
      "엮": 939,
      "연": 940,
      "열": 941,
      "염": 942,
      "엽": 943,
      "엿": 944,
      "였": 945,
      "영": 946,
      "옅": 947,
      "옆": 948,
      "예": 949,
      "옐": 950,
      "옛": 951,
      "오": 952,
      "옥": 953,
      "온": 954,
      "올": 955,
      "옭": 956,
      "옮": 957,
      "옳": 958,
      "옴": 959,
      "옵": 960,
      "옷": 961,
      "옹": 962,
      "와": 963,
      "완": 964,
      "왈": 965,
      "왑": 966,
      "왓": 967,
      "왔": 968,
      "왕": 969,
      "왜": 970,
      "외": 971,
      "왼": 972,
      "요": 973,
      "욕": 974,
      "욘": 975,
      "욜": 976,
      "욤": 977,
      "용": 978,
      "우": 979,
      "욱": 980,
      "운": 981,
      "울": 982,
      "움": 983,
      "웃": 984,
      "웅": 985,
      "워": 986,
      "웍": 987,
      "원": 988,
      "월": 989,
      "웜": 990,
      "웠": 991,
      "웨": 992,
      "웬": 993,
      "웰": 994,
      "웹": 995,
      "웻": 996,
      "위": 997,
      "윅": 998,
      "윈": 999,
      "윌": 1000,
      "윔": 1001,
      "윗": 1002,
      "윙": 1003,
      "유": 1004,
      "육": 1005,
      "윤": 1006,
      "율": 1007,
      "윱": 1008,
      "윳": 1009,
      "융": 1010,
      "으": 1011,
      "은": 1012,
      "을": 1013,
      "음": 1014,
      "읍": 1015,
      "응": 1016,
      "의": 1017,
      "이": 1018,
      "익": 1019,
      "인": 1020,
      "일": 1021,
      "읽": 1022,
      "잃": 1023,
      "임": 1024,
      "입": 1025,
      "잇": 1026,
      "있": 1027,
      "잉": 1028,
      "잊": 1029,
      "잎": 1030,
      "자": 1031,
      "작": 1032,
      "잔": 1033,
      "잖": 1034,
      "잘": 1035,
      "잠": 1036,
      "잡": 1037,
      "잣": 1038,
      "장": 1039,
      "잦": 1040,
      "재": 1041,
      "잭": 1042,
      "잰": 1043,
      "잼": 1044,
      "잽": 1045,
      "잿": 1046,
      "쟁": 1047,
      "쟤": 1048,
      "저": 1049,
      "적": 1050,
      "전": 1051,
      "절": 1052,
      "젊": 1053,
      "점": 1054,
      "접": 1055,
      "젓": 1056,
      "정": 1057,
      "젖": 1058,
      "제": 1059,
      "젝": 1060,
      "젠": 1061,
      "젤": 1062,
      "젬": 1063,
      "젯": 1064,
      "져": 1065,
      "젼": 1066,
      "졌": 1067,
      "조": 1068,
      "족": 1069,
      "존": 1070,
      "졸": 1071,
      "좀": 1072,
      "좁": 1073,
      "종": 1074,
      "좇": 1075,
      "좋": 1076,
      "좌": 1077,
      "좡": 1078,
      "죄": 1079,
      "죠": 1080,
      "주": 1081,
      "죽": 1082,
      "준": 1083,
      "줄": 1084,
      "줌": 1085,
      "줍": 1086,
      "줏": 1087,
      "중": 1088,
      "줘": 1089,
      "줬": 1090,
      "쥐": 1091,
      "쥔": 1092,
      "쥘": 1093,
      "쥬": 1094,
      "즈": 1095,
      "즉": 1096,
      "즌": 1097,
      "즐": 1098,
      "즘": 1099,
      "즙": 1100,
      "증": 1101,
      "지": 1102,
      "직": 1103,
      "진": 1104,
      "질": 1105,
      "짊": 1106,
      "짐": 1107,
      "집": 1108,
      "짓": 1109,
      "징": 1110,
      "짙": 1111,
      "짚": 1112,
      "짜": 1113,
      "짝": 1114,
      "짠": 1115,
      "짤": 1116,
      "짧": 1117,
      "짬": 1118,
      "짭": 1119,
      "짱": 1120,
      "째": 1121,
      "쨌": 1122,
      "쨰": 1123,
      "쩌": 1124,
      "쩍": 1125,
      "쩔": 1126,
      "쩡": 1127,
      "쪼": 1128,
      "쪽": 1129,
      "쫀": 1130,
      "쫄": 1131,
      "쫒": 1132,
      "쫓": 1133,
      "쬐": 1134,
      "쭉": 1135,
      "쭐": 1136,
      "쭤": 1137,
      "쯤": 1138,
      "쯩": 1139,
      "찌": 1140,
      "찍": 1141,
      "찐": 1142,
      "찔": 1143,
      "찜": 1144,
      "찢": 1145,
      "차": 1146,
      "착": 1147,
      "찬": 1148,
      "찮": 1149,
      "찰": 1150,
      "참": 1151,
      "찻": 1152,
      "찼": 1153,
      "창": 1154,
      "찾": 1155,
      "채": 1156,
      "책": 1157,
      "챌": 1158,
      "챔": 1159,
      "챕": 1160,
      "챗": 1161,
      "챙": 1162,
      "챠": 1163,
      "처": 1164,
      "척": 1165,
      "천": 1166,
      "철": 1167,
      "첨": 1168,
      "첩": 1169,
      "첫": 1170,
      "첬": 1171,
      "청": 1172,
      "체": 1173,
      "첸": 1174,
      "첼": 1175,
      "쳐": 1176,
      "쳤": 1177,
      "초": 1178,
      "촉": 1179,
      "촌": 1180,
      "촘": 1181,
      "촛": 1182,
      "총": 1183,
      "촬": 1184,
      "촹": 1185,
      "최": 1186,
      "쵸": 1187,
      "추": 1188,
      "축": 1189,
      "춘": 1190,
      "출": 1191,
      "춤": 1192,
      "춧": 1193,
      "충": 1194,
      "춰": 1195,
      "췄": 1196,
      "췌": 1197,
      "취": 1198,
      "츄": 1199,
      "츠": 1200,
      "측": 1201,
      "츰": 1202,
      "층": 1203,
      "치": 1204,
      "칙": 1205,
      "친": 1206,
      "칠": 1207,
      "침": 1208,
      "칩": 1209,
      "칫": 1210,
      "칭": 1211,
      "카": 1212,
      "칸": 1213,
      "칼": 1214,
      "캄": 1215,
      "캅": 1216,
      "캉": 1217,
      "캐": 1218,
      "캔": 1219,
      "캘": 1220,
      "캠": 1221,
      "캡": 1222,
      "캣": 1223,
      "캥": 1224,
      "커": 1225,
      "컨": 1226,
      "컫": 1227,
      "컬": 1228,
      "컴": 1229,
      "컵": 1230,
      "컷": 1231,
      "컸": 1232,
      "케": 1233,
      "켄": 1234,
      "켈": 1235,
      "켐": 1236,
      "켓": 1237,
      "켜": 1238,
      "켠": 1239,
      "켰": 1240,
      "코": 1241,
      "콕": 1242,
      "콘": 1243,
      "콜": 1244,
      "콤": 1245,
      "콥": 1246,
      "콧": 1247,
      "콩": 1248,
      "콬": 1249,
      "콰": 1250,
      "콴": 1251,
      "쾌": 1252,
      "쾨": 1253,
      "쾰": 1254,
      "쿄": 1255,
      "쿠": 1256,
      "쿡": 1257,
      "쿤": 1258,
      "쿨": 1259,
      "쿰": 1260,
      "쿵": 1261,
      "쿼": 1262,
      "퀀": 1263,
      "퀄": 1264,
      "퀘": 1265,
      "퀜": 1266,
      "퀴": 1267,
      "퀵": 1268,
      "퀸": 1269,
      "큅": 1270,
      "큐": 1271,
      "큘": 1272,
      "크": 1273,
      "큰": 1274,
      "클": 1275,
      "큼": 1276,
      "큽": 1277,
      "킁": 1278,
      "키": 1279,
      "킥": 1280,
      "킨": 1281,
      "킬": 1282,
      "킴": 1283,
      "킷": 1284,
      "킹": 1285,
      "타": 1286,
      "탁": 1287,
      "탄": 1288,
      "탈": 1289,
      "탐": 1290,
      "탑": 1291,
      "탓": 1292,
      "탔": 1293,
      "탕": 1294,
      "태": 1295,
      "택": 1296,
      "탠": 1297,
      "탤": 1298,
      "탬": 1299,
      "탭": 1300,
      "탰": 1301,
      "탱": 1302,
      "터": 1303,
      "턱": 1304,
      "턴": 1305,
      "털": 1306,
      "텀": 1307,
      "텁": 1308,
      "텃": 1309,
      "텄": 1310,
      "텅": 1311,
      "테": 1312,
      "텍": 1313,
      "텐": 1314,
      "텔": 1315,
      "템": 1316,
      "텝": 1317,
      "텨": 1318,
      "텼": 1319,
      "톈": 1320,
      "토": 1321,
      "톡": 1322,
      "톤": 1323,
      "톨": 1324,
      "톰": 1325,
      "톱": 1326,
      "통": 1327,
      "퇴": 1328,
      "투": 1329,
      "툭": 1330,
      "툰": 1331,
      "툴": 1332,
      "툼": 1333,
      "퉁": 1334,
      "퉈": 1335,
      "튀": 1336,
      "튜": 1337,
      "튠": 1338,
      "튬": 1339,
      "트": 1340,
      "특": 1341,
      "튼": 1342,
      "튿": 1343,
      "틀": 1344,
      "틈": 1345,
      "틋": 1346,
      "틍": 1347,
      "틔": 1348,
      "틜": 1349,
      "티": 1350,
      "틱": 1351,
      "틴": 1352,
      "틸": 1353,
      "팀": 1354,
      "팁": 1355,
      "팅": 1356,
      "파": 1357,
      "팍": 1358,
      "팎": 1359,
      "판": 1360,
      "팔": 1361,
      "팜": 1362,
      "팝": 1363,
      "팟": 1364,
      "팠": 1365,
      "팡": 1366,
      "팥": 1367,
      "패": 1368,
      "팩": 1369,
      "팬": 1370,
      "팰": 1371,
      "팸": 1372,
      "팹": 1373,
      "팻": 1374,
      "팽": 1375,
      "퍼": 1376,
      "펀": 1377,
      "펄": 1378,
      "펌": 1379,
      "펍": 1380,
      "펑": 1381,
      "페": 1382,
      "펙": 1383,
      "펜": 1384,
      "펠": 1385,
      "펩": 1386,
      "펫": 1387,
      "펭": 1388,
      "펴": 1389,
      "편": 1390,
      "펼": 1391,
      "폈": 1392,
      "평": 1393,
      "폐": 1394,
      "포": 1395,
      "폭": 1396,
      "폰": 1397,
      "폴": 1398,
      "폼": 1399,
      "퐁": 1400,
      "표": 1401,
      "푸": 1402,
      "푹": 1403,
      "푼": 1404,
      "풀": 1405,
      "품": 1406,
      "풋": 1407,
      "풍": 1408,
      "퓨": 1409,
      "퓰": 1410,
      "프": 1411,
      "픈": 1412,
      "플": 1413,
      "픔": 1414,
      "피": 1415,
      "픽": 1416,
      "핀": 1417,
      "필": 1418,
      "핌": 1419,
      "핍": 1420,
      "핏": 1421,
      "핑": 1422,
      "하": 1423,
      "학": 1424,
      "한": 1425,
      "할": 1426,
      "함": 1427,
      "합": 1428,
      "핫": 1429,
      "항": 1430,
      "해": 1431,
      "핵": 1432,
      "핸": 1433,
      "햄": 1434,
      "햅": 1435,
      "햇": 1436,
      "했": 1437,
      "행": 1438,
      "향": 1439,
      "햬": 1440,
      "허": 1441,
      "헌": 1442,
      "헐": 1443,
      "험": 1444,
      "헙": 1445,
      "헛": 1446,
      "헝": 1447,
      "헤": 1448,
      "헥": 1449,
      "헨": 1450,
      "헬": 1451,
      "헷": 1452,
      "혀": 1453,
      "혁": 1454,
      "현": 1455,
      "혈": 1456,
      "혐": 1457,
      "협": 1458,
      "혔": 1459,
      "형": 1460,
      "혜": 1461,
      "호": 1462,
      "혹": 1463,
      "혼": 1464,
      "홀": 1465,
      "홈": 1466,
      "홉": 1467,
      "홍": 1468,
      "화": 1469,
      "확": 1470,
      "환": 1471,
      "활": 1472,
      "황": 1473,
      "회": 1474,
      "획": 1475,
      "횟": 1476,
      "횡": 1477,
      "효": 1478,
      "후": 1479,
      "훅": 1480,
      "훈": 1481,
      "훌": 1482,
      "훑": 1483,
      "훔": 1484,
      "훗": 1485,
      "훙": 1486,
      "훤": 1487,
      "훨": 1488,
      "훼": 1489,
      "휘": 1490,
      "휜": 1491,
      "휠": 1492,
      "휩": 1493,
      "휴": 1494,
      "흉": 1495,
      "흐": 1496,
      "흑": 1497,
      "흔": 1498,
      "흘": 1499,
      "흙": 1500,
      "흠": 1501,
      "흡": 1502,
      "흥": 1503,
      "흩": 1504,
      "희": 1505,
      "흰": 1506,
      "히": 1507,
      "힌": 1508,
      "힐": 1509,
      "힘": 1510,
      "힙": 1511,
      "으로": 1512,
      "했다": 1513,
      "에서": 1514,
      "있다": 1515,
      "하는": 1516,
      "하고": 1517,
      "00": 1518,
      "이다": 1519,
      "20": 1520,
      "니다": 1521,
      "한다": 1522,
      "지난": 1523,
      "기업": 1524,
      "시장": 1525,
      "있는": 1526,
      "까지": 1527,
      "이라": 1528,
      "사업": 1529,
      "습니다": 1530,
      "투자": 1531,
      "서울": 1532,
      "면서": 1533,
      "부터": 1534,
      "한국": 1535,
      "것으로": 1536,
      "금융": 1537,
      "기술": 1538,
      "10": 1539,
      "통해": 1540,
      "적으로": 1541,
      "밝혔": 1542,
      "정부": 1543,
      "대한": 1544,
      "위해": 1545,
      "된다": 1546,
      "제공": 1547,
      "적인": 1548,
      "밝혔다": 1549,
      "금리": 1550,
      "보다": 1551,
      "비스": 1552,
      "연구": 1553,
      "하기": 1554,
      "들이": 1555,
      "서비스": 1556,
      "30": 1557,
      "억원": 1558,
      "19": 1559,
      "지원": 1560,
      "국내": 1561,
      "개발": 1562,
      "경제": 1563,
      "산업": 1564,
      "가능": 1565,
      "지만": 1566,
      "가격": 1567,
      "됐다": 1568,
      "은행": 1569,
      "기자": 1570,
      "이어": 1571,
      "상승": 1572,
      "거래": 1573,
      "올해": 1574,
      "이번": 1575,
      "이라고": 1576,
      "에는": 1577,
      "202": 1578,
      "말했다": 1579,
      "고객": 1580,
      "되는": 1581,
      "데이": 1582,
      "이상": 1583,
      "전자": 1584,
      "진행": 1585,
      "너지": 1586,
      "000": 1587,
      "반기": 1588,
      "사진": 1589,
      "뉴스": 1590,
      "대표": 1591,
      "미국": 1592,
      "달러": 1593,
      "이후": 1594,
      "기준": 1595,
      "에너지": 1596,
      "장은": 1597,
      "계획": 1598,
      "었다": 1599,
      "위한": 1600,
      "글로": 1601,
      "LG": 1602,
      "확대": 1603,
      "정보": 1604,
      "지난해": 1605,
      "글로벌": 1606,
      "시스": 1607,
      "상품": 1608,
      "증가": 1609,
      "등을": 1610,
      "하게": 1611,
      "겠다": 1612,
      "레이": 1613,
      "판매": 1614,
      "1일": 1615,
      "관계": 1616,
      "하락": 1617,
      "대출": 1618,
      "전망": 1619,
      "소비": 1620,
      "지역": 1621,
      "에게": 1622,
      "최근": 1623,
      "이용": 1624,
      "예정": 1625,
      "대비": 1626,
      "물가": 1627,
      "데이터": 1628,
      "상황": 1629,
      "관련": 1630,
      "하다": 1631,
      "르면": 1632,
      "삼성": 1633,
      "제품": 1634,
      "에도": 1635,
      "도록": 1636,
      "공급": 1637,
      "세계": 1638,
      "자는": 1639,
      "경기": 1640,
      "따르면": 1641,
      "전문": 1642,
      "성장": 1643,
      "관리": 1644,
      "다양": 1645,
      "기관": 1646,
      "5일": 1647,
      "4일": 1648,
      "함께": 1649,
      "대상": 1650,
      "사용": 1651,
      "게임": 1652,
      "기록": 1653,
      "규모": 1654,
      "시간": 1655,
      "정책": 1656,
      "환경": 1657,
      "경우": 1658,
      "스트": 1659,
      "하며": 1660,
      "50": 1661,
      "프로": 1662,
      "다양한": 1663,
      "들은": 1664,
      "회사": 1665,
      "라이": 1666,
      "운영": 1667,
      "같은": 1668,
      "들의": 1669,
      "지난달": 1670,
      "12": 1671,
      "생산": 1672,
      "활용": 1673,
      "들어": 1674,
      "최대": 1675,
      "수출": 1676,
      "디지": 1677,
      "따라": 1678,
      "분기": 1679,
      "때문": 1680,
      "디지털": 1681,
      "위원": 1682,
      "증권": 1683,
      "랜드": 1684,
      "6월": 1685,
      "라인": 1686,
      "인상": 1687,
      "로나": 1688,
      "업계": 1689,
      "설명": 1690,
      "성을": 1691,
      "회장": 1692,
      "우리": 1693,
      "필요": 1694,
      "코로나": 1695,
      "에서는": 1696,
      "지속": 1697,
      "수요": 1698,
      "소비자": 1699,
      "연합": 1700,
      "성이": 1701,
      "오는": 1702,
      "전기": 1703,
      "중국": 1704,
      "이날": 1705,
      "11": 1706,
      "대해": 1707,
      "협력": 1708,
      "국제": 1709,
      "경영": 1710,
      "했다고": 1711,
      "기간": 1712,
      "랫폼": 1713,
      "입니다": 1714,
      "졌다": 1715,
      "플랫폼": 1716,
      "2022": 1717,
      "통신": 1718,
      "가장": 1719,
      "발표": 1720,
      "그룹": 1721,
      "매출": 1722,
      "하겠다": 1723,
      "회의": 1724,
      "수준": 1725,
      "하면": 1726,
      "분야": 1727,
      "으며": 1728,
      "수는": 1729,
      "만원": 1730,
      "되고": 1731,
      "반도": 1732,
      "았다": 1733,
      "추가": 1734,
      "했습니다": 1735,
      "주요": 1736,
      "현재": 1737,
      "참여": 1738,
      "리는": 1739,
      "우려": 1740,
      "100": 1741,
      "최고": 1742,
      "반도체": 1743,
      "안전": 1744,
      "강화": 1745,
      "분석": 1746,
      "것이": 1747,
      "업체": 1748,
      "개월": 1749,
      "시작": 1750,
      "규제": 1751,
      "이는": 1752,
      "마트": 1753,
      "바이": 1754,
      "인트": 1755,
      "지는": 1756,
      "평가": 1757,
      "부담": 1758,
      "스타": 1759,
      "출시": 1760,
      "있도록": 1761,
      "센터": 1762,
      "사회": 1763,
      "AI": 1764,
      "높은": 1765,
      "포인트": 1766,
      "5월": 1767,
      "개선": 1768,
      "만에": 1769,
      "콘텐": 1770,
      "플레이": 1771,
      "기존": 1772,
      "특히": 1773,
      "였다": 1774,
      "영상": 1775,
      "하면서": 1776,
      "40": 1777,
      "경쟁": 1778,
      "기반": 1779,
      "주택": 1780,
      "하지": 1781,
      "추진": 1782,
      "파트": 1783,
      "1년": 1784,
      "해야": 1785,
      "해외": 1786,
      "예정이다": 1787,
      "15": 1788,
      "하반기": 1789,
      "18": 1790,
      "기대": 1791,
      "13": 1792,
      "자산": 1793,
      "SK": 1794,
      "아이": 1795,
      "관계자는": 1796,
      "예상": 1797,
      "나타": 1798,
      "적용": 1799,
      "일본": 1800,
      "세대": 1801,
      "코로나19": 1802,
      "전략": 1803,
      "시스템": 1804,
      "콘텐츠": 1805,
      "사를": 1806,
      "력을": 1807,
      "상반기": 1808,
      "시아": 1809,
      "장을": 1810,
      "카카": 1811,
      "7월": 1812,
      "보고": 1813,
      "삼성전자": 1814,
      "기를": 1815,
      "개인": 1816,
      "아니": 1817,
      "주가": 1818,
      "구축": 1819,
      "17": 1820,
      "다는": 1821,
      "러스": 1822,
      "하나": 1823,
      "연합뉴스": 1824,
      "가치": 1825,
      "감소": 1826,
      "사이": 1827,
      "국가": 1828,
      "브랜드": 1829,
      "교육": 1830,
      "라고": 1831,
      "영향": 1832,
      "현대": 1833,
      "자가": 1834,
      "코스": 1835,
      "연구원": 1836,
      "23": 1837,
      "대로": 1838,
      "장관": 1839,
      "건설": 1840,
      "들을": 1841,
      "결과": 1842,
      "지고": 1843,
      "6일": 1844,
      "카카오": 1845,
      "신규": 1846,
      "이를": 1847,
      "는데": 1848,
      "한다고": 1849,
      "결제": 1850,
      "안정": 1851,
      "확보": 1852,
      "계획이다": 1853,
      "14": 1854,
      "가운": 1855,
      "과학": 1856,
      "대학": 1857,
      "부산": 1858,
      "실적": 1859,
      "60": 1860,
      "자동": 1861,
      "문제": 1862,
      "지를": 1863,
      "200": 1864,
      "계약": 1865,
      "활동": 1866,
      "침체": 1867,
      "가운데": 1868,
      "동안": 1869,
      "발생": 1870,
      "과정": 1871,
      "항공": 1872,
      "뉴시스": 1873,
      "혁신": 1874,
      "늘어": 1875,
      "마련": 1876,
      "국민": 1877,
      "주식": 1878,
      "목표": 1879,
      "보험": 1880,
      "열린": 1881,
      "인하": 1882,
      "수학": 1883,
      "있어": 1884,
      "만큼": 1885,
      "이에": 1886,
      "방안": 1887,
      "선정": 1888,
      "스마트": 1889,
      "페이": 1890,
      "등의": 1891,
      "중심": 1892,
      "대응": 1893,
      "사는": 1894,
      "적극": 1895,
      "제도": 1896,
      "루션": 1897,
      "전력": 1898,
      "전환": 1899,
      "서비스를": 1900,
      "29": 1901,
      "KT": 1902,
      "공동": 1903,
      "교수": 1904,
      "롯데": 1905,
      "화를": 1906,
      "유지": 1907,
      "떨어": 1908,
      "평균": 1909,
      "식품": 1910,
      "20년": 1911,
      "이미": 1912,
      "미래": 1913,
      "수익": 1914,
      "세를": 1915,
      "위기": 1916,
      "등이": 1917,
      "발전": 1918,
      "조사": 1919,
      "중소": 1920,
      "이고": 1921,
      "25": 1922,
      "것이다": 1923,
      "있다는": 1924,
      "다른": 1925,
      "그램": 1926,
      "선보": 1927,
      "로운": 1928,
      "자체": 1929,
      "이라는": 1930,
      "영업": 1931,
      "이나": 1932,
      "직원": 1933,
      "모두": 1934,
      "설명했다": 1935,
      "16": 1936,
      "솔루션": 1937,
      "방식": 1938,
      "결정": 1939,
      "내용": 1940,
      "원전": 1941,
      "구성": 1942,
      "위원회": 1943,
      "공개": 1944,
      "업무": 1945,
      "하지만": 1946,
      "비중": 1947,
      "3년": 1948,
      "어려": 1949,
      "요금": 1950,
      "라는": 1951,
      "많은": 1952,
      "전국": 1953,
      "앞으로": 1954,
      "확인": 1955,
      "버스": 1956,
      "포함": 1957,
      "수도": 1958,
      "현지": 1959,
      "뉴스1": 1960,
      "때문에": 1961,
      "이라며": 1962,
      "유가": 1963,
      "반영": 1964,
      "온라인": 1965,
      "처음": 1966,
      "기획": 1967,
      "등에": 1968,
      "우주": 1969,
      "제작": 1970,
      "2020년": 1971,
      "기능": 1972,
      "있습니다": 1973,
      "점검": 1974,
      "모델": 1975,
      "스토": 1976,
      "참석": 1977,
      "치를": 1978,
      "각각": 1979,
      "부는": 1980,
      "점을": 1981,
      "대상으로": 1982,
      "강조": 1983,
      "구매": 1984,
      "성과": 1985,
      "것은": 1986,
      "있다고": 1987,
      "증시": 1988,
      "부동": 1989,
      "전년": 1990,
      "카드": 1991,
      "27": 1992,
      "그러": 1993,
      "비용": 1994,
      "애플": 1995,
      "인다": 1996,
      "자원": 1997,
      "해당": 1998,
      "24": 1999,
      "500": 2000,
      "가구": 2001,
      "아파트": 2002,
      "한편": 2003,
      "전체": 2004,
      "향후": 2005,
      "한다는": 2006,
      "없이": 2007,
      "장이": 2008,
      "리고": 2009,
      "신한": 2010,
      "암호": 2011,
      "자를": 2012,
      "3일": 2013,
      "보유": 2014,
      "유럽": 2015,
      "테크": 2016,
      "리스": 2017,
      "벤트": 2018,
      "부문": 2019,
      "이벤트": 2020,
      "수입": 2021,
      "플러스": 2022,
      "부동산": 2023,
      "오후": 2024,
      "리를": 2025,
      "가입": 2026,
      "아니라": 2027,
      "하이": 2028,
      "행사": 2029,
      "신청": 2030,
      "지수": 2031,
      "기에": 2032,
      "났다": 2033,
      "비롯": 2034,
      "정도": 2035,
      "효과": 2036,
      "새로운": 2037,
      "서는": 2038,
      "제로": 2039,
      "에서도": 2040,
      "자동차": 2041,
      "따른": 2042,
      "이익": 2043,
      "일리": 2044,
      "28": 2045,
      "개최": 2046,
      "배터": 2047,
      "할인": 2048,
      "KB": 2049,
      "오전": 2050,
      "정부는": 2051,
      "1만": 2052,
      "건강": 2053,
      "직접": 2054,
      "코스피": 2055,
      "무역": 2056,
      "상을": 2057,
      "투자자": 2058,
      "모든": 2059,
      "왔다": 2060,
      "코인": 2061,
      "방문": 2062,
      "방향": 2063,
      "법인": 2064,
      "여러": 2065,
      "주는": 2066,
      "프로그램": 2067,
      "더욱": 2068,
      "역시": 2069,
      "세가": 2070,
      "바이오": 2071,
      "가상": 2072,
      "마이": 2073,
      "스는": 2074,
      "전시": 2075,
      "차량": 2076,
      "30일": 2077,
      "ET": 2078,
      "기가": 2079,
      "메타": 2080,
      "오른": 2081,
      "준비": 2082,
      "지금": 2083,
      "도입": 2084,
      "조원": 2085,
      "조정": 2086,
      "5년": 2087,
      "SG": 2088,
      "거나": 2089,
      "2년": 2090,
      "보호": 2091,
      "원자": 2092,
      "사업을": 2093,
      "TV": 2094,
      "장비": 2095,
      "니스": 2096,
      "또한": 2097,
      "시행": 2098,
      "생활": 2099,
      "관심": 2100,
      "ne": 2101,
      "다시": 2102,
      "모습": 2103,
      "케이": 2104,
      "계속": 2105,
      "등으로": 2106,
      "여름": 2107,
      "진단": 2108,
      "공정": 2109,
      "사의": 2110,
      "성공": 2111,
      "전문가": 2112,
      "부분": 2113,
      "크게": 2114,
      "기념": 2115,
      "80": 2116,
      "사람": 2117,
      "시장에서": 2118,
      "중앙": 2119,
      "IP": 2120,
      "공공": 2121,
      "중요": 2122,
      "했고": 2123,
      "금을": 2124,
      "러시아": 2125,
      "사가": 2126,
      "회장은": 2127,
      "22": 2128,
      "리아": 2129,
      "소재": 2130,
      "장기": 2131,
      "현장": 2132,
      "플레이션": 2133,
      "co": 2134,
      "공장": 2135,
      "사실": 2136,
      "있을": 2137,
      "처럼": 2138,
      "통령": 2139,
      "협약": 2140,
      "하기로": 2141,
      "기록했다": 2142,
      "교통": 2143,
      "데일리": 2144,
      "운용": 2145,
      "앞서": 2146,
      "다고": 2147,
      "프트": 2148,
      "핵심": 2149,
      "고려": 2150,
      "논의": 2151,
      "도를": 2152,
      "일부": 2153,
      "경험": 2154,
      "본격": 2155,
      "비율": 2156,
      "가격이": 2157,
      "들과": 2158,
      "체결": 2159,
      "8월": 2160,
      "대통령": 2161,
      "수상": 2162,
      "제조": 2163,
      "전기차": 2164,
      "량을": 2165,
      "중이다": 2166,
      "라이나": 2167,
      "없는": 2168,
      "완화": 2169,
      "탄소": 2170,
      "기본": 2171,
      "생각": 2172,
      "신용": 2173,
      "역할": 2174,
      "요구": 2175,
      "이뤄": 2176,
      "자의": 2177,
      "그래": 2178,
      "나라": 2179,
      "리에": 2180,
      "번째": 2181,
      "특별": 2182,
      "기술을": 2183,
      "그는": 2184,
      "않는": 2185,
      "70": 2186,
      "상태": 2187,
      "쇼핑": 2188,
      "액은": 2189,
      "일반": 2190,
      "단계": 2191,
      "배터리": 2192,
      "것을": 2193,
      "받을": 2194,
      "이런": 2195,
      "중인": 2196,
      "원에": 2197,
      "유통": 2198,
      "해서": 2199,
      "대표는": 2200,
      "4월": 2201,
      "구조": 2202,
      "판단": 2203,
      "가는": 2204,
      "단지": 2205,
      "도가": 2206,
      "도시": 2207,
      "들에게": 2208,
      "상장": 2209,
      "이달": 2210,
      "이하": 2211,
      "전용": 2212,
      "제시": 2213,
      "가스": 2214,
      "드는": 2215,
      "혜택": 2216,
      "수요가": 2217,
      "인터": 2218,
      "가능한": 2219,
      "알려": 2220,
      "체인": 2221,
      "가지": 2222,
      "높아": 2223,
      "우크": 2224,
      "메타버스": 2225,
      "공간": 2226,
      "노력": 2227,
      "라우": 2228,
      "이동": 2229,
      "치료": 2230,
      "상승률": 2231,
      "우크라이나": 2232,
      "CE": 2233,
      "금리를": 2234,
      "2분기": 2235,
      "나온": 2236,
      "도로": 2237,
      "별로": 2238,
      "위를": 2239,
      "가능성이": 2240,
      "기로": 2241,
      "조합": 2242,
      "네이": 2243,
      "외국": 2244,
      "프리": 2245,
      "때문이다": 2246,
      "매수": 2247,
      "모바": 2248,
      "재정": 2249,
      "중심으로": 2250,
      "모바일": 2251,
      "소프트": 2252,
      "했던": 2253,
      "강조했다": 2254,
      "참가": 2255,
      "마켓": 2256,
      "보안": 2257,
      "물류": 2258,
      "보면": 2259,
      "부회장": 2260,
      "체계": 2261,
      "원을": 2262,
      "인플레이션": 2263,
      "지적": 2264,
      "진출": 2265,
      "많이": 2266,
      "스포": 2267,
      "양자": 2268,
      "000억원": 2269,
      "ESG": 2270,
      "명이": 2271,
      "의료": 2272,
      "이자": 2273,
      "최초": 2274,
      "기업의": 2275,
      "IT": 2276,
      "대를": 2277,
      "되면서": 2278,
      "수수": 2279,
      "워크": 2280,
      "환율": 2281,
      "공식": 2282,
      "대형": 2283,
      "위성": 2284,
      "정부가": 2285,
      "기도": 2286,
      "받아": 2287,
      "변동": 2288,
      "사고": 2289,
      "채널": 2290,
      "통계": 2291,
      "통상": 2292,
      "회를": 2293,
      "er": 2294,
      "력이": 2295,
      "분양": 2296,
      "블록": 2297,
      "원은": 2298,
      "이노": 2299,
      "집중": 2300,
      "펀드": 2301,
      "필요한": 2302,
      "DB": 2303,
      "이며": 2304,
      "구글": 2305,
      "금지": 2306,
      "명을": 2307,
      "시설": 2308,
      "클라우": 2309,
      "데이터를": 2310,
      "is": 2311,
      "다만": 2312,
      "르게": 2313,
      "수급": 2314,
      "실제": 2315,
      "인수": 2316,
      "자료": 2317,
      "2019": 2318,
      "여전": 2319,
      "역대": 2320,
      "자인": 2321,
      "통한": 2322,
      "협회": 2323,
      "없다": 2324,
      "의견": 2325,
      "정부의": 2326,
      "두고": 2327,
      "LG유": 2328,
      "나타났다": 2329,
      "네이버": 2330,
      "ws": 2331,
      "본부": 2332,
      "자리": 2333,
      "LG유플러스": 2334,
      "300": 2335,
      "가를": 2336,
      "매매": 2337,
      "문화": 2338,
      "상담": 2339,
      "지수는": 2340,
      "합니다": 2341,
      "확산": 2342,
      "37": 2343,
      "운송": 2344,
      "내년": 2345,
      "다음": 2346,
      "받는": 2347,
      "시에": 2348,
      "우선": 2349,
      "비교": 2350,
      "지급": 2351,
      "보인다": 2352,
      "위험": 2353,
      "파이": 2354,
      "하여": 2355,
      "화폐": 2356,
      "가능하다": 2357,
      "민간": 2358,
      "사장": 2359,
      "전했다": 2360,
      "테이": 2361,
      "활성": 2362,
      "거리": 2363,
      "게이": 2364,
      "담보": 2365,
      "품목": 2366,
      "9월": 2367,
      "넘어": 2368,
      "연속": 2369,
      "올랐": 2370,
      "이전": 2371,
      "프라": 2372,
      "스토어": 2373,
      "3월": 2374,
      "간담": 2375,
      "인증": 2376,
      "과학기술": 2377,
      "2019년": 2378,
      "90": 2379,
      "공사": 2380,
      "당시": 2381,
      "마감": 2382,
      "이유": 2383,
      "노동": 2384,
      "노조": 2385,
      "방송": 2386,
      "인천": 2387,
      "시장에": 2388,
      "정보통신": 2389,
      "35": 2390,
      "비트": 2391,
      "있게": 2392,
      "있고": 2393,
      "피해": 2394,
      "클라우드": 2395,
      "기는": 2396,
      "단체": 2397,
      "원으로": 2398,
      "있으며": 2399,
      "확장": 2400,
      "2030": 2401,
      "그런": 2402,
      "선택": 2403,
      "검토": 2404,
      "관광": 2405,
      "부가": 2406,
      "여행": 2407,
      "종목": 2408,
      "종합": 2409,
      "주의": 2410,
      "책임": 2411,
      "통합": 2412,
      "렸다": 2413,
      "변화": 2414,
      "차지": 2415,
      "카메": 2416,
      "com": 2417,
      "8년": 2418,
      "담당": 2419,
      "수행": 2420,
      "으나": 2421,
      "인공": 2422,
      "자금": 2423,
      "소개": 2424,
      "유치": 2425,
      "영국": 2426,
      "파트너": 2427,
      "수수료": 2428,
      "21": 2429,
      "않고": 2430,
      "방안을": 2431,
      "카메라": 2432,
      "동기": 2433,
      "되지": 2434,
      "디오": 2435,
      "량이": 2436,
      "웨어": 2437,
      "창업": 2438,
      "토지": 2439,
      "거래일": 2440,
      "디어": 2441,
      "또는": 2442,
      "표준": 2443,
      "협업": 2444,
      "중소기업": 2445,
      "원자재": 2446,
      "공유": 2447,
      "대전": 2448,
      "라며": 2449,
      "리티": 2450,
      "방침": 2451,
      "설계": 2452,
      "조직": 2453,
      "주행": 2454,
      "협의": 2455,
      "영향을": 2456,
      "4년": 2457,
      "IS": 2458,
      "선을": 2459,
      "스를": 2460,
      "전달": 2461,
      "최저": 2462,
      "코리아": 2463,
      "상품을": 2464,
      "받은": 2465,
      "원의": 2466,
      "윤석": 2467,
      "취약": 2468,
      "치는": 2469,
      "1월": 2470,
      "26": 2471,
      "만나": 2472,
      "만들": 2473,
      "비즈": 2474,
      "촬영": 2475,
      "해결": 2476,
      "효율": 2477,
      "2022년": 2478,
      "우려가": 2479,
      "나온다": 2480,
      "on": 2481,
      "부총": 2482,
      "인정": 2483,
      "전쟁": 2484,
      "정보를": 2485,
      "소비자물가": 2486,
      "사와": 2487,
      "실시": 2488,
      "않은": 2489,
      "정상": 2490,
      "제한": 2491,
      "000만": 2492,
      "공급망": 2493,
      "연구원은": 2494,
      "위치": 2495,
      "케어": 2496,
      "한일": 2497,
      "회복": 2498,
      "거래소": 2499,
      "외국인": 2500,
      "가계": 2501,
      "유류": 2502,
      "제공한다": 2503,
      "LG전자": 2504,
      "ETF": 2505,
      "2만": 2506,
      "설립": 2507,
      "오프": 2508,
      "올라": 2509,
      "원이": 2510,
      "주유": 2511,
      "시장을": 2512,
      "10년": 2513,
      "LG이노": 2514,
      "news": 2515,
      "비트코인": 2516,
      "LG이노텍": 2517,
      "75": 2518,
      "고용": 2519,
      "내려": 2520,
      "네트": 2521,
      "마케": 2522,
      "연결": 2523,
      "작업": 2524,
      "주도": 2525,
      "지능": 2526,
      "7일": 2527,
      "DC": 2528,
      "권을": 2529,
      "방법": 2530,
      "오르": 2531,
      "작년": 2532,
      "이용자": 2533,
      "FT": 2534,
      "둔화": 2535,
      "명의": 2536,
      "텔레": 2537,
      "윤석열": 2538,
      "국토": 2539,
      "누리": 2540,
      "소유": 2541,
      "에어": 2542,
      "재생": 2543,
      "측은": 2544,
      "편의": 2545,
      "했지만": 2546,
      "투자를": 2547,
      "가격은": 2548,
      "간담회": 2549,
      "38": 2550,
      "en": 2551,
      "되면": 2552,
      "메이": 2553,
      "오늘": 2554,
      "입장": 2555,
      "친환경": 2556,
      "품질": 2557,
      "사업자": 2558,
      "우리나라": 2559,
      "스타트": 2560,
      "newsis": 2561,
      "1조": 2562,
      "과제": 2563,
      "우수": 2564,
      "원에서": 2565,
      "자율": 2566,
      "제보": 2567,
      "집계": 2568,
      "크로": 2569,
      "5G": 2570,
      "in": 2571,
      "교수는": 2572,
      "성능": 2573,
      "소통": 2574,
      "오픈": 2575,
      "의미": 2576,
      "주목": 2577,
      "규모의": 2578,
      "마케팅": 2579,
      "al": 2580,
      "사례": 2581,
      "에선": 2582,
      "쳤다": 2583,
      "to": 2584,
      "감독": 2585,
      "물론": 2586,
      "분의": 2587,
      "소득": 2588,
      "젝트": 2589,
      "지정": 2590,
      "기준으로": 2591,
      "제품을": 2592,
      "프로젝트": 2593,
      "수도권": 2594,
      "골프": 2595,
      "받고": 2596,
      "인력": 2597,
      "줄어": 2598,
      "지방": 2599,
      "은행은": 2600,
      "스타트업": 2601,
      "공모": 2602,
      "당국": 2603,
      "만들어": 2604,
      "바탕": 2605,
      "발사": 2606,
      "생태": 2607,
      "인재": 2608,
      "시장이": 2609,
      "주유소": 2610,
      "an": 2611,
      "가동": 2612,
      "상당": 2613,
      "지도": 2614,
      "금액": 2615,
      "기다": 2616,
      "이스": 2617,
      "임대": 2618,
      "지구": 2619,
      "했으며": 2620,
      "필요하다": 2621,
      "비즈니스": 2622,
      "CJ": 2623,
      "사태": 2624,
      "인한": 2625,
      "상황을": 2626,
      "34": 2627,
      "나갈": 2628,
      "물을": 2629,
      "제공하는": 2630,
      "CEO": 2631,
      "상이": 2632,
      "여부": 2633,
      "으면": 2634,
      "점에서": 2635,
      "가능성": 2636,
      "텔레콤": 2637,
      "가까": 2638,
      "같이": 2639,
      "변경": 2640,
      "사에서": 2641,
      "외환": 2642,
      "움직": 2643,
      "중단": 2644,
      "역할을": 2645,
      "네트워크": 2646,
      "되며": 2647,
      "디자인": 2648,
      "서를": 2649,
      "아직": 2650,
      "지면서": 2651,
      "청약": 2652,
      "통화": 2653,
      "화된": 2654,
      "블록체인": 2655,
      "바탕으로": 2656,
      "그렇": 2657,
      "대책": 2658,
      "보건": 2659,
      "예금": 2660,
      "정기": 2661,
      "제약": 2662,
      "페인": 2663,
      "77": 2664,
      "반면": 2665,
      "부품": 2666,
      "수가": 2667,
      "스크": 2668,
      "임직원": 2669,
      "화학": 2670,
      "활용해": 2671,
      "1분기": 2672,
      "것이라는": 2673,
      "매도": 2674,
      "빠르게": 2675,
      "이와": 2676,
      "이었다": 2677,
      "중구": 2678,
      "진다": 2679,
      "시장의": 2680,
      "투자증권": 2681,
      "11월": 2682,
      "비롯해": 2683,
      "나가": 2684,
      "맞춤": 2685,
      "먼저": 2686,
      "상공": 2687,
      "업종": 2688,
      "원유": 2689,
      "전날": 2690,
      "검증": 2691,
      "과기": 2692,
      "들도": 2693,
      "리가": 2694,
      "헬스": 2695,
      "호텔": 2696,
      "억원을": 2697,
      "SK텔레콤": 2698,
      "현대차": 2699,
      "생태계": 2700,
      "MO": 2701,
      "ho": 2702,
      "결합": 2703,
      "나는": 2704,
      "모듈": 2705,
      "베트": 2706,
      "인간": 2707,
      "산업통상": 2708,
      "베트남": 2709,
      "대회": 2710,
      "밖에": 2711,
      "정통": 2712,
      "출범": 2713,
      "큐브": 2714,
      "하거나": 2715,
      "한화": 2716,
      "2021년": 2717,
      "스마트폰": 2718,
      "기사": 2719,
      "대체": 2720,
      "인프라": 2721,
      "조치": 2722,
      "중립": 2723,
      "차관": 2724,
      "하루": 2725,
      "현지시간": 2726,
      "2일": 2727,
      "각종": 2728,
      "개의": 2729,
      "대구": 2730,
      "덧붙": 2731,
      "롭게": 2732,
      "장애": 2733,
      "주파": 2734,
      "찾아": 2735,
      "기반으로": 2736,
      "그러나": 2737,
      "산업통상자원": 2738,
      "DI": 2739,
      "NFT": 2740,
      "등급": 2741,
      "식을": 2742,
      "왼쪽": 2743,
      "주로": 2744,
      "학생": 2745,
      "금리가": 2746,
      "경기침체": 2747,
      "활동을": 2748,
      "..": 2749,
      "고를": 2750,
      "공시": 2751,
      "구미": 2752,
      "급등": 2753,
      "시키": 2754,
      "예측": 2755,
      "전반": 2756,
      "점이": 2757,
      "조성": 2758,
      "푸드": 2759,
      "시장은": 2760,
      "앞으로도": 2761,
      "구체": 2762,
      "사전": 2763,
      "앵커": 2764,
      "운드": 2765,
      "이터": 2766,
      "인이": 2767,
      "전경": 2768,
      "필즈": 2769,
      "희망": 2770,
      "서울대": 2771,
      "이상의": 2772,
      "하겠다는": 2773,
      "혜택을": 2774,
      "개정": 2775,
      "냈다": 2776,
      "로부터": 2777,
      "인해": 2778,
      "있었다": 2779,
      "리스크": 2780,
      "36": 2781,
      "42": 2782,
      "관측": 2783,
      "됩니다": 2784,
      "등록": 2785,
      "률을": 2786,
      "모빌": 2787,
      "반대": 2788,
      "제를": 2789,
      "지분": 2790,
      "199": 2791,
      "거쳐": 2792,
      "기여": 2793,
      "내린": 2794,
      "리츠": 2795,
      "벤처": 2796,
      "석유": 2797,
      "세종": 2798,
      "손실": 2799,
      "있지만": 2800,
      "45": 2801,
      "겠습니다": 2802,
      "동시에": 2803,
      "라도": 2804,
      "보내": 2805,
      "부회장은": 2806,
      "수를": 2807,
      "아시아": 2808,
      "움을": 2809,
      "이해": 2810,
      "페이지": 2811,
      "암호화폐": 2812,
      "재생에너지": 2813,
      "39": 2814,
      "되어": 2815,
      "매장": 2816,
      "부채": 2817,
      "스코": 2818,
      "아닌": 2819,
      "이데일리": 2820,
      "자신": 2821,
      "작품": 2822,
      "전세": 2823,
      "좋은": 2824,
      "지가": 2825,
      "확실": 2826,
      "대학교": 2827,
      "활성화": 2828,
      "IC": 2829,
      "대부분": 2830,
      "레스": 2831,
      "스튜": 2832,
      "의약": 2833,
      "전을": 2834,
      "차를": 2835,
      "하려": 2836,
      "할당": 2837,
      "2018": 2838,
      "억원으로": 2839,
      "상황에서": 2840,
      "늘어난": 2841,
      "인터넷": 2842,
      "강남": 2843,
      "미디어": 2844,
      "사장은": 2845,
      "어떤": 2846,
      "유튜": 2847,
      "이제": 2848,
      "조달": 2849,
      "10월": 2850,
      "부담을": 2851,
      "MZ": 2852,
      "구현": 2853,
      "농협": 2854,
      "니까": 2855,
      "바로": 2856,
      "상용": 2857,
      "아울": 2858,
      "원장은": 2859,
      "임상": 2860,
      "재무": 2861,
      "주년": 2862,
      "최소": 2863,
      "있는데": 2864,
      "증가한": 2865,
      "전망이다": 2866,
      "영업이익": 2867,
      "건을": 2868,
      "급락": 2869,
      "먼트": 2870,
      "배출": 2871,
      "비해": 2872,
      "연금": 2873,
      "채권": 2874,
      "처리": 2875,
      "체험": 2876,
      "현실": 2877,
      "사회적": 2878,
      "인공지능": 2879,
      "과기정통": 2880,
      "덧붙였다": 2881,
      "ar": 2882,
      "금감": 2883,
      "량은": 2884,
      "받았다": 2885,
      "어렵": 2886,
      "요청": 2887,
      "일까지": 2888,
      "작용": 2889,
      "주시": 2890,
      "알려졌다": 2891,
      "모빌리티": 2892,
      "2018년": 2893,
      "1억": 2894,
      "49": 2895,
      "감을": 2896,
      "위는": 2897,
      "일정": 2898,
      "재산": 2899,
      "제외": 2900,
      "청년": 2901,
      "캠페인": 2902,
      "오프라인": 2903,
      "급증": 2904,
      "면적": 2905,
      "모니": 2906,
      "주문": 2907,
      "홍보": 2908,
      "2030년": 2909,
      "유류세": 2910,
      "주파수": 2911,
      "NH": 2912,
      "내부": 2913,
      "모집": 2914,
      "보는": 2915,
      "섰다": 2916,
      "스테이": 2917,
      "었던": 2918,
      "트를": 2919,
      "파업": 2920,
      "폭이": 2921,
      "어려운": 2922,
      "방침이다": 2923,
      "1000": 2924,
      "무리": 2925,
      "부족": 2926,
      "선도": 2927,
      "쉽게": 2928,
      "악화": 2929,
      "않을": 2930,
      "운동": 2931,
      "자들이": 2932,
      "발표했다": 2933,
      "비롯한": 2934,
      "48": 2935,
      "공항": 2936,
      "근로": 2937,
      "나선": 2938,
      "달성": 2939,
      "독자": 2940,
      "동물": 2941,
      "점유": 2942,
      "트렌": 2943,
      "업계에": 2944,
      "2월": 2945,
      "33": 2946,
      "수주": 2947,
      "시대": 2948,
      "이기": 2949,
      "준이": 2950,
      "최종": 2951,
      "테슬": 2952,
      "기업이": 2953,
      "증가했다": 2954,
      "점유율": 2955,
      "1위": 2956,
      "at": 2957,
      "로드": 2958,
      "병원": 2959,
      "12월": 2960,
      "영상을": 2961,
      "코스닥": 2962,
      "의약품": 2963,
      "AS": 2964,
      "것도": 2965,
      "매각": 2966,
      "실시간": 2967,
      "하는데": 2968,
      "고객에게": 2969,
      "처음으로": 2970,
      "최초로": 2971,
      "모니터": 2972,
      "PC": 2973,
      "가량": 2974,
      "공격": 2975,
      "란드": 2976,
      "레미": 2977,
      "마다": 2978,
      "복합": 2979,
      "차질": 2980,
      "하우": 2981,
      "해도": 2982,
      "경쟁력": 2983,
      "프리미": 2984,
      "스튜디오": 2985,
      "ED": 2986,
      "끌어": 2987,
      "맞춰": 2988,
      "보증": 2989,
      "스가": 2990,
      "인기": 2991,
      "재개": 2992,
      "커피": 2993,
      "특징": 2994,
      "파악": 2995,
      "형태": 2996,
      "정책을": 2997,
      "이미지": 2998,
      "헬스케어": 2999,
      "아울러": 3000,
      "99": 3001,
      "NS": 3002,
      "SW": 3003,
      "누적": 3004,
      "달라": 3005,
      "대면": 3006,
      "뿐만": 3007,
      "설비": 3008,
      "에이": 3009,
      "연계": 3010,
      "자로": 3011,
      "재계": 3012,
      "진흥": 3013,
      "과정에서": 3014,
      "기획재": 3015,
      "여전히": 3016,
      "과학기술정보통신": 3017,
      "레미콘": 3018,
      "경유": 3019,
      "낮은": 3020,
      "상환": 3021,
      "양성": 3022,
      "에스": 3023,
      "연료": 3024,
      "완료": 3025,
      "육성": 3026,
      "입찰": 3027,
      "전월": 3028,
      "하도록": 3029,
      "흐름": 3030,
      "보유한": 3031,
      "그동안": 3032,
      "근무": 3033,
      "기부": 3034,
      "기회": 3035,
      "나서": 3036,
      "늘었다": 3037,
      "울산": 3038,
      "이드": 3039,
      "자본": 3040,
      "전장": 3041,
      "주장": 3042,
      "추정": 3043,
      "치솟": 3044,
      "국내외": 3045,
      "장관은": 3046,
      "맞춤형": 3047,
      "돌파": 3048,
      "률이": 3049,
      "리지": 3050,
      "보여": 3051,
      "인데": 3052,
      "1일부터": 3053,
      "1천": 3054,
      "3만": 3055,
      "6개월": 3056,
      "7년": 3057,
      "ST": 3058,
      "발굴": 3059,
      "베이": 3060,
      "비상": 3061,
      "사로": 3062,
      "사항": 3063,
      "신설": 3064,
      "조금": 3065,
      "지상": 3066,
      "했는데": 3067,
      "니티": 3068,
      "데믹": 3069,
      "선언": 3070,
      "수록": 3071,
      "스의": 3072,
      "쌍용": 3073,
      "와의": 3074,
      "원장": 3075,
      "제출": 3076,
      "주관": 3077,
      "금융감독": 3078,
      "제공할": 3079,
      "가격을": 3080,
      "발표한": 3081,
      "2개": 3082,
      "뛰어": 3083,
      "릭터": 3084,
      "인식": 3085,
      "차별": 3086,
      "캐릭터": 3087,
      "휘발": 3088,
      "진행한다": 3089,
      "계획을": 3090,
      "유튜브": 3091,
      "07": 3092,
      "3억": 3093,
      "값이": 3094,
      "것이라고": 3095,
      "농업": 3096,
      "봤다": 3097,
      "심사": 3098,
      "어떻": 3099,
      "움이": 3100,
      "웨이": 3101,
      "차이": 3102,
      "총괄": 3103,
      "포트": 3104,
      "해소": 3105,
      "하락한": 3106,
      "하락했다": 3107,
      "활용한": 3108,
      "수준으로": 3109,
      "업무협약": 3110,
      "누리호": 3111,
      "기획재정부": 3112,
      "46": 3113,
      "5개": 3114,
      "결국": 3115,
      "레드": 3116,
      "설치": 3117,
      "언급": 3118,
      "외에도": 3119,
      "탑재": 3120,
      "연구소": 3121,
      "실적을": 3122,
      "계약을": 3123,
      "BS": 3124,
      "내놓": 3125,
      "보장": 3126,
      "블로": 3127,
      "인지": 3128,
      "해제": 3129,
      "하기도": 3130,
      "미국의": 3131,
      "전망이": 3132,
      "상승률이": 3133,
      "올랐다": 3134,
      "트렌드": 3135,
      "프리미엄": 3136,
      "공감": 3137,
      "그리고": 3138,
      "대중": 3139,
      "동향": 3140,
      "문을": 3141,
      "보도": 3142,
      "선물": 3143,
      "시리": 3144,
      "지니": 3145,
      "채무": 3146,
      "화물": 3147,
      "사업에": 3148,
      "거래를": 3149,
      "에너지솔루션": 3150,
      "겠다는": 3151,
      "회의를": 3152,
      "MZ세대": 3153,
      "휘발유": 3154,
      "87": 3155,
      "AC": 3156,
      "고도": 3157,
      "넘는": 3158,
      "리드": 3159,
      "부에": 3160,
      "융합": 3161,
      "이렇": 3162,
      "자에게": 3163,
      "전해": 3164,
      "정비": 3165,
      "창출": 3166,
      "은행이": 3167,
      "설명이다": 3168,
      "것이란": 3169,
      "어떻게": 3170,
      "3분기": 3171,
      "계열": 3172,
      "살펴": 3173,
      "아래": 3174,
      "었습니다": 3175,
      "요인": 3176,
      "응답": 3177,
      "있기": 3178,
      "정확": 3179,
      "지표": 3180,
      "진입": 3181,
      "학교": 3182,
      "2017": 3183,
      "기업들이": 3184,
      "그린": 3185,
      "대규모": 3186,
      "돌아": 3187,
      "르는": 3188,
      "만든": 3189,
      "매입": 3190,
      "부진": 3191,
      "불어": 3192,
      "자유": 3193,
      "재단": 3194,
      "증정": 3195,
      "차주": 3196,
      "초기": 3197,
      "홈페이지": 3198,
      "LG에너지솔루션": 3199,
      "예상된다": 3200,
      "콘텐츠를": 3201,
      "테슬라": 3202,
      "2000": 3203,
      "400": 3204,
      "8일": 3205,
      "불가": 3206,
      "비전": 3207,
      "었고": 3208,
      "영역": 3209,
      "위축": 3210,
      "재판매": 3211,
      "지지": 3212,
      "태양": 3213,
      "합리": 3214,
      "현황": 3215,
      "회원": 3216,
      "후보": 3217,
      "서울시": 3218,
      "고객이": 3219,
      "경기도": 3220,
      "분야에서": 3221,
      "부담이": 3222,
      "국민의": 3223,
      "비중은": 3224,
      "탄소중립": 3225,
      "ed": 3226,
      "lo": 3227,
      "감염": 3228,
      "과의": 3229,
      "센서": 3230,
      "손해": 3231,
      "수립": 3232,
      "신호": 3233,
      "실천": 3234,
      "인구": 3235,
      "주력": 3236,
      "페이스": 3237,
      "기능을": 3238,
      "여러분의": 3239,
      "그런데": 3240,
      "4만": 3241,
      "검사": 3242,
      "만의": 3243,
      "상의": 3244,
      "순환": 3245,
      "스터": 3246,
      "양국": 3247,
      "열고": 3248,
      "유동": 3249,
      "유사": 3250,
      "이러": 3251,
      "정을": 3252,
      "조선": 3253,
      "지하": 3254,
      "폭을": 3255,
      "은행의": 3256,
      "상황이": 3257,
      "라이브": 3258,
      "경쟁력을": 3259,
      "경험을": 3260,
      "hoto": 3261,
      "5000": 3262,
      "나노": 3263,
      "나오": 3264,
      "대신": 3265,
      "매년": 3266,
      "뱅크": 3267,
      "부처": 3268,
      "산물": 3269,
      "상대": 3270,
      "생명": 3271,
      "위에": 3272,
      "이른": 3273,
      "작가": 3274,
      "점에": 3275,
      "확정": 3276,
      "협력을": 3277,
      "29일": 3278,
      "방식으로": 3279,
      "시리즈": 3280,
      "2차": 3281,
      "52": 3282,
      "photo": 3283,
      "개편": 3284,
      "공단": 3285,
      "광고": 3286,
      "디스": 3287,
      "머스": 3288,
      "반려": 3289,
      "배송": 3290,
      "상위": 3291,
      "세포": 3292,
      "소상공": 3293,
      "스로": 3294,
      "위로": 3295,
      "유행": 3296,
      "의무": 3297,
      "임금": 3298,
      "자연": 3299,
      "문제를": 3300,
      "LED": 3301,
      "ic": 3302,
      "re": 3303,
      "st": 3304,
      "꾸준": 3305,
      "널리": 3306,
      "독일": 3307,
      "립니다": 3308,
      "발언": 3309,
      "않았다": 3310,
      "양산": 3311,
      "연간": 3312,
      "제기": 3313,
      "측면": 3314,
      "커뮤": 3315,
      "크리에": 3316,
      "지원을": 3317,
      "관련해": 3318,
      "가치를": 3319,
      "목표로": 3320,
      "확인할": 3321,
      "전시회": 3322,
      "부총리": 3323,
      "크리에이터": 3324,
      "57": 3325,
      "AM": 3326,
      "PG": 3327,
      "드러": 3328,
      "불확실": 3329,
      "인사": 3330,
      "장중": 3331,
      "주간": 3332,
      "채용": 3333,
      "컨설": 3334,
      "하던": 3335,
      "홍콩": 3336,
      "보다는": 3337,
      "이번에": 3338,
      "이벤트를": 3339,
      "케이션": 3340,
      "2017년": 3341,
      "59": 3342,
      "68": 3343,
      "GS": 3344,
      "과거": 3345,
      "달하는": 3346,
      "대기업": 3347,
      "더라도": 3348,
      "료를": 3349,
      "불안": 3350,
      "비대면": 3351,
      "수소": 3352,
      "않아": 3353,
      "제3": 3354,
      "제주": 3355,
      "주거": 3356,
      "지에": 3357,
      "질환": 3358,
      "허준이": 3359,
      "달러로": 3360,
      "하겠다고": 3361,
      "가상자산": 3362,
      "사실상": 3363,
      "치료제": 3364,
      "마감했다": 3365,
      "이러한": 3366,
      "47": 3367,
      "6년": 3368,
      "GW": 3369,
      "기기": 3370,
      "낮아": 3371,
      "별도": 3372,
      "보이": 3373,
      "복지": 3374,
      "수의": 3375,
      "요소": 3376,
      "인도": 3377,
      "재고": 3378,
      "카이": 3379,
      "했다는": 3380,
      "사업장": 3381,
      "한국의": 3382,
      "대표이": 3383,
      "지속적으로": 3384,
      "주가가": 3385,
      "지수가": 3386,
      "중요한": 3387,
      "컨설팅": 3388,
      "DS": 3389,
      "넘게": 3390,
      "높다": 3391,
      "다가": 3392,
      "단기": 3393,
      "단순": 3394,
      "등은": 3395,
      "로봇": 3396,
      "맥주": 3397,
      "발행": 3398,
      "실현": 3399,
      "재해": 3400,
      "절반": 3401,
      "테스트": 3402,
      "특정": 3403,
      "전망했다": 3404,
      "비중이": 3405,
      "국토교통": 3406,
      "58": 3407,
      "가고": 3408,
      "건물": 3409,
      "됐습니다": 3410,
      "리오": 3411,
      "면제": 3412,
      "시험": 3413,
      "요약": 3414,
      "원하는": 3415,
      "위가": 3416,
      "일을": 3417,
      "일제": 3418,
      "자와": 3419,
      "중한": 3420,
      "추천": 3421,
      "트로": 3422,
      "패키": 3423,
      "편리": 3424,
      "학과": 3425,
      "해양": 3426,
      "허브": 3427,
      "산업의": 3428,
      "고객의": 3429,
      "라이프": 3430,
      "그룹은": 3431,
      "효과를": 3432,
      "공공기관": 3433,
      "스포츠": 3434,
      "의견을": 3435,
      "전경련": 3436,
      "이렇게": 3437,
      "고물가": 3438,
      "디폴": 3439,
      "사에": 3440,
      "스티": 3441,
      "심의": 3442,
      "여건": 3443,
      "자이": 3444,
      "충분": 3445,
      "투입": 3446,
      "한은": 3447,
      "기업으로": 3448,
      "연구개발": 3449,
      "위원장": 3450,
      "추가로": 3451,
      "2300": 3452,
      "모니터링": 3453,
      "67": 3454,
      "it": 3455,
      "공략": 3456,
      "마블": 3457,
      "모터": 3458,
      "상호": 3459,
      "시가": 3460,
      "시청": 3461,
      "안내": 3462,
      "어요": 3463,
      "언론": 3464,
      "여파": 3465,
      "역량을": 3466,
      "차례": 3467,
      "첨단": 3468,
      "커머스": 3469,
      "포르": 3470,
      "밝혔습니다": 3471,
      "달러를": 3472,
      "게임즈": 3473,
      "회장이": 3474,
      "개인정보": 3475,
      "과정을": 3476,
      "큐브위성": 3477,
      "필즈상": 3478,
      "과학기술정보통신부": 3479,
      "소상공인": 3480,
      "5만": 3481,
      "600": 3482,
      "OT": 3483,
      "긴축": 3484,
      "되기": 3485,
      "란다": 3486,
      "보이고": 3487,
      "사무": 3488,
      "애로": 3489,
      "의도": 3490,
      "이재": 3491,
      "정치": 3492,
      "주주": 3493,
      "지출": 3494,
      "충전": 3495,
      "프랑": 3496,
      "전기요금": 3497,
      "회의에서": 3498,
      "마이크로": 3499,
      "소프트웨어": 3500,
      "3개": 3501,
      "건축": 3502,
      "리서": 3503,
      "바란다": 3504,
      "박스": 3505,
      "상생": 3506,
      "여기에": 3507,
      "이름": 3508,
      "이슈": 3509,
      "프랜드": 3510,
      "하자": 3511,
      "획득": 3512,
      "기업은": 3513,
      "금융투자": 3514,
      "2023년": 3515,
      "운영하는": 3516,
      "안전보건": 3517,
      "기반의": 3518,
      "비중을": 3519,
      "28일": 3520,
      "가계대출": 3521,
      "EC": 3522,
      "능력": 3523,
      "률은": 3524,
      "명으로": 3525,
      "민국": 3526,
      "반응": 3527,
      "보였다": 3528,
      "속도": 3529,
      "액이": 3530,
      "어린": 3531,
      "엑스포": 3532,
      "연방": 3533,
      "자세": 3534,
      "전보다": 3535,
      "추측": 3536,
      "취득": 3537,
      "폐기": 3538,
      "합의": 3539,
      "대한민국": 3540,
      "평가를": 3541,
      "시스템을": 3542,
      "늘어나": 3543,
      "선보인다": 3544,
      "고려해": 3545,
      "발사체": 3546,
      "가까이": 3547,
      "움직임": 3548,
      "디폴트": 3549,
      "IM": 3550,
      "Ne": 3551,
      "SNS": 3552,
      "감사": 3553,
      "등에서": 3554,
      "리어": 3555,
      "린다": 3556,
      "비슷": 3557,
      "역량": 3558,
      "연준": 3559,
      "월드": 3560,
      "유명": 3561,
      "추경": 3562,
      "포럼": 3563,
      "화제": 3564,
      "필요가": 3565,
      "경영자": 3566,
      "분야의": 3567,
      "바이러스": 3568,
      "아이템": 3569,
      "그래서": 3570,
      "카메라모듈": 3571,
      "84": 3572,
      "CC": 3573,
      "le": 3574,
      "기구": 3575,
      "뉴욕": 3576,
      "단렌": 3577,
      "물질": 3578,
      "시민": 3579,
      "안에": 3580,
      "언스": 3581,
      "유로": 3582,
      "일상": 3583,
      "이어질": 3584,
      "2025년": 3585,
      "고객을": 3586,
      "사진은": 3587,
      "떨어졌다": 3588,
      "성과를": 3589,
      "게이단렌": 3590,
      "관한": 3591,
      "내고": 3592,
      "비판": 3593,
      "새롭게": 3594,
      "성에": 3595,
      "승인": 3596,
      "시범": 3597,
      "예방": 3598,
      "요일": 3599,
      "재인": 3600,
      "적자": 3601,
      "전에": 3602,
      "주재": 3603,
      "즐길": 3604,
      "지자체": 3605,
      "패션": 3606,
      "포스코": 3607,
      "화할": 3608,
      "회계": 3609,
      "상황이다": 3610,
      "수준을": 3611,
      "삼성전자는": 3612,
      "장관이": 3613,
      "제보를": 3614,
      "기다립니다": 3615,
      "국민의힘": 3616,
      "85": 3617,
      "기후": 3618,
      "단독": 3619,
      "답변": 3620,
      "미만": 3621,
      "불과": 3622,
      "수치": 3623,
      "신속": 3624,
      "실제로": 3625,
      "않다": 3626,
      "업데이": 3627,
      "예약": 3628,
      "완성": 3629,
      "외교": 3630,
      "이들": 3631,
      "이행": 3632,
      "자회사": 3633,
      "제휴": 3634,
      "취임": 3635,
      "커지고": 3636,
      "하향": 3637,
      "기업을": 3638,
      "지원하는": 3639,
      "수준의": 3640,
      "시작한": 3641,
      "시작으로": 3642,
      "14년": 3643,
      "제조업": 3644,
      "95": 3645,
      "UV": 3646,
      "가시": 3647,
      "간의": 3648,
      "감축": 3649,
      "계좌": 3650,
      "긍정": 3651,
      "내는": 3652,
      "민주": 3653,
      "빠른": 3654,
      "수신": 3655,
      "예산": 3656,
      "외부": 3657,
      "이야": 3658,
      "접근": 3659,
      "제고": 3660,
      "종료": 3661,
      "치고": 3662,
      "타워": 3663,
      "개발을": 3664,
      "기록한": 3665,
      "보고서": 3666,
      "수학자": 3667,
      "적극적으로": 3668,
      "포함한": 3669,
      "그러면서": 3670,
      "코스피가": 3671,
      "가상인간": 3672,
      "관심이": 3673,
      "지적했다": 3674,
      "ent": 3675,
      "산업통상자원부": 3676,
      "2천": 3677,
      "가진": 3678,
      "갔다": 3679,
      "개국": 3680,
      "나이": 3681,
      "내다": 3682,
      "는다": 3683,
      "달리": 3684,
      "라마": 3685,
      "마쳤다": 3686,
      "만족": 3687,
      "선호": 3688,
      "수원": 3689,
      "않았": 3690,
      "열리는": 3691,
      "오피": 3692,
      "음을": 3693,
      "점은": 3694,
      "조건": 3695,
      "주고": 3696,
      "필수": 3697,
      "해왔다": 3698,
      "화가": 3699,
      "위해서는": 3700,
      "개발한": 3701,
      "확대를": 3702,
      "관계자": 3703,
      "스트리": 3704,
      "매출이": 3705,
      "추경호": 3706,
      "GA": 3707,
      "km": 3708,
      "강원": 3709,
      "고등": 3710,
      "고민": 3711,
      "넷마블": 3712,
      "맞아": 3713,
      "블루": 3714,
      "세다": 3715,
      "션을": 3716,
      "스텝": 3717,
      "심화": 3718,
      "음식": 3719,
      "인근": 3720,
      "일이": 3721,
      "있었": 3722,
      "점도": 3723,
      "지나": 3724,
      "차세대": 3725,
      "성장을": 3726,
      "결과를": 3727,
      "적극적인": 3728,
      "교수가": 3729,
      "프로그램을": 3730,
      "파이낸": 3731,
      "집계됐다": 3732,
      "32": 3733,
      "3천": 3734,
      "계층": 3735,
      "국채": 3736,
      "기금": 3737,
      "매일": 3738,
      "배당": 3739,
      "보이는": 3740,
      "복현": 3741,
      "스에서": 3742,
      "시각": 3743,
      "신뢰": 3744,
      "실무": 3745,
      "안을": 3746,
      "적립": 3747,
      "직후": 3748,
      "플릭": 3749,
      "확진": 3750,
      "하다는": 3751,
      "과기정통부": 3752,
      "리서치": 3753,
      "31": 3754,
      "3AC": 3755,
      "넷플릭": 3756,
      "당부": 3757,
      "대가": 3758,
      "목적": 3759,
      "소식": 3760,
      "수밖에": 3761,
      "시코": 3762,
      "아마": 3763,
      "에만": 3764,
      "이복현": 3765,
      "자기": 3766,
      "으로는": 3767,
      "으로부터": 3768,
      "사업부": 3769,
      "상승했다": 3770,
      "이용할": 3771,
      "자산운용": 3772,
      "전략을": 3773,
      "간담회에서": 3774,
      "55": 3775,
      "6개": 3776,
      "AR": 3777,
      "DP": 3778,
      "IB": 3779,
      "간편": 3780,
      "개별": 3781,
      "공연": 3782,
      "광주": 3783,
      "나아": 3784,
      "대역": 3785,
      "멕시코": 3786,
      "방역": 3787,
      "배경": 3788,
      "버거": 3789,
      "서로": 3790,
      "신고": 3791,
      "어느": 3792,
      "없어": 3793,
      "율을": 3794,
      "인앱": 3795,
      "일부터": 3796,
      "자사": 3797,
      "전남": 3798,
      "중고": 3799,
      "지식": 3800,
      "취업": 3801,
      "특화": 3802,
      "티브": 3803,
      "한정": 3804,
      "합동": 3805,
      "허용": 3806,
      "환자": 3807,
      "00원": 3808,
      "연구팀": 3809,
      "거래가": 3810,
      "그룹의": 3811,
      "아이폰": 3812,
      "사이트": 3813,
      "관심을": 3814,
      "위치한": 3815,
      "MOU": 3816,
      "장애인": 3817,
      "5천": 3818,
      "or": 3819,
      "과도": 3820,
      "누구": 3821,
      "더불어": 3822,
      "도움이": 3823,
      "등장": 3824,
      "마지": 3825,
      "문재인": 3826,
      "백화": 3827,
      "상무": 3828,
      "약속": 3829,
      "예비": 3830,
      "전이": 3831,
      "최적": 3832,
      "풀이": 3833,
      "가능성을": 3834,
      "주가는": 3835,
      "2008년": 3836,
      "수익을": 3837,
      "내용을": 3838,
      "장기화": 3839,
      "통계청": 3840,
      "디스플레이": 3841,
      "LS": 3842,
      "SM": 3843,
      "가족": 3844,
      "고정": 3845,
      "관에서": 3846,
      "교류": 3847,
      "동반": 3848,
      "들에": 3849,
      "목소": 3850,
      "사상": 3851,
      "신선": 3852,
      "연동": 3853,
      "원인": 3854,
      "원칙": 3855,
      "율이": 3856,
      "전지": 3857,
      "차가": 3858,
      "팬데믹": 3859,
      "플라": 3860,
      "향상": 3861,
      "홀딩": 3862,
      "금리는": 3863,
      "연합회": 3864,
      "원자력": 3865,
      "전문가들은": 3866,
      "양자암호": 3867,
      "인앱결제": 3868,
      "계기로": 3869,
      "기초": 3870,
      "도는": 3871,
      "리더": 3872,
      "베스트": 3873,
      "봉사": 3874,
      "북미": 3875,
      "빅데이터": 3876,
      "석탄": 3877,
      "소중한": 3878,
      "실행": 3879,
      "웹툰": 3880,
      "위반": 3881,
      "의사": 3882,
      "이종": 3883,
      "제가": 3884,
      "크래": 3885,
      "테인": 3886,
      "투명": 3887,
      "하겠습니다": 3888,
      "서울경제": 3889,
      "규모로": 3890,
      "최고경영자": 3891,
      "분석했다": 3892,
      "솔루션을": 3893,
      "않는다": 3894,
      "상대적으로": 3895,
      "꾸준히": 3896,
      "3개월": 3897,
      "KAI": 3898,
      "급여": 3899,
      "나왔다": 3900,
      "남아": 3901,
      "넥슨": 3902,
      "레인": 3903,
      "말까지": 3904,
      "배럴": 3905,
      "배우": 3906,
      "뷰티": 3907,
      "스와": 3908,
      "시는": 3909,
      "시상": 3910,
      "애널리": 3911,
      "얼마": 3912,
      "엔터": 3913,
      "올레드": 3914,
      "원화": 3915,
      "재료": 3916,
      "저렴": 3917,
      "전세계": 3918,
      "제조사": 3919,
      "조절": 3920,
      "지며": 3921,
      "창구": 3922,
      "천연": 3923,
      "청소": 3924,
      "트는": 3925,
      "했으나": 3926,
      "으로써": 3927,
      "하고자": 3928,
      "금융위원회": 3929,
      "삼성S": 3930,
      "게임을": 3931,
      "하나은행": 3932,
      "대학생": 3933,
      "무역수": 3934,
      "여부를": 3935,
      "나선다": 3936,
      "마지막": 3937,
      "64": 3938,
      "65": 3939,
      "CP": 3940,
      "ion": 3941,
      "가로": 3942,
      "거의": 3943,
      "구독": 3944,
      "그간": 3945,
      "드라마": 3946,
      "등과": 3947,
      "등도": 3948,
      "매우": 3949,
      "세로": 3950,
      "저축": 3951,
      "전통": 3952,
      "제2": 3953,
      "제안": 3954,
      "지로": 3955,
      "철강": 3956,
      "철도": 3957,
      "청사에서": 3958,
      "퇴직": 3959,
      "금융당국": 3960,
      "됐다고": 3961,
      "4일부터": 3962,
      "15년": 3963,
      "기대한다": 3964,
      "떨어진": 3965,
      "촬영을": 3966,
      "기사내용": 3967,
      "테인먼트": 3968,
      "94": 3969,
      "EN": 3970,
      "가속": 3971,
      "갖고": 3972,
      "규정": 3973,
      "나섰다": 3974,
      "독립": 3975,
      "디아": 3976,
      "믹스": 3977,
      "밴드": 3978,
      "번호": 3979,
      "분위기": 3980,
      "성미": 3981,
      "아트": 3982,
      "여의도": 3983,
      "연장": 3984,
      "오를": 3985,
      "전송": 3986,
      "존재": 3987,
      "주민": 3988,
      "중에": 3989,
      "출발": 3990,
      "타임": 3991,
      "특수": 3992,
      "폴란드": 3993,
      "피트": 3994,
      "행정": 3995,
      "기업에": 3996,
      "레이션": 3997,
      "이용하는": 3998,
      "기관이": 3999,
      "업계의": 4000,
      "매출은": 4001,
      "업무를": 4002,
      "효과가": 4003,
      "체결했다고": 4004,
      "LG이노텍은": 4005,
      "반대매매": 4006,
      "특징이다": 4007,
      "태양광": 4008,
      "커뮤니티": 4009,
      "OTT": 4010,
      "FC": 4011,
      "IDC": 4012,
      "같다": 4013,
      "금은": 4014,
      "급격": 4015,
      "너무": 4016,
      "라면": 4017,
      "무엇": 4018,
      "받습니다": 4019,
      "수집": 4020,
      "스턴": 4021,
      "시도": 4022,
      "앞두고": 4023,
      "였던": 4024,
      "온실": 4025,
      "음료": 4026,
      "적정": 4027,
      "졌습니다": 4028,
      "주얼": 4029,
      "중견": 4030,
      "집값": 4031,
      "축소": 4032,
      "측정": 4033,
      "카페": 4034,
      "테라": 4035,
      "테마": 4036,
      "표성미": 4037,
      "프린": 4038,
      "학습": 4039,
      "현금": 4040,
      "금융권": 4041,
      "2024년": 4042,
      "진행하고": 4043,
      "이용해": 4044,
      "사용자": 4045,
      "회사는": 4046,
      "문제가": 4047,
      "KT는": 4048,
      "참석해": 4049,
      "증시가": 4050,
      "자율주행": 4051,
      "130": 4052,
      "DT": 4053,
      "ro": 4054,
      "감이": 4055,
      "검색": 4056,
      "노하우": 4057,
      "동월": 4058,
      "마무리": 4059,
      "만기": 4060,
      "비를": 4061,
      "선이": 4062,
      "스에": 4063,
      "시기": 4064,
      "씨는": 4065,
      "여개": 4066,
      "오름": 4067,
      "오히": 4068,
      "외식": 4069,
      "준다": 4070,
      "차는": 4071,
      "추첨": 4072,
      "현상이": 4073,
      "사업은": 4074,
      "진행할": 4075,
      "대출을": 4076,
      "규모를": 4077,
      "국제유가": 4078,
      "영향으로": 4079,
      "안정적인": 4080,
      "처음이다": 4081,
      "하이닉": 4082,
      "편의점": 4083,
      "줄어들": 4084,
      "주시면": 4085,
      "오히려": 4086,
      "2배": 4087,
      "MW": 4088,
      "가전": 4089,
      "강력": 4090,
      "갖춘": 4091,
      "건전": 4092,
      "국회": 4093,
      "기조": 4094,
      "김방": 4095,
      "다운": 4096,
      "맞는": 4097,
      "물이": 4098,
      "백신": 4099,
      "벌어": 4100,
      "법을": 4101,
      "봉쇄": 4102,
      "분간": 4103,
      "분할": 4104,
      "사인": 4105,
      "신작": 4106,
      "엔진": 4107,
      "완전": 4108,
      "운전": 4109,
      "유입": 4110,
      "이지만": 4111,
      "적자를": 4112,
      "절감": 4113,
      "접속": 4114,
      "초청": 4115,
      "취급": 4116,
      "크론": 4117,
      "파크": 4118,
      "화면": 4119,
      "힘을": 4120,
      "금리인상": 4121,
      "지원한다": 4122,
      "사용할": 4123,
      "활용할": 4124,
      "감소했다": 4125,
      "KBS": 4126,
      "본격적인": 4127,
      "판단되는": 4128,
      "별로는": 4129,
      "김방희": 4130,
      "01": 4131,
      "3000": 4132,
      "7만": 4133,
      "MS": 4134,
      "P500": 4135,
      "WS": 4136,
      "가정": 4137,
      "거부": 4138,
      "거주": 4139,
      "대외": 4140,
      "더해": 4141,
      "동일": 4142,
      "등이다": 4143,
      "리케이션": 4144,
      "바디": 4145,
      "부실": 4146,
      "사랑": 4147,
      "수산": 4148,
      "스틱": 4149,
      "신세계": 4150,
      "유도": 4151,
      "인플": 4152,
      "조회": 4153,
      "주제로": 4154,
      "지연": 4155,
      "초과": 4156,
      "크다": 4157,
      "퍼런": 4158,
      "핀테크": 4159,
      "해석": 4160,
      "기업들의": 4161,
      "진행된다": 4162,
      "사진영상": 4163,
      "기준금리": 4164,
      "상황에": 4165,
      "증권사": 4166,
      "SK하이닉": 4167,
      "참석했다": 4168,
      "본격적으로": 4169,
      "1998년": 4170,
      "블로그": 4171,
      "파이낸셜": 4172,
      "백화점": 4173,
      "41": 4174,
      "4호": 4175,
      "D램": 4176,
      "GC": 4177,
      "격을": 4178,
      "곡물": 4179,
      "기회를": 4180,
      "낮추": 4181,
      "내에": 4182,
      "단행": 4183,
      "담합": 4184,
      "당장": 4185,
      "럴드": 4186,
      "면세": 4187,
      "바뀌": 4188,
      "보상": 4189,
      "부부": 4190,
      "산하": 4191,
      "서도": 4192,
      "시절": 4193,
      "싱가": 4194,
      "아웃": 4195,
      "억달러": 4196,
      "연맹": 4197,
      "예고": 4198,
      "와이": 4199,
      "원가": 4200,
      "이마트": 4201,
      "이같이": 4202,
      "장치": 4203,
      "재미": 4204,
      "저희": 4205,
      "조치를": 4206,
      "종의": 4207,
      "주기": 4208,
      "지주": 4209,
      "직장": 4210,
      "헤럴드": 4211,
      "확충": 4212,
      "환불": 4213,
      "환경을": 4214,
      "중국의": 4215,
      "수준이다": 4216,
      "시작했다": 4217,
      "가치나": 4218,
      "혁신을": 4219,
      "선보일": 4220,
      "방문해": 4221,
      "비율이": 4222,
      "이동통신": 4223,
      "거래일보다": 4224,
      "차별화된": 4225,
      "어린이": 4226,
      "가공": 4227,
      "국무": 4228,
      "국산": 4229,
      "나다": 4230,
      "담은": 4231,
      "데다": 4232,
      "때는": 4233,
      "로를": 4234,
      "방지": 4235,
      "셈이다": 4236,
      "수단": 4237,
      "시즌": 4238,
      "압박": 4239,
      "옵션": 4240,
      "위의": 4241,
      "이탈": 4242,
      "점으로": 4243,
      "주담": 4244,
      "주를": 4245,
      "컴퓨": 4246,
      "테리어": 4247,
      "현상": 4248,
      "부터는": 4249,
      "경우가": 4250,
      "최고의": 4251,
      "기대된다": 4252,
      "확보를": 4253,
      "항공우주": 4254,
      "뉴시스가": 4255,
      "포함해": 4256,
      "반영하겠습니다": 4257,
      "애플리케이션": 4258,
      "신한울": 4259,
      "코스피는": 4260,
      "중앙회": 4261,
      "IPO": 4262,
      "그래픽": 4263,
      "받는다": 4264,
      "이유로": 4265,
      "제보받습니다": 4266,
      "보내주시면": 4267,
      "공감언론": 4268,
      "화제성이": 4269,
      "풀이된다": 4270,
      "사진영상부": 4271,
      "헤럴드경제": 4272,
      "44": 4273,
      "CU": 4274,
      "경남": 4275,
      "그대로": 4276,
      "근거": 4277,
      "다수": 4278,
      "다이": 4279,
      "대에서": 4280,
      "만드는": 4281,
      "무료": 4282,
      "물리": 4283,
      "박람": 4284,
      "버추": 4285,
      "보니": 4286,
      "본인": 4287,
      "분을": 4288,
      "불구": 4289,
      "비행": 4290,
      "새로": 4291,
      "세부": 4292,
      "않도록": 4293,
      "영화": 4294,
      "의존": 4295,
      "인스타": 4296,
      "장마": 4297,
      "적이다": 4298,
      "전파": 4299,
      "젊은": 4300,
      "접수": 4301,
      "조기": 4302,
      "철저": 4303,
      "최신": 4304,
      "출연": 4305,
      "기업인": 4306,
      "까지는": 4307,
      "제공하고": 4308,
      "시간이": 4309,
      "감소한": 4310,
      "수학계": 4311,
      "선정된": 4312,
      "중심의": 4313,
      "16년": 4314,
      "어려움을": 4315,
      "오른쪽": 4316,
      "데일리안": 4317,
      "대통령이": 4318,
      "...": 4319,
      "자신의": 4320,
      "고도화": 4321,
      "마이크로소프트": 4322,
      "싱가포르": 4323,
      "버추얼": 4324,
      "1억원": 4325,
      "150": 4326,
      "4천": 4327,
      "66": 4328,
      "TI": 4329,
      "가산": 4330,
      "개방": 4331,
      "건의": 4332,
      "것과": 4333,
      "기아": 4334,
      "노출": 4335,
      "높이": 4336,
      "르고": 4337,
      "만명": 4338,
      "많다": 4339,
      "많아": 4340,
      "메뉴": 4341,
      "상업": 4342,
      "세워": 4343,
      "소속": 4344,
      "소형": 4345,
      "속도를": 4346,
      "수석": 4347,
      "실험": 4348,
      "아우": 4349,
      "안보": 4350,
      "여신": 4351,
      "워치": 4352,
      "위안": 4353,
      "으면서": 4354,
      "자들은": 4355,
      "제재": 4356,
      "지배": 4357,
      "취소": 4358,
      "해지": 4359,
      "행사를": 4360,
      "형성": 4361,
      "2014년": 4362,
      "사업의": 4363,
      "위해서": 4364,
      "확대할": 4365,
      "제품은": 4366,
      "지속적인": 4367,
      "목표를": 4368,
      "기본계획": 4369,
      "환율은": 4370,
      "ICT": 4371,
      "강남구": 4372,
      "아래로": 4373,
      "업데이트": 4374,
      "인스타그램": 4375,
      "05": 4376,
      "4개": 4377,
      "96": 4378,
      "9년": 4379,
      "9시": 4380,
      "BGA": 4381,
      "DA": 4382,
      "ss": 4383,
      "경매": 4384,
      "논란": 4385,
      "당분간": 4386,
      "대만": 4387,
      "동원": 4388,
      "라운드": 4389,
      "물량": 4390,
      "보급": 4391,
      "부정": 4392,
      "설정": 4393,
      "쉽지": 4394,
      "식에서": 4395,
      "실질": 4396,
      "심사를": 4397,
      "였습니다": 4398,
      "올리": 4399,
      "유일": 4400,
      "유형": 4401,
      "이끌": 4402,
      "이던": 4403,
      "이루": 4404,
      "이들은": 4405,
      "일자리": 4406,
      "절차": 4407,
      "지인": 4408,
      "출하": 4409,
      "충남": 4410,
      "충돌": 4411,
      "캐나다": 4412,
      "커질": 4413,
      "케미": 4414,
      "코드": 4415,
      "클래": 4416,
      "품을": 4417,
      "함을": 4418,
      "함으로써": 4419,
      "해진": 4420,
      "10일": 4421,
      "개발에": 4422,
      "에너지정책": 4423,
      "규모는": 4424,
      "회사가": 4425,
      "참여한": 4426,
      "강화하고": 4427,
      "스타일": 4428,
      "발생하는": 4429,
      "여름철": 4430,
      "체결했다": 4431,
      "진출을": 4432,
      "외환위기": 4433,
      "호텔에서": 4434,
      "주년을": 4435,
      "반려동물": 4436,
      "내다봤다": 4437,
      "5억": 4438,
      "GDP": 4439,
      "RE": 4440,
      "RPG": 4441,
      "가파": 4442,
      "감안": 4443,
      "겁니다": 4444,
      "경신": 4445,
      "고리": 4446,
      "곳에서": 4447,
      "공제": 4448,
      "공장을": 4449,
      "관람": 4450,
      "기름": 4451,
      "니아": 4452,
      "돈을": 4453,
      "둘러": 4454,
      "드림": 4455,
      "멤버": 4456,
      "배달": 4457,
      "버그": 4458,
      "본다": 4459,
      "부과": 4460,
      "블랙": 4461,
      "사카": 4462,
      "속도로": 4463,
      "아요": 4464,
      "유의": 4465,
      "이란": 4466,
      "인기를": 4467,
      "인테리어": 4468,
      "전면": 4469,
      "정리": 4470,
      "최악": 4471,
      "통과": 4472,
      "폭염": 4473,
      "화장": 4474,
      "휴가": 4475,
      "기업들은": 4476,
      "투자가": 4477,
      "전망치": 4478,
      "기관의": 4479,
      "회사의": 4480,
      "대해서는": 4481,
      "기간은": 4482,
      "출시했다": 4483,
      "전력수급": 4484,
      "27일": 4485,
      "보유하고": 4486,
      "공정거래": 4487,
      "노조는": 4488,
      "차지하는": 4489,
      "시키는": 4490,
      "손실을": 4491,
      "애널리스트": 4492,
      "케미칼": 4493,
      "1차": 4494,
      "1위를": 4495,
      "3대": 4496,
      "56": 4497,
      "78": 4498,
      "SSG": 4499,
      "대화": 4500,
      "보조": 4501,
      "분류": 4502,
      "사유": 4503,
      "소폭": 4504,
      "스텔": 4505,
      "신문": 4506,
      "실증": 4507,
      "심각": 4508,
      "자금을": 4509,
      "잡고": 4510,
      "제어": 4511,
      "캐피": 4512,
      "한번": 4513,
      "합병": 4514,
      "00만": 4515,
      "2011": 4516,
      "2016년": 4517,
      "10개": 4518,
      "30대": 4519,
      "상승으로": 4520,
      "디지털데일리": 4521,
      "최고치를": 4522,
      "규제가": 4523,
      "개선을": 4524,
      "나타나": 4525,
      "방식을": 4526,
      "방향을": 4527,
      "상태다": 4528,
      "체계를": 4529,
      "취약계층": 4530,
      "차관은": 4531,
      "구체적인": 4532,
      "금융감독원": 4533,
      "포트폴": 4534,
      "유동성": 4535,
      "프랑스": 4536,
      "박람회": 4537,
      "DX": 4538,
      "ch": 4539,
      "경고": 4540,
      "공기": 4541,
      "구입": 4542,
      "대에": 4543,
      "대폭": 4544,
      "명예": 4545,
      "모션": 4546,
      "무더": 4547,
      "범죄": 4548,
      "분리": 4549,
      "불리는": 4550,
      "서민": 4551,
      "세미": 4552,
      "세븐": 4553,
      "세트": 4554,
      "워드": 4555,
      "음악": 4556,
      "전개": 4557,
      "줄었다": 4558,
      "지면": 4559,
      "쿠라": 4560,
      "했을": 4561,
      "2015년": 4562,
      "한국은행": 4563,
      "이상을": 4564,
      "확대해": 4565,
      "지역의": 4566,
      "23일": 4567,
      "주식을": 4568,
      "구성된": 4569,
      "참석한": 4570,
      "비용을": 4571,
      "사람이": 4572,
      "손해보험": 4573,
      "NB": 4574,
      "kr": 4575,
      "개설": 4576,
      "늘고": 4577,
      "동참": 4578,
      "만이다": 4579,
      "메리": 4580,
      "모아": 4581,
      "상가": 4582,
      "상한": 4583,
      "소시": 4584,
      "시킬": 4585,
      "오미": 4586,
      "운행": 4587,
      "유리": 4588,
      "차단": 4589,
      "쿠폰": 4590,
      "표현": 4591,
      "회관에서": 4592,
      "대표적인": 4593,
      "전망된다": 4594,
      "에게는": 4595,
      "관리를": 4596,
      "플랫폼을": 4597,
      "추진할": 4598,
      "우수한": 4599,
      "KAIST": 4600,
      "포트폴리오": 4601,
      "1개": 4602,
      "120": 4603,
      "4분기": 4604,
      "62": 4605,
      "63": 4606,
      "79": 4607,
      "CB": 4608,
      "bp": 4609,
      "각국": 4610,
      "개혁": 4611,
      "것에": 4612,
      "공매도": 4613,
      "국립": 4614,
      "권의": 4615,
      "기지": 4616,
      "노력을": 4617,
      "루닛": 4618,
      "바라": 4619,
      "방어": 4620,
      "순위": 4621,
      "스탠": 4622,
      "오랜": 4623,
      "오롱": 4624,
      "의결": 4625,
      "이창": 4626,
      "일단": 4627,
      "일환": 4628,
      "절차를": 4629,
      "정이": 4630,
      "제일제": 4631,
      "주변": 4632,
      "코오롱": 4633,
      "타이어": 4634,
      "파산": 4635,
      "프톤": 4636,
      "기술로": 4637,
      "기술적": 4638,
      "연구를": 4639,
      "연구진": 4640,
      "지원할": 4641,
      "전망을": 4642,
      "규모가": 4643,
      "업계에서는": 4644,
      "매출액": 4645,
      "참여할": 4646,
      "가치가": 4647,
      "선보였다": 4648,
      "스토리": 4649,
      "협약을": 4650,
      "제시했다": 4651,
      "비교해": 4652,
      "활성화를": 4653,
      "담보대출": 4654,
      "어렵다": 4655,
      "충분히": 4656,
      "크래프톤": 4657,
      "강력한": 4658,
      "파이낸셜뉴스": 4659,
      "15일": 4660,
      "140": 4661,
      "88": 4662,
      "EU": 4663,
      "ck": 4664,
      "강제": 4665,
      "개장": 4666,
      "관세": 4667,
      "교체": 4668,
      "금액은": 4669,
      "기계": 4670,
      "눈에": 4671,
      "대의": 4672,
      "도쿠라": 4673,
      "무선": 4674,
      "무인": 4675,
      "박사": 4676,
      "설문": 4677,
      "수용": 4678,
      "스럽": 4679,
      "스페이스": 4680,
      "신약": 4681,
      "악재": 4682,
      "업을": 4683,
      "었는데": 4684,
      "올린": 4685,
      "유전자": 4686,
      "장의": 4687,
      "저장": 4688,
      "점차": 4689,
      "조사를": 4690,
      "중간": 4691,
      "진을": 4692,
      "집을": 4693,
      "창립": 4694,
      "파운드": 4695,
      "포장": 4696,
      "폭락": 4697,
      "한계": 4698,
      "행복": 4699,
      "허가": 4700,
      "20일": 4701,
      "2012": 4702,
      "기업과": 4703,
      "억원의": 4704,
      "경제인": 4705,
      "진행했다": 4706,
      "기관은": 4707,
      "환경부": 4708,
      "있어서": 4709,
      "정도로": 4710,
      "모습을": 4711,
      "인터뷰": 4712,
      "노력하겠다": 4713,
      "줄어든": 4714,
      "CJ제일제": 4715,
      "대표이사": 4716,
      "스티벌": 4717,
      "여파로": 4718,
      "아마존": 4719,
      "양자암호통신": 4720,
      "엔터테인먼트": 4721,
      "퇴직연금": 4722,
      "2011년": 4723,
      "CJ제일제당": 4724,
      "1회": 4725,
      "21일": 4726,
      "AP": 4727,
      "TO": 4728,
      "고양": 4729,
      "관을": 4730,
      "구역": 4731,
      "긴급": 4732,
      "나설": 4733,
      "내외": 4734,
      "높여": 4735,
      "늘려": 4736,
      "더스": 4737,
      "도약": 4738,
      "도착": 4739,
      "든요": 4740,
      "들여": 4741,
      "디션": 4742,
      "로보": 4743,
      "마그": 4744,
      "반등": 4745,
      "브라": 4746,
      "실리": 4747,
      "이처럼": 4748,
      "임을": 4749,
      "입장을": 4750,
      "줄이": 4751,
      "초반": 4752,
      "컨소시": 4753,
      "콜라": 4754,
      "키우": 4755,
      "토레스": 4756,
      "트리": 4757,
      "한층": 4758,
      "해상": 4759,
      "히는": 4760,
      "힌다": 4761,
      "기술력을": 4762,
      "198": 4763,
      "가격에": 4764,
      "데이터센터": 4765,
      "규모다": 4766,
      "하나로": 4767,
      "늘어날": 4768,
      "제도를": 4769,
      "부회장이": 4770,
      "협의회": 4771,
      "그렇게": 4772,
      "하려는": 4773,
      "차이가": 4774,
      "나오고": 4775,
      "국토교통부": 4776,
      "폐기물": 4777,
      "피트니스": 4778,
      "최악의": 4779,
      "5대": 4780,
      "가져": 4781,
      "가지고": 4782,
      "가이드": 4783,
      "개통": 4784,
      "거든요": 4785,
      "건으로": 4786,
      "공업": 4787,
      "구간": 4788,
      "귀농": 4789,
      "기판": 4790,
      "높이는": 4791,
      "단가": 4792,
      "돌입": 4793,
      "로서": 4794,
      "리의": 4795,
      "반복": 4796,
      "보일": 4797,
      "북한": 4798,
      "비가": 4799,
      "스러": 4800,
      "스스로": 4801,
      "시중": 4802,
      "시켜": 4803,
      "신혼": 4804,
      "에프": 4805,
      "웠다": 4806,
      "위메이": 4807,
      "의원": 4808,
      "이지": 4809,
      "있던": 4810,
      "자리를": 4811,
      "재배": 4812,
      "전담": 4813,
      "종가": 4814,
      "중개": 4815,
      "집행": 4816,
      "착수": 4817,
      "착용": 4818,
      "친구": 4819,
      "폐지": 4820,
      "해수": 4821,
      "했기": 4822,
      "화해": 4823,
      "국내에서": 4824,
      "경제부총리": 4825,
      "산업을": 4826,
      "운영하고": 4827,
      "기간을": 4828,
      "만원으로": 4829,
      "문제는": 4830,
      "KB국민": 4831,
      "피해를": 4832,
      "파트너십": 4833,
      "부총리는": 4834,
      "누구나": 4835,
      "화장품": 4836,
      "컨소시엄": 4837,
      "97": 4838,
      "ce": 4839,
      "un": 4840,
      "경상": 4841,
      "공고": 4842,
      "극복": 4843,
      "기의": 4844,
      "김치": 4845,
      "닷컴": 4846,
      "대우": 4847,
      "대금리": 4848,
      "로는": 4849,
      "마음": 4850,
      "머니": 4851,
      "면역": 4852,
      "미니": 4853,
      "받았": 4854,
      "밝힌": 4855,
      "보드": 4856,
      "부여": 4857,
      "속에서": 4858,
      "앱을": 4859,
      "열어": 4860,
      "오브": 4861,
      "온도": 4862,
      "이래": 4863,
      "일은": 4864,
      "임시": 4865,
      "입주": 4866,
      "작성": 4867,
      "장소": 4868,
      "점포": 4869,
      "제대로": 4870,
      "종사": 4871,
      "중기": 4872,
      "질문": 4873,
      "충청": 4874,
      "캐시": 4875,
      "특허": 4876,
      "면서도": 4877,
      "물가가": 4878,
      "관련된": 4879,
      "기존의": 4880,
      "기대하고": 4881,
      "카카오톡": 4882,
      "카카오게임즈": 4883,
      "수익성": 4884,
      "발전을": 4885,
      "5년간": 4886,
      "중요하다": 4887,
      "본격화": 4888,
      "협의체": 4889,
      "ing": 4890,
      "2030년까지": 4891,
      "업무협약을": 4892,
      "불가피": 4893,
      "주담대": 4894,
      "53": 4895,
      "8000": 4896,
      "BA": 4897,
      "OLED": 4898,
      "PL": 4899,
      "감지": 4900,
      "갖추": 4901,
      "거듭": 4902,
      "걸쳐": 4903,
      "고가": 4904,
      "곳에": 4905,
      "굉장": 4906,
      "그때": 4907,
      "납품": 4908,
      "년간": 4909,
      "다소": 4910,
      "당첨": 4911,
      "당초": 4912,
      "동력": 4913,
      "로지": 4914,
      "명에": 4915,
      "모색": 4916,
      "법률": 4917,
      "불법": 4918,
      "불편": 4919,
      "블룸": 4920,
      "빌딩": 4921,
      "선제": 4922,
      "성수": 4923,
      "수리": 4924,
      "수여": 4925,
      "식약": 4926,
      "신동": 4927,
      "아니다": 4928,
      "어나": 4929,
      "어도": 4930,
      "원료": 4931,
      "원리": 4932,
      "율은": 4933,
      "융자": 4934,
      "음성": 4935,
      "이프랜드": 4936,
      "정유": 4937,
      "체감": 4938,
      "최대한": 4939,
      "컬렉": 4940,
      "페스티벌": 4941,
      "플래": 4942,
      "허가를": 4943,
      "서울청사에서": 4944,
      "된다는": 4945,
      "산업계": 4946,
      "가능해": 4947,
      "올해는": 4948,
      "진행한": 4949,
      "확대하고": 4950,
      "상품으로": 4951,
      "매출을": 4952,
      "강화를": 4953,
      "분석이다": 4954,
      "센터에서": 4955,
      "보고서를": 4956,
      "삼성전자가": 4957,
      "카카오모빌리티": 4958,
      "전국경제인": 4959,
      "반영해": 4960,
      "기념촬영을": 4961,
      "IPTV": 4962,
      "한일재계": 4963,
      "최소화": 4964,
      "형태로": 4965,
      "증정한다": 4966,
      "패키지": 4967,
      "연방준비": 4968,
      "비슷한": 4969,
      "당부했다": 4970,
      "얼마나": 4971,
      "온실가스": 4972,
      "4시": 4973,
      "69": 4974,
      "6만": 4975,
      "8천": 4976,
      "KDI": 4977,
      "가중": 4978,
      "경북": 4979,
      "공헌": 4980,
      "교환": 4981,
      "금속": 4982,
      "까요": 4983,
      "내놨": 4984,
      "네오": 4985,
      "농산물": 4986,
      "달간": 4987,
      "돌려": 4988,
      "동의": 4989,
      "론칭": 4990,
      "리터": 4991,
      "막걸": 4992,
      "무상": 4993,
      "미치는": 4994,
      "바닥": 4995,
      "복구": 4996,
      "봐야": 4997,
      "비는": 4998,
      "선풍": 4999,
      "시너지": 5000,
      "실장은": 5001,
      "알뜰": 5002,
      "업황": 5003,
      "었지만": 5004,
      "예를": 5005,
      "이로": 5006,
      "이들이": 5007,
      "작은": 5008,
      "주말": 5009,
      "주인": 5010,
      "질병": 5011,
      "찾는": 5012,
      "최선을": 5013,
      "쿠팡": 5014,
      "택시": 5015,
      "페셜": 5016,
      "평양": 5017,
      "상승한": 5018,
      "사진제공": 5019,
      "증가할": 5020,
      "공급을": 5021,
      "영향이": 5022,
      "발생한": 5023,
      "내용의": 5024,
      "어려워": 5025,
      "배터리를": 5026,
      "모습이다": 5027,
      "쇼핑몰": 5028,
      "본부장은": 5029,
      "LG유플러스는": 5030,
      "방법을": 5031,
      "가능성도": 5032,
      "하려면": 5033,
      "제외한": 5034,
      "기회가": 5035,
      "이른바": 5036,
      "시가총": 5037,
      "나아가": 5038,
      "ENM": 5039,
      "인플루": 5040,
      "불구하고": 5041,
      "신혼부부": 5042,
      "굉장히": 5043,
      "식약처": 5044,
      "1명": 5045,
      "2억": 5046,
      "4대": 5047,
      "73": 5048,
      "KIS": 5049,
      "고금리": 5050,
      "길을": 5051,
      "나눠": 5052,
      "남미": 5053,
      "내역": 5054,
      "냉면": 5055,
      "노벨": 5056,
      "높이고": 5057,
      "대환": 5058,
      "됐지만": 5059,
      "머지": 5060,
      "메인": 5061,
      "민감": 5062,
      "민생": 5063,
      "받지": 5064,
      "변화를": 5065,
      "부장": 5066,
      "사기": 5067,
      "세는": 5068,
      "실업": 5069,
      "어스": 5070,
      "없을": 5071,
      "없다는": 5072,
      "여성": 5073,
      "예매": 5074,
      "와트": 5075,
      "용품": 5076,
      "운전자": 5077,
      "위기를": 5078,
      "유기": 5079,
      "유니": 5080,
      "유출": 5081,
      "적이고": 5082,
      "정식": 5083,
      "정의": 5084,
      "종을": 5085,
      "증설": 5086,
      "창원": 5087,
      "챌린": 5088,
      "특성": 5089,
      "해주는": 5090,
      "활발": 5091,
      "휴대": 5092,
      "흔들": 5093,
      "에서의": 5094,
      "사업이": 5095,
      "10만": 5096,
      "정부와": 5097,
      "정부서울청사에서": 5098,
      "1일까지": 5099,
      "시간을": 5100,
      "업계는": 5101,
      "지속될": 5102,
      "이날부터": 5103,
      "규제를": 5104,
      "아이디어": 5105,
      "하나의": 5106,
      "공개했다": 5107,
      "애플은": 5108,
      "마이너": 5109,
      "마이크론": 5110,
      "푸드테크": 5111,
      "주장했다": 5112,
      "비상경제": 5113,
      "DSR": 5114,
      "이재용": 5115,
      "민주당": 5116,
      "고등과학": 5117,
      "확진자": 5118,
      "프린스턴": 5119,
      "컴퓨터": 5120,
      "세미나": 5121,
      "82": 5122,
      "83": 5123,
      "8개": 5124,
      "CO": 5125,
      "ER": 5126,
      "Fed": 5127,
      "QS": 5128,
      "ve": 5129,
      "게시": 5130,
      "겼다": 5131,
      "구분": 5132,
      "국정": 5133,
      "국책": 5134,
      "극재": 5135,
      "김영": 5136,
      "녹색": 5137,
      "리면서": 5138,
      "못하고": 5139,
      "발견": 5140,
      "발급": 5141,
      "배틀": 5142,
      "변호": 5143,
      "본사": 5144,
      "선발": 5145,
      "수혜": 5146,
      "숙박": 5147,
      "식당": 5148,
      "신제품": 5149,
      "안마": 5150,
      "연령": 5151,
      "원한": 5152,
      "유료": 5153,
      "임무": 5154,
      "잠재": 5155,
      "장착": 5156,
      "전일": 5157,
      "중장기": 5158,
      "충족": 5159,
      "치킨": 5160,
      "카테": 5161,
      "태그": 5162,
      "투기": 5163,
      "팝업": 5164,
      "프레": 5165,
      "함에": 5166,
      "협상": 5167,
      "화로": 5168,
      "회선": 5169,
      "사업체": 5170,
      "된다고": 5171,
      "제공해": 5172,
      "지원하고": 5173,
      "이어지고": 5174,
      "고객들이": 5175,
      "이상으로": 5176,
      "진행된": 5177,
      "진행됐다": 5178,
      "진행한다고": 5179,
      "상품의": 5180,
      "제품의": 5181,
      "사용하는": 5182,
      "생산라인": 5183,
      "국제수학": 5184,
      "경영진": 5185,
      "만원을": 5186,
      "강화해": 5187,
      "바이든": 5188,
      "SKT": 5189,
      "일본의": 5190,
      "구축을": 5191,
      "대학원": 5192,
      "선보인": 5193,
      "현장에서": 5194,
      "신용대출": 5195,
      "채널을": 5196,
      "자료를": 5197,
      "담보비율": 5198,
      "메이션": 5199,
      "가까운": 5200,
      "벤처기업": 5201,
      "쌍용차": 5202,
      "전해졌다": 5203,
      "계열사": 5204,
      "연구팀은": 5205,
      "배럴당": 5206,
      "퍼런스": 5207,
      "멤버십": 5208,
      "국제수학연맹": 5209,
      "1인": 5210,
      "43": 5211,
      "76": 5212,
      "CI": 5213,
      "EQS": 5214,
      "OP": 5215,
      "PS": 5216,
      "US": 5217,
      "li": 5218,
      "ra": 5219,
      "가맹": 5220,
      "개념": 5221,
      "검찰": 5222,
      "겪고": 5223,
      "기고": 5224,
      "기울": 5225,
      "꼽힌다": 5226,
      "낙찰": 5227,
      "달걀": 5228,
      "도에": 5229,
      "도와": 5230,
      "동구": 5231,
      "려는": 5232,
      "복잡": 5233,
      "붕괴": 5234,
      "상하이": 5235,
      "세금": 5236,
      "세입": 5237,
      "신종": 5238,
      "쏘카": 5239,
      "양파": 5240,
      "외에": 5241,
      "용량": 5242,
      "원과": 5243,
      "위협": 5244,
      "이같은": 5245,
      "전선": 5246,
      "주일": 5247,
      "지노": 5248,
      "지켜": 5249,
      "질을": 5250,
      "췄다": 5251,
      "크리스": 5252,
      "토론": 5253,
      "토스": 5254,
      "트위": 5255,
      "티몬": 5256,
      "호반": 5257,
      "화에": 5258,
      "흡수": 5259,
      "투자에": 5260,
      "금융위기": 5261,
      "기술력": 5262,
      "이어서": 5263,
      "상승을": 5264,
      "되는데": 5265,
      "상품은": 5266,
      "물가상승": 5267,
      "운영한다": 5268,
      "수출이": 5269,
      "인상에": 5270,
      "우려를": 5271,
      "주택담보대출": 5272,
      "13년": 5273,
      "전환을": 5274,
      "직원들이": 5275,
      "위원회는": 5276,
      "모델을": 5277,
      "24시간": 5278,
      "신청을": 5279,
      "건강기능": 5280,
      "지금까지": 5281,
      "기념해": 5282,
      "특별한": 5283,
      "환율이": 5284,
      "수수료를": 5285,
      "협업을": 5286,
      "지상국": 5287,
      "자세한": 5288,
      "삼성SDI": 5289,
      "저축은행": 5290,
      "4호기": 5291,
      "인플루언": 5292,
      "04": 5293,
      "3D": 5294,
      "74": 5295,
      "LH": 5296,
      "MMO": 5297,
      "거운": 5298,
      "것처럼": 5299,
      "곳은": 5300,
      "년대": 5301,
      "레벨": 5302,
      "마찬": 5303,
      "멘트": 5304,
      "명품": 5305,
      "못한": 5306,
      "미리": 5307,
      "발주": 5308,
      "부상": 5309,
      "비아": 5310,
      "샌드": 5311,
      "서버": 5312,
      "서초": 5313,
      "선포": 5314,
      "스위": 5315,
      "시내": 5316,
      "시티": 5317,
      "언제": 5318,
      "이내": 5319,
      "이은": 5320,
      "인건": 5321,
      "자주": 5322,
      "장에서": 5323,
      "재판": 5324,
      "진료": 5325,
      "추구": 5326,
      "치열": 5327,
      "클럽": 5328,
      "타이": 5329,
      "통제": 5330,
      "티빙": 5331,
      "풀어": 5332,
      "프라이": 5333,
      "홈쇼핑": 5334,
      "화재": 5335,
      "흥행": 5336,
      "대표가": 5337,
      "기준을": 5338,
      "기준금리를": 5339,
      "확대하는": 5340,
      "하락세를": 5341,
      "기관과": 5342,
      "기관으로": 5343,
      "기록해": 5344,
      "활용하는": 5345,
      "소비자들의": 5346,
      "기간이": 5347,
      "업체가": 5348,
      "추진한다": 5349,
      "브랜드를": 5350,
      "교육을": 5351,
      "선정됐다": 5352,
      "결정을": 5353,
      "결정했다": 5354,
      "장비를": 5355,
      "중앙은행": 5356,
      "러시아의": 5357,
      "22일": 5358,
      "게이밍": 5359,
      "이유는": 5360,
      "오르고": 5361,
      "임대주택": 5362,
      "작품을": 5363,
      "과기정통부는": 5364,
      "금감원은": 5365,
      "건강기능식품": 5366,
      "2개월": 5367,
      "CF": 5368,
      "SUV": 5369,
      "UAM": 5370,
      "me": 5371,
      "고통": 5372,
      "권에": 5373,
      "기와": 5374,
      "노선": 5375,
      "농림": 5376,
      "놓고": 5377,
      "다하겠다": 5378,
      "단을": 5379,
      "달아": 5380,
      "답했다": 5381,
      "들로": 5382,
      "맥스": 5383,
      "먼지": 5384,
      "메모": 5385,
      "보입니다": 5386,
      "사건": 5387,
      "사들이": 5388,
      "소송": 5389,
      "수기": 5390,
      "엑스": 5391,
      "올렸다": 5392,
      "유력": 5393,
      "유망": 5394,
      "일으": 5395,
      "좋아": 5396,
      "줄여": 5397,
      "차원의": 5398,
      "촉진": 5399,
      "최휘": 5400,
      "충격": 5401,
      "토대로": 5402,
      "폭으로": 5403,
      "표시": 5404,
      "한도": 5405,
      "헤지": 5406,
      "회전": 5407,
      "훈련": 5408,
      "산업부": 5409,
      "이어갈": 5410,
      "이상이": 5411,
      "상품에": 5412,
      "증가하고": 5413,
      "판매하는": 5414,
      "분야에": 5415,
      "주요국": 5416,
      "참여해": 5417,
      "자산을": 5418,
      "마련했다": 5419,
      "떨어져": 5420,
      "수익률": 5421,
      "어려울": 5422,
      "논의했다": 5423,
      "상승률은": 5424,
      "변동성이": 5425,
      "본부장": 5426,
      "비교하면": 5427,
      "작업을": 5428,
      "왼쪽부터": 5429,
      "영업이익은": 5430,
      "보도했다": 5431,
      "정확한": 5432,
      "불확실성이": 5433,
      "이탈리아": 5434,
      "사카즈": 5435,
      "노벨상": 5436,
      "트위터": 5437,
      "마찬가지": 5438,
      "3배": 5439,
      "4000": 5440,
      "61": 5441,
      "CS": 5442,
      "MC": 5443,
      "PF": 5444,
      "강도": 5445,
      "고수": 5446,
      "고요": 5447,
      "국제공": 5448,
      "내수": 5449,
      "냉장": 5450,
      "단위": 5451,
      "도움을": 5452,
      "동에": 5453,
      "딜링": 5454,
      "리바": 5455,
      "만한": 5456,
      "많았다": 5457,
      "메시": 5458,
      "멘토": 5459,
      "명령": 5460,
      "못하는": 5461,
      "미술": 5462,
      "번에": 5463,
      "보기": 5464,
      "보완": 5465,
      "사망": 5466,
      "사모": 5467,
      "선거": 5468,
      "성적": 5469,
      "순매수": 5470,
      "순매도": 5471,
      "스카이": 5472,
      "알아": 5473,
      "야놀": 5474,
      "약세": 5475,
      "이온": 5476,
      "이끌어": 5477,
      "입증": 5478,
      "자문": 5479,
      "자치": 5480,
      "자들의": 5481,
      "정규": 5482,
      "정한": 5483,
      "제에": 5484,
      "조언": 5485,
      "주체": 5486,
      "지불": 5487,
      "초등": 5488,
      "캠퍼": 5489,
      "테일": 5490,
      "텍사": 5491,
      "퍼즐": 5492,
      "한국형": 5493,
      "기술이": 5494,
      "억원에": 5495,
      "정보기술": 5496,
      "판매가": 5497,
      "지역을": 5498,
      "삼성증권": 5499,
      "정책에": 5500,
      "생산하는": 5501,
      "소비자들이": 5502,
      "협력해": 5503,
      "참여하는": 5504,
      "우려로": 5505,
      "100만원": 5506,
      "분석이": 5507,
      "사회공헌": 5508,
      "삼성전자의": 5509,
      "개인의": 5510,
      "사이언스": 5511,
      "미래에": 5512,
      "유가증권": 5513,
      "구매할": 5514,
      "가입자": 5515,
      "노동조합": 5516,
      "LG전자는": 5517,
      "성능검증": 5518,
      "정기예금": 5519,
      "사전에": 5520,
      "상용직": 5521,
      "NH투자증권": 5522,
      "ation": 5523,
      "전장보다": 5524,
      "유사한": 5525,
      "GWh": 5526,
      "SK하이닉스": 5527,
      "캐피탈": 5528,
      "2012년": 5529,
      "MMORPG": 5530,
      "딜링룸": 5531,
      "3조": 5532,
      "6천": 5533,
      "7개": 5534,
      "8개월": 5535,
      "EV": 5536,
      "Io": 5537,
      "KS": 5538,
      "TF": 5539,
      "ri": 5540,
      "경찰": 5541,
      "계산": 5542,
      "곳을": 5543,
      "권고": 5544,
      "기한": 5545,
      "냉동": 5546,
      "동아": 5547,
      "동을": 5548,
      "됐고": 5549,
      "됐던": 5550,
      "랜섬": 5551,
      "마사카즈": 5552,
      "만이": 5553,
      "매월": 5554,
      "모드": 5555,
      "모양": 5556,
      "무신": 5557,
      "바람": 5558,
      "부를": 5559,
      "부의": 5560,
      "분이": 5561,
      "브로드": 5562,
      "사라": 5563,
      "서구": 5564,
      "선임": 5565,
      "셀러": 5566,
      "안심": 5567,
      "양사는": 5568,
      "에너": 5569,
      "원까지": 5570,
      "위니": 5571,
      "이외에도": 5572,
      "인접": 5573,
      "입점": 5574,
      "적금": 5575,
      "전투": 5576,
      "주최": 5577,
      "줄일": 5578,
      "중남미": 5579,
      "체육": 5580,
      "총리": 5581,
      "축산": 5582,
      "침공": 5583,
      "팬텀": 5584,
      "후속": 5585,
      "으로도": 5586,
      "2010년": 5587,
      "서울의": 5588,
      "정부에서": 5589,
      "개발하고": 5590,
      "경제가": 5591,
      "경제에": 5592,
      "확대에": 5593,
      "대비해": 5594,
      "공급하는": 5595,
      "따라서": 5596,
      "인상을": 5597,
      "우리은행": 5598,
      "지속가능": 5599,
      "100만": 5600,
      "업체인": 5601,
      "평가했다": 5602,
      "센터를": 5603,
      "적용해": 5604,
      "적용되는": 5605,
      "카카오는": 5606,
      "안정화": 5607,
      "자체가": 5608,
      "케이블": 5609,
      "사실을": 5610,
      "가스요금": 5611,
      "대형마트": 5612,
      "LG유플러스가": 5613,
      "차지했다": 5614,
      "설립된": 5615,
      "생태계를": 5616,
      "필즈상을": 5617,
      "사항을": 5618,
      "넷플릭스": 5619,
      "DTx": 5620,
      "실리콘": 5621,
      "원리금": 5622,
      "연방준비제도": 5623,
      "IoT": 5624,
      "06": 5625,
      "14일": 5626,
      "2회": 5627,
      "IN": 5628,
      "IR": 5629,
      "In": 5630,
      "ay": 5631,
      "el": 5632,
      "갈수록": 5633,
      "굿즈": 5634,
      "금요일": 5635,
      "농가": 5636,
      "농촌": 5637,
      "뉴얼": 5638,
      "는지": 5639,
      "단일": 5640,
      "단축": 5641,
      "담긴": 5642,
      "담아": 5643,
      "대장": 5644,
      "돼야": 5645,
      "랜더스": 5646,
      "루나": 5647,
      "리움": 5648,
      "리포트": 5649,
      "마을": 5650,
      "말씀": 5651,
      "맞이": 5652,
      "매니": 5653,
      "메가": 5654,
      "목적으로": 5655,
      "물량이": 5656,
      "밸류": 5657,
      "법정": 5658,
      "상인": 5659,
      "상향": 5660,
      "서류": 5661,
      "순이익": 5662,
      "시킨": 5663,
      "신경": 5664,
      "실내": 5665,
      "알파": 5666,
      "어링": 5667,
      "억제": 5668,
      "에보": 5669,
      "연세대": 5670,
      "예술": 5671,
      "올리는": 5672,
      "유저": 5673,
      "음에도": 5674,
      "이중": 5675,
      "이스타": 5676,
      "입어": 5677,
      "자격": 5678,
      "자에": 5679,
      "적절": 5680,
      "적합": 5681,
      "점이다": 5682,
      "차원에서": 5683,
      "추세": 5684,
      "출신": 5685,
      "취재": 5686,
      "캠프": 5687,
      "컬러": 5688,
      "퀘어": 5689,
      "태평양": 5690,
      "후원": 5691,
      "힘들": 5692,
      "사업으로": 5693,
      "개발해": 5694,
      "이어가고": 5695,
      "판매를": 5696,
      "지역에서": 5697,
      "위원은": 5698,
      "우리가": 5699,
      "코로나바이러스": 5700,
      "수요를": 5701,
      "플랫폼으로": 5702,
      "출시를": 5703,
      "기존에": 5704,
      "예상되는": 5705,
      "나타냈다": 5706,
      "적용한": 5707,
      "코로나19로": 5708,
      "활동에": 5709,
      "발생할": 5710,
      "내용은": 5711,
      "3년간": 5712,
      "방향으로": 5713,
      "지금은": 5714,
      "번째로": 5715,
      "변동금리": 5716,
      "최저임금": 5717,
      "만들고": 5718,
      "오르는": 5719,
      "대책을": 5720,
      "기여할": 5721,
      "캠페인을": 5722,
      "합리적인": 5723,
      "lock": 5724,
      "발언을": 5725,
      "카이스트": 5726,
      "홀딩스": 5727,
      "이종호": 5728,
      "WSJ": 5729,
      "위메이드": 5730,
      "고등과학원": 5731,
      "랜섬웨어": 5732,
      "25일": 5733,
      "5000억원": 5734,
      "7개월": 5735,
      "93": 5736,
      "AT": 5737,
      "NA": 5738,
      "PE": 5739,
      "가루": 5740,
      "간다": 5741,
      "갈아": 5742,
      "강연": 5743,
      "갤럭": 5744,
      "결혼": 5745,
      "골드": 5746,
      "공원": 5747,
      "과세": 5748,
      "관은": 5749,
      "나오는": 5750,
      "농식품": 5751,
      "높일": 5752,
      "능력을": 5753,
      "동영상": 5754,
      "되도록": 5755,
      "드라이": 5756,
      "리며": 5757,
      "마저": 5758,
      "만두": 5759,
      "많았": 5760,
      "맞게": 5761,
      "매주": 5762,
      "못했다": 5763,
      "미세": 5764,
      "받게": 5765,
      "분당": 5766,
      "사장이": 5767,
      "식에": 5768,
      "신탁": 5769,
      "애니": 5770,
      "없다고": 5771,
      "에코": 5772,
      "여명이": 5773,
      "오고": 5774,
      "올려": 5775,
      "우연": 5776,
      "월간": 5777,
      "유전": 5778,
      "인텔": 5779,
      "일시": 5780,
      "임원": 5781,
      "재건축": 5782,
      "적은": 5783,
      "전무": 5784,
      "전주": 5785,
      "점과": 5786,
      "주에": 5787,
      "지향": 5788,
      "채택": 5789,
      "천안": 5790,
      "청정": 5791,
      "체온": 5792,
      "체크": 5793,
      "취향": 5794,
      "치지": 5795,
      "커리": 5796,
      "팀장은": 5797,
      "현행": 5798,
      "00만원": 5799,
      "한다면": 5800,
      "시장과": 5801,
      "투자하는": 5802,
      "금융시장": 5803,
      "진행하는": 5804,
      "사진을": 5805,
      "LG마그": 5806,
      "전망치를": 5807,
      "데이터전문": 5808,
      "관련한": 5809,
      "세계에서": 5810,
      "경기가": 5811,
      "전문기업": 5812,
      "프로모션": 5813,
      "수출입": 5814,
      "참여를": 5815,
      "추진하고": 5816,
      "하반기에": 5817,
      "는데요": 5818,
      "부산엑스포": 5819,
      "실적이": 5820,
      "방식이다": 5821,
      "점검하고": 5822,
      "비용이": 5823,
      "신한은행": 5824,
      "조원을": 5825,
      "2년간": 5826,
      "제시한": 5827,
      "변동성": 5828,
      "자료사진": 5829,
      "상담을": 5830,
      "소개하고": 5831,
      "거래소에": 5832,
      "필요하다는": 5833,
      "SK텔레콤은": 5834,
      "산업통상자원부는": 5835,
      "조달청": 5836,
      "흐름을": 5837,
      "감염증": 5838,
      "측면에서": 5839,
      "오피스텔": 5840,
      "저렴한": 5841,
      "주얼리": 5842,
      "추첨을": 5843,
      "바디프랜드": 5844,
      "직장인": 5845,
      "파운드리": 5846,
      "인플루언서": 5847,
      "텍사스": 5848,
      "16일": 5849,
      "2명": 5850,
      "350": 5851,
      "98": 5852,
      "ON": 5853,
      "RI": 5854,
      "block": 5855,
      "갖춰": 5856,
      "공학": 5857,
      "그라운드": 5858,
      "기온": 5859,
      "길이": 5860,
      "꼽았다": 5861,
      "남부": 5862,
      "내성": 5863,
      "냐는": 5864,
      "노이": 5865,
      "느끼": 5866,
      "다섯": 5867,
      "데스": 5868,
      "드시": 5869,
      "레일": 5870,
      "로구": 5871,
      "로우": 5872,
      "마크": 5873,
      "말한다": 5874,
      "매력": 5875,
      "매체": 5876,
      "멀티": 5877,
      "물량을": 5878,
      "바꾸": 5879,
      "반발": 5880,
      "반드시": 5881,
      "발간": 5882,
      "범위": 5883,
      "북도": 5884,
      "사출": 5885,
      "샤오미": 5886,
      "세권": 5887,
      "소설": 5888,
      "속도가": 5889,
      "수면": 5890,
      "수정": 5891,
      "스파": 5892,
      "시공": 5893,
      "실패": 5894,
      "쏟아": 5895,
      "씨티": 5896,
      "양호": 5897,
      "열었다": 5898,
      "용산": 5899,
      "위주로": 5900,
      "유연": 5901,
      "이랜드": 5902,
      "이사회": 5903,
      "잇따라": 5904,
      "장에": 5905,
      "적이": 5906,
      "전원": 5907,
      "정밀": 5908,
      "주주가": 5909,
      "증명": 5910,
      "차트": 5911,
      "추산": 5912,
      "출처": 5913,
      "커졌다": 5914,
      "커지면서": 5915,
      "클러스": 5916,
      "토큰": 5917,
      "특례": 5918,
      "페어": 5919,
      "항목": 5920,
      "해온": 5921,
      "한국항공우주": 5922,
      "기술과": 5923,
      "103억": 5924,
      "지원하기": 5925,
      "고객은": 5926,
      "진행될": 5927,
      "하락할": 5928,
      "이용한": 5929,
      "세계적으로": 5930,
      "대상은": 5931,
      "지속되고": 5932,
      "11개": 5933,
      "출시한": 5934,
      "13일": 5935,
      "전략적": 5936,
      "구축해": 5937,
      "구축하고": 5938,
      "장관과": 5939,
      "점검을": 5940,
      "부문의": 5941,
      "투자자들은": 5942,
      "성공적으로": 5943,
      "현장의": 5944,
      "신용융자": 5945,
      "이달부터": 5946,
      "지적이": 5947,
      "거리두": 5948,
      "소개했다": 5949,
      "표준화": 5950,
      "입장이다": 5951,
      "사례가": 5952,
      "제3자": 5953,
      "제3차": 5954,
      "여건이": 5955,
      "모터쇼": 5956,
      "이름을": 5957,
      "긍정적인": 5958,
      "지식재산": 5959,
      "노하우를": 5960,
      "일환으로": 5961,
      "챌린지": 5962,
      "비상경제장관": 5963,
      "메모리": 5964,
      "갤럭시": 5965,
      "클러스터": 5966,
      "02": 5967,
      "3000억원": 5968,
      "51": 5969,
      "6억": 5970,
      "9개": 5971,
      "Co": 5972,
      "VR": 5973,
      "he": 5974,
      "mm": 5975,
      "of": 5976,
      "yn": 5977,
      "걱정": 5978,
      "고급": 5979,
      "광역": 5980,
      "국방": 5981,
      "그럼": 5982,
      "그레이": 5983,
      "금이": 5984,
      "나올": 5985,
      "내렸다": 5986,
      "다각": 5987,
      "단백": 5988,
      "달한다": 5989,
      "대거": 5990,
      "도심": 5991,
      "동시": 5992,
      "됐으며": 5993,
      "되었다": 5994,
      "됨에": 5995,
      "들었다": 5996,
      "산출": 5997,
      "서부": 5998,
      "선박": 5999,
      "세우": 6000,
      "소를": 6001,
      "손잡고": 6002,
      "순으로": 6003,
      "심리가": 6004,
      "연말": 6005,
      "오일": 6006,
      "요즘": 6007,
      "우승": 6008,
      "의를": 6009,
      "이정": 6010,
      "인용": 6011,
      "자릿": 6012,
      "종로구": 6013,
      "주류": 6014,
      "키로": 6015,
      "표를": 6016,
      "필드": 6017,
      "학술": 6018,
      "한때": 6019,
      "한전": 6020,
      "해저": 6021,
      "해질": 6022,
      "행보": 6023,
      "히고": 6024,
      "한국투자증권": 6025,
      "경제의": 6026,
      "진행되는": 6027,
      "달러에": 6028,
      "판매량이": 6029,
      "지역이": 6030,
      "예정인": 6031,
      "제품에": 6032,
      "프로세": 6033,
      "지속가능한": 6034,
      "대해서도": 6035,
      "출시된": 6036,
      "180": 6037,
      "자산관리": 6038,
      "SK브로드": 6039,
      "예상했다": 6040,
      "사이버": 6041,
      "사이에": 6042,
      "마련됐다": 6043,
      "보험료": 6044,
      "방안도": 6045,
      "미래를": 6046,
      "수익률을": 6047,
      "증시는": 6048,
      "테크노": 6049,
      "테크놀": 6050,
      "KB증권": 6051,
      "수상한": 6052,
      "높아지고": 6053,
      "양자내성": 6054,
      "ISP": 6055,
      "인프라를": 6056,
      "공시했다": 6057,
      "art": 6058,
      "파업에": 6059,
      "GS25": 6060,
      "자이언": 6061,
      "수학자대회": 6062,
      "실질적인": 6063,
      "스러운": 6064,
      "사모펀드": 6065,
      "이스타항공": 6066,
      "24일": 6067,
      "4000억원": 6068,
      "54": 6069,
      "5조": 6070,
      "5억원": 6071,
      "6000": 6072,
      "7천": 6073,
      "P2": 6074,
      "Re": 6075,
      "WTI": 6076,
      "ap": 6077,
      "ct": 6078,
      "ur": 6079,
      "간접": 6080,
      "경계": 6081,
      "과열": 6082,
      "교신": 6083,
      "납부": 6084,
      "단은": 6085,
      "단지는": 6086,
      "달했다": 6087,
      "당일": 6088,
      "링크": 6089,
      "모으": 6090,
      "문의": 6091,
      "문학": 6092,
      "버전": 6093,
      "사육": 6094,
      "산학": 6095,
      "선사": 6096,
      "세요": 6097,
      "속에": 6098,
      "승진": 6099,
      "시의": 6100,
      "시멘트": 6101,
      "실장": 6102,
      "안이": 6103,
      "양방향": 6104,
      "어깨": 6105,
      "엔데믹": 6106,
      "올릴": 6107,
      "원격": 6108,
      "원스": 6109,
      "윤종": 6110,
      "음극재": 6111,
      "이사": 6112,
      "인물": 6113,
      "잖아요": 6114,
      "적자가": 6115,
      "전인": 6116,
      "전화": 6117,
      "정신": 6118,
      "제고를": 6119,
      "조사업체": 6120,
      "중대": 6121,
      "중순": 6122,
      "지오": 6123,
      "지키": 6124,
      "착륙": 6125,
      "첫날": 6126,
      "청산": 6127,
      "촉구": 6128,
      "커진": 6129,
      "탓에": 6130,
      "투스": 6131,
      "트라": 6132,
      "퍼니": 6133,
      "하라": 6134,
      "한을": 6135,
      "합작": 6136,
      "해지고": 6137,
      "확립": 6138,
      "히트": 6139,
      "지난주": 6140,
      "서비스는": 6141,
      "개발자": 6142,
      "산업에": 6143,
      "상품과": 6144,
      "증가하는": 6145,
      "겠다고": 6146,
      "판매한다": 6147,
      "대출금리": 6148,
      "최근에는": 6149,
      "제품으로": 6150,
      "공급이": 6151,
      "세계적인": 6152,
      "성장할": 6153,
      "대상을": 6154,
      "그룹이": 6155,
      "업체의": 6156,
      "시작된": 6157,
      "기대감": 6158,
      "SK온": 6159,
      "60대": 6160,
      "중소벤처기업": 6161,
      "반영한": 6162,
      "전년동기": 6163,
      "전체의": 6164,
      "하이브": 6165,
      "투자자들이": 6166,
      "마이데이터": 6167,
      "이뤄질": 6168,
      "위험이": 6169,
      "부가가치": 6170,
      "실시한": 6171,
      "비트코인은": 6172,
      "국토부": 6173,
      "당국은": 6174,
      "상용화": 6175,
      "나서고": 6176,
      "인데요": 6177,
      "뛰어난": 6178,
      "웨이브": 6179,
      "블룸버그": 6180,
      "컬렉션": 6181,
      "내놨다": 6182,
      "양자내성암호": 6183,
      "08": 6184,
      "1호": 6185,
      "2조": 6186,
      "3사": 6187,
      "360": 6188,
      "4개월": 6189,
      "5명": 6190,
      "86": 6191,
      "BN": 6192,
      "BMW": 6193,
      "OS": 6194,
      "격려": 6195,
      "고기": 6196,
      "곳이": 6197,
      "공포": 6198,
      "그만큼": 6199,
      "기타": 6200,
      "긴밀": 6201,
      "김정": 6202,
      "날씨": 6203,
      "났습니다": 6204,
      "내가": 6205,
      "다니": 6206,
      "다면": 6207,
      "도전": 6208,
      "동남": 6209,
      "두산": 6210,
      "로고": 6211,
      "리조": 6212,
      "리튬": 6213,
      "마치": 6214,
      "무게": 6215,
      "무너": 6216,
      "무스": 6217,
      "발대": 6218,
      "베어": 6219,
      "분에": 6220,
      "상속": 6221,
      "상이다": 6222,
      "생성": 6223,
      "소화": 6224,
      "손을": 6225,
      "수에": 6226,
      "시와": 6227,
      "실에서": 6228,
      "쓰는": 6229,
      "알고": 6230,
      "얼굴": 6231,
      "연봉": 6232,
      "영입": 6233,
      "으니": 6234,
      "의지를": 6235,
      "이의": 6236,
      "이틀": 6237,
      "자재": 6238,
      "접목": 6239,
      "정지": 6240,
      "직전": 6241,
      "집값이": 6242,
      "처방": 6243,
      "추후": 6244,
      "충북": 6245,
      "캔디": 6246,
      "테니스": 6247,
      "토레": 6248,
      "토지를": 6249,
      "틱톡": 6250,
      "파워": 6251,
      "판교": 6252,
      "폭은": 6253,
      "합성": 6254,
      "해킹": 6255,
      "화상": 6256,
      "힘입어": 6257,
      "시장조사업체": 6258,
      "투자은행": 6259,
      "30년": 6260,
      "지원에": 6261,
      "확대했다": 6262,
      "지역에": 6263,
      "지역사회": 6264,
      "상황은": 6265,
      "기록했습니다": 6266,
      "환경이": 6267,
      "환경에서": 6268,
      "경우에는": 6269,
      "회사를": 6270,
      "수출은": 6271,
      "대해선": 6272,
      "참여했다": 6273,
      "시작해": 6274,
      "센터는": 6275,
      "경쟁이": 6276,
      "개인이": 6277,
      "유지하고": 6278,
      "구성해": 6279,
      "공장에": 6280,
      "단계로": 6281,
      "구조를": 6282,
      "노력할": 6283,
      "1월부터": 6284,
      "가계부채": 6285,
      "우리나라의": 6286,
      "필요하다고": 6287,
      "네트워크를": 6288,
      "구체적으로": 6289,
      "요청했다": 6290,
      "지하철": 6291,
      "일제히": 6292,
      "편리하게": 6293,
      "이야기": 6294,
      "고정금리": 6295,
      "천연가스": 6296,
      "급격한": 6297,
      "지배구조": 6298,
      "스럽게": 6299,
      "전국경제인연합회": 6300,
      "시가총액": 6301,
      "휴대폰": 6302,
      "배틀그라운드": 6303,
      "미래에셋": 6304,
      "매니저": 6305,
      "애니메이션": 6306,
      "자이언트": 6307,
      "230": 6308,
      "72": 6309,
      "92": 6310,
      "SR": 6311,
      "Wh": 6312,
      "ut": 6313,
      "게재": 6314,
      "고공": 6315,
      "고속": 6316,
      "광역시": 6317,
      "권이": 6318,
      "나머지": 6319,
      "내에서": 6320,
      "대량": 6321,
      "대가를": 6322,
      "도매": 6323,
      "때마다": 6324,
      "뚜렷": 6325,
      "로스": 6326,
      "마진": 6327,
      "망원": 6328,
      "밑으로": 6329,
      "발달": 6330,
      "배치": 6331,
      "벤츠": 6332,
      "보관": 6333,
      "보수": 6334,
      "부와": 6335,
      "부사장": 6336,
      "북구": 6337,
      "비자": 6338,
      "빠져": 6339,
      "사퇴": 6340,
      "상회": 6341,
      "생애": 6342,
      "서머": 6343,
      "선진": 6344,
      "세상": 6345,
      "소환": 6346,
      "송출": 6347,
      "수산물": 6348,
      "스마": 6349,
      "스프": 6350,
      "시대를": 6351,
      "실태": 6352,
      "아토": 6353,
      "어제": 6354,
      "없었다": 6355,
      "웃돌": 6356,
      "유진": 6357,
      "은하": 6358,
      "의류": 6359,
      "이차": 6360,
      "인은": 6361,
      "임명": 6362,
      "입국": 6363,
      "자랑": 6364,
      "재개발": 6365,
      "제너": 6366,
      "주당": 6367,
      "준공": 6368,
      "중계": 6369,
      "지목": 6370,
      "질의": 6371,
      "차원": 6372,
      "출판": 6373,
      "취지": 6374,
      "탈원전": 6375,
      "특성을": 6376,
      "판에": 6377,
      "포기": 6378,
      "한미": 6379,
      "혹은": 6380,
      "화는": 6381,
      "회에서": 6382,
      "한국을": 6383,
      "금융기관": 6384,
      "서비스에": 6385,
      "국내에": 6386,
      "경제연구원": 6387,
      "LG화학": 6388,
      "들어가": 6389,
      "위원장은": 6390,
      "회의는": 6391,
      "수준에": 6392,
      "안전처": 6393,
      "분석해": 6394,
      "1년간": 6395,
      "사이클": 6396,
      "롯데온": 6397,
      "그러니까": 6398,
      "KB금융": 6399,
      "30일까지": 6400,
      "준비하고": 6401,
      "진단했다": 6402,
      "고려하면": 6403,
      "대통령은": 6404,
      "전용면적": 6405,
      "변화에": 6406,
      "골프공": 6407,
      "NH농협": 6408,
      "에이치": 6409,
      "자유롭게": 6410,
      "현황을": 6411,
      "별도의": 6412,
      "2300선": 6413,
      "개인정보보호": 6414,
      "IMU": 6415,
      "News": 6416,
      "2025년까지": 6417,
      "무역수지는": 6418,
      "건전성": 6419,
      "동일한": 6420,
      "RE100": 6421,
      "프린스턴대": 6422,
      "안마의": 6423,
      "인건비": 6424,
      "국제공항": 6425,
      "1대": 6426,
      "3시": 6427,
      "450": 6428,
      "9000": 6429,
      "GM": 6430,
      "MI": 6431,
      "Sa": 6432,
      "VI": 6433,
      "가게": 6434,
      "감면": 6435,
      "강세": 6436,
      "개를": 6437,
      "결승": 6438,
      "계기가": 6439,
      "관점에서": 6440,
      "국면": 6441,
      "권역": 6442,
      "귀촌": 6443,
      "급감": 6444,
      "기억": 6445,
      "김주": 6446,
      "꼽히는": 6447,
      "끌고": 6448,
      "낮춰": 6449,
      "내비": 6450,
      "넥스트": 6451,
      "녹십": 6452,
      "논문": 6453,
      "다르": 6454,
      "도쿄": 6455,
      "두창": 6456,
      "마무스": 6457,
      "말을": 6458,
      "먹거리": 6459,
      "목을": 6460,
      "못해": 6461,
      "무원": 6462,
      "미르": 6463,
      "미칠": 6464,
      "발을": 6465,
      "밝혀": 6466,
      "빅스텝": 6467,
      "사물": 6468,
      "사측": 6469,
      "산정": 6470,
      "생물": 6471,
      "소매": 6472,
      "스카": 6473,
      "스페셜": 6474,
      "시원한": 6475,
      "신차": 6476,
      "신흥": 6477,
      "실을": 6478,
      "썸머": 6479,
      "아크": 6480,
      "앞세워": 6481,
      "액을": 6482,
      "얻을": 6483,
      "역전": 6484,
      "연은": 6485,
      "연말까지": 6486,
      "예대금리": 6487,
      "오리지": 6488,
      "우마무스": 6489,
      "원통": 6490,
      "원활": 6491,
      "월세": 6492,
      "의원은": 6493,
      "이건": 6494,
      "이니": 6495,
      "인더": 6496,
      "인사이트": 6497,
      "인베스트": 6498,
      "일각": 6499,
      "일괄": 6500,
      "잔액은": 6501,
      "재유행": 6502,
      "적격": 6503,
      "점심": 6504,
      "제는": 6505,
      "제정": 6506,
      "조작": 6507,
      "조찬": 6508,
      "주어": 6509,
      "준수": 6510,
      "찾은": 6511,
      "최우선": 6512,
      "콘서": 6513,
      "키트": 6514,
      "타입": 6515,
      "티지": 6516,
      "팀을": 6517,
      "패스": 6518,
      "패턴": 6519,
      "해운": 6520,
      "해달라": 6521,
      "혔다": 6522,
      "형을": 6523,
      "화한": 6524,
      "확률": 6525,
      "훨씬": 6526,
      "휴먼": 6527,
      "00억원": 6528,
      "이라도": 6529,
      "한국전력": 6530,
      "금융사": 6531,
      "10대": 6532,
      "대한상의": 6533,
      "가능할": 6534,
      "상승이": 6535,
      "거래되고": 6536,
      "고객들의": 6537,
      "증가세를": 6538,
      "판매량": 6539,
      "판매량은": 6540,
      "전망도": 6541,
      "예정입니다": 6542,
      "공급하고": 6543,
      "전문성을": 6544,
      "운영을": 6545,
      "회장의": 6546,
      "수요에": 6547,
      "11조": 6548,
      "국제선": 6549,
      "기간에": 6550,
      "발표할": 6551,
      "회의소": 6552,
      "업체들이": 6553,
      "개선에": 6554,
      "하면서도": 6555,
      "하반기에도": 6556,
      "주가를": 6557,
      "자동으로": 6558,
      "보험사": 6559,
      "방안에": 6560,
      "대응을": 6561,
      "유지할": 6562,
      "조사됐다": 6563,
      "구성된다": 6564,
      "위원회를": 6565,
      "신한금융투자": 6566,
      "가상화폐": 6567,
      "차량을": 6568,
      "도입을": 6569,
      "비율은": 6570,
      "자리에서": 6571,
      "노조가": 6572,
      "책임자": 6573,
      "오르면서": 6574,
      "and": 6575,
      "상당의": 6576,
      "상공회의소": 6577,
      "관측이": 6578,
      "있는데요": 6579,
      "부족한": 6580,
      "실시간으로": 6581,
      "요인으로": 6582,
      "매입임대주택": 6583,
      "신호를": 6584,
      "늘어나고": 6585,
      "스트리밍": 6586,
      "IBK": 6587,
      "과도한": 6588,
      "무엇보다": 6589,
      "심각한": 6590,
      "금융감독원장이": 6591,
      "CBDC": 6592,
      "마이너스": 6593,
      "CFD": 6594,
      "성능검증위성": 6595,
      "yna": 6596,
      "제너럴": 6597,
      "News1": 6598,
      "원통형": 6599,
      "26일": 6600,
      "89": 6601,
      "8만": 6602,
      "91": 6603,
      "Mo": 6604,
      "bi": 6605,
      "et": 6606,
      "kg": 6607,
      "강릉": 6608,
      "강한": 6609,
      "갤러": 6610,
      "건수는": 6611,
      "겪는": 6612,
      "공사가": 6613,
      "높았다": 6614,
      "높이기": 6615,
      "느껴": 6616,
      "당연": 6617,
      "더니": 6618,
      "데미": 6619,
      "독점": 6620,
      "동작": 6621,
      "동국제": 6622,
      "동남아": 6623,
      "듣고": 6624,
      "뚜껑": 6625,
      "렌즈": 6626,
      "렌탈": 6627,
      "로그": 6628,
      "리기": 6629,
      "맞은": 6630,
      "머스크": 6631,
      "메르": 6632,
      "명시": 6633,
      "문화를": 6634,
      "뮤직": 6635,
      "받침": 6636,
      "배로": 6637,
      "배추": 6638,
      "빨리": 6639,
      "상시": 6640,
      "상대로": 6641,
      "성남": 6642,
      "세일": 6643,
      "시세": 6644,
      "신임": 6645,
      "신축": 6646,
      "신기술": 6647,
      "아끼": 6648,
      "아름": 6649,
      "아무": 6650,
      "어디": 6651,
      "연내": 6652,
      "영웅": 6653,
      "왔습니다": 6654,
      "우대": 6655,
      "운항": 6656,
      "원숭": 6657,
      "위탁": 6658,
      "유예": 6659,
      "유치를": 6660,
      "의사를": 6661,
      "이르": 6662,
      "이커머스": 6663,
      "일주일": 6664,
      "입법": 6665,
      "장과": 6666,
      "장점이": 6667,
      "저가": 6668,
      "전혀": 6669,
      "접어": 6670,
      "제철": 6671,
      "종류": 6672,
      "주와": 6673,
      "즐거": 6674,
      "증대": 6675,
      "증산": 6676,
      "지사": 6677,
      "징후": 6678,
      "창수": 6679,
      "청구": 6680,
      "추락": 6681,
      "축적": 6682,
      "침수": 6683,
      "커버": 6684,
      "컨테이": 6685,
      "컴퍼니": 6686,
      "켰다": 6687,
      "코어": 6688,
      "크레": 6689,
      "트래": 6690,
      "트레이": 6691,
      "포털": 6692,
      "하회": 6693,
      "항암": 6694,
      "호응": 6695,
      "투자로": 6696,
      "투자자가": 6697,
      "한국과학기술": 6698,
      "적으로는": 6699,
      "서비스로": 6700,
      "개발했다": 6701,
      "가능하며": 6702,
      "가격으로": 6703,
      "은행권": 6704,
      "이어지는": 6705,
      "상승세를": 6706,
      "거래대": 6707,
      "2027년": 6708,
      "확대될": 6709,
      "상품인": 6710,
      "물가를": 6711,
      "제품이": 6712,
      "세계수학자대회": 6713,
      "성장이": 6714,
      "기관에": 6715,
      "기록할": 6716,
      "기록하고": 6717,
      "경우는": 6718,
      "50대": 6719,
      "들어서": 6720,
      "현재까지": 6721,
      "안전한": 6722,
      "개선이": 6723,
      "안정적": 6724,
      "안정적으로": 6725,
      "문제로": 6726,
      "늘어났다": 6727,
      "KT가": 6728,
      "식품의약품": 6729,
      "유가가": 6730,
      "모델로": 6731,
      "애플의": 6732,
      "가구를": 6733,
      "ETH": 6734,
      "준비했다": 6735,
      "생활건강": 6736,
      "이뤄진": 6737,
      "조합원": 6738,
      "참가자": 6739,
      "구글과": 6740,
      "구글의": 6741,
      "비교적": 6742,
      "협업해": 6743,
      "정상화": 6744,
      "오프닝": 6745,
      "지능형": 6746,
      "에어컨": 6747,
      "end": 6748,
      "의미가": 6749,
      "프로젝트를": 6750,
      "전반적인": 6751,
      "금감원": 6752,
      "로드맵": 6753,
      "언급했다": 6754,
      "BSI": 6755,
      "플라스틱": 6756,
      "가속화": 6757,
      "GC녹십": 6758,
      "클래스": 6759,
      "기름값": 6760,
      "캐시백": 6761,
      "선제적으로": 6762,
      "캠퍼스": 6763,
      "원스톱": 6764,
      "망원경": 6765,
      "오리지널": 6766,
      "컨테이너": 6767,
      "식품의약품안전처": 6768,
      "11일": 6769,
      "1개월": 6770,
      "31일까지": 6771,
      "4억": 6772,
      "9일": 6773,
      "C는": 6774,
      "FP": 6775,
      "NG": 6776,
      "TS": 6777,
      "같습니다": 6778,
      "개미": 6779,
      "건데": 6780,
      "건에": 6781,
      "겹치": 6782,
      "광석": 6783,
      "교차": 6784,
      "그쳤다": 6785,
      "김민": 6786,
      "느냐": 6787,
      "당뇨": 6788,
      "대성": 6789,
      "대조": 6790,
      "대처": 6791,
      "뒷받침": 6792,
      "등락": 6793,
      "로이터": 6794,
      "리로": 6795,
      "만을": 6796,
      "매립": 6797,
      "명확": 6798,
      "물은": 6799,
      "므로": 6800,
      "발효": 6801,
      "배제": 6802,
      "블리": 6803,
      "빨라": 6804,
      "새정부": 6805,
      "서브": 6806,
      "석학": 6807,
      "선별": 6808,
      "선점": 6809,
      "세운": 6810,
      "식용": 6811,
      "식으로": 6812,
      "아르": 6813,
      "아야": 6814,
      "않으면": 6815,
      "압력": 6816,
      "았던": 6817,
      "약을": 6818,
      "얻고": 6819,
      "없고": 6820,
      "연체": 6821,
      "영창": 6822,
      "원스토어": 6823,
      "이게": 6824,
      "이더": 6825,
      "이례": 6826,
      "작동": 6827,
      "점점": 6828,
      "조차": 6829,
      "즐기는": 6830,
      "지기": 6831,
      "지시": 6832,
      "지질": 6833,
      "책을": 6834,
      "처벌": 6835,
      "카지노": 6836,
      "코딩": 6837,
      "큘럼": 6838,
      "크지": 6839,
      "탄생": 6840,
      "토마": 6841,
      "티드": 6842,
      "풍력": 6843,
      "한데": 6844,
      "한한": 6845,
      "혈액": 6846,
      "화석": 6847,
      "화질": 6848,
      "으로서": 6849,
      "에서만": 6850,
      "한국은": 6851,
      "한국타이어": 6852,
      "10억": 6853,
      "30분": 6854,
      "산업부는": 6855,
      "2021": 6856,
      "진행되고": 6857,
      "계획입니다": 6858,
      "관계를": 6859,
      "관계부처": 6860,
      "예정된": 6861,
      "관리에": 6862,
      "정책이": 6863,
      "환경에": 6864,
      "회사인": 6865,
      "수출액은": 6866,
      "업계가": 6867,
      "설명회": 6868,
      "우리금융": 6869,
      "소비자가": 6870,
      "경영을": 6871,
      "발표를": 6872,
      "분야를": 6873,
      "현재는": 6874,
      "참여한다": 6875,
      "우려도": 6876,
      "강화할": 6877,
      "규제혁신": 6878,
      "5월까지": 6879,
      "40년": 6880,
      "추진해": 6881,
      "적용된다": 6882,
      "17일": 6883,
      "현대자동차": 6884,
      "현대백화점": 6885,
      "23년": 6886,
      "건설은": 6887,
      "안정을": 6888,
      "2009년": 6889,
      "발생했다": 6890,
      "늘어나는": 6891,
      "목표다": 6892,
      "선정해": 6893,
      "공개한": 6894,
      "법인세": 6895,
      "높아진": 6896,
      "공간을": 6897,
      "매수세가": 6898,
      "이노베이": 6899,
      "다음달": 6900,
      "인증을": 6901,
      "취약차주": 6902,
      "만나볼": 6903,
      "성능을": 6904,
      "ang": 6905,
      "나가겠다": 6906,
      "등급을": 6907,
      "전반적으로": 6908,
      "근로자": 6909,
      "시대에": 6910,
      "에스디": 6911,
      "쌍용자동차": 6912,
      "정비사업": 6913,
      "완성차": 6914,
      "강원도": 6915,
      "아이폰14": 6916,
      "목소리를": 6917,
      "가공식품": 6918,
      "아우르는": 6919,
      "이루어": 6920,
      "감안하면": 6921,
      "SSG닷컴": 6922,
      "시중은행": 6923,
      "파트너십을": 6924,
      "무상증": 6925,
      "샌드박스": 6926,
      "커리큘럼": 6927,
      "원숭이": 6928,
      "이노베이션": 6929,
      "03": 6930,
      "2주": 6931,
      "2호": 6932,
      "229": 6933,
      "3명": 6934,
      "3나노": 6935,
      "81": 6936,
      "Ad": 6937,
      "CD": 6938,
      "EX": 6939,
      "PB": 6940,
      "PP": 6941,
      "ig": 6942,
      "가졌다": 6943,
      "국인": 6944,
      "극대화": 6945,
      "근린": 6946,
      "기재": 6947,
      "김상": 6948,
      "나눔": 6949,
      "나스": 6950,
      "늘면서": 6951,
      "달라고": 6952,
      "대리": 6953,
      "대부": 6954,
      "드린다": 6955,
      "들고": 6956,
      "따로": 6957,
      "러닝": 6958,
      "레저": 6959,
      "로타": 6960,
      "리얼": 6961,
      "마친": 6962,
      "모건": 6963,
      "바지": 6964,
      "배포": 6965,
      "범위를": 6966,
      "법에": 6967,
      "별도로": 6968,
      "본토": 6969,
      "비고": 6970,
      "빅테크": 6971,
      "사단": 6972,
      "사들은": 6973,
      "성분": 6974,
      "세이": 6975,
      "스케": 6976,
      "시그": 6977,
      "신발": 6978,
      "신도시": 6979,
      "쓰레": 6980,
      "아카": 6981,
      "아메리": 6982,
      "압력이": 6983,
      "액션": 6984,
      "야외": 6985,
      "어서": 6986,
      "에디션": 6987,
      "엔씨": 6988,
      "역사": 6989,
      "연평균": 6990,
      "오닉": 6991,
      "원희": 6992,
      "월평균": 6993,
      "유해": 6994,
      "이트": 6995,
      "인포": 6996,
      "인력을": 6997,
      "장르": 6998,
      "제이": 6999,
      "조립": 7000,
      "좋다": 7001,
      "주차": 7002,
      "지사는": 7003,
      "축하": 7004,
      "출근": 7005,
      "콘셉": 7006,
      "크기": 7007,
      "타고": 7008,
      "타깃": 7009,
      "타격을": 7010,
      "탐색": 7011,
      "토리": 7012,
      "통증": 7013,
      "튀김": 7014,
      "포항": 7015,
      "하단": 7016,
      "학을": 7017,
      "한양": 7018,
      "해보": 7019,
      "홈앤": 7020,
      "효능": 7021,
      "히타": 7022,
      "이라면서": 7023,
      "한국과": 7024,
      "196": 7025,
      "산업단지": 7026,
      "가격도": 7027,
      "기자입니다": 7028,
      "올해로": 7029,
      "미국에서": 7030,
      "상품이다": 7031,
      "관계가": 7032,
      "전문인력": 7033,
      "기록하며": 7034,
      "운영할": 7035,
      "12일": 7036,
      "생산성": 7037,
      "인상이": 7038,
      "인상으로": 7039,
      "회장과": 7040,
      "수요예측": 7041,
      "포인트를": 7042,
      "주택을": 7043,
      "결제를": 7044,
      "침체가": 7045,
      "대응하기": 7046,
      "떨어질": 7047,
      "중소기업의": 7048,
      "확인했다": 7049,
      "카드를": 7050,
      "애플이": 7051,
      "500만원": 7052,
      "유럽연합": 7053,
      "신청할": 7054,
      "성공했다": 7055,
      "사람들이": 7056,
      "비율을": 7057,
      "그래핀": 7058,
      "상장지수": 7059,
      "사고가": 7060,
      "의견이": 7061,
      "올랐습니다": 7062,
      "피해가": 7063,
      "000만달러": 7064,
      "스크린": 7065,
      "전날보다": 7066,
      "출범한": 7067,
      "차관이": 7068,
      "전반에": 7069,
      "개정안": 7070,
      "리스크를": 7071,
      "아시아나": 7072,
      "보증금": 7073,
      "진흥원": 7074,
      "홈페이지에서": 7075,
      "최적의": 7076,
      "중견기업": 7077,
      "휴가철": 7078,
      "투기과열": 7079,
      "한국항공우주연구원": 7080,
      "우마무스메": 7081,
      "동국제강": 7082,
      "원희룡": 7083,
      "2위": 7084,
      "3억원": 7085,
      "71": 7086,
      "7000": 7087,
      "9천": 7088,
      "CNB": 7089,
      "fe": 7090,
      "ment": 7091,
      "ol": 7092,
      "pe": 7093,
      "가뭄": 7094,
      "거리를": 7095,
      "고는": 7096,
      "고유가": 7097,
      "교섭": 7098,
      "기넥": 7099,
      "기차": 7100,
      "김광석": 7101,
      "낸다": 7102,
      "노브랜드": 7103,
      "니케이션": 7104,
      "대내외": 7105,
      "도출": 7106,
      "디자이": 7107,
      "떡볶": 7108,
      "레볼": 7109,
      "로도": 7110,
      "론을": 7111,
      "리그": 7112,
      "리볼": 7113,
      "마르": 7114,
      "마리": 7115,
      "마스크": 7116,
      "만장": 7117,
      "만으로": 7118,
      "맛을": 7119,
      "망을": 7120,
      "맨홀": 7121,
      "문구": 7122,
      "밸리": 7123,
      "별내": 7124,
      "보인": 7125,
      "복귀": 7126,
      "분들이": 7127,
      "비비고": 7128,
      "사옥": 7129,
      "석사": 7130,
      "성은": 7131,
      "세데스": 7132,
      "셀트리": 7133,
      "소셜": 7134,
      "소요": 7135,
      "손쉽게": 7136,
      "송파": 7137,
      "수당": 7138,
      "스퀘어": 7139,
      "시나": 7140,
      "시점": 7141,
      "신장": 7142,
      "안팎": 7143,
      "양재": 7144,
      "여기": 7145,
      "열차": 7146,
      "운반": 7147,
      "위성이": 7148,
      "유효": 7149,
      "의로": 7150,
      "이때": 7151,
      "이었던": 7152,
      "인류": 7153,
      "인버스": 7154,
      "임기": 7155,
      "있음을": 7156,
      "자영업": 7157,
      "재활용": 7158,
      "저널": 7159,
      "접종": 7160,
      "제일": 7161,
      "조세": 7162,
      "조건을": 7163,
      "즉시": 7164,
      "지게": 7165,
      "지와": 7166,
      "직면": 7167,
      "착공": 7168,
      "챔피": 7169,
      "청사": 7170,
      "총재": 7171,
      "충당": 7172,
      "카운": 7173,
      "커지는": 7174,
      "컨센서": 7175,
      "쾌적": 7176,
      "편집": 7177,
      "펼쳐": 7178,
      "플랜": 7179,
      "플로": 7180,
      "핀란드": 7181,
      "학계": 7182,
      "투자할": 7183,
      "금융을": 7184,
      "기술의": 7185,
      "10명": 7186,
      "지원하겠다": 7187,
      "경제적": 7188,
      "산업화": 7189,
      "이어진": 7190,
      "이번주": 7191,
      "달러화": 7192,
      "LG생활건강": 7193,
      "물가는": 7194,
      "상황과": 7195,
      "세계적": 7196,
      "성장률": 7197,
      "성장세를": 7198,
      "관리할": 7199,
      "관리하는": 7200,
      "기록을": 7201,
      "시간에": 7202,
      "정책의": 7203,
      "경우도": 7204,
      "생산을": 7205,
      "때문으로": 7206,
      "때문입니다": 7207,
      "설명하고": 7208,
      "114": 7209,
      "발표된": 7210,
      "반도체를": 7211,
      "안전성": 7212,
      "강화하는": 7213,
      "출시했다고": 7214,
      "경쟁을": 7215,
      "상반기에": 7216,
      "항공기": 7217,
      "교수의": 7218,
      "이미지를": 7219,
      "조사한": 7220,
      "내용이": 7221,
      "포함됐다": 7222,
      "구매하는": 7223,
      "가구가": 7224,
      "부문에서": 7225,
      "이벤트도": 7226,
      "수입액은": 7227,
      "투자자의": 7228,
      "조정대상": 7229,
      "시행령": 7230,
      "대통령실": 7231,
      "수상했다": 7232,
      "혜택이": 7233,
      "높아질": 7234,
      "재정립": 7235,
      "마켓컬": 7236,
      "책임을": 7237,
      "토지소유": 7238,
      "공유수면": 7239,
      "해결하기": 7240,
      "사례를": 7241,
      "조치가": 7242,
      "DID": 7243,
      "스테이지": 7244,
      "공격적인": 7245,
      "레미콘운송": 7246,
      "내놓은": 7247,
      "LG에너지솔루션은": 7248,
      "페이스북": 7249,
      "커뮤니케이션": 7250,
      "단순히": 7251,
      "디폴트옵션": 7252,
      "신속하게": 7253,
      "간편하게": 7254,
      "무역수지": 7255,
      "마지막으로": 7256,
      "적정성": 7257,
      "면세점": 7258,
      "철저히": 7259,
      "가파르게": 7260,
      "공제회": 7261,
      "관람객": 7262,
      "둘러싼": 7263,
      "이창양": 7264,
      "고양시": 7265,
      "콜라보": 7266,
      "막걸리": 7267,
      "시너지를": 7268,
      "스위스": 7269,
      "자치단체": 7270,
      "초등학교": 7271,
      "전년동기대비": 7272,
      "하이브리드": 7273,
      "고공행": 7274,
      "이차전지": 7275,
      "사물인터넷": 7276,
      "인베스트먼트": 7277,
      "메르세데스": 7278,
      "이더리움": 7279,
      "원숭이두창": 7280,
      "나스닥": 7281,
      "홈앤쇼핑": 7282,
      "기넥신": 7283,
      "디자이너": 7284,
      "리볼빙": 7285,
      "1조원": 7286,
      "3회": 7287,
      "3분의": 7288,
      "9조": 7289,
      "JP": 7290,
      "PCE": 7291,
      "Sh": 7292,
      "gy": 7293,
      "se": 7294,
      "가축": 7295,
      "개척": 7296,
      "거시": 7297,
      "겠지만": 7298,
      "겨냥": 7299,
      "경력": 7300,
      "고령": 7301,
      "공인": 7302,
      "공지": 7303,
      "광양": 7304,
      "국의": 7305,
      "국회의": 7306,
      "군은": 7307,
      "근본": 7308,
      "김진": 7309,
      "나누": 7310,
      "나의": 7311,
      "나가는": 7312,
      "난다": 7313,
      "내야": 7314,
      "노후": 7315,
      "높였다": 7316,
      "니클": 7317,
      "다중": 7318,
      "다수의": 7319,
      "더블": 7320,
      "도어": 7321,
      "되길": 7322,
      "드럼": 7323,
      "드로": 7324,
      "때보다": 7325,
      "뛰었다": 7326,
      "레나": 7327,
      "리면": 7328,
      "마치고": 7329,
      "맥북": 7330,
      "먹는": 7331,
      "멘텀": 7332,
      "면담": 7333,
      "모멘텀": 7334,
      "무관": 7335,
      "미토": 7336,
      "박차를": 7337,
      "밖에도": 7338,
      "반환": 7339,
      "법적": 7340,
      "봤습니다": 7341,
      "브루": 7342,
      "사료": 7343,
      "사들의": 7344,
      "서명": 7345,
      "선에서": 7346,
      "세상을": 7347,
      "손보": 7348,
      "수량": 7349,
      "수로": 7350,
      "수제": 7351,
      "심리": 7352,
      "싱키": 7353,
      "아산": 7354,
      "아일": 7355,
      "아티": 7356,
      "았습니다": 7357,
      "앱에서": 7358,
      "여겨": 7359,
      "역을": 7360,
      "연도": 7361,
      "완화를": 7362,
      "유발": 7363,
      "유아": 7364,
      "유업": 7365,
      "이르면": 7366,
      "일어": 7367,
      "자급": 7368,
      "잠정": 7369,
      "저는": 7370,
      "저하": 7371,
      "전동": 7372,
      "정착": 7373,
      "정철": 7374,
      "제거": 7375,
      "젤리스": 7376,
      "조속": 7377,
      "졸업": 7378,
      "즈를": 7379,
      "증거": 7380,
      "지스타": 7381,
      "직업": 7382,
      "집단": 7383,
      "찍은": 7384,
      "치맥": 7385,
      "커넥": 7386,
      "텍은": 7387,
      "티스": 7388,
      "파는": 7389,
      "판을": 7390,
      "플라이": 7391,
      "한경": 7392,
      "한시": 7393,
      "해주": 7394,
      "행위": 7395,
      "향이": 7396,
      "허창수": 7397,
      "헌혈": 7398,
      "헬싱키": 7399,
      "환산": 7400,
      "회피": 7401,
      "힘든": 7402,
      "있다면": 7403,
      "20만": 7404,
      "기업이다": 7405,
      "시장에서는": 7406,
      "있는지": 7407,
      "금융자산": 7408,
      "서비스다": 7409,
      "산업이": 7410,
      "가격의": 7411,
      "이어가": 7412,
      "상승에": 7413,
      "미국과": 7414,
      "증가에": 7415,
      "레이터": 7416,
      "지역별": 7417,
      "예정이며": 7418,
      "성장세가": 7419,
      "함께하는": 7420,
      "50년": 7421,
      "라이트": 7422,
      "운영하며": 7423,
      "12개": 7424,
      "디지털전환": 7425,
      "지속해서": 7426,
      "소비자의": 7427,
      "중국이": 7428,
      "대해서": 7429,
      "추가적인": 7430,
      "강화에": 7431,
      "나타났습니다": 7432,
      "전략이": 7433,
      "사이언": 7434,
      "사이에서": 7435,
      "국가의": 7436,
      "국가채무": 7437,
      "결과가": 7438,
      "확보할": 7439,
      "확보하고": 7440,
      "과정에": 7441,
      "마련해": 7442,
      "대응할": 7443,
      "제도가": 7444,
      "위기에": 7445,
      "온라인으로": 7446,
      "제작한": 7447,
      "기능이": 7448,
      "해당하는": 7449,
      "신한라이프": 7450,
      "개최된": 7451,
      "투자자들의": 7452,
      "이뤄졌다": 7453,
      "이하의": 7454,
      "CES": 7455,
      "통계를": 7456,
      "게이트": 7457,
      "간담회를": 7458,
      "방송을": 7459,
      "방법으로": 7460,
      "크로니클": 7461,
      "급증한": 7462,
      "차질이": 7463,
      "제출한": 7464,
      "IMF": 7465,
      "연준의": 7466,
      "스트리트": 7467,
      "삼성SDS": 7468,
      "경상북도": 7469,
      "질문에": 7470,
      "선풍기": 7471,
      "카테고리": 7472,
      "가맹점": 7473,
      "서초구": 7474,
      "야놀자": 7475,
      "딜링룸에서": 7476,
      "드라이버": 7477,
      "SK브로드밴드": 7478,
      "테크놀로지": 7479,
      "P2E": 7480,
      "리조트": 7481,
      "호응을": 7482,
      "영창케미칼": 7483,
      "화석연료": 7484,
      "아카데미": 7485,
      "히타치": 7486,
      "셀트리온": 7487,
      "1등": 7488,
      "2층": 7489,
      "4조": 7490,
      "9만": 7491,
      "Fi": 7492,
      "GB": 7493,
      "Li": 7494,
      "NE": 7495,
      "am": 7496,
      "kWh": 7497,
      "ver": 7498,
      "감도": 7499,
      "강세를": 7500,
      "개로": 7501,
      "공통": 7502,
      "과천": 7503,
      "군요": 7504,
      "궁금": 7505,
      "권은": 7506,
      "그림": 7507,
      "노사": 7508,
      "노인": 7509,
      "농축": 7510,
      "높을": 7511,
      "누릴": 7512,
      "달할": 7513,
      "독려": 7514,
      "돼지고": 7515,
      "되자": 7516,
      "되기를": 7517,
      "디언": 7518,
      "럭셔": 7519,
      "레버": 7520,
      "려면": 7521,
      "로워": 7522,
      "리테일": 7523,
      "만달러": 7524,
      "말이": 7525,
      "말했습니다": 7526,
      "매달": 7527,
      "매장을": 7528,
      "먼츠": 7529,
      "명은": 7530,
      "모임": 7531,
      "목재": 7532,
      "못할": 7533,
      "문체": 7534,
      "민관": 7535,
      "밀가루": 7536,
      "받기": 7537,
      "방사": 7538,
      "벅스": 7539,
      "변속": 7540,
      "보낸": 7541,
      "본사에서": 7542,
      "부각": 7543,
      "부모": 7544,
      "부서": 7545,
      "불가능": 7546,
      "불안정": 7547,
      "브리": 7548,
      "비전을": 7549,
      "사우": 7550,
      "산화": 7551,
      "샘플": 7552,
      "생존": 7553,
      "선에": 7554,
      "섬유": 7555,
      "성격": 7556,
      "성구": 7557,
      "세라": 7558,
      "세에": 7559,
      "세제": 7560,
      "스피": 7561,
      "시기에": 7562,
      "시점에": 7563,
      "식물": 7564,
      "않습니다": 7565,
      "양도": 7566,
      "연대": 7567,
      "연락": 7568,
      "영양": 7569,
      "오세": 7570,
      "올림": 7571,
      "올리고": 7572,
      "요양": 7573,
      "원천": 7574,
      "월가": 7575,
      "위성을": 7576,
      "유용": 7577,
      "유정": 7578,
      "육박": 7579,
      "의해": 7580,
      "의정부": 7581,
      "인가": 7582,
      "임스": 7583,
      "입을": 7584,
      "자사의": 7585,
      "자리에": 7586,
      "전역": 7587,
      "전분기": 7588,
      "정말": 7589,
      "제29": 7590,
      "제임스": 7591,
      "지멘": 7592,
      "집에서": 7593,
      "창의": 7594,
      "창작": 7595,
      "체를": 7596,
      "체의": 7597,
      "컸다": 7598,
      "클린": 7599,
      "키움": 7600,
      "퇴근": 7601,
      "트럭": 7602,
      "틱스": 7603,
      "퍼레이션": 7604,
      "편성": 7605,
      "평년": 7606,
      "포지": 7607,
      "퓨처": 7608,
      "항우연": 7609,
      "해왔": 7610,
      "행사는": 7611,
      "행위에": 7612,
      "헤이": 7613,
      "현안": 7614,
      "협상을": 7615,
      "환급": 7616,
      "회수": 7617,
      "20대": 7618,
      "시장으로": 7619,
      "사업자가": 7620,
      "투자는": 7621,
      "한국계": 7622,
      "한국에서": 7623,
      "한국부동산": 7624,
      "10만원": 7625,
      "10일까지": 7626,
      "제공된다": 7627,
      "금리인하": 7628,
      "연구기관": 7629,
      "서비스도": 7630,
      "가격과": 7631,
      "이번이": 7632,
      "고객과": 7633,
      "전자상": 7634,
      "증가로": 7635,
      "하락을": 7636,
      "대출은": 7637,
      "이용자는": 7638,
      "대상이": 7639,
      "게임은": 7640,
      "기간보다": 7641,
      "수준이": 7642,
      "평가가": 7643,
      "콘텐트": 7644,
      "추진하는": 7645,
      "아이스": 7646,
      "적용된": 7647,
      "적용할": 7648,
      "7월부터": 7649,
      "실적에": 7650,
      "실적은": 7651,
      "침체에": 7652,
      "혁신적인": 7653,
      "마련할": 7654,
      "교수와": 7655,
      "선보이는": 7656,
      "자체적으로": 7657,
      "직원이": 7658,
      "어려움이": 7659,
      "요금제": 7660,
      "기획전": 7661,
      "증시의": 7662,
      "애플워치": 7663,
      "24년": 7664,
      "500원": 7665,
      "이익을": 7666,
      "280": 7667,
      "개최했다": 7668,
      "개최했다고": 7669,
      "1만명": 7670,
      "건강한": 7671,
      "무역적자": 7672,
      "법인은": 7673,
      "차량의": 7674,
      "계속해서": 7675,
      "상태에서": 7676,
      "판단했다": 7677,
      "전용회선": 7678,
      "알려져": 7679,
      "최초의": 7680,
      "구글플레이": 7681,
      "자료에": 7682,
      "지급한다": 7683,
      "거리가": 7684,
      "품목을": 7685,
      "9월부터": 7686,
      "프라임": 7687,
      "스토어를": 7688,
      "인천공항": 7689,
      "조직을": 7690,
      "외국인과": 7691,
      "급등한": 7692,
      "현실화": 7693,
      "어렵다는": 7694,
      "스테이블": 7695,
      "점유율은": 7696,
      "주관하는": 7697,
      "차이즈": 7698,
      "AMG": 7699,
      "수치다": 7700,
      "자기주식": 7701,
      "원칙을": 7702,
      "번호를": 7703,
      "완전히": 7704,
      "무료로": 7705,
      "장마철": 7706,
      "가파른": 7707,
      "가이드라인": 7708,
      "갖추고": 7709,
      "신동빈": 7710,
      "리터당": 7711,
      "OPEC": 7712,
      "복잡한": 7713,
      "멘토링": 7714,
      "단백질": 7715,
      "중대재해": 7716,
      "에이치피": 7717,
      "안마의자": 7718,
      "콘서트": 7719,
      "토마토": 7720,
      "에스디바이오": 7721,
      "아일랜드": 7722,
      "럭셔리": 7723,
      "250": 7724,
      "4인": 7725,
      "A는": 7726,
      "AWS": 7727,
      "GP": 7728,
      "Te": 7729,
      "ab": 7730,
      "tv": 7731,
      "um": 7732,
      "가깝": 7733,
      "가리": 7734,
      "간단": 7735,
      "간에": 7736,
      "거친": 7737,
      "거리에": 7738,
      "건국": 7739,
      "건이": 7740,
      "걸음": 7741,
      "격차": 7742,
      "경진": 7743,
      "계의": 7744,
      "고성능": 7745,
      "고속도로": 7746,
      "교보": 7747,
      "구리": 7748,
      "국을": 7749,
      "권리": 7750,
      "그의": 7751,
      "글을": 7752,
      "김소": 7753,
      "나섰": 7754,
      "나우": 7755,
      "내렸": 7756,
      "다채": 7757,
      "단위로": 7758,
      "담았다": 7759,
      "대기": 7760,
      "대수기": 7761,
      "돕는": 7762,
      "때도": 7763,
      "랜차이즈": 7764,
      "레이어": 7765,
      "르드": 7766,
      "리뉴얼": 7767,
      "마플": 7768,
      "명소": 7769,
      "뱅킹": 7770,
      "버튼": 7771,
      "보통": 7772,
      "분께": 7773,
      "분쟁": 7774,
      "브레인": 7775,
      "사후": 7776,
      "상관": 7777,
      "상으로": 7778,
      "셔츠": 7779,
      "손님": 7780,
      "수십": 7781,
      "수직": 7782,
      "수협": 7783,
      "시뮬": 7784,
      "신산업": 7785,
      "심을": 7786,
      "아나": 7787,
      "안전자": 7788,
      "앞당": 7789,
      "앞장": 7790,
      "엔지니": 7791,
      "여가": 7792,
      "연일": 7793,
      "요건": 7794,
      "요인이": 7795,
      "우산": 7796,
      "원내": 7797,
      "원주": 7798,
      "월스트리트": 7799,
      "위믹스": 7800,
      "음향": 7801,
      "이웃": 7802,
      "이르는": 7803,
      "일대": 7804,
      "자도": 7805,
      "잡기": 7806,
      "장벽": 7807,
      "장으로": 7808,
      "재택": 7809,
      "정당": 7810,
      "정병": 7811,
      "제의": 7812,
      "졌던": 7813,
      "종이": 7814,
      "줄이는": 7815,
      "중지": 7816,
      "중에는": 7817,
      "즈는": 7818,
      "지갑": 7819,
      "진정": 7820,
      "차익": 7821,
      "찾기": 7822,
      "추출": 7823,
      "출장": 7824,
      "층의": 7825,
      "캡처": 7826,
      "코레일": 7827,
      "투표": 7828,
      "트랜": 7829,
      "트롤": 7830,
      "파생": 7831,
      "패치": 7832,
      "표면": 7833,
      "프랜차이즈": 7834,
      "하늘": 7835,
      "해볼": 7836,
      "해커": 7837,
      "했죠": 7838,
      "호주": 7839,
      "히가시": 7840,
      "기업가치": 7841,
      "사업이다": 7842,
      "금융지원": 7843,
      "서비스의": 7844,
      "197": 7845,
      "개발사": 7846,
      "산업과": 7847,
      "은행들이": 7848,
      "은행회관에서": 7849,
      "이어졌다": 7850,
      "이어지면서": 7851,
      "고객들에게": 7852,
      "뉴스는": 7853,
      "미국이": 7854,
      "확대되는": 7855,
      "정보가": 7856,
      "관계자들이": 7857,
      "사용량": 7858,
      "프로토": 7859,
      "인상과": 7860,
      "회장을": 7861,
      "우려에": 7862,
      "최고치": 7863,
      "부담은": 7864,
      "경쟁력이": 7865,
      "시스템이": 7866,
      "아니냐는": 7867,
      "확보에": 7868,
      "확보한": 7869,
      "있어요": 7870,
      "선정했다": 7871,
      "선정됐다고": 7872,
      "KTX": 7873,
      "롯데쇼핑": 7874,
      "선보이고": 7875,
      "확인하고": 7876,
      "제작사": 7877,
      "모델링": 7878,
      "모델이": 7879,
      "수입은": 7880,
      "가입할": 7881,
      "행사에서": 7882,
      "행사에는": 7883,
      "방문객": 7884,
      "차량용": 7885,
      "들과의": 7886,
      "생각을": 7887,
      "인플레이션이": 7888,
      "시설을": 7889,
      "역대급": 7890,
      "협회가": 7891,
      "지급하는": 7892,
      "품목의": 7893,
      "이유다": 7894,
      "차지하고": 7895,
      "효율화": 7896,
      "10년물": 7897,
      "과제를": 7898,
      "소통을": 7899,
      "의미다": 7900,
      "의미한다": 7901,
      "가능성에": 7902,
      "SK텔레콤이": 7903,
      "시키고": 7904,
      "일정을": 7905,
      "운동을": 7906,
      "근로시간": 7907,
      "하우스": 7908,
      "형태의": 7909,
      "자본시장": 7910,
      "치솟았다": 7911,
      "트렌드를": 7912,
      "합리적으로": 7913,
      "ity": 7914,
      "있었지만": 7915,
      "신선식품": 7916,
      "국제유가가": 7917,
      "위해서다": 7918,
      "키우는": 7919,
      "피트니스캔디": 7920,
      "중기중앙회": 7921,
      "한일재계회의": 7922,
      "에너지원": 7923,
      "거리두기": 7924,
      "지식재산권": 7925,
      "상장지수펀드": 7926,
      "투기과열지구": 7927,
      "맨홀뚜껑": 7928,
      "정철동": 7929,
      "대수기하": 7930,
      "안전자산": 7931,
      "2대": 7932,
      "2억원": 7933,
      "5만원": 7934,
      "5개월": 7935,
      "8기": 7936,
      "800": 7937,
      "8000억원": 7938,
      "9억": 7939,
      "9원": 7940,
      "Bo": 7941,
      "CTO": 7942,
      "DF": 7943,
      "MD": 7944,
      "ML": 7945,
      "QR": 7946,
      "St": 7947,
      "TN": 7948,
      "XR": 7949,
      "de": 7950,
      "ub": 7951,
      "가에": 7952,
      "개막": 7953,
      "객실": 7954,
      "고환율": 7955,
      "골든": 7956,
      "공을": 7957,
      "공학과": 7958,
      "권한을": 7959,
      "궤도": 7960,
      "그리": 7961,
      "그리드": 7962,
      "기선": 7963,
      "김밥": 7964,
      "나마": 7965,
      "낙관": 7966,
      "남동": 7967,
      "남양": 7968,
      "네페": 7969,
      "노총": 7970,
      "높게": 7971,
      "느낄": 7972,
      "늘릴": 7973,
      "다리": 7974,
      "다우": 7975,
      "다주택": 7976,
      "단말": 7977,
      "대유행": 7978,
      "더한": 7979,
      "데요": 7980,
      "도네페": 7981,
      "됐는데": 7982,
      "러다": 7983,
      "러스트": 7984,
      "런던": 7985,
      "리스트": 7986,
      "만난": 7987,
      "맞춘": 7988,
      "맺었다": 7989,
      "명동": 7990,
      "모은": 7991,
      "모았다": 7992,
      "법령": 7993,
      "베르": 7994,
      "변이": 7995,
      "보타": 7996,
      "부당": 7997,
      "부작용": 7998,
      "브랜": 7999
    },
    "merges": [
      [
        "으",
        "로"
      ],
      [
        "했",
        "다"
      ],
      [
        "에",
        "서"
      ],
      [
        "있",
        "다"
      ],
      [
        "하",
        "는"
      ],
      [
        "하",
        "고"
      ],
      [
        "0",
        "0"
      ],
      [
        "이",
        "다"
      ],
      [
        "2",
        "0"
      ],
      [
        "니",
        "다"
      ],
      [
        "한",
        "다"
      ],
      [
        "지",
        "난"
      ],
      [
        "기",
        "업"
      ],
      [
        "시",
        "장"
      ],
      [
        "있",
        "는"
      ],
      [
        "까",
        "지"
      ],
      [
        "이",
        "라"
      ],
      [
        "사",
        "업"
      ],
      [
        "습",
        "니다"
      ],
      [
        "투",
        "자"
      ],
      [
        "서",
        "울"
      ],
      [
        "면",
        "서"
      ],
      [
        "부",
        "터"
      ],
      [
        "한",
        "국"
      ],
      [
        "것",
        "으로"
      ],
      [
        "금",
        "융"
      ],
      [
        "기",
        "술"
      ],
      [
        "1",
        "0"
      ],
      [
        "통",
        "해"
      ],
      [
        "적",
        "으로"
      ],
      [
        "밝",
        "혔"
      ],
      [
        "정",
        "부"
      ],
      [
        "대",
        "한"
      ],
      [
        "위",
        "해"
      ],
      [
        "된",
        "다"
      ],
      [
        "제",
        "공"
      ],
      [
        "적",
        "인"
      ],
      [
        "밝혔",
        "다"
      ],
      [
        "금",
        "리"
      ],
      [
        "보",
        "다"
      ],
      [
        "비",
        "스"
      ],
      [
        "연",
        "구"
      ],
      [
        "하",
        "기"
      ],
      [
        "들",
        "이"
      ],
      [
        "서",
        "비스"
      ],
      [
        "3",
        "0"
      ],
      [
        "억",
        "원"
      ],
      [
        "1",
        "9"
      ],
      [
        "지",
        "원"
      ],
      [
        "국",
        "내"
      ],
      [
        "개",
        "발"
      ],
      [
        "경",
        "제"
      ],
      [
        "산",
        "업"
      ],
      [
        "가",
        "능"
      ],
      [
        "지",
        "만"
      ],
      [
        "가",
        "격"
      ],
      [
        "됐",
        "다"
      ],
      [
        "은",
        "행"
      ],
      [
        "기",
        "자"
      ],
      [
        "이",
        "어"
      ],
      [
        "상",
        "승"
      ],
      [
        "거",
        "래"
      ],
      [
        "올",
        "해"
      ],
      [
        "이",
        "번"
      ],
      [
        "이라",
        "고"
      ],
      [
        "에",
        "는"
      ],
      [
        "20",
        "2"
      ],
      [
        "말",
        "했다"
      ],
      [
        "고",
        "객"
      ],
      [
        "되",
        "는"
      ],
      [
        "데",
        "이"
      ],
      [
        "이",
        "상"
      ],
      [
        "전",
        "자"
      ],
      [
        "진",
        "행"
      ],
      [
        "너",
        "지"
      ],
      [
        "00",
        "0"
      ],
      [
        "반",
        "기"
      ],
      [
        "사",
        "진"
      ],
      [
        "뉴",
        "스"
      ],
      [
        "대",
        "표"
      ],
      [
        "미",
        "국"
      ],
      [
        "달",
        "러"
      ],
      [
        "이",
        "후"
      ],
      [
        "기",
        "준"
      ],
      [
        "에",
        "너지"
      ],
      [
        "장",
        "은"
      ],
      [
        "계",
        "획"
      ],
      [
        "었",
        "다"
      ],
      [
        "위",
        "한"
      ],
      [
        "글",
        "로"
      ],
      [
        "L",
        "G"
      ],
      [
        "확",
        "대"
      ],
      [
        "정",
        "보"
      ],
      [
        "지난",
        "해"
      ],
      [
        "글로",
        "벌"
      ],
      [
        "시",
        "스"
      ],
      [
        "상",
        "품"
      ],
      [
        "증",
        "가"
      ],
      [
        "등",
        "을"
      ],
      [
        "하",
        "게"
      ],
      [
        "겠",
        "다"
      ],
      [
        "레",
        "이"
      ],
      [
        "판",
        "매"
      ],
      [
        "1",
        "일"
      ],
      [
        "관",
        "계"
      ],
      [
        "하",
        "락"
      ],
      [
        "대",
        "출"
      ],
      [
        "전",
        "망"
      ],
      [
        "소",
        "비"
      ],
      [
        "지",
        "역"
      ],
      [
        "에",
        "게"
      ],
      [
        "최",
        "근"
      ],
      [
        "이",
        "용"
      ],
      [
        "예",
        "정"
      ],
      [
        "대",
        "비"
      ],
      [
        "물",
        "가"
      ],
      [
        "데이",
        "터"
      ],
      [
        "상",
        "황"
      ],
      [
        "관",
        "련"
      ],
      [
        "하",
        "다"
      ],
      [
        "르",
        "면"
      ],
      [
        "삼",
        "성"
      ],
      [
        "제",
        "품"
      ],
      [
        "에",
        "도"
      ],
      [
        "도",
        "록"
      ],
      [
        "공",
        "급"
      ],
      [
        "세",
        "계"
      ],
      [
        "자",
        "는"
      ],
      [
        "경",
        "기"
      ],
      [
        "따",
        "르면"
      ],
      [
        "전",
        "문"
      ],
      [
        "성",
        "장"
      ],
      [
        "관",
        "리"
      ],
      [
        "다",
        "양"
      ],
      [
        "기",
        "관"
      ],
      [
        "5",
        "일"
      ],
      [
        "4",
        "일"
      ],
      [
        "함",
        "께"
      ],
      [
        "대",
        "상"
      ],
      [
        "사",
        "용"
      ],
      [
        "게",
        "임"
      ],
      [
        "기",
        "록"
      ],
      [
        "규",
        "모"
      ],
      [
        "시",
        "간"
      ],
      [
        "정",
        "책"
      ],
      [
        "환",
        "경"
      ],
      [
        "경",
        "우"
      ],
      [
        "스",
        "트"
      ],
      [
        "하",
        "며"
      ],
      [
        "5",
        "0"
      ],
      [
        "프",
        "로"
      ],
      [
        "다양",
        "한"
      ],
      [
        "들",
        "은"
      ],
      [
        "회",
        "사"
      ],
      [
        "라",
        "이"
      ],
      [
        "운",
        "영"
      ],
      [
        "같",
        "은"
      ],
      [
        "들",
        "의"
      ],
      [
        "지난",
        "달"
      ],
      [
        "1",
        "2"
      ],
      [
        "생",
        "산"
      ],
      [
        "활",
        "용"
      ],
      [
        "들",
        "어"
      ],
      [
        "최",
        "대"
      ],
      [
        "수",
        "출"
      ],
      [
        "디",
        "지"
      ],
      [
        "따",
        "라"
      ],
      [
        "분",
        "기"
      ],
      [
        "때",
        "문"
      ],
      [
        "디지",
        "털"
      ],
      [
        "위",
        "원"
      ],
      [
        "증",
        "권"
      ],
      [
        "랜",
        "드"
      ],
      [
        "6",
        "월"
      ],
      [
        "라",
        "인"
      ],
      [
        "인",
        "상"
      ],
      [
        "로",
        "나"
      ],
      [
        "업",
        "계"
      ],
      [
        "설",
        "명"
      ],
      [
        "성",
        "을"
      ],
      [
        "회",
        "장"
      ],
      [
        "우",
        "리"
      ],
      [
        "필",
        "요"
      ],
      [
        "코",
        "로나"
      ],
      [
        "에서",
        "는"
      ],
      [
        "지",
        "속"
      ],
      [
        "수",
        "요"
      ],
      [
        "소비",
        "자"
      ],
      [
        "연",
        "합"
      ],
      [
        "성",
        "이"
      ],
      [
        "오",
        "는"
      ],
      [
        "전",
        "기"
      ],
      [
        "중",
        "국"
      ],
      [
        "이",
        "날"
      ],
      [
        "1",
        "1"
      ],
      [
        "대",
        "해"
      ],
      [
        "협",
        "력"
      ],
      [
        "국",
        "제"
      ],
      [
        "경",
        "영"
      ],
      [
        "했다",
        "고"
      ],
      [
        "기",
        "간"
      ],
      [
        "랫",
        "폼"
      ],
      [
        "입",
        "니다"
      ],
      [
        "졌",
        "다"
      ],
      [
        "플",
        "랫폼"
      ],
      [
        "202",
        "2"
      ],
      [
        "통",
        "신"
      ],
      [
        "가",
        "장"
      ],
      [
        "발",
        "표"
      ],
      [
        "그",
        "룹"
      ],
      [
        "매",
        "출"
      ],
      [
        "하",
        "겠다"
      ],
      [
        "회",
        "의"
      ],
      [
        "수",
        "준"
      ],
      [
        "하",
        "면"
      ],
      [
        "분",
        "야"
      ],
      [
        "으",
        "며"
      ],
      [
        "수",
        "는"
      ],
      [
        "만",
        "원"
      ],
      [
        "되",
        "고"
      ],
      [
        "반",
        "도"
      ],
      [
        "았",
        "다"
      ],
      [
        "추",
        "가"
      ],
      [
        "했",
        "습니다"
      ],
      [
        "주",
        "요"
      ],
      [
        "현",
        "재"
      ],
      [
        "참",
        "여"
      ],
      [
        "리",
        "는"
      ],
      [
        "우",
        "려"
      ],
      [
        "1",
        "00"
      ],
      [
        "최",
        "고"
      ],
      [
        "반도",
        "체"
      ],
      [
        "안",
        "전"
      ],
      [
        "강",
        "화"
      ],
      [
        "분",
        "석"
      ],
      [
        "것",
        "이"
      ],
      [
        "업",
        "체"
      ],
      [
        "개",
        "월"
      ],
      [
        "시",
        "작"
      ],
      [
        "규",
        "제"
      ],
      [
        "이",
        "는"
      ],
      [
        "마",
        "트"
      ],
      [
        "바",
        "이"
      ],
      [
        "인",
        "트"
      ],
      [
        "지",
        "는"
      ],
      [
        "평",
        "가"
      ],
      [
        "부",
        "담"
      ],
      [
        "스",
        "타"
      ],
      [
        "출",
        "시"
      ],
      [
        "있",
        "도록"
      ],
      [
        "센",
        "터"
      ],
      [
        "사",
        "회"
      ],
      [
        "A",
        "I"
      ],
      [
        "높",
        "은"
      ],
      [
        "포",
        "인트"
      ],
      [
        "5",
        "월"
      ],
      [
        "개",
        "선"
      ],
      [
        "만",
        "에"
      ],
      [
        "콘",
        "텐"
      ],
      [
        "플",
        "레이"
      ],
      [
        "기",
        "존"
      ],
      [
        "특",
        "히"
      ],
      [
        "였",
        "다"
      ],
      [
        "영",
        "상"
      ],
      [
        "하",
        "면서"
      ],
      [
        "4",
        "0"
      ],
      [
        "경",
        "쟁"
      ],
      [
        "기",
        "반"
      ],
      [
        "주",
        "택"
      ],
      [
        "하",
        "지"
      ],
      [
        "추",
        "진"
      ],
      [
        "파",
        "트"
      ],
      [
        "1",
        "년"
      ],
      [
        "해",
        "야"
      ],
      [
        "해",
        "외"
      ],
      [
        "예정",
        "이다"
      ],
      [
        "1",
        "5"
      ],
      [
        "하",
        "반기"
      ],
      [
        "1",
        "8"
      ],
      [
        "기",
        "대"
      ],
      [
        "1",
        "3"
      ],
      [
        "자",
        "산"
      ],
      [
        "S",
        "K"
      ],
      [
        "아",
        "이"
      ],
      [
        "관계",
        "자는"
      ],
      [
        "예",
        "상"
      ],
      [
        "나",
        "타"
      ],
      [
        "적",
        "용"
      ],
      [
        "일",
        "본"
      ],
      [
        "세",
        "대"
      ],
      [
        "코로나",
        "19"
      ],
      [
        "전",
        "략"
      ],
      [
        "시스",
        "템"
      ],
      [
        "콘텐",
        "츠"
      ],
      [
        "사",
        "를"
      ],
      [
        "력",
        "을"
      ],
      [
        "상",
        "반기"
      ],
      [
        "시",
        "아"
      ],
      [
        "장",
        "을"
      ],
      [
        "카",
        "카"
      ],
      [
        "7",
        "월"
      ],
      [
        "보",
        "고"
      ],
      [
        "삼성",
        "전자"
      ],
      [
        "기",
        "를"
      ],
      [
        "개",
        "인"
      ],
      [
        "아",
        "니"
      ],
      [
        "주",
        "가"
      ],
      [
        "구",
        "축"
      ],
      [
        "1",
        "7"
      ],
      [
        "다",
        "는"
      ],
      [
        "러",
        "스"
      ],
      [
        "하",
        "나"
      ],
      [
        "연합",
        "뉴스"
      ],
      [
        "가",
        "치"
      ],
      [
        "감",
        "소"
      ],
      [
        "사",
        "이"
      ],
      [
        "국",
        "가"
      ],
      [
        "브",
        "랜드"
      ],
      [
        "교",
        "육"
      ],
      [
        "라",
        "고"
      ],
      [
        "영",
        "향"
      ],
      [
        "현",
        "대"
      ],
      [
        "자",
        "가"
      ],
      [
        "코",
        "스"
      ],
      [
        "연구",
        "원"
      ],
      [
        "2",
        "3"
      ],
      [
        "대",
        "로"
      ],
      [
        "장",
        "관"
      ],
      [
        "건",
        "설"
      ],
      [
        "들",
        "을"
      ],
      [
        "결",
        "과"
      ],
      [
        "지",
        "고"
      ],
      [
        "6",
        "일"
      ],
      [
        "카카",
        "오"
      ],
      [
        "신",
        "규"
      ],
      [
        "이",
        "를"
      ],
      [
        "는",
        "데"
      ],
      [
        "한다",
        "고"
      ],
      [
        "결",
        "제"
      ],
      [
        "안",
        "정"
      ],
      [
        "확",
        "보"
      ],
      [
        "계획",
        "이다"
      ],
      [
        "1",
        "4"
      ],
      [
        "가",
        "운"
      ],
      [
        "과",
        "학"
      ],
      [
        "대",
        "학"
      ],
      [
        "부",
        "산"
      ],
      [
        "실",
        "적"
      ],
      [
        "6",
        "0"
      ],
      [
        "자",
        "동"
      ],
      [
        "문",
        "제"
      ],
      [
        "지",
        "를"
      ],
      [
        "2",
        "00"
      ],
      [
        "계",
        "약"
      ],
      [
        "활",
        "동"
      ],
      [
        "침",
        "체"
      ],
      [
        "가운",
        "데"
      ],
      [
        "동",
        "안"
      ],
      [
        "발",
        "생"
      ],
      [
        "과",
        "정"
      ],
      [
        "항",
        "공"
      ],
      [
        "뉴",
        "시스"
      ],
      [
        "혁",
        "신"
      ],
      [
        "늘",
        "어"
      ],
      [
        "마",
        "련"
      ],
      [
        "국",
        "민"
      ],
      [
        "주",
        "식"
      ],
      [
        "목",
        "표"
      ],
      [
        "보",
        "험"
      ],
      [
        "열",
        "린"
      ],
      [
        "인",
        "하"
      ],
      [
        "수",
        "학"
      ],
      [
        "있",
        "어"
      ],
      [
        "만",
        "큼"
      ],
      [
        "이",
        "에"
      ],
      [
        "방",
        "안"
      ],
      [
        "선",
        "정"
      ],
      [
        "스",
        "마트"
      ],
      [
        "페",
        "이"
      ],
      [
        "등",
        "의"
      ],
      [
        "중",
        "심"
      ],
      [
        "대",
        "응"
      ],
      [
        "사",
        "는"
      ],
      [
        "적",
        "극"
      ],
      [
        "제",
        "도"
      ],
      [
        "루",
        "션"
      ],
      [
        "전",
        "력"
      ],
      [
        "전",
        "환"
      ],
      [
        "서비스",
        "를"
      ],
      [
        "2",
        "9"
      ],
      [
        "K",
        "T"
      ],
      [
        "공",
        "동"
      ],
      [
        "교",
        "수"
      ],
      [
        "롯",
        "데"
      ],
      [
        "화",
        "를"
      ],
      [
        "유",
        "지"
      ],
      [
        "떨",
        "어"
      ],
      [
        "평",
        "균"
      ],
      [
        "식",
        "품"
      ],
      [
        "20",
        "년"
      ],
      [
        "이",
        "미"
      ],
      [
        "미",
        "래"
      ],
      [
        "수",
        "익"
      ],
      [
        "세",
        "를"
      ],
      [
        "위",
        "기"
      ],
      [
        "등",
        "이"
      ],
      [
        "발",
        "전"
      ],
      [
        "조",
        "사"
      ],
      [
        "중",
        "소"
      ],
      [
        "이",
        "고"
      ],
      [
        "2",
        "5"
      ],
      [
        "것",
        "이다"
      ],
      [
        "있다",
        "는"
      ],
      [
        "다",
        "른"
      ],
      [
        "그",
        "램"
      ],
      [
        "선",
        "보"
      ],
      [
        "로",
        "운"
      ],
      [
        "자",
        "체"
      ],
      [
        "이라",
        "는"
      ],
      [
        "영",
        "업"
      ],
      [
        "이",
        "나"
      ],
      [
        "직",
        "원"
      ],
      [
        "모",
        "두"
      ],
      [
        "설명",
        "했다"
      ],
      [
        "1",
        "6"
      ],
      [
        "솔",
        "루션"
      ],
      [
        "방",
        "식"
      ],
      [
        "결",
        "정"
      ],
      [
        "내",
        "용"
      ],
      [
        "원",
        "전"
      ],
      [
        "구",
        "성"
      ],
      [
        "위원",
        "회"
      ],
      [
        "공",
        "개"
      ],
      [
        "업",
        "무"
      ],
      [
        "하",
        "지만"
      ],
      [
        "비",
        "중"
      ],
      [
        "3",
        "년"
      ],
      [
        "어",
        "려"
      ],
      [
        "요",
        "금"
      ],
      [
        "라",
        "는"
      ],
      [
        "많",
        "은"
      ],
      [
        "전",
        "국"
      ],
      [
        "앞",
        "으로"
      ],
      [
        "확",
        "인"
      ],
      [
        "버",
        "스"
      ],
      [
        "포",
        "함"
      ],
      [
        "수",
        "도"
      ],
      [
        "현",
        "지"
      ],
      [
        "뉴스",
        "1"
      ],
      [
        "때문",
        "에"
      ],
      [
        "이라",
        "며"
      ],
      [
        "유",
        "가"
      ],
      [
        "반",
        "영"
      ],
      [
        "온",
        "라인"
      ],
      [
        "처",
        "음"
      ],
      [
        "기",
        "획"
      ],
      [
        "등",
        "에"
      ],
      [
        "우",
        "주"
      ],
      [
        "제",
        "작"
      ],
      [
        "20",
        "20년"
      ],
      [
        "기",
        "능"
      ],
      [
        "있",
        "습니다"
      ],
      [
        "점",
        "검"
      ],
      [
        "모",
        "델"
      ],
      [
        "스",
        "토"
      ],
      [
        "참",
        "석"
      ],
      [
        "치",
        "를"
      ],
      [
        "각",
        "각"
      ],
      [
        "부",
        "는"
      ],
      [
        "점",
        "을"
      ],
      [
        "대상",
        "으로"
      ],
      [
        "강",
        "조"
      ],
      [
        "구",
        "매"
      ],
      [
        "성",
        "과"
      ],
      [
        "것",
        "은"
      ],
      [
        "있다",
        "고"
      ],
      [
        "증",
        "시"
      ],
      [
        "부",
        "동"
      ],
      [
        "전",
        "년"
      ],
      [
        "카",
        "드"
      ],
      [
        "2",
        "7"
      ],
      [
        "그",
        "러"
      ],
      [
        "비",
        "용"
      ],
      [
        "애",
        "플"
      ],
      [
        "인",
        "다"
      ],
      [
        "자",
        "원"
      ],
      [
        "해",
        "당"
      ],
      [
        "2",
        "4"
      ],
      [
        "5",
        "00"
      ],
      [
        "가",
        "구"
      ],
      [
        "아",
        "파트"
      ],
      [
        "한",
        "편"
      ],
      [
        "전",
        "체"
      ],
      [
        "향",
        "후"
      ],
      [
        "한다",
        "는"
      ],
      [
        "없",
        "이"
      ],
      [
        "장",
        "이"
      ],
      [
        "리",
        "고"
      ],
      [
        "신",
        "한"
      ],
      [
        "암",
        "호"
      ],
      [
        "자",
        "를"
      ],
      [
        "3",
        "일"
      ],
      [
        "보",
        "유"
      ],
      [
        "유",
        "럽"
      ],
      [
        "테",
        "크"
      ],
      [
        "리",
        "스"
      ],
      [
        "벤",
        "트"
      ],
      [
        "부",
        "문"
      ],
      [
        "이",
        "벤트"
      ],
      [
        "수",
        "입"
      ],
      [
        "플",
        "러스"
      ],
      [
        "부동",
        "산"
      ],
      [
        "오",
        "후"
      ],
      [
        "리",
        "를"
      ],
      [
        "가",
        "입"
      ],
      [
        "아니",
        "라"
      ],
      [
        "하",
        "이"
      ],
      [
        "행",
        "사"
      ],
      [
        "신",
        "청"
      ],
      [
        "지",
        "수"
      ],
      [
        "기",
        "에"
      ],
      [
        "났",
        "다"
      ],
      [
        "비",
        "롯"
      ],
      [
        "정",
        "도"
      ],
      [
        "효",
        "과"
      ],
      [
        "새",
        "로운"
      ],
      [
        "서",
        "는"
      ],
      [
        "제",
        "로"
      ],
      [
        "에서",
        "도"
      ],
      [
        "자동",
        "차"
      ],
      [
        "따",
        "른"
      ],
      [
        "이",
        "익"
      ],
      [
        "일",
        "리"
      ],
      [
        "2",
        "8"
      ],
      [
        "개",
        "최"
      ],
      [
        "배",
        "터"
      ],
      [
        "할",
        "인"
      ],
      [
        "K",
        "B"
      ],
      [
        "오",
        "전"
      ],
      [
        "정부",
        "는"
      ],
      [
        "1",
        "만"
      ],
      [
        "건",
        "강"
      ],
      [
        "직",
        "접"
      ],
      [
        "코스",
        "피"
      ],
      [
        "무",
        "역"
      ],
      [
        "상",
        "을"
      ],
      [
        "투자",
        "자"
      ],
      [
        "모",
        "든"
      ],
      [
        "왔",
        "다"
      ],
      [
        "코",
        "인"
      ],
      [
        "방",
        "문"
      ],
      [
        "방",
        "향"
      ],
      [
        "법",
        "인"
      ],
      [
        "여",
        "러"
      ],
      [
        "주",
        "는"
      ],
      [
        "프로",
        "그램"
      ],
      [
        "더",
        "욱"
      ],
      [
        "역",
        "시"
      ],
      [
        "세",
        "가"
      ],
      [
        "바이",
        "오"
      ],
      [
        "가",
        "상"
      ],
      [
        "마",
        "이"
      ],
      [
        "스",
        "는"
      ],
      [
        "전",
        "시"
      ],
      [
        "차",
        "량"
      ],
      [
        "30",
        "일"
      ],
      [
        "E",
        "T"
      ],
      [
        "기",
        "가"
      ],
      [
        "메",
        "타"
      ],
      [
        "오",
        "른"
      ],
      [
        "준",
        "비"
      ],
      [
        "지",
        "금"
      ],
      [
        "도",
        "입"
      ],
      [
        "조",
        "원"
      ],
      [
        "조",
        "정"
      ],
      [
        "5",
        "년"
      ],
      [
        "S",
        "G"
      ],
      [
        "거",
        "나"
      ],
      [
        "2",
        "년"
      ],
      [
        "보",
        "호"
      ],
      [
        "원",
        "자"
      ],
      [
        "사업",
        "을"
      ],
      [
        "T",
        "V"
      ],
      [
        "장",
        "비"
      ],
      [
        "니",
        "스"
      ],
      [
        "또",
        "한"
      ],
      [
        "시",
        "행"
      ],
      [
        "생",
        "활"
      ],
      [
        "관",
        "심"
      ],
      [
        "n",
        "e"
      ],
      [
        "다",
        "시"
      ],
      [
        "모",
        "습"
      ],
      [
        "케",
        "이"
      ],
      [
        "계",
        "속"
      ],
      [
        "등",
        "으로"
      ],
      [
        "여",
        "름"
      ],
      [
        "진",
        "단"
      ],
      [
        "공",
        "정"
      ],
      [
        "사",
        "의"
      ],
      [
        "성",
        "공"
      ],
      [
        "전문",
        "가"
      ],
      [
        "부",
        "분"
      ],
      [
        "크",
        "게"
      ],
      [
        "기",
        "념"
      ],
      [
        "8",
        "0"
      ],
      [
        "사",
        "람"
      ],
      [
        "시장",
        "에서"
      ],
      [
        "중",
        "앙"
      ],
      [
        "I",
        "P"
      ],
      [
        "공",
        "공"
      ],
      [
        "중",
        "요"
      ],
      [
        "했",
        "고"
      ],
      [
        "금",
        "을"
      ],
      [
        "러",
        "시아"
      ],
      [
        "사",
        "가"
      ],
      [
        "회",
        "장은"
      ],
      [
        "2",
        "2"
      ],
      [
        "리",
        "아"
      ],
      [
        "소",
        "재"
      ],
      [
        "장",
        "기"
      ],
      [
        "현",
        "장"
      ],
      [
        "플레이",
        "션"
      ],
      [
        "c",
        "o"
      ],
      [
        "공",
        "장"
      ],
      [
        "사",
        "실"
      ],
      [
        "있",
        "을"
      ],
      [
        "처",
        "럼"
      ],
      [
        "통",
        "령"
      ],
      [
        "협",
        "약"
      ],
      [
        "하기",
        "로"
      ],
      [
        "기록",
        "했다"
      ],
      [
        "교",
        "통"
      ],
      [
        "데",
        "일리"
      ],
      [
        "운",
        "용"
      ],
      [
        "앞",
        "서"
      ],
      [
        "다",
        "고"
      ],
      [
        "프",
        "트"
      ],
      [
        "핵",
        "심"
      ],
      [
        "고",
        "려"
      ],
      [
        "논",
        "의"
      ],
      [
        "도",
        "를"
      ],
      [
        "일",
        "부"
      ],
      [
        "경",
        "험"
      ],
      [
        "본",
        "격"
      ],
      [
        "비",
        "율"
      ],
      [
        "가격",
        "이"
      ],
      [
        "들",
        "과"
      ],
      [
        "체",
        "결"
      ],
      [
        "8",
        "월"
      ],
      [
        "대",
        "통령"
      ],
      [
        "수",
        "상"
      ],
      [
        "제",
        "조"
      ],
      [
        "전기",
        "차"
      ],
      [
        "량",
        "을"
      ],
      [
        "중",
        "이다"
      ],
      [
        "라이",
        "나"
      ],
      [
        "없",
        "는"
      ],
      [
        "완",
        "화"
      ],
      [
        "탄",
        "소"
      ],
      [
        "기",
        "본"
      ],
      [
        "생",
        "각"
      ],
      [
        "신",
        "용"
      ],
      [
        "역",
        "할"
      ],
      [
        "요",
        "구"
      ],
      [
        "이",
        "뤄"
      ],
      [
        "자",
        "의"
      ],
      [
        "그",
        "래"
      ],
      [
        "나",
        "라"
      ],
      [
        "리",
        "에"
      ],
      [
        "번",
        "째"
      ],
      [
        "특",
        "별"
      ],
      [
        "기술",
        "을"
      ],
      [
        "그",
        "는"
      ],
      [
        "않",
        "는"
      ],
      [
        "7",
        "0"
      ],
      [
        "상",
        "태"
      ],
      [
        "쇼",
        "핑"
      ],
      [
        "액",
        "은"
      ],
      [
        "일",
        "반"
      ],
      [
        "단",
        "계"
      ],
      [
        "배터",
        "리"
      ],
      [
        "것",
        "을"
      ],
      [
        "받",
        "을"
      ],
      [
        "이",
        "런"
      ],
      [
        "중",
        "인"
      ],
      [
        "원",
        "에"
      ],
      [
        "유",
        "통"
      ],
      [
        "해",
        "서"
      ],
      [
        "대표",
        "는"
      ],
      [
        "4",
        "월"
      ],
      [
        "구",
        "조"
      ],
      [
        "판",
        "단"
      ],
      [
        "가",
        "는"
      ],
      [
        "단",
        "지"
      ],
      [
        "도",
        "가"
      ],
      [
        "도",
        "시"
      ],
      [
        "들",
        "에게"
      ],
      [
        "상",
        "장"
      ],
      [
        "이",
        "달"
      ],
      [
        "이",
        "하"
      ],
      [
        "전",
        "용"
      ],
      [
        "제",
        "시"
      ],
      [
        "가",
        "스"
      ],
      [
        "드",
        "는"
      ],
      [
        "혜",
        "택"
      ],
      [
        "수요",
        "가"
      ],
      [
        "인",
        "터"
      ],
      [
        "가능",
        "한"
      ],
      [
        "알",
        "려"
      ],
      [
        "체",
        "인"
      ],
      [
        "가",
        "지"
      ],
      [
        "높",
        "아"
      ],
      [
        "우",
        "크"
      ],
      [
        "메타",
        "버스"
      ],
      [
        "공",
        "간"
      ],
      [
        "노",
        "력"
      ],
      [
        "라",
        "우"
      ],
      [
        "이",
        "동"
      ],
      [
        "치",
        "료"
      ],
      [
        "상승",
        "률"
      ],
      [
        "우크",
        "라이나"
      ],
      [
        "C",
        "E"
      ],
      [
        "금리",
        "를"
      ],
      [
        "2",
        "분기"
      ],
      [
        "나",
        "온"
      ],
      [
        "도",
        "로"
      ],
      [
        "별",
        "로"
      ],
      [
        "위",
        "를"
      ],
      [
        "가능",
        "성이"
      ],
      [
        "기",
        "로"
      ],
      [
        "조",
        "합"
      ],
      [
        "네",
        "이"
      ],
      [
        "외",
        "국"
      ],
      [
        "프",
        "리"
      ],
      [
        "때문",
        "이다"
      ],
      [
        "매",
        "수"
      ],
      [
        "모",
        "바"
      ],
      [
        "재",
        "정"
      ],
      [
        "중심",
        "으로"
      ],
      [
        "모바",
        "일"
      ],
      [
        "소",
        "프트"
      ],
      [
        "했",
        "던"
      ],
      [
        "강조",
        "했다"
      ],
      [
        "참",
        "가"
      ],
      [
        "마",
        "켓"
      ],
      [
        "보",
        "안"
      ],
      [
        "물",
        "류"
      ],
      [
        "보",
        "면"
      ],
      [
        "부",
        "회장"
      ],
      [
        "체",
        "계"
      ],
      [
        "원",
        "을"
      ],
      [
        "인",
        "플레이션"
      ],
      [
        "지",
        "적"
      ],
      [
        "진",
        "출"
      ],
      [
        "많",
        "이"
      ],
      [
        "스",
        "포"
      ],
      [
        "양",
        "자"
      ],
      [
        "000",
        "억원"
      ],
      [
        "E",
        "SG"
      ],
      [
        "명",
        "이"
      ],
      [
        "의",
        "료"
      ],
      [
        "이",
        "자"
      ],
      [
        "최",
        "초"
      ],
      [
        "기업",
        "의"
      ],
      [
        "I",
        "T"
      ],
      [
        "대",
        "를"
      ],
      [
        "되",
        "면서"
      ],
      [
        "수",
        "수"
      ],
      [
        "워",
        "크"
      ],
      [
        "환",
        "율"
      ],
      [
        "공",
        "식"
      ],
      [
        "대",
        "형"
      ],
      [
        "위",
        "성"
      ],
      [
        "정부",
        "가"
      ],
      [
        "기",
        "도"
      ],
      [
        "받",
        "아"
      ],
      [
        "변",
        "동"
      ],
      [
        "사",
        "고"
      ],
      [
        "채",
        "널"
      ],
      [
        "통",
        "계"
      ],
      [
        "통",
        "상"
      ],
      [
        "회",
        "를"
      ],
      [
        "e",
        "r"
      ],
      [
        "력",
        "이"
      ],
      [
        "분",
        "양"
      ],
      [
        "블",
        "록"
      ],
      [
        "원",
        "은"
      ],
      [
        "이",
        "노"
      ],
      [
        "집",
        "중"
      ],
      [
        "펀",
        "드"
      ],
      [
        "필요",
        "한"
      ],
      [
        "D",
        "B"
      ],
      [
        "이",
        "며"
      ],
      [
        "구",
        "글"
      ],
      [
        "금",
        "지"
      ],
      [
        "명",
        "을"
      ],
      [
        "시",
        "설"
      ],
      [
        "클",
        "라우"
      ],
      [
        "데이터",
        "를"
      ],
      [
        "i",
        "s"
      ],
      [
        "다",
        "만"
      ],
      [
        "르",
        "게"
      ],
      [
        "수",
        "급"
      ],
      [
        "실",
        "제"
      ],
      [
        "인",
        "수"
      ],
      [
        "자",
        "료"
      ],
      [
        "20",
        "19"
      ],
      [
        "여",
        "전"
      ],
      [
        "역",
        "대"
      ],
      [
        "자",
        "인"
      ],
      [
        "통",
        "한"
      ],
      [
        "협",
        "회"
      ],
      [
        "없",
        "다"
      ],
      [
        "의",
        "견"
      ],
      [
        "정부",
        "의"
      ],
      [
        "두",
        "고"
      ],
      [
        "LG",
        "유"
      ],
      [
        "나타",
        "났다"
      ],
      [
        "네이",
        "버"
      ],
      [
        "w",
        "s"
      ],
      [
        "본",
        "부"
      ],
      [
        "자",
        "리"
      ],
      [
        "LG유",
        "플러스"
      ],
      [
        "3",
        "00"
      ],
      [
        "가",
        "를"
      ],
      [
        "매",
        "매"
      ],
      [
        "문",
        "화"
      ],
      [
        "상",
        "담"
      ],
      [
        "지",
        "수는"
      ],
      [
        "합",
        "니다"
      ],
      [
        "확",
        "산"
      ],
      [
        "3",
        "7"
      ],
      [
        "운",
        "송"
      ],
      [
        "내",
        "년"
      ],
      [
        "다",
        "음"
      ],
      [
        "받",
        "는"
      ],
      [
        "시",
        "에"
      ],
      [
        "우",
        "선"
      ],
      [
        "비",
        "교"
      ],
      [
        "지",
        "급"
      ],
      [
        "보",
        "인다"
      ],
      [
        "위",
        "험"
      ],
      [
        "파",
        "이"
      ],
      [
        "하",
        "여"
      ],
      [
        "화",
        "폐"
      ],
      [
        "가능",
        "하다"
      ],
      [
        "민",
        "간"
      ],
      [
        "사",
        "장"
      ],
      [
        "전",
        "했다"
      ],
      [
        "테",
        "이"
      ],
      [
        "활",
        "성"
      ],
      [
        "거",
        "리"
      ],
      [
        "게",
        "이"
      ],
      [
        "담",
        "보"
      ],
      [
        "품",
        "목"
      ],
      [
        "9",
        "월"
      ],
      [
        "넘",
        "어"
      ],
      [
        "연",
        "속"
      ],
      [
        "올",
        "랐"
      ],
      [
        "이",
        "전"
      ],
      [
        "프",
        "라"
      ],
      [
        "스토",
        "어"
      ],
      [
        "3",
        "월"
      ],
      [
        "간",
        "담"
      ],
      [
        "인",
        "증"
      ],
      [
        "과학",
        "기술"
      ],
      [
        "2019",
        "년"
      ],
      [
        "9",
        "0"
      ],
      [
        "공",
        "사"
      ],
      [
        "당",
        "시"
      ],
      [
        "마",
        "감"
      ],
      [
        "이",
        "유"
      ],
      [
        "노",
        "동"
      ],
      [
        "노",
        "조"
      ],
      [
        "방",
        "송"
      ],
      [
        "인",
        "천"
      ],
      [
        "시장",
        "에"
      ],
      [
        "정보",
        "통신"
      ],
      [
        "3",
        "5"
      ],
      [
        "비",
        "트"
      ],
      [
        "있",
        "게"
      ],
      [
        "있",
        "고"
      ],
      [
        "피",
        "해"
      ],
      [
        "클라우",
        "드"
      ],
      [
        "기",
        "는"
      ],
      [
        "단",
        "체"
      ],
      [
        "원",
        "으로"
      ],
      [
        "있",
        "으며"
      ],
      [
        "확",
        "장"
      ],
      [
        "20",
        "30"
      ],
      [
        "그",
        "런"
      ],
      [
        "선",
        "택"
      ],
      [
        "검",
        "토"
      ],
      [
        "관",
        "광"
      ],
      [
        "부",
        "가"
      ],
      [
        "여",
        "행"
      ],
      [
        "종",
        "목"
      ],
      [
        "종",
        "합"
      ],
      [
        "주",
        "의"
      ],
      [
        "책",
        "임"
      ],
      [
        "통",
        "합"
      ],
      [
        "렸",
        "다"
      ],
      [
        "변",
        "화"
      ],
      [
        "차",
        "지"
      ],
      [
        "카",
        "메"
      ],
      [
        "co",
        "m"
      ],
      [
        "8",
        "년"
      ],
      [
        "담",
        "당"
      ],
      [
        "수",
        "행"
      ],
      [
        "으",
        "나"
      ],
      [
        "인",
        "공"
      ],
      [
        "자",
        "금"
      ],
      [
        "소",
        "개"
      ],
      [
        "유",
        "치"
      ],
      [
        "영",
        "국"
      ],
      [
        "파트",
        "너"
      ],
      [
        "수수",
        "료"
      ],
      [
        "2",
        "1"
      ],
      [
        "않",
        "고"
      ],
      [
        "방안",
        "을"
      ],
      [
        "카메",
        "라"
      ],
      [
        "동",
        "기"
      ],
      [
        "되",
        "지"
      ],
      [
        "디",
        "오"
      ],
      [
        "량",
        "이"
      ],
      [
        "웨",
        "어"
      ],
      [
        "창",
        "업"
      ],
      [
        "토",
        "지"
      ],
      [
        "거래",
        "일"
      ],
      [
        "디",
        "어"
      ],
      [
        "또",
        "는"
      ],
      [
        "표",
        "준"
      ],
      [
        "협",
        "업"
      ],
      [
        "중소",
        "기업"
      ],
      [
        "원자",
        "재"
      ],
      [
        "공",
        "유"
      ],
      [
        "대",
        "전"
      ],
      [
        "라",
        "며"
      ],
      [
        "리",
        "티"
      ],
      [
        "방",
        "침"
      ],
      [
        "설",
        "계"
      ],
      [
        "조",
        "직"
      ],
      [
        "주",
        "행"
      ],
      [
        "협",
        "의"
      ],
      [
        "영향",
        "을"
      ],
      [
        "4",
        "년"
      ],
      [
        "I",
        "S"
      ],
      [
        "선",
        "을"
      ],
      [
        "스",
        "를"
      ],
      [
        "전",
        "달"
      ],
      [
        "최",
        "저"
      ],
      [
        "코",
        "리아"
      ],
      [
        "상품",
        "을"
      ],
      [
        "받",
        "은"
      ],
      [
        "원",
        "의"
      ],
      [
        "윤",
        "석"
      ],
      [
        "취",
        "약"
      ],
      [
        "치",
        "는"
      ],
      [
        "1",
        "월"
      ],
      [
        "2",
        "6"
      ],
      [
        "만",
        "나"
      ],
      [
        "만",
        "들"
      ],
      [
        "비",
        "즈"
      ],
      [
        "촬",
        "영"
      ],
      [
        "해",
        "결"
      ],
      [
        "효",
        "율"
      ],
      [
        "2022",
        "년"
      ],
      [
        "우려",
        "가"
      ],
      [
        "나온",
        "다"
      ],
      [
        "o",
        "n"
      ],
      [
        "부",
        "총"
      ],
      [
        "인",
        "정"
      ],
      [
        "전",
        "쟁"
      ],
      [
        "정보",
        "를"
      ],
      [
        "소비자",
        "물가"
      ],
      [
        "사",
        "와"
      ],
      [
        "실",
        "시"
      ],
      [
        "않",
        "은"
      ],
      [
        "정",
        "상"
      ],
      [
        "제",
        "한"
      ],
      [
        "000",
        "만"
      ],
      [
        "공급",
        "망"
      ],
      [
        "연구원",
        "은"
      ],
      [
        "위",
        "치"
      ],
      [
        "케",
        "어"
      ],
      [
        "한",
        "일"
      ],
      [
        "회",
        "복"
      ],
      [
        "거래",
        "소"
      ],
      [
        "외국",
        "인"
      ],
      [
        "가",
        "계"
      ],
      [
        "유",
        "류"
      ],
      [
        "제공",
        "한다"
      ],
      [
        "LG",
        "전자"
      ],
      [
        "ET",
        "F"
      ],
      [
        "2",
        "만"
      ],
      [
        "설",
        "립"
      ],
      [
        "오",
        "프"
      ],
      [
        "올",
        "라"
      ],
      [
        "원",
        "이"
      ],
      [
        "주",
        "유"
      ],
      [
        "시장",
        "을"
      ],
      [
        "10",
        "년"
      ],
      [
        "LG",
        "이노"
      ],
      [
        "ne",
        "ws"
      ],
      [
        "비트",
        "코인"
      ],
      [
        "LG이노",
        "텍"
      ],
      [
        "7",
        "5"
      ],
      [
        "고",
        "용"
      ],
      [
        "내",
        "려"
      ],
      [
        "네",
        "트"
      ],
      [
        "마",
        "케"
      ],
      [
        "연",
        "결"
      ],
      [
        "작",
        "업"
      ],
      [
        "주",
        "도"
      ],
      [
        "지",
        "능"
      ],
      [
        "7",
        "일"
      ],
      [
        "D",
        "C"
      ],
      [
        "권",
        "을"
      ],
      [
        "방",
        "법"
      ],
      [
        "오",
        "르"
      ],
      [
        "작",
        "년"
      ],
      [
        "이용",
        "자"
      ],
      [
        "F",
        "T"
      ],
      [
        "둔",
        "화"
      ],
      [
        "명",
        "의"
      ],
      [
        "텔",
        "레"
      ],
      [
        "윤석",
        "열"
      ],
      [
        "국",
        "토"
      ],
      [
        "누",
        "리"
      ],
      [
        "소",
        "유"
      ],
      [
        "에",
        "어"
      ],
      [
        "재",
        "생"
      ],
      [
        "측",
        "은"
      ],
      [
        "편",
        "의"
      ],
      [
        "했",
        "지만"
      ],
      [
        "투자",
        "를"
      ],
      [
        "가격",
        "은"
      ],
      [
        "간담",
        "회"
      ],
      [
        "3",
        "8"
      ],
      [
        "e",
        "n"
      ],
      [
        "되",
        "면"
      ],
      [
        "메",
        "이"
      ],
      [
        "오",
        "늘"
      ],
      [
        "입",
        "장"
      ],
      [
        "친",
        "환경"
      ],
      [
        "품",
        "질"
      ],
      [
        "사업",
        "자"
      ],
      [
        "우리",
        "나라"
      ],
      [
        "스타",
        "트"
      ],
      [
        "news",
        "is"
      ],
      [
        "1",
        "조"
      ],
      [
        "과",
        "제"
      ],
      [
        "우",
        "수"
      ],
      [
        "원",
        "에서"
      ],
      [
        "자",
        "율"
      ],
      [
        "제",
        "보"
      ],
      [
        "집",
        "계"
      ],
      [
        "크",
        "로"
      ],
      [
        "5",
        "G"
      ],
      [
        "i",
        "n"
      ],
      [
        "교",
        "수는"
      ],
      [
        "성",
        "능"
      ],
      [
        "소",
        "통"
      ],
      [
        "오",
        "픈"
      ],
      [
        "의",
        "미"
      ],
      [
        "주",
        "목"
      ],
      [
        "규모",
        "의"
      ],
      [
        "마케",
        "팅"
      ],
      [
        "a",
        "l"
      ],
      [
        "사",
        "례"
      ],
      [
        "에",
        "선"
      ],
      [
        "쳤",
        "다"
      ],
      [
        "t",
        "o"
      ],
      [
        "감",
        "독"
      ],
      [
        "물",
        "론"
      ],
      [
        "분",
        "의"
      ],
      [
        "소",
        "득"
      ],
      [
        "젝",
        "트"
      ],
      [
        "지",
        "정"
      ],
      [
        "기준",
        "으로"
      ],
      [
        "제품",
        "을"
      ],
      [
        "프로",
        "젝트"
      ],
      [
        "수도",
        "권"
      ],
      [
        "골",
        "프"
      ],
      [
        "받",
        "고"
      ],
      [
        "인",
        "력"
      ],
      [
        "줄",
        "어"
      ],
      [
        "지",
        "방"
      ],
      [
        "은행",
        "은"
      ],
      [
        "스타트",
        "업"
      ],
      [
        "공",
        "모"
      ],
      [
        "당",
        "국"
      ],
      [
        "만",
        "들어"
      ],
      [
        "바",
        "탕"
      ],
      [
        "발",
        "사"
      ],
      [
        "생",
        "태"
      ],
      [
        "인",
        "재"
      ],
      [
        "시장",
        "이"
      ],
      [
        "주유",
        "소"
      ],
      [
        "a",
        "n"
      ],
      [
        "가",
        "동"
      ],
      [
        "상",
        "당"
      ],
      [
        "지",
        "도"
      ],
      [
        "금",
        "액"
      ],
      [
        "기",
        "다"
      ],
      [
        "이",
        "스"
      ],
      [
        "임",
        "대"
      ],
      [
        "지",
        "구"
      ],
      [
        "했",
        "으며"
      ],
      [
        "필요",
        "하다"
      ],
      [
        "비즈",
        "니스"
      ],
      [
        "C",
        "J"
      ],
      [
        "사",
        "태"
      ],
      [
        "인",
        "한"
      ],
      [
        "상황",
        "을"
      ],
      [
        "3",
        "4"
      ],
      [
        "나",
        "갈"
      ],
      [
        "물",
        "을"
      ],
      [
        "제공",
        "하는"
      ],
      [
        "CE",
        "O"
      ],
      [
        "상",
        "이"
      ],
      [
        "여",
        "부"
      ],
      [
        "으",
        "면"
      ],
      [
        "점",
        "에서"
      ],
      [
        "가능",
        "성"
      ],
      [
        "텔레",
        "콤"
      ],
      [
        "가",
        "까"
      ],
      [
        "같",
        "이"
      ],
      [
        "변",
        "경"
      ],
      [
        "사",
        "에서"
      ],
      [
        "외",
        "환"
      ],
      [
        "움",
        "직"
      ],
      [
        "중",
        "단"
      ],
      [
        "역할",
        "을"
      ],
      [
        "네트",
        "워크"
      ],
      [
        "되",
        "며"
      ],
      [
        "디",
        "자인"
      ],
      [
        "서",
        "를"
      ],
      [
        "아",
        "직"
      ],
      [
        "지",
        "면서"
      ],
      [
        "청",
        "약"
      ],
      [
        "통",
        "화"
      ],
      [
        "화",
        "된"
      ],
      [
        "블록",
        "체인"
      ],
      [
        "바탕",
        "으로"
      ],
      [
        "그",
        "렇"
      ],
      [
        "대",
        "책"
      ],
      [
        "보",
        "건"
      ],
      [
        "예",
        "금"
      ],
      [
        "정",
        "기"
      ],
      [
        "제",
        "약"
      ],
      [
        "페",
        "인"
      ],
      [
        "7",
        "7"
      ],
      [
        "반",
        "면"
      ],
      [
        "부",
        "품"
      ],
      [
        "수",
        "가"
      ],
      [
        "스",
        "크"
      ],
      [
        "임",
        "직원"
      ],
      [
        "화",
        "학"
      ],
      [
        "활용",
        "해"
      ],
      [
        "1",
        "분기"
      ],
      [
        "것",
        "이라는"
      ],
      [
        "매",
        "도"
      ],
      [
        "빠",
        "르게"
      ],
      [
        "이",
        "와"
      ],
      [
        "이",
        "었다"
      ],
      [
        "중",
        "구"
      ],
      [
        "진",
        "다"
      ],
      [
        "시장",
        "의"
      ],
      [
        "투자",
        "증권"
      ],
      [
        "11",
        "월"
      ],
      [
        "비롯",
        "해"
      ],
      [
        "나",
        "가"
      ],
      [
        "맞",
        "춤"
      ],
      [
        "먼",
        "저"
      ],
      [
        "상",
        "공"
      ],
      [
        "업",
        "종"
      ],
      [
        "원",
        "유"
      ],
      [
        "전",
        "날"
      ],
      [
        "검",
        "증"
      ],
      [
        "과",
        "기"
      ],
      [
        "들",
        "도"
      ],
      [
        "리",
        "가"
      ],
      [
        "헬",
        "스"
      ],
      [
        "호",
        "텔"
      ],
      [
        "억원",
        "을"
      ],
      [
        "SK",
        "텔레콤"
      ],
      [
        "현대",
        "차"
      ],
      [
        "생태",
        "계"
      ],
      [
        "M",
        "O"
      ],
      [
        "h",
        "o"
      ],
      [
        "결",
        "합"
      ],
      [
        "나",
        "는"
      ],
      [
        "모",
        "듈"
      ],
      [
        "베",
        "트"
      ],
      [
        "인",
        "간"
      ],
      [
        "산업",
        "통상"
      ],
      [
        "베트",
        "남"
      ],
      [
        "대",
        "회"
      ],
      [
        "밖",
        "에"
      ],
      [
        "정",
        "통"
      ],
      [
        "출",
        "범"
      ],
      [
        "큐",
        "브"
      ],
      [
        "하",
        "거나"
      ],
      [
        "한",
        "화"
      ],
      [
        "202",
        "1년"
      ],
      [
        "스마트",
        "폰"
      ],
      [
        "기",
        "사"
      ],
      [
        "대",
        "체"
      ],
      [
        "인",
        "프라"
      ],
      [
        "조",
        "치"
      ],
      [
        "중",
        "립"
      ],
      [
        "차",
        "관"
      ],
      [
        "하",
        "루"
      ],
      [
        "현지",
        "시간"
      ],
      [
        "2",
        "일"
      ],
      [
        "각",
        "종"
      ],
      [
        "개",
        "의"
      ],
      [
        "대",
        "구"
      ],
      [
        "덧",
        "붙"
      ],
      [
        "롭",
        "게"
      ],
      [
        "장",
        "애"
      ],
      [
        "주",
        "파"
      ],
      [
        "찾",
        "아"
      ],
      [
        "기반",
        "으로"
      ],
      [
        "그러",
        "나"
      ],
      [
        "산업통상",
        "자원"
      ],
      [
        "D",
        "I"
      ],
      [
        "N",
        "FT"
      ],
      [
        "등",
        "급"
      ],
      [
        "식",
        "을"
      ],
      [
        "왼",
        "쪽"
      ],
      [
        "주",
        "로"
      ],
      [
        "학",
        "생"
      ],
      [
        "금리",
        "가"
      ],
      [
        "경기",
        "침체"
      ],
      [
        "활동",
        "을"
      ],
      [
        ".",
        "."
      ],
      [
        "고",
        "를"
      ],
      [
        "공",
        "시"
      ],
      [
        "구",
        "미"
      ],
      [
        "급",
        "등"
      ],
      [
        "시",
        "키"
      ],
      [
        "예",
        "측"
      ],
      [
        "전",
        "반"
      ],
      [
        "점",
        "이"
      ],
      [
        "조",
        "성"
      ],
      [
        "푸",
        "드"
      ],
      [
        "시장",
        "은"
      ],
      [
        "앞으로",
        "도"
      ],
      [
        "구",
        "체"
      ],
      [
        "사",
        "전"
      ],
      [
        "앵",
        "커"
      ],
      [
        "운",
        "드"
      ],
      [
        "이",
        "터"
      ],
      [
        "인",
        "이"
      ],
      [
        "전",
        "경"
      ],
      [
        "필",
        "즈"
[...]
