{
  "version": "1.0",
  "truncation": null,
  "padding": null,
  "added_tokens": [
    {
      "id": 0,
      "content": "[UNK]",
      "single_word": false,
      "lstrip": false,
      "rstrip": false,
      "normalized": false,
      "special": true
    },
    {
      "id": 1,
      "content": "[PAD]",
      "single_word": false,
      "lstrip": false,
      "rstrip": false,
      "normalized": false,
      "special": true
    },
    {
      "id": 2,
      "content": "[CLS]",
      "single_word": false,
      "lstrip": false,
      "rstrip": false,
      "normalized": false,
      "special": true
    },
    {
      "id": 3,
      "content": "[SEP]",
      "single_word": false,
      "lstrip": false,
      "rstrip": false,
      "normalized": false,
      "special": true
    },
    {
      "id": 4,
      "content": "[MASK]",
      "single_word": false,
      "lstrip": false,
      "rstrip": false,
      "normalized": false,
      "special": true
    }
  ],
  "normalizer": null,
  "pre_tokenizer": {
    "type": "Whitespace"
  },
  "post_processor": null,
  "decoder": null,
  "model": {
    "type": "BPE",
    "dropout": null,
    "unk_token": "[UNK]",
    "continuing_subword_prefix": null,
    "end_of_word_suffix": null,
    "fuse_unk": false,
    "byte_fallback": false,
    "ignore_merges": false,
    "vocab": {
      "[UNK]": 0,
      "[PAD]": 1,
      "[CLS]": 2,
      "[SEP]": 3,
      "[MASK]": 4,
      ".": 5,
      "0": 6,
      "1": 7,
      "2": 8,
      "3": 9,
      "4": 10,
      "5": 11,
      "6": 12,
      "7": 13,
      "8": 14,
      "9": 15,
      "A": 16,
      "B": 17,
      "C": 18,
      "D": 19,
      "E": 20,
      "F": 21,
      "G": 22,
      "H": 23,
      "I": 24,
      "J": 25,
      "K": 26,
      "L": 27,
      "M": 28,
      "N": 29,
      "O": 30,
      "P": 31,
      "Q": 32,
      "R": 33,
      "S": 34,
      "T": 35,
      "U": 36,
      "V": 37,
      "W": 38,
      "X": 39,
      "Y": 40,
      "Z": 41,
      "a": 42,
      "b": 43,
      "c": 44,
      "d": 45,
      "e": 46,
      "f": 47,
      "g": 48,
      "h": 49,
      "i": 50,
      "j": 51,
      "k": 52,
      "l": 53,
      "m": 54,
      "n": 55,
      "o": 56,
      "p": 57,
      "q": 58,
      "r": 59,
      "s": 60,
      "t": 61,
      "u": 62,
      "v": 63,
      "w": 64,
      "x": 65,
      "y": 66,
      "z": 67,
      "가": 68,
      "각": 69,
      "간": 70,
      "갇": 71,
      "갈": 72,
      "갉": 73,
      "감": 74,
      "갑": 75,
      "값": 76,
      "갓": 77,
      "갔": 78,
      "강": 79,
      "갖": 80,
      "같": 81,
      "갚": 82,
      "갛": 83,
      "개": 84,
      "객": 85,
      "갠": 86,
      "갤": 87,
      "갬": 88,
      "갭": 89,
      "갯": 90,
      "갰": 91,
      "갱": 92,
      "갸": 93,
      "갹": 94,
      "걀": 95,
      "걍": 96,
      "걔": 97,
      "거": 98,
      "걱": 99,
      "건": 100,
      "걷": 101,
      "걸": 102,
      "검": 103,
      "겁": 104,
      "것": 105,
      "겅": 106,
      "겆": 107,
      "겉": 108,
      "게": 109,
      "겐": 110,
      "겔": 111,
      "겜": 112,
      "겟": 113,
      "겠": 114,
      "겨": 115,
      "격": 116,
      "겪": 117,
      "견": 118,
      "겯": 119,
      "결": 120,
      "겸": 121,
      "겹": 122,
      "겻": 123,
      "겼": 124,
      "경": 125,
      "곁": 126,
      "계": 127,
      "고": 128,
      "곡": 129,
      "곤": 130,
      "곧": 131,
      "골": 132,
      "곪": 133,
      "곰": 134,
      "곱": 135,
      "곳": 136,
      "공": 137,
      "곶": 138,
      "과": 139,
      "곽": 140,
      "관": 141,
      "괄": 142,
      "괌": 143,
      "괍": 144,
      "괏": 145,
      "광": 146,
      "괘": 147,
      "괜": 148,
      "괭": 149,
      "괴": 150,
      "괵": 151,
      "괸": 152,
      "굉": 153,
      "교": 154,
      "굣": 155,
      "구": 156,
      "국": 157,
      "군": 158,
      "굳": 159,
      "굴": 160,
      "굵": 161,
      "굶": 162,
      "굼": 163,
      "굽": 164,
      "굿": 165,
      "궁": 166,
      "궂": 167,
      "궈": 168,
      "권": 169,
      "궐": 170,
      "궜": 171,
      "궤": 172,
      "귀": 173,
      "귄": 174,
      "규": 175,
      "균": 176,
      "귤": 177,
      "귬": 178,
      "그": 179,
      "극": 180,
      "근": 181,
      "글": 182,
      "긁": 183,
      "금": 184,
      "급": 185,
      "긋": 186,
      "긍": 187,
      "기": 188,
      "긱": 189,
      "긴": 190,
      "길": 191,
      "김": 192,
      "깁": 193,
      "깃": 194,
      "깅": 195,
      "깊": 196,
      "까": 197,
      "깍": 198,
      "깎": 199,
      "깐": 200,
      "깔": 201,
      "깜": 202,
      "깝": 203,
      "깡": 204,
      "깥": 205,
      "깨": 206,
      "깬": 207,
      "깰": 208,
      "깻": 209,
      "깼": 210,
      "꺼": 211,
      "꺽": 212,
      "꺾": 213,
      "껀": 214,
      "껄": 215,
      "껌": 216,
      "껍": 217,
      "껏": 218,
      "껐": 219,
      "껑": 220,
      "께": 221,
      "껫": 222,
      "껴": 223,
      "꼈": 224,
      "꼐": 225,
      "꼬": 226,
      "꼭": 227,
      "꼰": 228,
      "꼴": 229,
      "꼼": 230,
      "꼽": 231,
      "꽁": 232,
      "꽂": 233,
      "꽃": 234,
      "꽈": 235,
      "꽉": 236,
      "꽝": 237,
      "꽤": 238,
      "꾀": 239,
      "꾐": 240,
      "꾸": 241,
      "꾹": 242,
      "꾼": 243,
      "꿀": 244,
      "꿇": 245,
      "꿈": 246,
      "꿉": 247,
      "꿋": 248,
      "꿍": 249,
      "꿎": 250,
      "꿔": 251,
      "꿨": 252,
      "꿩": 253,
      "꿰": 254,
      "뀌": 255,
      "뀐": 256,
      "뀔": 257,
      "뀜": 258,
      "뀝": 259,
      "끄": 260,
      "끈": 261,
      "끊": 262,
      "끌": 263,
      "끓": 264,
      "끔": 265,
      "끕": 266,
      "끗": 267,
      "끙": 268,
      "끝": 269,
      "끼": 270,
      "끽": 271,
      "낀": 272,
      "낄": 273,
      "낌": 274,
      "낍": 275,
      "나": 276,
      "낙": 277,
      "낚": 278,
      "난": 279,
      "날": 280,
      "낡": 281,
      "남": 282,
      "납": 283,
      "낫": 284,
      "났": 285,
      "낭": 286,
      "낮": 287,
      "낯": 288,
      "낱": 289,
      "낳": 290,
      "내": 291,
      "낵": 292,
      "낸": 293,
      "낼": 294,
      "냄": 295,
      "냅": 296,
      "냇": 297,
      "냈": 298,
      "냉": 299,
      "냐": 300,
      "냑": 301,
      "냔": 302,
      "냠": 303,
      "냥": 304,
      "너": 305,
      "넉": 306,
      "넌": 307,
      "널": 308,
      "넒": 309,
      "넓": 310,
      "넘": 311,
      "넙": 312,
      "넛": 313,
      "넜": 314,
      "넝": 315,
      "넣": 316,
      "네": 317,
      "넥": 318,
      "넨": 319,
      "넬": 320,
      "넵": 321,
      "넷": 322,
      "넸": 323,
      "녀": 324,
      "녁": 325,
      "년": 326,
      "념": 327,
      "녔": 328,
      "녕": 329,
      "녘": 330,
      "노": 331,
      "녹": 332,
      "논": 333,
      "놀": 334,
      "놈": 335,
      "놉": 336,
      "농": 337,
      "높": 338,
      "놓": 339,
      "놔": 340,
      "놨": 341,
      "뇌": 342,
      "뇨": 343,
      "뇽": 344,
      "누": 345,
      "눅": 346,
      "눈": 347,
      "눌": 348,
      "눔": 349,
      "눕": 350,
      "눗": 351,
      "눠": 352,
      "눴": 353,
      "뉘": 354,
      "뉜": 355,
      "뉠": 356,
      "뉩": 357,
      "뉴": 358,
      "늄": 359,
      "늇": 360,
      "늉": 361,
      "느": 362,
      "늑": 363,
      "는": 364,
      "늘": 365,
      "늙": 366,
      "늠": 367,
      "늡": 368,
      "능": 369,
      "늦": 370,
      "늪": 371,
      "늬": 372,
      "니": 373,
      "닉": 374,
      "닌": 375,
      "닐": 376,
      "님": 377,
      "닙": 378,
      "닛": 379,
      "닝": 380,
      "다": 381,
      "닥": 382,
      "닦": 383,
      "단": 384,
      "닫": 385,
      "달": 386,
      "닭": 387,
      "닮": 388,
      "닳": 389,
      "담": 390,
      "답": 391,
      "닷": 392,
      "당": 393,
      "닻": 394,
      "닿": 395,
      "대": 396,
      "댁": 397,
      "댄": 398,
      "댈": 399,
      "댐": 400,
      "댑": 401,
      "댓": 402,
      "댔": 403,
      "댕": 404,
      "댜": 405,
      "댠": 406,
      "더": 407,
      "덕": 408,
      "던": 409,
      "덜": 410,
      "덟": 411,
      "덤": 412,
      "덥": 413,
      "덧": 414,
      "덩": 415,
      "덫": 416,
      "덮": 417,
      "데": 418,
      "덱": 419,
      "덴": 420,
      "델": 421,
      "뎀": 422,
      "뎁": 423,
      "뎃": 424,
      "뎅": 425,
      "뎌": 426,
      "뎠": 427,
      "뎬": 428,
      "도": 429,
      "독": 430,
      "돈": 431,
      "돋": 432,
      "돌": 433,
      "돔": 434,
      "돕": 435,
      "돗": 436,
      "동": 437,
      "돛": 438,
      "돤": 439,
      "돼": 440,
      "됏": 441,
      "됐": 442,
      "되": 443,
      "된": 444,
      "될": 445,
      "됨": 446,
      "됩": 447,
      "두": 448,
      "둑": 449,
      "둔": 450,
      "둘": 451,
      "둠": 452,
      "둡": 453,
      "둣": 454,
      "둥": 455,
      "둬": 456,
      "뒀": 457,
      "뒤": 458,
      "뒷": 459,
      "뒹": 460,
      "듀": 461,
      "듈": 462,
      "듐": 463,
      "드": 464,
      "득": 465,
      "든": 466,
      "듣": 467,
      "들": 468,
      "듦": 469,
      "듬": 470,
      "듭": 471,
      "듯": 472,
      "등": 473,
      "디": 474,
      "딕": 475,
      "딘": 476,
      "딛": 477,
      "딜": 478,
      "딤": 479,
      "딥": 480,
      "딧": 481,
      "딩": 482,
      "딪": 483,
      "따": 484,
      "딱": 485,
      "딴": 486,
      "딸": 487,
      "땀": 488,
      "땄": 489,
      "땅": 490,
      "때": 491,
      "땐": 492,
      "땔": 493,
      "땜": 494,
      "땠": 495,
      "땡": 496,
      "떄": 497,
      "떠": 498,
      "떡": 499,
      "떤": 500,
      "떨": 501,
      "떴": 502,
      "떻": 503,
      "떼": 504,
      "뗀": 505,
      "뗄": 506,
      "뗍": 507,
      "뗏": 508,
      "뗐": 509,
      "뗴": 510,
      "뗼": 511,
      "또": 512,
      "똑": 513,
      "똘": 514,
      "똠": 515,
      "똥": 516,
      "똬": 517,
      "뙤": 518,
      "뚜": 519,
      "뚝": 520,
      "뚫": 521,
      "뚱": 522,
      "뛰": 523,
      "뛴": 524,
      "뛸": 525,
      "뜀": 526,
      "뜁": 527,
      "뜨": 528,
      "뜩": 529,
      "뜬": 530,
      "뜯": 531,
      "뜰": 532,
      "뜸": 533,
      "뜹": 534,
      "뜻": 535,
      "띄": 536,
      "띈": 537,
      "띌": 538,
      "띔": 539,
      "띕": 540,
      "띠": 541,
      "띤": 542,
      "띨": 543,
      "띱": 544,
      "띵": 545,
      "라": 546,
      "락": 547,
      "란": 548,
      "랄": 549,
      "람": 550,
      "랍": 551,
      "랏": 552,
      "랐": 553,
      "랑": 554,
      "랗": 555,
      "래": 556,
      "랙": 557,
      "랜": 558,
      "랠": 559,
      "램": 560,
      "랩": 561,
      "랫": 562,
      "랬": 563,
      "랭": 564,
      "랲": 565,
      "랴": 566,
      "략": 567,
      "랸": 568,
      "럈": 569,
      "량": 570,
      "러": 571,
      "럭": 572,
      "런": 573,
      "럴": 574,
      "럼": 575,
      "럽": 576,
      "럿": 577,
      "렀": 578,
      "렁": 579,
      "렇": 580,
      "레": 581,
      "렉": 582,
      "렌": 583,
      "렐": 584,
      "렘": 585,
      "렙": 586,
      "렛": 587,
      "렝": 588,
      "려": 589,
      "력": 590,
      "련": 591,
      "렬": 592,
      "렴": 593,
      "렵": 594,
      "렷": 595,
      "렸": 596,
      "령": 597,
      "례": 598,
      "롄": 599,
      "롑": 600,
      "로": 601,
      "록": 602,
      "론": 603,
      "롤": 604,
      "롬": 605,
      "롭": 606,
      "롯": 607,
      "롱": 608,
      "롸": 609,
      "뢰": 610,
      "룀": 611,
      "료": 612,
      "룟": 613,
      "룡": 614,
      "루": 615,
      "룩": 616,
      "룬": 617,
      "룰": 618,
      "룸": 619,
      "룹": 620,
      "룻": 621,
      "룽": 622,
      "뤄": 623,
      "뤈": 624,
      "뤘": 625,
      "뤼": 626,
      "륀": 627,
      "류": 628,
      "륙": 629,
      "륜": 630,
      "률": 631,
      "륨": 632,
      "륭": 633,
      "르": 634,
      "륵": 635,
      "른": 636,
      "를": 637,
      "름": 638,
      "릅": 639,
      "릇": 640,
      "릉": 641,
      "릍": 642,
      "릎": 643,
      "릐": 644,
      "리": 645,
      "릭": 646,
      "린": 647,
      "릴": 648,
      "림": 649,
      "립": 650,
      "릿": 651,
      "링": 652,
      "마": 653,
      "막": 654,
      "만": 655,
      "많": 656,
      "맏": 657,
      "말": 658,
      "맑": 659,
      "맘": 660,
      "맙": 661,
      "맛": 662,
      "망": 663,
      "맞": 664,
      "맡": 665,
      "맣": 666,
      "매": 667,
      "맥": 668,
      "맨": 669,
      "맬": 670,
      "맴": 671,
      "맵": 672,
      "맷": 673,
      "맸": 674,
      "맹": 675,
      "맺": 676,
      "먀": 677,
      "머": 678,
      "먹": 679,
      "먼": 680,
      "멀": 681,
      "멈": 682,
      "멉": 683,
      "멋": 684,
      "멍": 685,
      "멎": 686,
      "메": 687,
      "멕": 688,
      "멘": 689,
      "멜": 690,
      "멤": 691,
      "멥": 692,
      "멧": 693,
      "멩": 694,
      "며": 695,
      "면": 696,
      "멸": 697,
      "몄": 698,
      "명": 699,
      "몇": 700,
      "모": 701,
      "목": 702,
      "몫": 703,
      "몬": 704,
      "몰": 705,
      "몸": 706,
      "몹": 707,
      "못": 708,
      "몽": 709,
      "뫼": 710,
      "묘": 711,
      "묠": 712,
      "무": 713,
      "묵": 714,
      "묶": 715,
      "문": 716,
      "묻": 717,
      "물": 718,
      "묽": 719,
      "뭄": 720,
      "뭅": 721,
      "뭇": 722,
      "뭉": 723,
      "뭐": 724,
      "뭔": 725,
      "뭘": 726,
      "뭡": 727,
      "뮌": 728,
      "뮐": 729,
      "뮤": 730,
      "뮨": 731,
      "뮬": 732,
      "뮴": 733,
      "므": 734,
      "믈": 735,
      "믐": 736,
      "미": 737,
      "믹": 738,
      "민": 739,
      "믿": 740,
      "밀": 741,
      "밈": 742,
      "밉": 743,
      "밋": 744,
      "밌": 745,
      "밍": 746,
      "밎": 747,
      "및": 748,
      "밑": 749,
      "바": 750,
      "박": 751,
      "밖": 752,
      "반": 753,
      "받": 754,
      "발": 755,
      "밝": 756,
      "밞": 757,
      "밟": 758,
      "밤": 759,
      "밥": 760,
      "밧": 761,
      "방": 762,
      "밭": 763,
      "배": 764,
      "백": 765,
      "밴": 766,
      "밸": 767,
      "뱀": 768,
      "뱁": 769,
      "뱃": 770,
      "뱄": 771,
      "뱅": 772,
      "뱉": 773,
      "뱍": 774,
      "뱐": 775,
      "뱡": 776,
      "버": 777,
      "벅": 778,
      "번": 779,
      "벌": 780,
      "범": 781,
      "법": 782,
      "벗": 783,
      "벙": 784,
      "벚": 785,
      "베": 786,
      "벡": 787,
      "벤": 788,
      "벨": 789,
      "벳": 790,
      "벵": 791,
      "벼": 792,
      "벽": 793,
      "변": 794,
      "별": 795,
      "볍": 796,
      "볏": 797,
      "볐": 798,
      "병": 799,
      "볕": 800,
      "보": 801,
      "복": 802,
      "볶": 803,
      "본": 804,
      "볼": 805,
      "봄": 806,
      "봅": 807,
      "봇": 808,
      "봉": 809,
      "봐": 810,
      "봤": 811,
      "봬": 812,
      "뵀": 813,
      "뵈": 814,
      "뵌": 815,
      "뵐": 816,
      "뵙": 817,
      "부": 818,
      "북": 819,
      "분": 820,
      "붇": 821,
      "불": 822,
      "붉": 823,
      "붐": 824,
      "붑": 825,
      "붓": 826,
      "붕": 827,
      "붖": 828,
      "붙": 829,
      "붜": 830,
      "뷔": 831,
      "뷜": 832,
      "뷰": 833,
      "뷸": 834,
      "브": 835,
      "븐": 836,
      "블": 837,
      "비": 838,
      "빅": 839,
      "빈": 840,
      "빌": 841,
      "빔": 842,
      "빕": 843,
      "빗": 844,
      "빙": 845,
      "빚": 846,
      "빛": 847,
      "빠": 848,
      "빡": 849,
      "빤": 850,
      "빨": 851,
      "빱": 852,
      "빴": 853,
      "빵": 854,
      "빼": 855,
      "빽": 856,
      "뺀": 857,
      "뺄": 858,
      "뺏": 859,
      "뺐": 860,
      "뺨": 861,
      "뻐": 862,
      "뻑": 863,
      "뻔": 864,
      "뻗": 865,
      "뻘": 866,
      "뻤": 867,
      "뻥": 868,
      "뻬": 869,
      "뼈": 870,
      "뼉": 871,
      "뼛": 872,
      "뽀": 873,
      "뽁": 874,
      "뽐": 875,
      "뽑": 876,
      "뽕": 877,
      "뾰": 878,
      "뿅": 879,
      "뿌": 880,
      "뿍": 881,
      "뿐": 882,
      "뿔": 883,
      "뿜": 884,
      "쁘": 885,
      "쁜": 886,
      "쁠": 887,
      "쁨": 888,
      "쁩": 889,
      "삐": 890,
      "사": 891,
      "삭": 892,
      "산": 893,
      "살": 894,
      "삶": 895,
      "삼": 896,
      "삽": 897,
      "삿": 898,
      "샀": 899,
      "상": 900,
      "새": 901,
      "색": 902,
      "샌": 903,
      "샐": 904,
      "샘": 905,
      "샙": 906,
      "샛": 907,
      "샜": 908,
      "생": 909,
      "샤": 910,
      "샨": 911,
      "샬": 912,
      "샴": 913,
      "샵": 914,
      "샷": 915,
      "샹": 916,
      "섀": 917,
      "섐": 918,
      "서": 919,
      "석": 920,
      "섞": 921,
      "선": 922,
      "섣": 923,
      "설": 924,
      "섬": 925,
      "섭": 926,
      "섯": 927,
      "섰": 928,
      "성": 929,
      "세": 930,
      "섹": 931,
      "센": 932,
      "셀": 933,
      "셈": 934,
      "셉": 935,
      "셋": 936,
      "셌": 937,
      "셍": 938,
      "셔": 939,
      "션": 940,
      "셜": 941,
      "셤": 942,
      "셧": 943,
      "셨": 944,
      "셰": 945,
      "셸": 946,
      "소": 947,
      "속": 948,
      "솎": 949,
      "손": 950,
      "솔": 951,
      "솜": 952,
      "솝": 953,
      "솟": 954,
      "송": 955,
      "솥": 956,
      "솦": 957,
      "솽": 958,
      "쇄": 959,
      "쇠": 960,
      "쇤": 961,
      "쇳": 962,
      "쇼": 963,
      "숄": 964,
      "숍": 965,
      "숏": 966,
      "숑": 967,
      "수": 968,
      "숙": 969,
      "순": 970,
      "숟": 971,
      "술": 972,
      "숨": 973,
      "숩": 974,
      "숫": 975,
      "숭": 976,
      "숯": 977,
      "숱": 978,
      "숲": 979,
      "숴": 980,
      "쉐": 981,
      "쉑": 982,
      "쉔": 983,
      "쉘": 984,
      "쉥": 985,
      "쉬": 986,
      "쉰": 987,
      "쉴": 988,
      "쉼": 989,
      "쉽": 990,
      "슈": 991,
      "슌": 992,
      "슐": 993,
      "슘": 994,
      "슝": 995,
      "스": 996,
      "슨": 997,
      "슬": 998,
      "슭": 999,
      "슴": 1000,
      "습": 1001,
      "슷": 1002,
      "승": 1003,
      "시": 1004,
      "식": 1005,
      "신": 1006,
      "싣": 1007,
      "실": 1008,
      "싫": 1009,
      "심": 1010,
      "십": 1011,
      "싯": 1012,
      "싱": 1013,
      "싶": 1014,
      "싸": 1015,
      "싹": 1016,
      "싼": 1017,
      "쌀": 1018,
      "쌈": 1019,
      "쌉": 1020,
      "쌌": 1021,
      "쌍": 1022,
      "쌓": 1023,
      "쌔": 1024,
      "쌘": 1025,
      "쌤": 1026,
      "쌩": 1027,
      "써": 1028,
      "썩": 1029,
      "썬": 1030,
      "썰": 1031,
      "썸": 1032,
      "썹": 1033,
      "썼": 1034,
      "썽": 1035,
      "쎄": 1036,
      "쎈": 1037,
      "쎌": 1038,
      "쏘": 1039,
      "쏙": 1040,
      "쏜": 1041,
      "쏟": 1042,
      "쏠": 1043,
      "쏭": 1044,
      "쏴": 1045,
      "쐈": 1046,
      "쐐": 1047,
      "쐬": 1048,
      "쑤": 1049,
      "쑥": 1050,
      "쑨": 1051,
      "쓰": 1052,
      "쓱": 1053,
      "쓴": 1054,
      "쓸": 1055,
      "씀": 1056,
      "씁": 1057,
      "씌": 1058,
      "씨": 1059,
      "씩": 1060,
      "씬": 1061,
      "씰": 1062,
      "씸": 1063,
      "씹": 1064,
      "씻": 1065,
      "씽": 1066,
      "아": 1067,
      "악": 1068,
      "안": 1069,
      "앉": 1070,
      "않": 1071,
      "알": 1072,
      "앓": 1073,
      "암": 1074,
      "압": 1075,
      "앗": 1076,
      "았": 1077,
      "앙": 1078,
      "앞": 1079,
      "애": 1080,
      "액": 1081,
      "앤": 1082,
      "앨": 1083,
      "앰": 1084,
      "앱": 1085,
      "앳": 1086,
      "앴": 1087,
      "앵": 1088,
      "야": 1089,
      "약": 1090,
      "얀": 1091,
      "얄": 1092,
      "얆": 1093,
      "얇": 1094,
      "얌": 1095,
      "얍": 1096,
      "얏": 1097,
      "양": 1098,
      "얕": 1099,
      "얗": 1100,
      "얘": 1101,
      "어": 1102,
      "억": 1103,
      "언": 1104,
      "얹": 1105,
      "얻": 1106,
      "얼": 1107,
      "얽": 1108,
      "엄": 1109,
      "업": 1110,
      "없": 1111,
      "엇": 1112,
      "었": 1113,
      "엉": 1114,
      "엊": 1115,
      "엌": 1116,
      "엎": 1117,
      "에": 1118,
      "엑": 1119,
      "엔": 1120,
      "엘": 1121,
      "엠": 1122,
      "엡": 1123,
      "엣": 1124,
      "엥": 1125,
      "여": 1126,
      "역": 1127,
      "엮": 1128,
      "연": 1129,
      "열": 1130,
      "엷": 1131,
      "염": 1132,
      "엽": 1133,
      "엿": 1134,
      "였": 1135,
      "영": 1136,
      "옅": 1137,
      "옆": 1138,
      "옇": 1139,
      "예": 1140,
      "옌": 1141,
      "옐": 1142,
      "옛": 1143,
      "오": 1144,
      "옥": 1145,
      "온": 1146,
      "올": 1147,
      "옭": 1148,
      "옮": 1149,
      "옳": 1150,
      "옴": 1151,
      "옵": 1152,
      "옷": 1153,
      "옹": 1154,
      "와": 1155,
      "왁": 1156,
      "완": 1157,
      "왈": 1158,
      "왑": 1159,
      "왓": 1160,
      "왔": 1161,
      "왕": 1162,
      "왜": 1163,
      "왠": 1164,
      "외": 1165,
      "왹": 1166,
      "왼": 1167,
      "요": 1168,
      "욕": 1169,
      "욘": 1170,
      "욜": 1171,
      "욤": 1172,
      "욥": 1173,
      "용": 1174,
      "우": 1175,
      "욱": 1176,
      "운": 1177,
      "욷": 1178,
      "울": 1179,
      "움": 1180,
      "웁": 1181,
      "웃": 1182,
      "웅": 1183,
      "워": 1184,
      "웍": 1185,
      "원": 1186,
      "월": 1187,
      "웜": 1188,
      "웠": 1189,
      "웡": 1190,
      "웨": 1191,
      "웬": 1192,
      "웰": 1193,
      "웸": 1194,
      "웹": 1195,
      "웻": 1196,
      "위": 1197,
      "윅": 1198,
      "윈": 1199,
      "윌": 1200,
      "윔": 1201,
      "윕": 1202,
      "윗": 1203,
      "윙": 1204,
      "유": 1205,
      "육": 1206,
      "윤": 1207,
      "율": 1208,
      "윱": 1209,
      "윳": 1210,
      "융": 1211,
      "으": 1212,
      "윽": 1213,
      "은": 1214,
      "을": 1215,
      "음": 1216,
      "읍": 1217,
      "읏": 1218,
      "응": 1219,
      "의": 1220,
      "읠": 1221,
      "이": 1222,
      "익": 1223,
      "인": 1224,
      "일": 1225,
      "읽": 1226,
      "잃": 1227,
      "임": 1228,
      "입": 1229,
      "잇": 1230,
      "있": 1231,
      "잉": 1232,
      "잊": 1233,
      "잎": 1234,
      "자": 1235,
      "작": 1236,
      "잔": 1237,
      "잖": 1238,
      "잘": 1239,
      "잠": 1240,
      "잡": 1241,
      "잣": 1242,
      "잤": 1243,
      "장": 1244,
      "잦": 1245,
      "재": 1246,
      "잭": 1247,
      "잰": 1248,
      "잼": 1249,
      "잽": 1250,
      "잿": 1251,
      "쟁": 1252,
      "쟈": 1253,
      "쟝": 1254,
      "쟤": 1255,
      "저": 1256,
      "적": 1257,
      "전": 1258,
      "절": 1259,
      "젊": 1260,
      "젋": 1261,
      "점": 1262,
      "접": 1263,
      "젓": 1264,
      "정": 1265,
      "젖": 1266,
      "제": 1267,
      "젝": 1268,
      "젠": 1269,
      "젤": 1270,
      "젬": 1271,
      "젭": 1272,
      "젯": 1273,
      "져": 1274,
      "젼": 1275,
      "졌": 1276,
      "조": 1277,
      "족": 1278,
      "존": 1279,
      "졸": 1280,
      "좀": 1281,
      "좁": 1282,
      "종": 1283,
      "좇": 1284,
      "좋": 1285,
      "좌": 1286,
      "좡": 1287,
      "좨": 1288,
      "죄": 1289,
      "죈": 1290,
      "죌": 1291,
      "죘": 1292,
      "죠": 1293,
      "죤": 1294,
      "주": 1295,
      "죽": 1296,
      "준": 1297,
      "줄": 1298,
      "줌": 1299,
      "줍": 1300,
      "줏": 1301,
      "중": 1302,
      "줘": 1303,
      "줬": 1304,
      "쥐": 1305,
      "쥔": 1306,
      "쥘": 1307,
      "쥬": 1308,
      "쥴": 1309,
      "즈": 1310,
      "즉": 1311,
      "즌": 1312,
      "즐": 1313,
      "즘": 1314,
      "즙": 1315,
      "증": 1316,
      "지": 1317,
      "직": 1318,
      "진": 1319,
      "질": 1320,
      "짊": 1321,
      "짐": 1322,
      "집": 1323,
      "짓": 1324,
      "징": 1325,
      "짖": 1326,
      "짙": 1327,
      "짚": 1328,
      "짜": 1329,
      "짝": 1330,
      "짠": 1331,
      "짤": 1332,
      "짦": 1333,
      "짧": 1334,
      "짬": 1335,
      "짭": 1336,
      "짰": 1337,
      "짱": 1338,
      "째": 1339,
      "쨉": 1340,
      "쨌": 1341,
      "쨍": 1342,
      "쨰": 1343,
      "쩌": 1344,
      "쩍": 1345,
      "쩐": 1346,
      "쩔": 1347,
      "쩜": 1348,
      "쩡": 1349,
      "쪄": 1350,
      "쪼": 1351,
      "쪽": 1352,
      "쫀": 1353,
      "쫄": 1354,
      "쫒": 1355,
      "쫓": 1356,
      "쫙": 1357,
      "쬐": 1358,
      "쭈": 1359,
      "쭉": 1360,
      "쭐": 1361,
      "쭙": 1362,
      "쭤": 1363,
      "쯔": 1364,
      "쯤": 1365,
      "쯧": 1366,
      "쯩": 1367,
      "찌": 1368,
      "찍": 1369,
      "찐": 1370,
      "찔": 1371,
      "찜": 1372,
      "찝": 1373,
      "찡": 1374,
      "찢": 1375,
      "차": 1376,
      "착": 1377,
      "찬": 1378,
      "찮": 1379,
      "찰": 1380,
      "참": 1381,
      "찹": 1382,
      "찻": 1383,
      "찼": 1384,
      "창": 1385,
      "찾": 1386,
      "챁": 1387,
      "채": 1388,
      "책": 1389,
      "챈": 1390,
      "챌": 1391,
      "챔": 1392,
      "챕": 1393,
      "챗": 1394,
      "챘": 1395,
      "챙": 1396,
      "챠": 1397,
      "챤": 1398,
      "처": 1399,
      "척": 1400,
      "천": 1401,
      "철": 1402,
      "첨": 1403,
      "첩": 1404,
      "첫": 1405,
      "첬": 1406,
      "청": 1407,
      "체": 1408,
      "첵": 1409,
      "첸": 1410,
      "첼": 1411,
      "쳇": 1412,
      "쳌": 1413,
      "쳐": 1414,
      "쳔": 1415,
      "쳤": 1416,
      "초": 1417,
      "촉": 1418,
      "촌": 1419,
      "촐": 1420,
      "촘": 1421,
      "촛": 1422,
      "총": 1423,
      "촣": 1424,
      "촨": 1425,
      "촬": 1426,
      "촹": 1427,
      "최": 1428,
      "쵸": 1429,
      "추": 1430,
      "축": 1431,
      "춘": 1432,
      "출": 1433,
      "춤": 1434,
      "춥": 1435,
      "춧": 1436,
      "충": 1437,
      "춰": 1438,
      "췄": 1439,
      "췌": 1440,
      "취": 1441,
      "췬": 1442,
      "췼": 1443,
      "츄": 1444,
      "츈": 1445,
      "츠": 1446,
      "측": 1447,
      "츰": 1448,
      "층": 1449,
      "치": 1450,
      "칙": 1451,
      "친": 1452,
      "칠": 1453,
      "칡": 1454,
      "침": 1455,
      "칩": 1456,
      "칫": 1457,
      "칭": 1458,
      "카": 1459,
      "칵": 1460,
      "칸": 1461,
      "칼": 1462,
      "캄": 1463,
      "캅": 1464,
      "캇": 1465,
      "캉": 1466,
      "캐": 1467,
      "캔": 1468,
      "캘": 1469,
      "캠": 1470,
      "캡": 1471,
      "캣": 1472,
      "캥": 1473,
      "캬": 1474,
      "커": 1475,
      "컥": 1476,
      "컨": 1477,
      "컫": 1478,
      "컬": 1479,
      "컴": 1480,
      "컵": 1481,
      "컷": 1482,
      "컸": 1483,
      "컽": 1484,
      "케": 1485,
      "켁": 1486,
      "켄": 1487,
      "켈": 1488,
      "켐": 1489,
      "켓": 1490,
      "켜": 1491,
      "켠": 1492,
      "켤": 1493,
      "켰": 1494,
      "코": 1495,
      "콕": 1496,
      "콘": 1497,
      "콜": 1498,
      "콤": 1499,
      "콥": 1500,
      "콧": 1501,
      "콩": 1502,
      "콬": 1503,
      "콰": 1504,
      "콴": 1505,
      "쾅": 1506,
      "쾌": 1507,
      "쾨": 1508,
      "쾰": 1509,
      "쿄": 1510,
      "쿠": 1511,
      "쿡": 1512,
      "쿤": 1513,
      "쿨": 1514,
      "쿰": 1515,
      "쿱": 1516,
      "쿵": 1517,
      "쿼": 1518,
      "퀀": 1519,
      "퀄": 1520,
      "퀘": 1521,
      "퀜": 1522,
      "퀴": 1523,
      "퀵": 1524,
      "퀸": 1525,
      "퀼": 1526,
      "큅": 1527,
      "큐": 1528,
      "큘": 1529,
      "큠": 1530,
      "크": 1531,
      "큰": 1532,
      "클": 1533,
      "큼": 1534,
      "큽": 1535,
      "킁": 1536,
      "키": 1537,
      "킥": 1538,
      "킨": 1539,
      "킬": 1540,
      "킴": 1541,
      "킵": 1542,
      "킷": 1543,
      "킹": 1544,
      "타": 1545,
      "탁": 1546,
      "탄": 1547,
      "탈": 1548,
      "탐": 1549,
      "탑": 1550,
      "탓": 1551,
      "탔": 1552,
      "탕": 1553,
      "태": 1554,
      "택": 1555,
      "탠": 1556,
      "탤": 1557,
      "탬": 1558,
      "탭": 1559,
      "탯": 1560,
      "탰": 1561,
      "탱": 1562,
      "탸": 1563,
      "터": 1564,
      "턱": 1565,
      "턴": 1566,
      "털": 1567,
      "텀": 1568,
      "텁": 1569,
      "텃": 1570,
      "텄": 1571,
      "텅": 1572,
      "테": 1573,
      "텍": 1574,
      "텐": 1575,
      "텔": 1576,
      "템": 1577,
      "텝": 1578,
      "텟": 1579,
      "텡": 1580,
      "텨": 1581,
      "텼": 1582,
      "톈": 1583,
      "토": 1584,
      "톡": 1585,
      "톤": 1586,
      "톨": 1587,
      "톰": 1588,
      "톱": 1589,
      "통": 1590,
      "톺": 1591,
      "퇀": 1592,
      "퇴": 1593,
      "투": 1594,
      "툭": 1595,
      "툰": 1596,
      "툴": 1597,
      "툼": 1598,
      "퉁": 1599,
      "퉈": 1600,
      "퉨": 1601,
      "튀": 1602,
      "튄": 1603,
      "튈": 1604,
      "튕": 1605,
      "튜": 1606,
      "튠": 1607,
      "튤": 1608,
      "튬": 1609,
      "트": 1610,
      "특": 1611,
      "튼": 1612,
      "튿": 1613,
      "틀": 1614,
      "틈": 1615,
      "틉": 1616,
      "틋": 1617,
      "틍": 1618,
      "틔": 1619,
      "틜": 1620,
      "티": 1621,
      "틱": 1622,
      "틴": 1623,
      "틸": 1624,
      "팀": 1625,
      "팁": 1626,
      "팃": 1627,
      "팅": 1628,
      "파": 1629,
      "팍": 1630,
      "팎": 1631,
      "판": 1632,
      "팔": 1633,
      "팜": 1634,
      "팝": 1635,
      "팟": 1636,
      "팠": 1637,
      "팡": 1638,
      "팥": 1639,
      "패": 1640,
      "팩": 1641,
      "팫": 1642,
      "팬": 1643,
      "팰": 1644,
      "팸": 1645,
      "팹": 1646,
      "팻": 1647,
      "팽": 1648,
      "퍈": 1649,
      "퍼": 1650,
      "펀": 1651,
      "펄": 1652,
      "펌": 1653,
      "펍": 1654,
      "펑": 1655,
      "페": 1656,
      "펙": 1657,
      "펜": 1658,
      "펠": 1659,
      "펨": 1660,
      "펩": 1661,
      "펫": 1662,
      "펭": 1663,
      "펴": 1664,
      "편": 1665,
      "펼": 1666,
      "폄": 1667,
      "폈": 1668,
      "평": 1669,
      "폐": 1670,
      "포": 1671,
      "폭": 1672,
      "폰": 1673,
      "폴": 1674,
      "폼": 1675,
      "폿": 1676,
      "퐁": 1677,
      "퐅": 1678,
      "표": 1679,
      "푯": 1680,
      "푸": 1681,
      "푹": 1682,
      "푼": 1683,
      "풀": 1684,
      "품": 1685,
      "풋": 1686,
      "풍": 1687,
      "퓌": 1688,
      "퓨": 1689,
      "퓰": 1690,
      "퓸": 1691,
      "프": 1692,
      "픅": 1693,
      "픈": 1694,
      "플": 1695,
      "픔": 1696,
      "픕": 1697,
      "피": 1698,
      "픽": 1699,
      "핀": 1700,
      "필": 1701,
      "핌": 1702,
      "핍": 1703,
      "핏": 1704,
      "핑": 1705,
      "하": 1706,
      "학": 1707,
      "한": 1708,
      "할": 1709,
      "핥": 1710,
      "함": 1711,
      "합": 1712,
      "핫": 1713,
      "항": 1714,
      "해": 1715,
      "핵": 1716,
      "핸": 1717,
      "핼": 1718,
      "햄": 1719,
      "햅": 1720,
      "햇": 1721,
      "했": 1722,
      "행": 1723,
      "햐": 1724,
      "햡": 1725,
      "향": 1726,
      "햬": 1727,
      "헀": 1728,
      "허": 1729,
      "헌": 1730,
      "헐": 1731,
      "험": 1732,
      "헙": 1733,
      "헛": 1734,
      "헝": 1735,
      "헤": 1736,
      "헥": 1737,
      "헨": 1738,
      "헬": 1739,
      "헷": 1740,
      "헹": 1741,
      "혀": 1742,
      "혁": 1743,
      "현": 1744,
      "혈": 1745,
      "혐": 1746,
      "협": 1747,
      "혓": 1748,
      "혔": 1749,
      "형": 1750,
      "혖": 1751,
      "혜": 1752,
      "호": 1753,
      "혹": 1754,
      "혼": 1755,
      "홀": 1756,
      "홈": 1757,
      "홉": 1758,
      "홋": 1759,
      "홍": 1760,
      "홑": 1761,
      "화": 1762,
      "확": 1763,
      "환": 1764,
      "홛": 1765,
      "활": 1766,
      "홧": 1767,
      "황": 1768,
      "회": 1769,
      "획": 1770,
      "횐": 1771,
      "횟": 1772,
      "횡": 1773,
      "효": 1774,
      "후": 1775,
      "훅": 1776,
      "훈": 1777,
      "훌": 1778,
      "훑": 1779,
      "훔": 1780,
      "훕": 1781,
      "훗": 1782,
      "훙": 1783,
      "훠": 1784,
      "훤": 1785,
      "훨": 1786,
      "훼": 1787,
      "휘": 1788,
      "휙": 1789,
      "휜": 1790,
      "휠": 1791,
      "휨": 1792,
      "휩": 1793,
      "휴": 1794,
      "휼": 1795,
      "흄": 1796,
      "흉": 1797,
      "흐": 1798,
      "흑": 1799,
      "흔": 1800,
      "흘": 1801,
      "흙": 1802,
      "흠": 1803,
      "흡": 1804,
      "흥": 1805,
      "흩": 1806,
      "희": 1807,
      "흰": 1808,
      "흽": 1809,
      "히": 1810,
      "힉": 1811,
      "힌": 1812,
      "힐": 1813,
      "힘": 1814,
      "힙": 1815,
      "힛": 1816,
      "힝": 1817,
      "으로": 1818,
      "했다": 1819,
      "에서": 1820,
      "있다": 1821,
      "하는": 1822,
      "이다": 1823,
      "하고": 1824,
      "00": 1825,
      "20": 1826,
      "한다": 1827,
      "니다": 1828,
      "지난": 1829,
      "기업": 1830,
      "있는": 1831,
      "이라": 1832,
      "까지": 1833,
      "사업": 1834,
      "시장": 1835,
      "서울": 1836,
      "투자": 1837,
      "면서": 1838,
      "부터": 1839,
      "한국": 1840,
      "습니다": 1841,
      "기술": 1842,
      "것으로": 1843,
      "비스": 1844,
      "금융": 1845,
      "제공": 1846,
      "통해": 1847,
      "적으로": 1848,
      "서비스": 1849,
      "10": 1850,
      "대한": 1851,
      "된다": 1852,
      "밝혔": 1853,
      "위해": 1854,
      "억원": 1855,
      "밝혔다": 1856,
      "들이": 1857,
      "적인": 1858,
      "개발": 1859,
      "연구": 1860,
      "국내": 1861,
      "하기": 1862,
      "가능": 1863,
      "지만": 1864,
      "기자": 1865,
      "가격": 1866,
      "보다": 1867,
      "정부": 1868,
      "19": 1869,
      "상승": 1870,
      "됐다": 1871,
      "30": 1872,
      "경제": 1873,
      "금리": 1874,
      "거래": 1875,
      "산업": 1876,
      "지원": 1877,
      "이라고": 1878,
      "말했다": 1879,
      "이어": 1880,
      "은행": 1881,
      "올해": 1882,
      "대표": 1883,
      "고객": 1884,
      "에는": 1885,
      "202": 1886,
      "이번": 1887,
      "000": 1888,
      "진행": 1889,
      "자는": 1890,
      "미국": 1891,
      "시스": 1892,
      "뉴스": 1893,
      "위한": 1894,
      "글로": 1895,
      "반기": 1896,
      "기준": 1897,
      "사진": 1898,
      "데이": 1899,
      "었다": 1900,
      "이후": 1901,
      "계획": 1902,
      "이상": 1903,
      "글로벌": 1904,
      "되는": 1905,
      "물가": 1906,
      "관계": 1907,
      "정보": 1908,
      "달러": 1909,
      "에게": 1910,
      "1일": 1911,
      "레이": 1912,
      "지난해": 1913,
      "상품": 1914,
      "지역": 1915,
      "제품": 1916,
      "성장": 1917,
      "하게": 1918,
      "확대": 1919,
      "판매": 1920,
      "하다": 1921,
      "최근": 1922,
      "예정": 1923,
      "장은": 1924,
      "삼성": 1925,
      "대비": 1926,
      "관련": 1927,
      "등을": 1928,
      "소비": 1929,
      "너지": 1930,
      "르면": 1931,
      "도록": 1932,
      "전망": 1933,
      "겠다": 1934,
      "세계": 1935,
      "이용": 1936,
      "프로": 1937,
      "다양": 1938,
      "에도": 1939,
      "기관": 1940,
      "환경": 1941,
      "시간": 1942,
      "전자": 1943,
      "상황": 1944,
      "함께": 1945,
      "관리": 1946,
      "따르면": 1947,
      "5일": 1948,
      "증가": 1949,
      "에너지": 1950,
      "하락": 1951,
      "공급": 1952,
      "전문": 1953,
      "대상": 1954,
      "다양한": 1955,
      "게임": 1956,
      "분기": 1957,
      "마트": 1958,
      "4일": 1959,
      "LG": 1960,
      "사용": 1961,
      "들의": 1962,
      "경기": 1963,
      "경우": 1964,
      "최대": 1965,
      "활용": 1966,
      "하며": 1967,
      "기록": 1968,
      "스트": 1969,
      "데이터": 1970,
      "업계": 1971,
      "운영": 1972,
      "규모": 1973,
      "대출": 1974,
      "회사": 1975,
      "카오": 1976,
      "정책": 1977,
      "50": 1978,
      "12": 1979,
      "카카오": 1980,
      "증권": 1981,
      "위원": 1982,
      "따라": 1983,
      "같은": 1984,
      "라이": 1985,
      "지난달": 1986,
      "6월": 1987,
      "필요": 1988,
      "우리": 1989,
      "때문": 1990,
      "11": 1991,
      "라인": 1992,
      "경영": 1993,
      "성을": 1994,
      "만원": 1995,
      "랜드": 1996,
      "았다": 1997,
      "지속": 1998,
      "들은": 1999,
      "AI": 2000,
      "인상": 2001,
      "수출": 2002,
      "설명": 2003,
      "플랫": 2004,
      "플랫폼": 2005,
      "들어": 2006,
      "성이": 2007,
      "대해": 2008,
      "지수": 2009,
      "디지": 2010,
      "2022": 2011,
      "에서는": 2012,
      "가장": 2013,
      "생산": 2014,
      "그룹": 2015,
      "하면": 2016,
      "디지털": 2017,
      "소비자": 2018,
      "바이": 2019,
      "로나": 2020,
      "이날": 2021,
      "자산": 2022,
      "력을": 2023,
      "수준": 2024,
      "전기": 2025,
      "현재": 2026,
      "교수": 2027,
      "평가": 2028,
      "수요": 2029,
      "반도": 2030,
      "코로나": 2031,
      "규제": 2032,
      "통신": 2033,
      "주택": 2034,
      "현대": 2035,
      "했다고": 2036,
      "되고": 2037,
      "주요": 2038,
      "졌다": 2039,
      "기간": 2040,
      "스타": 2041,
      "반도체": 2042,
      "파트": 2043,
      "발표": 2044,
      "분야": 2045,
      "연합": 2046,
      "회의": 2047,
      "이는": 2048,
      "중국": 2049,
      "출시": 2050,
      "분석": 2051,
      "안전": 2052,
      "SK": 2053,
      "플레이": 2054,
      "관계자는": 2055,
      "센터": 2056,
      "시작": 2057,
      "추진": 2058,
      "국제": 2059,
      "참여": 2060,
      "있도록": 2061,
      "업체": 2062,
      "입니다": 2063,
      "오는": 2064,
      "시스템": 2065,
      "40": 2066,
      "아이": 2067,
      "적용": 2068,
      "추가": 2069,
      "경쟁": 2070,
      "항공": 2071,
      "13": 2072,
      "회장": 2073,
      "해야": 2074,
      "으며": 2075,
      "하지": 2076,
      "예정이다": 2077,
      "최고": 2078,
      "특히": 2079,
      "15": 2080,
      "하면서": 2081,
      "100": 2082,
      "기대": 2083,
      "매출": 2084,
      "개선": 2085,
      "강화": 2086,
      "5월": 2087,
      "인트": 2088,
      "1년": 2089,
      "하겠다": 2090,
      "주가": 2091,
      "사회": 2092,
      "해외": 2093,
      "기반": 2094,
      "보험": 2095,
      "리는": 2096,
      "것이": 2097,
      "보고": 2098,
      "였다": 2099,
      "높은": 2100,
      "개월": 2101,
      "포인트": 2102,
      "러스": 2103,
      "우려": 2104,
      "예상": 2105,
      "협력": 2106,
      "만에": 2107,
      "기존": 2108,
      "하반기": 2109,
      "코스": 2110,
      "스마트": 2111,
      "18": 2112,
      "전략": 2113,
      "문제": 2114,
      "영상": 2115,
      "브랜드": 2116,
      "구축": 2117,
      "나타": 2118,
      "세대": 2119,
      "자동": 2120,
      "했습니다": 2121,
      "개인": 2122,
      "영향": 2123,
      "다는": 2124,
      "가치": 2125,
      "계획이다": 2126,
      "하나": 2127,
      "기를": 2128,
      "지는": 2129,
      "직원": 2130,
      "상반기": 2131,
      "이를": 2132,
      "콘텐": 2133,
      "실적": 2134,
      "아니": 2135,
      "사를": 2136,
      "결과": 2137,
      "KT": 2138,
      "시아": 2139,
      "부담": 2140,
      "코로나19": 2141,
      "자가": 2142,
      "7월": 2143,
      "17": 2144,
      "지고": 2145,
      "건설": 2146,
      "성과": 2147,
      "6일": 2148,
      "대로": 2149,
      "페이": 2150,
      "감소": 2151,
      "콘텐츠": 2152,
      "발생": 2153,
      "200": 2154,
      "혁신": 2155,
      "14": 2156,
      "장을": 2157,
      "사이": 2158,
      "가운": 2159,
      "연합뉴스": 2160,
      "교육": 2161,
      "23": 2162,
      "가운데": 2163,
      "대학": 2164,
      "연구원": 2165,
      "만큼": 2166,
      "라고": 2167,
      "한다고": 2168,
      "업무": 2169,
      "과학": 2170,
      "전력": 2171,
      "안정": 2172,
      "장관": 2173,
      "영업": 2174,
      "주식": 2175,
      "들을": 2176,
      "로운": 2177,
      "마련": 2178,
      "활동": 2179,
      "뉴시스": 2180,
      "전환": 2181,
      "확보": 2182,
      "미래": 2183,
      "국민": 2184,
      "수익": 2185,
      "60": 2186,
      "서비스를": 2187,
      "있어": 2188,
      "이에": 2189,
      "결제": 2190,
      "카드": 2191,
      "조사": 2192,
      "지를": 2193,
      "일본": 2194,
      "모두": 2195,
      "확인": 2196,
      "등의": 2197,
      "등이": 2198,
      "과정": 2199,
      "이라며": 2200,
      "동안": 2201,
      "목표": 2202,
      "신규": 2203,
      "보인": 2204,
      "평균": 2205,
      "적극": 2206,
      "위기": 2207,
      "것이다": 2208,
      "중소": 2209,
      "부산": 2210,
      "국가": 2211,
      "이나": 2212,
      "뉴스1": 2213,
      "발전": 2214,
      "위원회": 2215,
      "있다는": 2216,
      "대응": 2217,
      "22": 2218,
      "삼성전자": 2219,
      "이고": 2220,
      "공개": 2221,
      "아파트": 2222,
      "는데": 2223,
      "침체": 2224,
      "설명했다": 2225,
      "그램": 2226,
      "롯데": 2227,
      "다른": 2228,
      "방안": 2229,
      "점을": 2230,
      "많은": 2231,
      "세를": 2232,
      "공동": 2233,
      "중심": 2234,
      "사는": 2235,
      "25": 2236,
      "계약": 2237,
      "따른": 2238,
      "화를": 2239,
      "수학": 2240,
      "포함": 2241,
      "루션": 2242,
      "20년": 2243,
      "모델": 2244,
      "라는": 2245,
      "이미": 2246,
      "앞으로": 2247,
      "보유": 2248,
      "해당": 2249,
      "전국": 2250,
      "16": 2251,
      "구매": 2252,
      "제도": 2253,
      "열린": 2254,
      "24": 2255,
      "공공": 2256,
      "구성": 2257,
      "이라는": 2258,
      "하지만": 2259,
      "반영": 2260,
      "유지": 2261,
      "솔루션": 2262,
      "에서도": 2263,
      "내용": 2264,
      "전체": 2265,
      "조정": 2266,
      "부문": 2267,
      "스크": 2268,
      "SG": 2269,
      "방식": 2270,
      "온라인": 2271,
      "도입": 2272,
      "새로운": 2273,
      "29": 2274,
      "늘어": 2275,
      "식품": 2276,
      "이익": 2277,
      "한다는": 2278,
      "때문에": 2279,
      "플러스": 2280,
      "치를": 2281,
      "신한": 2282,
      "어려": 2283,
      "각각": 2284,
      "오후": 2285,
      "강조": 2286,
      "하이": 2287,
      "바이오": 2288,
      "부는": 2289,
      "선정": 2290,
      "것은": 2291,
      "자체": 2292,
      "부동": 2293,
      "공정": 2294,
      "요금": 2295,
      "기능": 2296,
      "운용": 2297,
      "비용": 2298,
      "떨어": 2299,
      "자리": 2300,
      "2020년": 2301,
      "자를": 2302,
      "부분": 2303,
      "현장": 2304,
      "현지": 2305,
      "다고": 2306,
      "등에": 2307,
      "스는": 2308,
      "서는": 2309,
      "우주": 2310,
      "할인": 2311,
      "부동산": 2312,
      "보호": 2313,
      "1만": 2314,
      "효과": 2315,
      "있습니다": 2316,
      "한편": 2317,
      "자동차": 2318,
      "인하": 2319,
      "전년": 2320,
      "3년": 2321,
      "대상으로": 2322,
      "벤트": 2323,
      "가상": 2324,
      "가구": 2325,
      "80": 2326,
      "수도": 2327,
      "유럽": 2328,
      "이벤트": 2329,
      "기획": 2330,
      "프로그램": 2331,
      "리고": 2332,
      "제로": 2333,
      "결정": 2334,
      "있다고": 2335,
      "성공": 2336,
      "3일": 2337,
      "구조": 2338,
      "비중": 2339,
      "그러": 2340,
      "신청": 2341,
      "가입": 2342,
      "오전": 2343,
      "처음": 2344,
      "없이": 2345,
      "시행": 2346,
      "기에": 2347,
      "일리": 2348,
      "준비": 2349,
      "수입": 2350,
      "아니라": 2351,
      "왔다": 2352,
      "도를": 2353,
      "도로": 2354,
      "코스피": 2355,
      "상을": 2356,
      "인터": 2357,
      "점검": 2358,
      "27": 2359,
      "가스": 2360,
      "등으로": 2361,
      "플레이션": 2362,
      "30일": 2363,
      "개최": 2364,
      "거나": 2365,
      "28": 2366,
      "향후": 2367,
      "비율": 2368,
      "자의": 2369,
      "역시": 2370,
      "주는": 2371,
      "참석": 2372,
      "자금": 2373,
      "여러": 2374,
      "행사": 2375,
      "장이": 2376,
      "리아": 2377,
      "버스": 2378,
      "생활": 2379,
      "여름": 2380,
      "경험": 2381,
      "보인다": 2382,
      "들과": 2383,
      "사람": 2384,
      "들에게": 2385,
      "원자": 2386,
      "원을": 2387,
      "대형": 2388,
      "비롯": 2389,
      "네이": 2390,
      "구글": 2391,
      "났다": 2392,
      "지금": 2393,
      "500": 2394,
      "핵심": 2395,
      "케이": 2396,
      "방향": 2397,
      "관심": 2398,
      "전문가": 2399,
      "증시": 2400,
      "2분기": 2401,
      "또한": 2402,
      "분양": 2403,
      "70": 2404,
      "가지": 2405,
      "ESG": 2406,
      "협약": 2407,
      "오른": 2408,
      "사업을": 2409,
      "데일리": 2410,
      "전시": 2411,
      "차량": 2412,
      "직접": 2413,
      "8월": 2414,
      "있을": 2415,
      "공간": 2416,
      "혜택": 2417,
      "유가": 2418,
      "그는": 2419,
      "이달": 2420,
      "상장": 2421,
      "건강": 2422,
      "신용": 2423,
      "기념": 2424,
      "제작": 2425,
      "대표는": 2426,
      "중요": 2427,
      "장기": 2428,
      "앞서": 2429,
      "메타": 2430,
      "소재": 2431,
      "KB": 2432,
      "원에": 2433,
      "co": 2434,
      "생각": 2435,
      "세가": 2436,
      "했고": 2437,
      "다시": 2438,
      "스토": 2439,
      "논의": 2440,
      "사의": 2441,
      "TV": 2442,
      "원전": 2443,
      "매수": 2444,
      "마이": 2445,
      "ne": 2446,
      "사가": 2447,
      "최초": 2448,
      "크게": 2449,
      "시설": 2450,
      "모든": 2451,
      "액은": 2452,
      "단계": 2453,
      "의료": 2454,
      "우드": 2455,
      "2년": 2456,
      "상태": 2457,
      "많이": 2458,
      "테크": 2459,
      "무역": 2460,
      "문화": 2461,
      "치료": 2462,
      "교통": 2463,
      "외국": 2464,
      "일부": 2465,
      "기록했다": 2466,
      "나라": 2467,
      "본부": 2468,
      "기가": 2469,
      "더욱": 2470,
      "5년": 2471,
      "리를": 2472,
      "모습": 2473,
      "중이다": 2474,
      "탄소": 2475,
      "없는": 2476,
      "수상": 2477,
      "도가": 2478,
      "받을": 2479,
      "기술을": 2480,
      "가는": 2481,
      "다만": 2482,
      "펀드": 2483,
      "바일": 2484,
      "모바일": 2485,
      "방문": 2486,
      "인플레이션": 2487,
      "본격": 2488,
      "네이버": 2489,
      "단지": 2490,
      "IT": 2491,
      "원으로": 2492,
      "유통": 2493,
      "일반": 2494,
      "법인": 2495,
      "기업의": 2496,
      "회를": 2497,
      "사실": 2498,
      "이런": 2499,
      "클라": 2500,
      "체계": 2501,
      "체결": 2502,
      "도시": 2503,
      "코인": 2504,
      "계속": 2505,
      "판단": 2506,
      "인수": 2507,
      "위를": 2508,
      "고려": 2509,
      "것을": 2510,
      "4월": 2511,
      "시장에서": 2512,
      "애플": 2513,
      "지수는": 2514,
      "협회": 2515,
      "프리": 2516,
      "여행": 2517,
      "는다": 2518,
      "높아": 2519,
      "가능한": 2520,
      "집중": 2521,
      "상승률": 2522,
      "지급": 2523,
      "가능성이": 2524,
      "량을": 2525,
      "러시아": 2526,
      "제조": 2527,
      "별로": 2528,
      "하기로": 2529,
      "처럼": 2530,
      "정부는": 2531,
      "자원": 2532,
      "선보": 2533,
      "자인": 2534,
      "통령": 2535,
      "가격이": 2536,
      "중인": 2537,
      "대통령": 2538,
      "번째": 2539,
      "했던": 2540,
      "노동": 2541,
      "IP": 2542,
      "력이": 2543,
      "없다": 2544,
      "최저": 2545,
      "클라우드": 2546,
      "지적": 2547,
      "진단": 2548,
      "위성": 2549,
      "전기차": 2550,
      "조합": 2551,
      "국토": 2552,
      "이동": 2553,
      "인천": 2554,
      "올랐": 2555,
      "이뤄": 2556,
      "요구": 2557,
      "투자자": 2558,
      "프트": 2559,
      "배터": 2560,
      "나온": 2561,
      "알려": 2562,
      "외환": 2563,
      "쇼핑": 2564,
      "사고": 2565,
      "드는": 2566,
      "스타트": 2567,
      "전용": 2568,
      "특별": 2569,
      "필요한": 2570,
      "프라": 2571,
      "받아": 2572,
      "중앙": 2573,
      "DB": 2574,
      "위험": 2575,
      "정부가": 2576,
      "인공": 2577,
      "해서": 2578,
      "제시": 2579,
      "금을": 2580,
      "장비": 2581,
      "합니다": 2582,
      "워크": 2583,
      "때문이다": 2584,
      "변화": 2585,
      "되면서": 2586,
      "역할": 2587,
      "이유": 2588,
      "보면": 2589,
      "연속": 2590,
      "ws": 2591,
      "통합": 2592,
      "가능하다": 2593,
      "강조했다": 2594,
      "공사": 2595,
      "대를": 2596,
      "암호": 2597,
      "디어": 2598,
      "스타트업": 2599,
      "비교": 2600,
      "원이": 2601,
      "마켓": 2602,
      "90": 2603,
      "렸다": 2604,
      "1조": 2605,
      "창업": 2606,
      "지능": 2607,
      "000억원": 2608,
      "완화": 2609,
      "의미": 2610,
      "현대차": 2611,
      "리티": 2612,
      "넘어": 2613,
      "is": 2614,
      "수요가": 2615,
      "유플러스": 2616,
      "CE": 2617,
      "노력": 2618,
      "우수": 2619,
      "전했다": 2620,
      "프로젝": 2621,
      "조치": 2622,
      "회장은": 2623,
      "체인": 2624,
      "er": 2625,
      "니스": 2626,
      "이하": 2627,
      "편의": 2628,
      "르게": 2629,
      "소득": 2630,
      "사장": 2631,
      "통계": 2632,
      "공장": 2633,
      "베이": 2634,
      "LG유플러스": 2635,
      "프로젝트": 2636,
      "인증": 2637,
      "3월": 2638,
      "제한": 2639,
      "실제": 2640,
      "협업": 2641,
      "코리아": 2642,
      "두고": 2643,
      "부가": 2644,
      "의견": 2645,
      "명이": 2646,
      "자료": 2647,
      "금리를": 2648,
      "중소기업": 2649,
      "간담": 2650,
      "있고": 2651,
      "금지": 2652,
      "또는": 2653,
      "파이": 2654,
      "교수는": 2655,
      "선택": 2656,
      "다음": 2657,
      "환율": 2658,
      "2022년": 2659,
      "당시": 2660,
      "2019": 2661,
      "스포": 2662,
      "이전": 2663,
      "통한": 2664,
      "가를": 2665,
      "종합": 2666,
      "해결": 2667,
      "중심으로": 2668,
      "리가": 2669,
      "민간": 2670,
      "원은": 2671,
      "기로": 2672,
      "노조": 2673,
      "진출": 2674,
      "차지": 2675,
      "통상": 2676,
      "보안": 2677,
      "메이": 2678,
      "확장": 2679,
      "검토": 2680,
      "상품을": 2681,
      "블록": 2682,
      "영향을": 2683,
      "그래": 2684,
      "시에": 2685,
      "ET": 2686,
      "효율": 2687,
      "기도": 2688,
      "내년": 2689,
      "받은": 2690,
      "나타났다": 2691,
      "방침": 2692,
      "사례": 2693,
      "이며": 2694,
      "확산": 2695,
      "26": 2696,
      "친환경": 2697,
      "37": 2698,
      "연구원은": 2699,
      "제공한다": 2700,
      "뱅크": 2701,
      "되지": 2702,
      "고용": 2703,
      "파트너": 2704,
      "으나": 2705,
      "포스": 2706,
      "물류": 2707,
      "에선": 2708,
      "35": 2709,
      "설립": 2710,
      "있게": 2711,
      "8년": 2712,
      "우크": 2713,
      "임금": 2714,
      "조직": 2715,
      "라이나": 2716,
      "메타버스": 2717,
      "2019년": 2718,
      "21": 2719,
      "테이": 2720,
      "지정": 2721,
      "이자": 2722,
      "9월": 2723,
      "수급": 2724,
      "위치": 2725,
      "우선": 2726,
      "품질": 2727,
      "웨어": 2728,
      "소프트": 2729,
      "연결": 2730,
      "외국인": 2731,
      "책임": 2732,
      "화된": 2733,
      "매매": 2734,
      "주의": 2735,
      "성능": 2736,
      "거래일": 2737,
      "네트": 2738,
      "배터리": 2739,
      "명을": 2740,
      "우크라이나": 2741,
      "com": 2742,
      "운송": 2743,
      "이노": 2744,
      "인력": 2745,
      "선을": 2746,
      "1분기": 2747,
      "물론": 2748,
      "실시": 2749,
      "원의": 2750,
      "작년": 2751,
      "방송": 2752,
      "5G": 2753,
      "7일": 2754,
      "정도": 2755,
      "않은": 2756,
      "상담": 2757,
      "수는": 2758,
      "기는": 2759,
      "제를": 2760,
      "역대": 2761,
      "케어": 2762,
      "회복": 2763,
      "오픈": 2764,
      "인재": 2765,
      "원에서": 2766,
      "연금": 2767,
      "종목": 2768,
      "했지만": 2769,
      "사전": 2770,
      "오르": 2771,
      "채널": 2772,
      "공급망": 2773,
      "설계": 2774,
      "공식": 2775,
      "석유": 2776,
      "300": 2777,
      "수행": 2778,
      "있으며": 2779,
      "유치": 2780,
      "피해": 2781,
      "스를": 2782,
      "FT": 2783,
      "기본": 2784,
      "여전": 2785,
      "원자재": 2786,
      "제약": 2787,
      "활성": 2788,
      "않고": 2789,
      "과학기술": 2790,
      "이용자": 2791,
      "라며": 2792,
      "줄어": 2793,
      "인정": 2794,
      "에어": 2795,
      "변동": 2796,
      "우리나라": 2797,
      "거리": 2798,
      "량이": 2799,
      "정상": 2800,
      "만들": 2801,
      "소비자물가": 2802,
      "점에서": 2803,
      "당국": 2804,
      "조성": 2805,
      "근로": 2806,
      "벤처": 2807,
      "되면": 2808,
      "스마트폰": 2809,
      "시장에": 2810,
      "제공하는": 2811,
      "마감": 2812,
      "이었다": 2813,
      "대구": 2814,
      "담당": 2815,
      "받고": 2816,
      "2만": 2817,
      "가능성": 2818,
      "품목": 2819,
      "나온다": 2820,
      "38": 2821,
      "정보를": 2822,
      "방법": 2823,
      "으면": 2824,
      "소개": 2825,
      "자로": 2826,
      "주목": 2827,
      "데이터를": 2828,
      "협의": 2829,
      "news": 2830,
      "측은": 2831,
      "받았다": 2832,
      "페인": 2833,
      "거래소": 2834,
      "2021년": 2835,
      "동기": 2836,
      "비즈": 2837,
      "제품을": 2838,
      "나가": 2839,
      "상당": 2840,
      "디자인": 2841,
      "화폐": 2842,
      "올라": 2843,
      "방안을": 2844,
      "반면": 2845,
      "in": 2846,
      "on": 2847,
      "전달": 2848,
      "복합": 2849,
      "오프": 2850,
      "표준": 2851,
      "오늘": 2852,
      "생태": 2853,
      "바탕": 2854,
      "참가": 2855,
      "newsis": 2856,
      "되며": 2857,
      "2030": 2858,
      "양자": 2859,
      "보고서": 2860,
      "가격은": 2861,
      "주도": 2862,
      "요인": 2863,
      "쳤다": 2864,
      "하여": 2865,
      "임직원": 2866,
      "정부의": 2867,
      "내부": 2868,
      "인프라": 2869,
      "11월": 2870,
      "재생": 2871,
      "금액": 2872,
      "에이": 2873,
      "그런": 2874,
      "분의": 2875,
      "영업이익": 2876,
      "4년": 2877,
      "변경": 2878,
      "인공지능": 2879,
      "억원으로": 2880,
      "앞으로도": 2881,
      "명의": 2882,
      "en": 2883,
      "활용해": 2884,
      "정보통신": 2885,
      "ST": 2886,
      "만들어": 2887,
      "치는": 2888,
      "근무": 2889,
      "집계": 2890,
      "매각": 2891,
      "상공": 2892,
      "공유": 2893,
      "마케": 2894,
      "담보": 2895,
      "인식": 2896,
      "제보": 2897,
      "조선": 2898,
      "빌리티": 2899,
      "취약": 2900,
      "수가": 2901,
      "나갈": 2902,
      "수주": 2903,
      "중단": 2904,
      "호텔": 2905,
      "기다": 2906,
      "공모": 2907,
      "000만": 2908,
      "간담회": 2909,
      "바탕으로": 2910,
      "광고": 2911,
      "단체": 2912,
      "2차": 2913,
      "199": 2914,
      "우려가": 2915,
      "업종": 2916,
      "기준으로": 2917,
      "to": 2918,
      "필요하다": 2919,
      "기여": 2920,
      "기업이": 2921,
      "감독": 2922,
      "텔레": 2923,
      "있지만": 2924,
      "입장": 2925,
      "규모의": 2926,
      "마케팅": 2927,
      "매도": 2928,
      "임대": 2929,
      "지분": 2930,
      "1월": 2931,
      "설치": 2932,
      "재무": 2933,
      "재정": 2934,
      "수를": 2935,
      "주유": 2936,
      "75": 2937,
      "기반으로": 2938,
      "세종": 2939,
      "강남": 2940,
      "공시": 2941,
      "지구": 2942,
      "10년": 2943,
      "수료": 2944,
      "NFT": 2945,
      "이사": 2946,
      "중구": 2947,
      "검증": 2948,
      "누리": 2949,
      "아직": 2950,
      "공공기관": 2951,
      "CJ": 2952,
      "등급": 2953,
      "발사": 2954,
      "네트워크": 2955,
      "진다": 2956,
      "부총": 2957,
      "이해": 2958,
      "억원을": 2959,
      "대책": 2960,
      "생태계": 2961,
      "주거": 2962,
      "수도권": 2963,
      "들도": 2964,
      "영국": 2965,
      "34": 2966,
      "학생": 2967,
      "촬영": 2968,
      "후보": 2969,
      "빠르게": 2970,
      "한화": 2971,
      "통화": 2972,
      "부품": 2973,
      "움을": 2974,
      "개정": 2975,
      "대부분": 2976,
      "제외": 2977,
      "주로": 2978,
      "보건": 2979,
      "an": 2980,
      "대전": 2981,
      "시장이": 2982,
      "서울대": 2983,
      "지방": 2984,
      "투자를": 2985,
      "모빌리티": 2986,
      "않는": 2987,
      "혜택을": 2988,
      "부족": 2989,
      "유류": 2990,
      "리스크": 2991,
      "이와": 2992,
      "사항": 2993,
      "시키": 2994,
      "찾아": 2995,
      "인터넷": 2996,
      "작업": 2997,
      "전망이다": 2998,
      "33": 2999,
      "밖에": 3000,
      "스토어": 3001,
      "같이": 3002,
      "나는": 3003,
      "차를": 3004,
      "었던": 3005,
      "지면서": 3006,
      "비트": 3007,
      "화학": 3008,
      "일까지": 3009,
      "사회적": 3010,
      "페이지": 3011,
      "al": 3012,
      "관광": 3013,
      "게이": 3014,
      "미디어": 3015,
      "달성": 3016,
      "가까": 3017,
      "먼트": 3018,
      "윤석": 3019,
      "자율": 3020,
      "큐브": 3021,
      "매장": 3022,
      "손실": 3023,
      "39": 3024,
      "형태": 3025,
      "점이": 3026,
      "CEO": 3027,
      "덧붙": 3028,
      "프리미": 3029,
      "캠페인": 3030,
      "청약": 3031,
      "수소": 3032,
      "대회": 3033,
      "시장의": 3034,
      "소통": 3035,
      "시장을": 3036,
      "이데일리": 3037,
      "병원": 3038,
      "주행": 3039,
      "인한": 3040,
      "처리": 3041,
      "전반": 3042,
      "텔레콤": 3043,
      "해양": 3044,
      "은행은": 3045,
      "비롯해": 3046,
      "방침이다": 3047,
      "..": 3048,
      "동시에": 3049,
      "디오": 3050,
      "앵커": 3051,
      "전자는": 3052,
      "부회장": 3053,
      "코스닥": 3054,
      "급등": 3055,
      "사태": 3056,
      "둔화": 3057,
      "이기": 3058,
      "했으며": 3059,
      "억달러": 3060,
      "PC": 3061,
      "있었다": 3062,
      "36": 3063,
      "왼쪽": 3064,
      "전쟁": 3065,
      "수익률": 3066,
      "현지시간": 3067,
      "활동을": 3068,
      "좋은": 3069,
      "가계": 3070,
      "감을": 3071,
      "윤석열": 3072,
      "조원": 3073,
      "주시": 3074,
      "맞춤": 3075,
      "ho": 3076,
      "채권": 3077,
      "하루": 3078,
      "주유소": 3079,
      "사와": 3080,
      "사업자": 3081,
      "올랐다": 3082,
      "역할을": 3083,
      "연계": 3084,
      "롭게": 3085,
      "받는": 3086,
      "이마트": 3087,
      "2018": 3088,
      "최초로": 3089,
      "인도": 3090,
      "과제": 3091,
      "작품": 3092,
      "전세": 3093,
      "체험": 3094,
      "만나": 3095,
      "여부": 3096,
      "차별": 3097,
      "아울": 3098,
      "그러나": 3099,
      "지가": 3100,
      "진행한다": 3101,
      "1위": 3102,
      "인해": 3103,
      "진흥": 3104,
      "45": 3105,
      "발행": 3106,
      "자본": 3107,
      "비즈니스": 3108,
      "끌어": 3109,
      "나서": 3110,
      "프리미엄": 3111,
      "나선": 3112,
      "MO": 3113,
      "사에서": 3114,
      "조건": 3115,
      "먼저": 3116,
      "최소": 3117,
      "예측": 3118,
      "하도록": 3119,
      "신고": 3120,
      "아시아": 3121,
      "일정": 3122,
      "라도": 3123,
      "장애": 3124,
      "자유": 3125,
      "필즈": 3126,
      "비상": 3127,
      "과의": 3128,
      "마다": 3129,
      "ar": 3130,
      "전날": 3131,
      "SM": 3132,
      "대면": 3133,
      "덧붙였다": 3134,
      "로부터": 3135,
      "리지": 3136,
      "자신": 3137,
      "IC": 3138,
      "각종": 3139,
      "임상": 3140,
      "어렵": 3141,
      "과정에서": 3142,
      "현실": 3143,
      "하려": 3144,
      "거쳐": 3145,
      "시대": 3146,
      "포스코": 3147,
      "지니": 3148,
      "상환": 3149,
      "SK텔레콤": 3150,
      "스가": 3151,
      "2018년": 3152,
      "금리가": 3153,
      "보증": 3154,
      "비해": 3155,
      "비전": 3156,
      "투자증권": 3157,
      "수산": 3158,
      "물을": 3159,
      "영역": 3160,
      "가상자산": 3161,
      "수수료": 3162,
      "GS": 3163,
      "하거나": 3164,
      "ETF": 3165,
      "식을": 3166,
      "아닌": 3167,
      "스의": 3168,
      "대체": 3169,
      "오프라인": 3170,
      "77": 3171,
      "권을": 3172,
      "자들이": 3173,
      "니까": 3174,
      "청년": 3175,
      "ED": 3176,
      "로드": 3177,
      "바로": 3178,
      "배출": 3179,
      "보내": 3180,
      "이상의": 3181,
      "어떤": 3182,
      "주문": 3183,
      "감염": 3184,
      "작용": 3185,
      "산업통상": 3186,
      "5000": 3187,
      "지도": 3188,
      "10월": 3189,
      "확실": 3190,
      "개의": 3191,
      "냈다": 3192,
      "뿐만": 3193,
      "전지": 3194,
      "중립": 3195,
      "대학교": 3196,
      "구체": 3197,
      "결합": 3198,
      "의무": 3199,
      "증가했다": 3200,
      "보장": 3201,
      "않을": 3202,
      "주파": 3203,
      "이미지": 3204,
      "가량": 3205,
      "기사": 3206,
      "아울러": 3207,
      "블록체인": 3208,
      "산업통상자원": 3209,
      "맞춰": 3210,
      "구현": 3211,
      "실시간": 3212,
      "전경": 3213,
      "48": 3214,
      "제출": 3215,
      "하우": 3216,
      "업무협약": 3217,
      "트를": 3218,
      "업계에": 3219,
      "모니": 3220,
      "예금": 3221,
      "내려": 3222,
      "LG전자": 3223,
      "활성화": 3224,
      "그린": 3225,
      "할당": 3226,
      "2일": 3227,
      "완료": 3228,
      "정기": 3229,
      "특징": 3230,
      "연구소": 3231,
      "운드": 3232,
      "상황이": 3233,
      "반대": 3234,
      "요청": 3235,
      "증가한": 3236,
      "독일": 3237,
      "섰다": 3238,
      "42": 3239,
      "퇴직": 3240,
      "내린": 3241,
      "쉽게": 3242,
      "이드": 3243,
      "보여": 3244,
      "상황에서": 3245,
      "공항": 3246,
      "활용한": 3247,
      "경쟁력": 3248,
      "장관은": 3249,
      "49": 3250,
      "것이라는": 3251,
      "보는": 3252,
      "나오": 3253,
      "것도": 3254,
      "미콘": 3255,
      "스와": 3256,
      "인데": 3257,
      "최종": 3258,
      "홍보": 3259,
      "한일": 3260,
      "하는데": 3261,
      "경기침체": 3262,
      "모집": 3263,
      "여성": 3264,
      "테슬": 3265,
      "부채": 3266,
      "하겠다는": 3267,
      "점유": 3268,
      "출범": 3269,
      "주년": 3270,
      "지하": 3271,
      "선도": 3272,
      "복지": 3273,
      "쌍용": 3274,
      "추정": 3275,
      "꾸준": 3276,
      "비롯한": 3277,
      "발굴": 3278,
      "보유한": 3279,
      "12월": 3280,
      "위는": 3281,
      "해도": 3282,
      "헬스": 3283,
      "가동": 3284,
      "센서": 3285,
      "예상된다": 3286,
      "상이": 3287,
      "라이브": 3288,
      "로봇": 3289,
      "흐름": 3290,
      "뛰어": 3291,
      "악화": 3292,
      "상황을": 3293,
      "기회": 3294,
      "렇게": 3295,
      "웨이": 3296,
      "가격을": 3297,
      "자에게": 3298,
      "양성": 3299,
      "발표한": 3300,
      "연료": 3301,
      "이스": 3302,
      "관측": 3303,
      "인기": 3304,
      "조달": 3305,
      "정비": 3306,
      "시민": 3307,
      "않았다": 3308,
      "상위": 3309,
      "레미콘": 3310,
      "국내외": 3311,
      "1000": 3312,
      "SD": 3313,
      "시험": 3314,
      "유류세": 3315,
      "되어": 3316,
      "지표": 3317,
      "모니터": 3318,
      "량은": 3319,
      "재판매": 3320,
      "리츠": 3321,
      "바이러스": 3322,
      "재생에너지": 3323,
      "페이스": 3324,
      "겠습니다": 3325,
      "웹툰": 3326,
      "경쟁력을": 3327,
      "약품": 3328,
      "있는데": 3329,
      "여전히": 3330,
      "크로": 3331,
      "건축": 3332,
      "전월": 3333,
      "튜브": 3334,
      "2월": 3335,
      "고도": 3336,
      "폭이": 3337,
      "급증": 3338,
      "지상": 3339,
      "현황": 3340,
      "지속적으로": 3341,
      "8일": 3342,
      "플라": 3343,
      "신설": 3344,
      "부진": 3345,
      "기능을": 3346,
      "59": 3347,
      "독자": 3348,
      "봤다": 3349,
      "부담을": 3350,
      "어려운": 3351,
      "됩니다": 3352,
      "채용": 3353,
      "하기도": 3354,
      "늘어난": 3355,
      "대신": 3356,
      "사무": 3357,
      "과기": 3358,
      "학과": 3359,
      "개발한": 3360,
      "1억": 3361,
      "3만": 3362,
      "SR": 3363,
      "스테이": 3364,
      "인사": 3365,
      "액이": 3366,
      "파업": 3367,
      "농협": 3368,
      "리즈": 3369,
      "주주": 3370,
      "총괄": 3371,
      "해제": 3372,
      "내놓": 3373,
      "동물": 3374,
      "울산": 3375,
      "탑재": 3376,
      "44": 3377,
      "낮은": 3378,
      "누적": 3379,
      "점유율": 3380,
      "정책을": 3381,
      "골프": 3382,
      "대규모": 3383,
      "동향": 3384,
      "불어": 3385,
      "비트코인": 3386,
      "희망": 3387,
      "52": 3388,
      "at": 3389,
      "와의": 3390,
      "나노": 3391,
      "홈페이지": 3392,
      "위원장": 3393,
      "포트": 3394,
      "그동안": 3395,
      "심사": 3396,
      "제주": 3397,
      "재산": 3398,
      "푸드": 3399,
      "안내": 3400,
      "차세대": 3401,
      "은행의": 3402,
      "준이": 3403,
      "시장은": 3404,
      "등록": 3405,
      "연간": 3406,
      "주가가": 3407,
      "영상을": 3408,
      "했다는": 3409,
      "처음으로": 3410,
      "예방": 3411,
      "오피": 3412,
      "시스템을": 3413,
      "리스": 3414,
      "프레": 3415,
      "급락": 3416,
      "트렌": 3417,
      "알려졌다": 3418,
      "57": 3419,
      "수록": 3420,
      "것이라고": 3421,
      "1일부터": 3422,
      "고객에게": 3423,
      "lo": 3424,
      "3분기": 3425,
      "IS": 3426,
      "인을": 3427,
      "OT": 3428,
      "거래를": 3429,
      "유니": 3430,
      "고객의": 3431,
      "가전": 3432,
      "공감": 3433,
      "설비": 3434,
      "업데이": 3435,
      "원하는": 3436,
      "정통": 3437,
      "지에": 3438,
      "5만": 3439,
      "창출": 3440,
      "파악": 3441,
      "지원을": 3442,
      "란드": 3443,
      "소유": 3444,
      "완성": 3445,
      "발표했다": 3446,
      "17년": 3447,
      "07": 3448,
      "드러": 3449,
      "학교": 3450,
      "배송": 3451,
      "외부": 3452,
      "맞춤형": 3453,
      "데믹": 3454,
      "월드": 3455,
      "차질": 3456,
      "금융감독": 3457,
      "31": 3458,
      "경험을": 3459,
      "재단": 3460,
      "않아": 3461,
      "유튜브": 3462,
      "하락했다": 3463,
      "기획재": 3464,
      "움이": 3465,
      "살펴": 3466,
      "카메": 3467,
      "하락한": 3468,
      "지수가": 3469,
      "만의": 3470,
      "시리즈": 3471,
      "육성": 3472,
      "융합": 3473,
      "이러": 3474,
      "인이": 3475,
      "84": 3476,
      "손해": 3477,
      "차이": 3478,
      "발언": 3479,
      "NA": 3480,
      "성장을": 3481,
      "6개월": 3482,
      "립니다": 3483,
      "이제": 3484,
      "화물": 3485,
      "상의": 3486,
      "입주": 3487,
      "위축": 3488,
      "수준으로": 3489,
      "늘었다": 3490,
      "세포": 3491,
      "소프트웨어": 3492,
      "그리고": 3493,
      "했는데": 3494,
      "패키": 3495,
      "Ne": 3496,
      "과거": 3497,
      "규정": 3498,
      "제고": 3499,
      "결국": 3500,
      "돌아": 3501,
      "재개": 3502,
      "비중이": 3503,
      "기기": 3504,
      "LED": 3505,
      "목소": 3506,
      "원유": 3507,
      "가치를": 3508,
      "해소": 3509,
      "어떻": 3510,
      "관련해": 3511,
      "신뢰": 3512,
      "있기": 3513,
      "적극적으로": 3514,
      "불가": 3515,
      "성과를": 3516,
      "2000": 3517,
      "소상공": 3518,
      "방식으로": 3519,
      "만든": 3520,
      "안을": 3521,
      "감사": 3522,
      "심의": 3523,
      "계약을": 3524,
      "에스": 3525,
      "사업에": 3526,
      "카메라": 3527,
      "휘발": 3528,
      "제공할": 3529,
      "달라": 3530,
      "개편": 3531,
      "생명": 3532,
      "조금": 3533,
      "상용": 3534,
      "열고": 3535,
      "민국": 3536,
      "회의를": 3537,
      "7년": 3538,
      "보도": 3539,
      "커뮤": 3540,
      "여러분의": 3541,
      "간의": 3542,
      "암호화폐": 3543,
      "계열": 3544,
      "돌파": 3545,
      "수의": 3546,
      "제기": 3547,
      "인지": 3548,
      "커뮤니": 3549,
      "백화": 3550,
      "언론": 3551,
      "자사": 3552,
      "협력을": 3553,
      "기업들이": 3554,
      "실적을": 3555,
      "사로": 3556,
      "대한민국": 3557,
      "디스": 3558,
      "미국의": 3559,
      "에너지솔루션": 3560,
      "KT는": 3561,
      "1천": 3562,
      "시가": 3563,
      "이번에": 3564,
      "치료제": 3565,
      "테슬라": 3566,
      "원장은": 3567,
      "전해": 3568,
      "필수": 3569,
      "2017년": 3570,
      "뉴욕": 3571,
      "상호": 3572,
      "션을": 3573,
      "은행이": 3574,
      "경유": 3575,
      "기후": 3576,
      "안에": 3577,
      "스포츠": 3578,
      "스튜": 3579,
      "자연": 3580,
      "최적": 3581,
      "부담이": 3582,
      "중요한": 3583,
      "99": 3584,
      "진입": 3585,
      "정보보호": 3586,
      "콘텐츠를": 3587,
      "겠다는": 3588,
      "무리": 3589,
      "기업으로": 3590,
      "관은": 3591,
      "백신": 3592,
      "주장": 3593,
      "st": 3594,
      "한은": 3595,
      "의약품": 3596,
      "이야": 3597,
      "률이": 3598,
      "어떻게": 3599,
      "움직": 3600,
      "헬스케어": 3601,
      "re": 3602,
      "매년": 3603,
      "엔터": 3604,
      "비대면": 3605,
      "차례": 3606,
      "과학기술정보통신": 3607,
      "설명이다": 3608,
      "파이낸": 3609,
      "국토교통": 3610,
      "58": 3611,
      "금감": 3612,
      "정확": 3613,
      "주관": 3614,
      "다가": 3615,
      "주력": 3616,
      "고객이": 3617,
      "휘발유": 3618,
      "고민": 3619,
      "낮아": 3620,
      "달리": 3621,
      "더라도": 3622,
      "원장": 3623,
      "카카오톡": 3624,
      "확인할": 3625,
      "선언": 3626,
      "접근": 3627,
      "료를": 3628,
      "리드": 3629,
      "커머": 3630,
      "과기정통": 3631,
      "46": 3632,
      "확정": 3633,
      "티브": 3634,
      "매입": 3635,
      "점에": 3636,
      "그룹은": 3637,
      "분야에서": 3638,
      "주파수": 3639,
      "이러한": 3640,
      "일을": 3641,
      "내고": 3642,
      "자와": 3643,
      "전을": 3644,
      "합의": 3645,
      "32": 3646,
      "hoto": 3647,
      "삼성전자는": 3648,
      "것이란": 3649,
      "르는": 3650,
      "리어": 3651,
      "문을": 3652,
      "유동": 3653,
      "즐길": 3654,
      "계획을": 3655,
      "IM": 3656,
      "긴축": 3657,
      "기아": 3658,
      "리서": 3659,
      "치솟": 3660,
      "커피": 3661,
      "LG에너지솔루션": 3662,
      "보였다": 3663,
      "사장은": 3664,
      "지배": 3665,
      "취득": 3666,
      "반응": 3667,
      "photo": 3668,
      "리오": 3669,
      "포함한": 3670,
      "NH": 3671,
      "ic": 3672,
      "서를": 3673,
      "부처": 3674,
      "상대": 3675,
      "수치": 3676,
      "특정": 3677,
      "경기도": 3678,
      "목표로": 3679,
      "그룹의": 3680,
      "SW": 3681,
      "부에": 3682,
      "아래": 3683,
      "장중": 3684,
      "95": 3685,
      "자회사": 3686,
      "폭을": 3687,
      "여기에": 3688,
      "상승했다": 3689,
      "인근": 3690,
      "스튜디오": 3691,
      "점은": 3692,
      "허브": 3693,
      "기획재정부": 3694,
      "수립": 3695,
      "역량을": 3696,
      "위로": 3697,
      "언급": 3698,
      "첨단": 3699,
      "었습니다": 3700,
      "MZ": 3701,
      "면적": 3702,
      "하던": 3703,
      "금융투자": 3704,
      "탄소중립": 3705,
      "68": 3706,
      "트렌드": 3707,
      "필요가": 3708,
      "스로": 3709,
      "연구개발": 3710,
      "가고": 3711,
      "관심이": 3712,
      "기금": 3713,
      "테인": 3714,
      "소상공인": 3715,
      "공연": 3716,
      "요약": 3717,
      "하향": 3718,
      "대화": 3719,
      "미만": 3720,
      "획득": 3721,
      "유사": 3722,
      "이슈": 3723,
      "충전": 3724,
      "전망했다": 3725,
      "보이고": 3726,
      "적자": 3727,
      "le": 3728,
      "외에도": 3729,
      "주를": 3730,
      "초기": 3731,
      "회원": 3732,
      "기업은": 3733,
      "이벤트를": 3734,
      "태양": 3735,
      "위반": 3736,
      "제휴": 3737,
      "78": 3738,
      "내는": 3739,
      "운동": 3740,
      "달러로": 3741,
      "릭터": 3742,
      "신속": 3743,
      "불확실": 3744,
      "위가": 3745,
      "지지": 3746,
      "캐릭터": 3747,
      "한국의": 3748,
      "시작으로": 3749,
      "꾸준히": 3750,
      "매우": 3751,
      "트리": 3752,
      "패션": 3753,
      "청소": 3754,
      "시즌": 3755,
      "에셋": 3756,
      "적립": 3757,
      "린다": 3758,
      "별도": 3759,
      "신호": 3760,
      "올리": 3761,
      "아웃": 3762,
      "제가": 3763,
      "이용할": 3764,
      "부총리": 3765,
      "65": 3766,
      "DC": 3767,
      "내다": 3768,
      "상승률이": 3769,
      "더불어": 3770,
      "상생": 3771,
      "제공하고": 3772,
      "선물": 3773,
      "의견을": 3774,
      "전에": 3775,
      "누리호": 3776,
      "4만": 3777,
      "포럼": 3778,
      "맞아": 3779,
      "서울시": 3780,
      "인앱": 3781,
      "컨설": 3782,
      "재해": 3783,
      "테인먼트": 3784,
      "29일": 3785,
      "등은": 3786,
      "준다": 3787,
      "기초": 3788,
      "박람": 3789,
      "행정": 3790,
      "완전": 3791,
      "집계됐다": 3792,
      "1차": 3793,
      "절차": 3794,
      "출발": 3795,
      "2030년": 3796,
      "AM": 3797,
      "검사": 3798,
      "계좌": 3799,
      "스터": 3800,
      "제안": 3801,
      "측면": 3802,
      "역량": 3803,
      "문제가": 3804,
      "고속": 3805,
      "등도": 3806,
      "목적": 3807,
      "위에": 3808,
      "최신": 3809,
      "기록한": 3810,
      "되기": 3811,
      "없어": 3812,
      "여건": 3813,
      "철도": 3814,
      "명으로": 3815,
      "갖고": 3816,
      "개국": 3817,
      "스텝": 3818,
      "않았": 3819,
      "수준이다": 3820,
      "고물가": 3821,
      "넘게": 3822,
      "넘는": 3823,
      "재고": 3824,
      "증정": 3825,
      "추가로": 3826,
      "결과를": 3827,
      "필즈상": 3828,
      "률을": 3829,
      "장관이": 3830,
      "공단": 3831,
      "기부": 3832,
      "대가": 3833,
      "3개월": 3834,
      "가족": 3835,
      "과정을": 3836,
      "감축": 3837,
      "기구": 3838,
      "새롭게": 3839,
      "마음": 3840,
      "이름": 3841,
      "OTT": 3842,
      "시각": 3843,
      "중한": 3844,
      "6년": 3845,
      "나고": 3846,
      "이른": 3847,
      "고리": 3848,
      "부회장은": 3849,
      "의도": 3850,
      "전시회": 3851,
      "긍정": 3852,
      "광주": 3853,
      "커지고": 3854,
      "리서치": 3855,
      "유명": 3856,
      "PG": 3857,
      "제보를": 3858,
      "기다립니다": 3859,
      "2천": 3860,
      "대중": 3861,
      "요소": 3862,
      "보다는": 3863,
      "관한": 3864,
      "세로": 3865,
      "순환": 3866,
      "마감했다": 3867,
      "파크": 3868,
      "평가를": 3869,
      "회의에서": 3870,
      "설정": 3871,
      "물질": 3872,
      "접수": 3873,
      "주고": 3874,
      "스트리": 3875,
      "단순": 3876,
      "합리": 3877,
      "기업에": 3878,
      "이내": 3879,
      "BS": 3880,
      "높다": 3881,
      "말까지": 3882,
      "개발을": 3883,
      "단기": 3884,
      "이렇게": 3885,
      "치고": 3886,
      "허준이": 3887,
      "운영하는": 3888,
      "수준의": 3889,
      "마쳤다": 3890,
      "재계": 3891,
      "충분": 3892,
      "it": 3893,
      "였던": 3894,
      "자이": 3895,
      "등에서": 3896,
      "테일": 3897,
      "국민의": 3898,
      "커머스": 3899,
      "컨설팅": 3900,
      "검색": 3901,
      "고객을": 3902,
      "효과를": 3903,
      "상한": 3904,
      "질환": 3905,
      "기업을": 3906,
      "전경련": 3907,
      "성에": 3908,
      "게임즈": 3909,
      "영향으로": 3910,
      "유로": 3911,
      "전망이": 3912,
      "체계를": 3913,
      "ed": 3914,
      "면제": 3915,
      "토레": 3916,
      "파이낸셜": 3917,
      "메뉴": 3918,
      "그러면서": 3919,
      "주간": 3920,
      "인앱결제": 3921,
      "도는": 3922,
      "67": 3923,
      "지적했다": 3924,
      "백화점": 3925,
      "동일": 3926,
      "실질": 3927,
      "3개": 3928,
      "분석했다": 3929,
      "가정": 3930,
      "연방": 3931,
      "트는": 3932,
      "하겠다고": 3933,
      "디아": 3934,
      "부와": 3935,
      "연준": 3936,
      "투입": 3937,
      "KAI": 3938,
      "라마": 3939,
      "스틱": 3940,
      "상황이다": 3941,
      "제일": 3942,
      "모니터링": 3943,
      "저렴": 3944,
      "2300": 3945,
      "가속": 3946,
      "관에서": 3947,
      "이들": 3948,
      "문제를": 3949,
      "에만": 3950,
      "추경": 3951,
      "추천": 3952,
      "해왔다": 3953,
      "그런데": 3954,
      "EC": 3955,
      "동반": 3956,
      "투명": 3957,
      "수준을": 3958,
      "비중은": 3959,
      "무역수": 3960,
      "시청": 3961,
      "실제로": 3962,
      "79": 3963,
      "일부터": 3964,
      "프로그램을": 3965,
      "실천": 3966,
      "여파": 3967,
      "예비": 3968,
      "금융당국": 3969,
      "다운": 3970,
      "서울경제": 3971,
      "박람회": 3972,
      "BC": 3973,
      "누구": 3974,
      "비슷": 3975,
      "만족": 3976,
      "수신": 3977,
      "자산운용": 3978,
      "절반": 3979,
      "오피스": 3980,
      "있었": 3981,
      "00원": 3982,
      "라이프": 3983,
      "편리": 3984,
      "배당": 3985,
      "보이": 3986,
      "절감": 3987,
      "64": 3988,
      "갖춘": 3989,
      "스탠": 3990,
      "테스트": 3991,
      "관심을": 3992,
      "풀이": 3993,
      "인의": 3994,
      "중고": 3995,
      "불안": 3996,
      "대해서는": 3997,
      "UV": 3998,
      "예약": 3999,
      "케이션": 4000,
      "비판": 4001,
      "소식": 4002,
      "특허": 4003,
      "DA": 4004,
      "힘을": 4005,
      "관계자": 4006,
      "배경": 4007,
      "오름": 4008,
      "내용을": 4009,
      "기조": 4010,
      "빠른": 4011,
      "앞두고": 4012,
      "행복": 4013,
      "퇴직연금": 4014,
      "응답": 4015,
      "이행": 4016,
      "하자": 4017,
      "지원하는": 4018,
      "사업장": 4019,
      "떨어졌다": 4020,
      "기사내용": 4021,
      "나왔다": 4022,
      "란다": 4023,
      "으로써": 4024,
      "대표이사": 4025,
      "진행하고": 4026,
      "환경을": 4027,
      "않다": 4028,
      "개발에": 4029,
      "가진": 4030,
      "대형마트": 4031,
      "커뮤니티": 4032,
      "음식": 4033,
      "화면": 4034,
      "시작했다": 4035,
      "3억": 4036,
      "널리": 4037,
      "취임": 4038,
      "기업들의": 4039,
      "경영자": 4040,
      "기반의": 4041,
      "레드": 4042,
      "무료": 4043,
      "신세계": 4044,
      "프로모": 4045,
      "2008년": 4046,
      "줄어들": 4047,
      "건의": 4048,
      "인구": 4049,
      "연장": 4050,
      "하이닉": 4051,
      "집값": 4052,
      "간편": 4053,
      "베트": 4054,
      "방역": 4055,
      "환자": 4056,
      "교수가": 4057,
      "가까이": 4058,
      "큐브위성": 4059,
      "디스플레이": 4060,
      "휴가": 4061,
      "통계청": 4062,
      "열차": 4063,
      "계층": 4064,
      "대외": 4065,
      "취업": 4066,
      "허용": 4067,
      "밝혔습니다": 4068,
      "업무를": 4069,
      "제조사": 4070,
      "베트남": 4071,
      "바란다": 4072,
      "위치한": 4073,
      "애로": 4074,
      "율이": 4075,
      "사용자": 4076,
      "대에": 4077,
      "회사는": 4078,
      "급격": 4079,
      "회장이": 4080,
      "선호": 4081,
      "채무": 4082,
      "농업": 4083,
      "됐습니다": 4084,
      "매일": 4085,
      "유입": 4086,
      "초과": 4087,
      "기대된다": 4088,
      "추경호": 4089,
      "85": 4090,
      "공업": 4091,
      "에코": 4092,
      "전장": 4093,
      "포르": 4094,
      "향상": 4095,
      "SK하이닉": 4096,
      "28일": 4097,
      "달러를": 4098,
      "씨는": 4099,
      "베스트": 4100,
      "현금": 4101,
      "분야의": 4102,
      "ent": 4103,
      "2억": 4104,
      "서도": 4105,
      "더해": 4106,
      "유행": 4107,
      "토지": 4108,
      "3000": 4109,
      "주당": 4110,
      "감소했다": 4111,
      "크다": 4112,
      "증권사": 4113,
      "96": 4114,
      "실현": 4115,
      "가능성을": 4116,
      "국회": 4117,
      "부터는": 4118,
      "전략을": 4119,
      "NS": 4120,
      "공격": 4121,
      "률은": 4122,
      "2025년": 4123,
      "아이폰": 4124,
      "그렇": 4125,
      "주민": 4126,
      "으로는": 4127,
      "항공우주": 4128,
      "5개": 4129,
      "CC": 4130,
      "학습": 4131,
      "쌍용차": 4132,
      "3천": 4133,
      "전보다": 4134,
      "테라": 4135,
      "2023년": 4136,
      "업계의": 4137,
      "장기화": 4138,
      "감이": 4139,
      "과도": 4140,
      "라면": 4141,
      "했으나": 4142,
      "미래에셋": 4143,
      "편의점": 4144,
      "동월": 4145,
      "방지": 4146,
      "감안": 4147,
      "마지": 4148,
      "부과": 4149,
      "분위기": 4150,
      "수밖에": 4151,
      "제어": 4152,
      "고등": 4153,
      "공정거래": 4154,
      "사인": 4155,
      "스턴": 4156,
      "일이": 4157,
      "작가": 4158,
      "지연": 4159,
      "플릭": 4160,
      "16년": 4161,
      "고려해": 4162,
      "MZ세대": 4163,
      "or": 4164,
      "지식": 4165,
      "타워": 4166,
      "경북": 4167,
      "배달": 4168,
      "종료": 4169,
      "전기요금": 4170,
      "효과가": 4171,
      "1회": 4172,
      "공략": 4173,
      "행사를": 4174,
      "DP": 4175,
      "건물": 4176,
      "진료": 4177,
      "AP": 4178,
      "기회를": 4179,
      "불과": 4180,
      "상무": 4181,
      "스티": 4182,
      "양국": 4183,
      "전면": 4184,
      "기업인": 4185,
      "94": 4186,
      "ck": 4187,
      "능력": 4188,
      "세다": 4189,
      "외식": 4190,
      "00만": 4191,
      "기업과": 4192,
      "산업통상자원부": 4193,
      "특징이다": 4194,
      "MW": 4195,
      "시작한": 4196,
      "기대한다": 4197,
      "6개": 4198,
      "데일리안": 4199,
      "ion": 4200,
      "건을": 4201,
      "연동": 4202,
      "유일": 4203,
      "적자를": 4204,
      "산업의": 4205,
      "사진은": 4206,
      "기계": 4207,
      "어느": 4208,
      "원인": 4209,
      "지로": 4210,
      "하다는": 4211,
      "주가는": 4212,
      "이유로": 4213,
      "NG": 4214,
      "넷플릭": 4215,
      "화제": 4216,
      "금융권": 4217,
      "이어질": 4218,
      "당첨": 4219,
      "시범": 4220,
      "쿠팡": 4221,
      "업데이트": 4222,
      "47": 4223,
      "리더": 4224,
      "승인": 4225,
      "안전보건": 4226,
      "차별화된": 4227,
      "장치": 4228,
      "홀딩": 4229,
      "우수한": 4230,
      "간담회에서": 4231,
      "DX": 4232,
      "나섰다": 4233,
      "멤버": 4234,
      "소중한": 4235,
      "2개": 4236,
      "5천": 4237,
      "확진": 4238,
      "사실상": 4239,
      "너무": 4240,
      "적금": 4241,
      "카페": 4242,
      "시간을": 4243,
      "실행": 4244,
      "경남": 4245,
      "구간": 4246,
      "지원한다": 4247,
      "법을": 4248,
      "사업의": 4249,
      "금리는": 4250,
      "14년": 4251,
      "교류": 4252,
      "모듈": 4253,
      "속도": 4254,
      "하겠습니다": 4255,
      "규모로": 4256,
      "내외": 4257,
      "상대적으로": 4258,
      "노하우": 4259,
      "프랑": 4260,
      "맞는": 4261,
      "남아": 4262,
      "메모": 4263,
      "선박": 4264,
      "위메이": 4265,
      "15년": 4266,
      "지나": 4267,
      "2016년": 4268,
      "01": 4269,
      "도움이": 4270,
      "정치": 4271,
      "했을": 4272,
      "됐다고": 4273,
      "활용할": 4274,
      "캐피": 4275,
      "55": 4276,
      "가공": 4277,
      "동의": 4278,
      "아니다": 4279,
      "제3": 4280,
      "컴퓨": 4281,
      "본격적인": 4282,
      "이노텍": 4283,
      "가로": 4284,
      "지출": 4285,
      "차주": 4286,
      "나아": 4287,
      "달하는": 4288,
      "대우": 4289,
      "주제로": 4290,
      "어린": 4291,
      "하고자": 4292,
      "대출을": 4293,
      "니아": 4294,
      "단독": 4295,
      "입찰": 4296,
      "지주": 4297,
      "마지막": 4298,
      "서로": 4299,
      "시도": 4300,
      "특수": 4301,
      "상승한": 4302,
      "등과": 4303,
      "으면서": 4304,
      "카이": 4305,
      "그래픽": 4306,
      "시기": 4307,
      "정을": 4308,
      "LG이노텍": 4309,
      "사랑": 4310,
      "시상": 4311,
      "저장": 4312,
      "손해보험": 4313,
      "41": 4314,
      "경고": 4315,
      "궤도": 4316,
      "허가": 4317,
      "시간이": 4318,
      "게임을": 4319,
      "비율이": 4320,
      "63": 4321,
      "LS": 4322,
      "강원": 4323,
      "만기": 4324,
      "팬데믹": 4325,
      "강남구": 4326,
      "발사체": 4327,
      "GW": 4328,
      "갔다": 4329,
      "단행": 4330,
      "확대를": 4331,
      "건전": 4332,
      "담은": 4333,
      "링크": 4334,
      "명품": 4335,
      "사에": 4336,
      "회계": 4337,
      "위해서는": 4338,
      "장애인": 4339,
      "않는다": 4340,
      "점도": 4341,
      "연구팀": 4342,
      "회사의": 4343,
      "원가": 4344,
      "중견": 4345,
      "떨어진": 4346,
      "BA": 4347,
      "일자리": 4348,
      "점으로": 4349,
      "거래가": 4350,
      "어려움을": 4351,
      "CI": 4352,
      "당부": 4353,
      "발급": 4354,
      "었고": 4355,
      "재료": 4356,
      "보유하고": 4357,
      "논란": 4358,
      "아마": 4359,
      "예산": 4360,
      "잡고": 4361,
      "물가가": 4362,
      "원자력": 4363,
      "진행된다": 4364,
      "연합회": 4365,
      "PS": 4366,
      "거주": 4367,
      "보니": 4368,
      "선보인다": 4369,
      "의존": 4370,
      "9년": 4371,
      "빅데이터": 4372,
      "호텔에서": 4373,
      "고도화": 4374,
      "KAIST": 4375,
      "체결했다고": 4376,
      "87": 4377,
      "구입": 4378,
      "받는다": 4379,
      "와이": 4380,
      "사업부": 4381,
      "규제를": 4382,
      "국산": 4383,
      "정도로": 4384,
      "줄었다": 4385,
      "최소화": 4386,
      "구역": 4387,
      "데다": 4388,
      "들에": 4389,
      "선보인": 4390,
      "태양광": 4391,
      "산물": 4392,
      "여의도": 4393,
      "대학생": 4394,
      "나선다": 4395,
      "신약": 4396,
      "일상": 4397,
      "분할": 4398,
      "선이": 4399,
      "티빙": 4400,
      "비중을": 4401,
      "150": 4402,
      "56": 4403,
      "예고": 4404,
      "사용할": 4405,
      "하나은행": 4406,
      "개별": 4407,
      "테마": 4408,
      "폭염": 4409,
      "규모는": 4410,
      "셈이다": 4411,
      "분을": 4412,
      "시켜": 4413,
      "국립": 4414,
      "낮추": 4415,
      "리에": 4416,
      "많아": 4417,
      "주변": 4418,
      "해석": 4419,
      "중심의": 4420,
      "코스피가": 4421,
      "97": 4422,
      "공기": 4423,
      "진행할": 4424,
      "플랫폼을": 4425,
      "수집": 4426,
      "얼마": 4427,
      "함으로써": 4428,
      "최저임금": 4429,
      "경찰": 4430,
      "여름철": 4431,
      "파이낸셜뉴스": 4432,
      "닷컴": 4433,
      "드로": 4434,
      "무엇": 4435,
      "원과": 4436,
      "이재": 4437,
      "비를": 4438,
      "스에서": 4439,
      "마블": 4440,
      "모터": 4441,
      "신제품": 4442,
      "옵션": 4443,
      "임을": 4444,
      "사업은": 4445,
      "선보일": 4446,
      "메인": 4447,
      "분간": 4448,
      "사상": 4449,
      "1일까지": 4450,
      "27일": 4451,
      "이노베이": 4452,
      "4개": 4453,
      "많다": 4454,
      "무선": 4455,
      "소속": 4456,
      "치킨": 4457,
      "한정": 4458,
      "4분기": 4459,
      "금은": 4460,
      "젊은": 4461,
      "조치를": 4462,
      "존재": 4463,
      "이용해": 4464,
      "카카오모빌리티": 4465,
      "DI": 4466,
      "km": 4467,
      "RE": 4468,
      "수단": 4469,
      "시는": 4470,
      "삼성SD": 4471,
      "13년": 4472,
      "지배구조": 4473,
      "나이": 4474,
      "요일": 4475,
      "운행": 4476,
      "한전": 4477,
      "아이디어": 4478,
      "위원회는": 4479,
      "등장": 4480,
      "스페이스": 4481,
      "프린": 4482,
      "전망된다": 4483,
      "만원을": 4484,
      "쉽지": 4485,
      "시너지": 4486,
      "대만": 4487,
      "열리는": 4488,
      "1998년": 4489,
      "믹스": 4490,
      "버그": 4491,
      "대역": 4492,
      "MOU": 4493,
      "2조": 4494,
      "실무": 4495,
      "유형": 4496,
      "표현": 4497,
      "국무": 4498,
      "늘고": 4499,
      "로는": 4500,
      "오를": 4501,
      "유출": 4502,
      "여부를": 4503,
      "6만": 4504,
      "산하": 4505,
      "매출은": 4506,
      "블루": 4507,
      "인간": 4508,
      "사이트": 4509,
      "4천": 4510,
      "엔진": 4511,
      "작은": 4512,
      "53": 4513,
      "박스": 4514,
      "속도를": 4515,
      "심화": 4516,
      "측정": 4517,
      "88": 4518,
      "수기": 4519,
      "자세": 4520,
      "금리인상": 4521,
      "유의": 4522,
      "율을": 4523,
      "촬영을": 4524,
      "엔터테인먼트": 4525,
      "겁니다": 4526,
      "기지": 4527,
      "리테일": 4528,
      "받습니다": 4529,
      "출하": 4530,
      "합병": 4531,
      "가격에": 4532,
      "안정적인": 4533,
      "방문해": 4534,
      "대의": 4535,
      "자기": 4536,
      "현상": 4537,
      "까지는": 4538,
      "2배": 4539,
      "ER": 4540,
      "거의": 4541,
      "곡물": 4542,
      "ro": 4543,
      "디폴": 4544,
      "수석": 4545,
      "중간": 4546,
      "상태다": 4547,
      "본격화": 4548,
      "한도": 4549,
      "업계는": 4550,
      "봉쇄": 4551,
      "비교해": 4552,
      "이노베이션": 4553,
      "맥주": 4554,
      "천연": 4555,
      "화가": 4556,
      "기준금리": 4557,
      "1명": 4558,
      "EN": 4559,
      "대기업": 4560,
      "발견": 4561,
      "일환": 4562,
      "크론": 4563,
      "사진영상": 4564,
      "관리를": 4565,
      "...": 4566,
      "풀이된다": 4567,
      "1억원": 4568,
      "강력": 4569,
      "부정": 4570,
      "폴란드": 4571,
      "내다봤다": 4572,
      "지역의": 4573,
      "포함해": 4574,
      "처음이다": 4575,
      "전통": 4576,
      "충족": 4577,
      "IB": 4578,
      "양산": 4579,
      "청사에서": 4580,
      "플라스틱": 4581,
      "등이다": 4582,
      "물이": 4583,
      "선발": 4584,
      "신선": 4585,
      "한계": 4586,
      "참석했다": 4587,
      "그래서": 4588,
      "05": 4589,
      "사들이": 4590,
      "기관이": 4591,
      "갤럭": 4592,
      "해지": 4593,
      "솔루션을": 4594,
      "전문가들은": 4595,
      "가계대출": 4596,
      "그라": 4597,
      "내에": 4598,
      "시중": 4599,
      "트로": 4600,
      "으로부터": 4601,
      "인터뷰": 4602,
      "BG": 4603,
      "나다": 4604,
      "반려": 4605,
      "소를": 4606,
      "폴리오": 4607,
      "7만": 4608,
      "CA": 4609,
      "번에": 4610,
      "최고경영자": 4611,
      "주시면": 4612,
      "고통": 4613,
      "그대로": 4614,
      "높이": 4615,
      "순매수": 4616,
      "증권은": 4617,
      "목표를": 4618,
      "판단되는": 4619,
      "나오고": 4620,
      "76": 4621,
      "론칭": 4622,
      "언스": 4623,
      "전세계": 4624,
      "조기": 4625,
      "미니": 4626,
      "분류": 4627,
      "수원": 4628,
      "디폴트": 4629,
      "공헌": 4630,
      "대폭": 4631,
      "이스타": 4632,
      "전남": 4633,
      "매출액": 4634,
      "개방": 4635,
      "도전": 4636,
      "코오": 4637,
      "합동": 4638,
      "지속적인": 4639,
      "감소한": 4640,
      "발생한": 4641,
      "국토부": 4642,
      "가맹": 4643,
      "격을": 4644,
      "상업": 4645,
      "특화": 4646,
      "코오롱": 4647,
      "때는": 4648,
      "르고": 4649,
      "보이는": 4650,
      "시코": 4651,
      "위기를": 4652,
      "400": 4653,
      "북미": 4654,
      "적이다": 4655,
      "연구진": 4656,
      "기름": 4657,
      "근로자": 4658,
      "구독": 4659,
      "통제": 4660,
      "ing": 4661,
      "형태로": 4662,
      "것과": 4663,
      "직장": 4664,
      "히려": 4665,
      "규모가": 4666,
      "가치나": 4667,
      "수학계": 4668,
      "반대매매": 4669,
      "66": 4670,
      "길을": 4671,
      "레일": 4672,
      "버전": 4673,
      "저축": 4674,
      "철강": 4675,
      "2024년": 4676,
      "못한": 4677,
      "오히려": 4678,
      "저가": 4679,
      "갤럭시": 4680,
      "물량": 4681,
      "반등": 4682,
      "받았": 4683,
      "추첨": 4684,
      "확대해": 4685,
      "매출이": 4686,
      "환율은": 4687,
      "알뜰": 4688,
      "카카오는": 4689,
      "걸쳐": 4690,
      "세부": 4691,
      "기관의": 4692,
      "오른쪽": 4693,
      "공감언론": 4694,
      "화제성이": 4695,
      "EU": 4696,
      "급여": 4697,
      "넷마블": 4698,
      "만드는": 4699,
      "않도록": 4700,
      "뉴시스가": 4701,
      "반영하겠습니다": 4702,
      "제보받습니다": 4703,
      "보내주시면": 4704,
      "사진영상부": 4705,
      "그간": 4706,
      "로를": 4707,
      "새로": 4708,
      "원칙": 4709,
      "통과": 4710,
      "트위": 4711,
      "방식을": 4712,
      "IPO": 4713,
      "당분간": 4714,
      "웠다": 4715,
      "지역에서": 4716,
      "센터에서": 4717,
      "혁신을": 4718,
      "메모리": 4719,
      "극재": 4720,
      "다소": 4721,
      "순위": 4722,
      "접속": 4723,
      "총액": 4724,
      "홍콩": 4725,
      "4일부터": 4726,
      "포트폴리오": 4727,
      "법률": 4728,
      "잠재": 4729,
      "진행한": 4730,
      "줄어든": 4731,
      "SSG": 4732,
      "공원": 4733,
      "주재": 4734,
      "별로는": 4735,
      "누구나": 4736,
      "같다": 4737,
      "개혁": 4738,
      "온실": 4739,
      "크래": 4740,
      "협상": 4741,
      "15일": 4742,
      "재인": 4743,
      "발생하는": 4744,
      "비용을": 4745,
      "고가": 4746,
      "식에서": 4747,
      "외교": 4748,
      "이지만": 4749,
      "폐지": 4750,
      "이스타항공": 4751,
      "선제": 4752,
      "원화": 4753,
      "종의": 4754,
      "상황에": 4755,
      "차지하는": 4756,
      "메이션": 4757,
      "고정": 4758,
      "이탈": 4759,
      "재건축": 4760,
      "카카오뱅크": 4761,
      "대금리": 4762,
      "봉사": 4763,
      "상속": 4764,
      "30대": 4765,
      "전망치": 4766,
      "적극적인": 4767,
      "시키는": 4768,
      "ICT": 4769,
      "운항": 4770,
      "착륙": 4771,
      "2015년": 4772,
      "신한은행": 4773,
      "자율주행": 4774,
      "트위터": 4775,
      "어나": 4776,
      "이동통신": 4777,
      "외환위기": 4778,
      "1위를": 4779,
      "불편": 4780,
      "주기": 4781,
      "퍼런": 4782,
      "교신": 4783,
      "든요": 4784,
      "원리": 4785,
      "12년": 4786,
      "코스피는": 4787,
      "분리": 4788,
      "면서도": 4789,
      "드라마": 4790,
      "배럴": 4791,
      "유도": 4792,
      "형성": 4793,
      "4000": 4794,
      "AS": 4795,
      "극복": 4796,
      "챌린": 4797,
      "최악": 4798,
      "가능해": 4799,
      "문제는": 4800,
      "거든요": 4801,
      "면세": 4802,
      "전개": 4803,
      "지며": 4804,
      "질병": 4805,
      "축소": 4806,
      "기술로": 4807,
      "방어": 4808,
      "신문": 4809,
      "싱가": 4810,
      "제대로": 4811,
      "기관은": 4812,
      "국민의힘": 4813,
      "서다": 4814,
      "애널리": 4815,
      "의사": 4816,
      "집단": 4817,
      "제조업": 4818,
      "노조는": 4819,
      "3대": 4820,
      "가지고": 4821,
      "함을": 4822,
      "평가했다": 4823,
      "본부장": 4824,
      "블랙": 4825,
      "율은": 4826,
      "실적이": 4827,
      "양자암호": 4828,
      "업무협약을": 4829,
      "값이": 4830,
      "주식을": 4831,
      "자금을": 4832,
      "91": 4833,
      "마을": 4834,
      "점이다": 4835,
      "제재": 4836,
      "주년을": 4837,
      "불가피": 4838,
      "SUV": 4839,
      "경우가": 4840,
      "수학자": 4841,
      "kr": 4842,
      "노력을": 4843,
      "물리": 4844,
      "앱을": 4845,
      "음을": 4846,
      "10일": 4847,
      "드경제": 4848,
      "압박": 4849,
      "촉진": 4850,
      "가능성도": 4851,
      "말씀": 4852,
      "시티": 4853,
      "이복": 4854,
      "정의": 4855,
      "본부장은": 4856,
      "공고": 4857,
      "구하고": 4858,
      "시킬": 4859,
      "아트": 4860,
      "체감": 4861,
      "아이오": 4862,
      "LH": 4863,
      "엑스포": 4864,
      "캐나다": 4865,
      "나가겠다": 4866,
      "관을": 4867,
      "벌어": 4868,
      "헤럴": 4869,
      "에서의": 4870,
      "중국의": 4871,
      "아이템": 4872,
      "하려는": 4873,
      "43": 4874,
      "PL": 4875,
      "돈을": 4876,
      "밴드": 4877,
      "음료": 4878,
      "지속가능": 4879,
      "심각": 4880,
      "인기를": 4881,
      "절차를": 4882,
      "사용하는": 4883,
      "최고의": 4884,
      "비가": 4885,
      "실리": 4886,
      "위의": 4887,
      "이창": 4888,
      "사업이": 4889,
      "10만": 4890,
      "대표가": 4891,
      "제품은": 4892,
      "마이크로": 4893,
      "헤럴드경제": 4894,
      "가이드": 4895,
      "소형": 4896,
      "회관에서": 4897,
      "24시간": 4898,
      "이복현": 4899,
      "췄다": 4900,
      "케미": 4901,
      "개선을": 4902,
      "확보를": 4903,
      "지금까지": 4904,
      "뷰티": 4905,
      "수익을": 4906,
      "모습을": 4907,
      "독립": 4908,
      "못하고": 4909,
      "이같이": 4910,
      "54": 4911,
      "86": 4912,
      "권고": 4913,
      "소폭": 4914,
      "적이고": 4915,
      "중개": 4916,
      "활발": 4917,
      "진행했다": 4918,
      "운영하고": 4919,
      "하나로": 4920,
      "싱가포르": 4921,
      "EV": 4922,
      "관세": 4923,
      "이란": 4924,
      "이로": 4925,
      "서비스는": 4926,
      "지원할": 4927,
      "회사가": 4928,
      "23일": 4929,
      "삼성전자가": 4930,
      "제외한": 4931,
      "개설": 4932,
      "보상": 4933,
      "원숭": 4934,
      "정해": 4935,
      "집행": 4936,
      "화재": 4937,
      "투자가": 4938,
      "확대할": 4939,
      "발생할": 4940,
      "AC": 4941,
      "MS": 4942,
      "기의": 4943,
      "나설": 4944,
      "문재인": 4945,
      "변화를": 4946,
      "보수": 4947,
      "실업": 4948,
      "입장을": 4949,
      "중에": 4950,
      "코드": 4951,
      "출시한": 4952,
      "수익성": 4953,
      "참석해": 4954,
      "자신의": 4955,
      "없다는": 4956,
      "유연": 4957,
      "졌습니다": 4958,
      "클래": 4959,
      "참여한": 4960,
      "사이버": 4961,
      "참석한": 4962,
      "어렵다": 4963,
      "곳에서": 4964,
      "눈에": 4965,
      "단가": 4966,
      "내에서": 4967,
      "운전": 4968,
      "이루": 4969,
      "적정": 4970,
      "태그": 4971,
      "프라이": 4972,
      "학부": 4973,
      "협약을": 4974,
      "본격적으로": 4975,
      "영업이익은": 4976,
      "1인": 4977,
      "CU": 4978,
      "슈퍼": 4979,
      "실증": 4980,
      "음악": 4981,
      "쿠폰": 4982,
      "벤처기업": 4983,
      "마무리": 4984,
      "최선을": 4985,
      "협업을": 4986,
      "DSR": 4987,
      "게시": 4988,
      "금이": 4989,
      "모색": 4990,
      "테리어": 4991,
      "04": 4992,
      "돌입": 4993,
      "폐기": 4994,
      "추진할": 4995,
      "원숭이": 4996,
      "BT": 4997,
      "지면": 4998,
      "출시했다": 4999,
      "lock": 5000,
      "가파": 5001,
      "높일": 5002,
      "어링": 5003,
      "직후": 5004,
      "이용하는": 5005,
      "동참": 5006,
      "두창": 5007,
      "정유": 5008,
      "강화를": 5009,
      "대학원": 5010,
      "국채": 5011,
      "멕시코": 5012,
      "부여": 5013,
      "워드": 5014,
      "총리": 5015,
      "해운": 5016,
      "스타일": 5017,
      "프랑스": 5018,
      "CP": 5019,
      "미치는": 5020,
      "불법": 5021,
      "철저": 5022,
      "근거": 5023,
      "네오": 5024,
      "머지": 5025,
      "상향": 5026,
      "올렸다": 5027,
      "임무": 5028,
      "전담": 5029,
      "지자체": 5030,
      "상승에": 5031,
      "다이": 5032,
      "약속": 5033,
      "체크": 5034,
      "어린이": 5035,
      "SNS": 5036,
      "범위": 5037,
      "유예": 5038,
      "OS": 5039,
      "가져": 5040,
      "머니": 5041,
      "메가": 5042,
      "모아": 5043,
      "바뀌": 5044,
      "여개": 5045,
      "여신": 5046,
      "가상화폐": 5047,
      "증시가": 5048,
      "92": 5049,
      "강제": 5050,
      "거부": 5051,
      "토론": 5052,
      "폭락": 5053,
      "참여할": 5054,
      "들여": 5055,
      "세는": 5056,
      "줄이": 5057,
      "구체적인": 5058,
      "밸류": 5059,
      "종을": 5060,
      "노력하겠다": 5061,
      "담보대출": 5062,
      "상용화": 5063,
      "국토교통부": 5064,
      "62": 5065,
      "방통": 5066,
      "불리는": 5067,
      "거듭": 5068,
      "됐고": 5069,
      "부실": 5070,
      "정식": 5071,
      "규제가": 5072,
      "쇼핑몰": 5073,
      "3배": 5074,
      "영화": 5075,
      "기업들은": 5076,
      "둘러": 5077,
      "미세": 5078,
      "원료": 5079,
      "적이": 5080,
      "케미칼": 5081,
      "MI": 5082,
      "당초": 5083,
      "플래": 5084,
      "기술과": 5085,
      "분야에": 5086,
      "차지했다": 5087,
      "나스": 5088,
      "리케이션": 5089,
      "신탁": 5090,
      "열어": 5091,
      "클럽": 5092,
      "확대하고": 5093,
      "최고치를": 5094,
      "대통령이": 5095,
      "과학기술정보통신부": 5096,
      "8000": 5097,
      "9시": 5098,
      "독점": 5099,
      "힌다": 5100,
      "드림": 5101,
      "로서": 5102,
      "본사": 5103,
      "접목": 5104,
      "체결했다": 5105,
      "GDP": 5106,
      "금액은": 5107,
      "머스크": 5108,
      "선임": 5109,
      "자에": 5110,
      "제2": 5111,
      "2014년": 5112,
      "이어지고": 5113,
      "만원으로": 5114,
      "유동성": 5115,
      "이끌": 5116,
      "전일": 5117,
      "한층": 5118,
      "높여": 5119,
      "로그": 5120,
      "업을": 5121,
      "자들의": 5122,
      "무더": 5123,
      "바람": 5124,
      "스에": 5125,
      "알파": 5126,
      "종로": 5127,
      "10개": 5128,
      "대표적인": 5129,
      "상품은": 5130,
      "가스요금": 5131,
      "아이오닉": 5132,
      "금속": 5133,
      "상으로": 5134,
      "심사를": 5135,
      "이종": 5136,
      "디지털데일리": 5137,
      "하이브": 5138,
      "구미": 5139,
      "대에서": 5140,
      "원격": 5141,
      "점포": 5142,
      "품을": 5143,
      "화장": 5144,
      "후속": 5145,
      "모델을": 5146,
      "경매": 5147,
      "재미": 5148,
      "2012년": 5149,
      "한다면": 5150,
      "LG유플러스는": 5151,
      "애널리스트": 5152,
      "뮤직": 5153,
      "이들은": 5154,
      "장마": 5155,
      "구성된": 5156,
      "거래일보다": 5157,
      "만한": 5158,
      "세븐": 5159,
      "기술이": 5160,
      "기간은": 5161,
      "제도를": 5162,
      "패키지": 5163,
      "연방준비": 5164,
      "block": 5165,
      "곳에": 5166,
      "반복": 5167,
      "엑스": 5168,
      "이래": 5169,
      "추측": 5170,
      "전력수급": 5171,
      "계기로": 5172,
      "긴급": 5173,
      "선정된": 5174,
      "제시했다": 5175,
      "프로모션": 5176,
      "박사": 5177,
      "초반": 5178,
      "해주는": 5179,
      "국제유가": 5180,
      "현상이": 5181,
      "적용해": 5182,
      "여파로": 5183,
      "TF": 5184,
      "너스": 5185,
      "언제": 5186,
      "우고": 5187,
      "유리": 5188,
      "에어컨": 5189,
      "브라": 5190,
      "시절": 5191,
      "심리": 5192,
      "일시": 5193,
      "올해는": 5194,
      "120": 5195,
      "83": 5196,
      "다수": 5197,
      "바다": 5198,
      "부를": 5199,
      "연령": 5200,
      "조절": 5201,
      "억원의": 5202,
      "교육을": 5203,
      "51": 5204,
      "82": 5205,
      "균형": 5206,
      "본다": 5207,
      "서민": 5208,
      "실내": 5209,
      "인테리어": 5210,
      "주일": 5211,
      "인상을": 5212,
      "구축을": 5213,
      "프로젝트를": 5214,
      "과기정통부": 5215,
      "명예": 5216,
      "미리": 5217,
      "인플": 5218,
      "타이": 5219,
      "표시": 5220,
      "금융위기": 5221,
      "차이가": 5222,
      "스스로": 5223,
      "애니": 5224,
      "진행하는": 5225,
      "비율은": 5226,
      "온실가스": 5227,
      "높이는": 5228,
      "용량": 5229,
      "인스타": 5230,
      "주최": 5231,
      "출신": 5232,
      "항목": 5233,
      "됐던": 5234,
      "안보": 5235,
      "자들은": 5236,
      "연구를": 5237,
      "레이션": 5238,
      "사람이": 5239,
      "경신": 5240,
      "고양": 5241,
      "노선": 5242,
      "당장": 5243,
      "받지": 5244,
      "질문": 5245,
      "창립": 5246,
      "이유는": 5247,
      "위메이드": 5248,
      "건으로": 5249,
      "세미": 5250,
      "보고서를": 5251,
      "가시": 5252,
      "가중": 5253,
      "관이": 5254,
      "나오는": 5255,
      "년대": 5256,
      "속에서": 5257,
      "가치가": 5258,
      "강력한": 5259,
      "8만": 5260,
      "고기": 5261,
      "넥슨": 5262,
      "메시": 5263,
      "임원": 5264,
      "파트너십": 5265,
      "취약계층": 5266,
      "도와": 5267,
      "합성": 5268,
      "충분히": 5269,
      "강한": 5270,
      "노벨": 5271,
      "동구": 5272,
      "레벨": 5273,
      "매체": 5274,
      "서버": 5275,
      "서초": 5276,
      "음성": 5277,
      "지역에": 5278,
      "우리가": 5279,
      "사망": 5280,
      "취소": 5281,
      "해상": 5282,
      "한국은행": 5283,
      "공개했다": 5284,
      "bp": 5285,
      "굉장": 5286,
      "기고": 5287,
      "예술": 5288,
      "중대": 5289,
      "호주": 5290,
      "정부와": 5291,
      "산업계": 5292,
      "상승률은": 5293,
      "69": 5294,
      "도약": 5295,
      "바닥": 5296,
      "의결": 5297,
      "전파": 5298,
      "SKT": 5299,
      "사항을": 5300,
      "멤버십": 5301,
      "각국": 5302,
      "겼다": 5303,
      "많았다": 5304,
      "실패": 5305,
      "운전자": 5306,
      "적절": 5307,
      "정한": 5308,
      "상승으로": 5309,
      "성장할": 5310,
      "삼성전자의": 5311,
      "었지만": 5312,
      "국내에서": 5313,
      "곳은": 5314,
      "주차": 5315,
      "토리": 5316,
      "정부서울": 5317,
      "비슷한": 5318,
      "관람": 5319,
      "달간": 5320,
      "동영상": 5321,
      "민감": 5322,
      "시내": 5323,
      "의원": 5324,
      "고객들이": 5325,
      "늘어나": 5326,
      "어려워": 5327,
      "분이": 5328,
      "지인": 5329,
      "에게는": 5330,
      "프로세": 5331,
      "자료를": 5332,
      "컴퓨터": 5333,
      "격차": 5334,
      "공장을": 5335,
      "극대화": 5336,
      "달한다": 5337,
      "멘토": 5338,
      "못했다": 5339,
      "양방향": 5340,
      "착수": 5341,
      "타임": 5342,
      "추진하고": 5343,
      "13일": 5344,
      "케이뱅크": 5345,
      "나눠": 5346,
      "신경": 5347,
      "악재": 5348,
      "외에": 5349,
      "작성": 5350,
      "규모를": 5351,
      "그룹이": 5352,
      "발전을": 5353,
      "실리콘": 5354,
      "3조": 5355,
      "89": 5356,
      "WS": 5357,
      "면역": 5358,
      "적은": 5359,
      "화질": 5360,
      "기대하고": 5361,
      "06": 5362,
      "구를": 5363,
      "놓고": 5364,
      "불구하고": 5365,
      "전이": 5366,
      "중장기": 5367,
      "서울의": 5368,
      "관련된": 5369,
      "오피스텔": 5370,
      "CO": 5371,
      "ch": 5372,
      "김치": 5373,
      "차단": 5374,
      "진행된": 5375,
      "하나의": 5376,
      "돼야": 5377,
      "어요": 5378,
      "고급": 5379,
      "공제": 5380,
      "이차": 5381,
      "이같은": 5382,
      "토큰": 5383,
      "사진제공": 5384,
      "중요하다": 5385,
      "el": 5386,
      "크리": 5387,
      "이상을": 5388,
      "수출이": 5389,
      "캐피탈": 5390,
      "보급": 5391,
      "음극재": 5392,
      "인은": 5393,
      "장소": 5394,
      "재활용": 5395,
      "좋아": 5396,
      "확충": 5397,
      "사회공헌": 5398,
      "예상했다": 5399,
      "작품을": 5400,
      "프린스턴": 5401,
      "74": 5402,
      "리움": 5403,
      "민주당": 5404,
      "사출": 5405,
      "순으로": 5406,
      "오미": 5407,
      "유기": 5408,
      "유한": 5409,
      "장에서": 5410,
      "100만": 5411,
      "인스타그램": 5412,
      "굉장히": 5413,
      "8천": 5414,
      "것에": 5415,
      "만이다": 5416,
      "배우": 5417,
      "상하이": 5418,
      "정리": 5419,
      "타운": 5420,
      "방향을": 5421,
      "애플리케이션": 5422,
      "아마존": 5423,
      "KI": 5424,
      "대기": 5425,
      "명확": 5426,
      "상증": 5427,
      "소송": 5428,
      "출연": 5429,
      "해온": 5430,
      "협의회": 5431,
      "담아": 5432,
      "수술": 5433,
      "연세대": 5434,
      "지오": 5435,
      "찾는": 5436,
      "투어": 5437,
      "폭으로": 5438,
      "대표이": 5439,
      "11년": 5440,
      "현장에서": 5441,
      "6000": 5442,
      "권에": 5443,
      "사내": 5444,
      "신작": 5445,
      "억원에": 5446,
      "KBS": 5447,
      "사례가": 5448,
      "피해를": 5449,
      "ENM": 5450,
      "5대": 5451,
      "7개": 5452,
      "높이고": 5453,
      "보기": 5454,
      "세에": 5455,
      "신종": 5456,
      "조언": 5457,
      "파운드": 5458,
      "했기": 5459,
      "된다는": 5460,
      "센터를": 5461,
      "보험료": 5462,
      "움직임": 5463,
      "강도": 5464,
      "수여": 5465,
      "이터": 5466,
      "점차": 5467,
      "콜라": 5468,
      "경영진": 5469,
      "챌린지": 5470,
      "년간": 5471,
      "민생": 5472,
      "상시": 5473,
      "조회": 5474,
      "리얼": 5475,
      "포장": 5476,
      "경제부총리": 5477,
      "레이드": 5478,
      "스토리": 5479,
      "흐름을": 5480,
      "최악의": 5481,
      "원숭이두창": 5482,
      "AR": 5483,
      "ss": 5484,
      "였습니다": 5485,
      "판에": 5486,
      "지속될": 5487,
      "기념해": 5488,
      "000만달러": 5489,
      "72": 5490,
      "있던": 5491,
      "간담회를": 5492,
      "130": 5493,
      "도심": 5494,
      "들었다": 5495,
      "투기": 5496,
      "평양": 5497,
      "조사를": 5498,
      "성공했다": 5499,
      "비교하면": 5500,
      "명에": 5501,
      "에프": 5502,
      "출처": 5503,
      "완성차": 5504,
      "600": 5505,
      "밝힌": 5506,
      "사우": 5507,
      "아우": 5508,
      "토스": 5509,
      "개인정보": 5510,
      "보완": 5511,
      "순매도": 5512,
      "커질": 5513,
      "규모다": 5514,
      "공간을": 5515,
      "News": 5516,
      "기울": 5517,
      "취급": 5518,
      "강화하고": 5519,
      "비용이": 5520,
      "석탄": 5521,
      "현대자동차": 5522,
      "자리를": 5523,
      "가속화": 5524,
      "개념": 5525,
      "엔지니": 5526,
      "장에": 5527,
      "최대한": 5528,
      "후원": 5529,
      "청소년": 5530,
      "LNG": 5531,
      "산정": 5532,
      "일으": 5533,
      "전송": 5534,
      "차원에서": 5535,
      "봐야": 5536,
      "추구": 5537,
      "환불": 5538,
      "경제인": 5539,
      "허가를": 5540,
      "사진을": 5541,
      "트리온": 5542,
      "원리금": 5543,
      "셀트리온": 5544,
      "스러": 5545,
      "종가": 5546,
      "산업부": 5547,
      "오르고": 5548,
      "게이밍": 5549,
      "이야기": 5550,
      "교체": 5551,
      "샌드": 5552,
      "오랜": 5553,
      "와인": 5554,
      "풍력": 5555,
      "성공적으로": 5556,
      "신청을": 5557,
      "어디": 5558,
      "올린": 5559,
      "작동": 5560,
      "반영해": 5561,
      "1호": 5562,
      "IDC": 5563,
      "꼽힌다": 5564,
      "다면": 5565,
      "보일": 5566,
      "사옥": 5567,
      "소시": 5568,
      "스럽": 5569,
      "이끌어": 5570,
      "자주": 5571,
      "충격": 5572,
      "기술력을": 5573,
      "관련한": 5574,
      "참여해": 5575,
      "방법을": 5576,
      "교환": 5577,
      "내렸다": 5578,
      "다르": 5579,
      "발간": 5580,
      "세트": 5581,
      "정밀": 5582,
      "직전": 5583,
      "충남": 5584,
      "우리은행": 5585,
      "당부했다": 5586,
      "종로구": 5587,
      "교섭": 5588,
      "카테": 5589,
      "카카오게임즈": 5590,
      "마련했다": 5591,
      "넷플릭스": 5592,
      "고령": 5593,
      "도착": 5594,
      "즈를": 5595,
      "코레일": 5596,
      "행위": 5597,
      "기관과": 5598,
      "삼성SDI": 5599,
      "일환으로": 5600,
      "아동": 5601,
      "안이": 5602,
      "올레드": 5603,
      "자녀": 5604,
      "취재": 5605,
      "수치다": 5606,
      "61": 5607,
      "6천": 5608,
      "73": 5609,
      "ce": 5610,
      "ri": 5611,
      "늘려": 5612,
      "스위": 5613,
      "유망": 5614,
      "지향": 5615,
      "치지": 5616,
      "팀장은": 5617,
      "상승을": 5618,
      "비상경제": 5619,
      "98": 5620,
      "브로드": 5621,
      "실험": 5622,
      "이처럼": 5623,
      "20일": 5624,
      "제품의": 5625,
      "이차전지": 5626,
      "김영": 5627,
      "단백": 5628,
      "문의": 5629,
      "브리": 5630,
      "선진": 5631,
      "히는": 5632,
      "진행한다고": 5633,
      "수요를": 5634,
      "생각한다": 5635,
      "캠페인을": 5636,
      "고등과학": 5637,
      "노하우를": 5638,
      "고금리": 5639,
      "대는": 5640,
      "마크": 5641,
      "신혼": 5642,
      "워치": 5643,
      "이사회": 5644,
      "집을": 5645,
      "마이데이터": 5646,
      "GC": 5647,
      "PU": 5648,
      "마찬": 5649,
      "분에": 5650,
      "연내": 5651,
      "자영업": 5652,
      "택시": 5653,
      "이날부터": 5654,
      "주택담보대출": 5655,
      "직원들이": 5656,
      "손실을": 5657,
      "퍼런스": 5658,
      "로직": 5659,
      "용산": 5660,
      "위탁": 5661,
      "자재": 5662,
      "주담": 5663,
      "개발해": 5664,
      "미래를": 5665,
      "외환보유": 5666,
      "리기": 5667,
      "바라": 5668,
      "보드": 5669,
      "예를": 5670,
      "일단": 5671,
      "훈련": 5672,
      "지원하고": 5673,
      "LG전자는": 5674,
      "영향이": 5675,
      "성능을": 5676,
      "21일": 5677,
      "곳이": 5678,
      "빅스텝": 5679,
      "한국항공우주": 5680,
      "블룸": 5681,
      "소셜": 5682,
      "자문": 5683,
      "이용한": 5684,
      "중앙회": 5685,
      "토레스": 5686,
      "SK하이닉스": 5687,
      "4대": 5688,
      "단렌": 5689,
      "력과": 5690,
      "법에": 5691,
      "세워": 5692,
      "순이익": 5693,
      "경제가": 5694,
      "활성화를": 5695,
      "게이단렌": 5696,
      "비행": 5697,
      "월세": 5698,
      "이지": 5699,
      "2010년": 5700,
      "상승세를": 5701,
      "이어서": 5702,
      "협력해": 5703,
      "News1": 5704,
      "소시엄": 5705,
      "CN": 5706,
      "계산": 5707,
      "쏘카": 5708,
      "아요": 5709,
      "친구": 5710,
      "플랜": 5711,
      "으로서": 5712,
      "기준을": 5713,
      "중소벤처기업": 5714,
      "작업을": 5715,
      "아래로": 5716,
      "부서": 5717,
      "쏟아": 5718,
      "제네": 5719,
      "상품으로": 5720,
      "참여하는": 5721,
      "강화해": 5722,
      "정부서울청사에서": 5723,
      "9만": 5724,
      "BN": 5725,
      "un": 5726,
      "나머지": 5727,
      "센트": 5728,
      "었는데": 5729,
      "제당": 5730,
      "이상이": 5731,
      "롯데마트": 5732,
      "노동조합": 5733,
      "후보자는": 5734,
      "얼마나": 5735,
      "과세": 5736,
      "리조": 5737,
      "시공": 5738,
      "없을": 5739,
      "프톤": 5740,
      "서비스가": 5741,
      "198": 5742,
      "미국과": 5743,
      "지역을": 5744,
      "환경부": 5745,
      "주요국": 5746,
      "22일": 5747,
      "전반에": 5748,
      "금융감독원": 5749,
      "크래프톤": 5750,
      "코어": 5751,
      "학술": 5752,
      "제공해": 5753,
      "제일제당": 5754,
      "받게": 5755,
      "부부": 5756,
      "시세": 5757,
      "환경이": 5758,
      "건설은": 5759,
      "마찬가지": 5760,
      "공포": 5761,
      "알고리": 5762,
      "제철": 5763,
      "경제의": 5764,
      "최근에는": 5765,
      "현재까지": 5766,
      "기념촬영을": 5767,
      "진출을": 5768,
      "증정한다": 5769,
      "홀딩스": 5770,
      "량의": 5771,
      "많았": 5772,
      "생물": 5773,
      "올려": 5774,
      "제거": 5775,
      "컨소시엄": 5776,
      "플로": 5777,
      "판매가": 5778,
      "알고리즘": 5779,
      "발주": 5780,
      "비아": 5781,
      "서구": 5782,
      "시켰": 5783,
      "정신": 5784,
      "줄여": 5785,
      "파산": 5786,
      "화에": 5787,
      "회의소": 5788,
      "인증을": 5789,
      "오르는": 5790,
      "CJ제일제당": 5791,
      "필즈상을": 5792,
      "GM": 5793,
      "바꾸": 5794,
      "유전자": 5795,
      "카카오가": 5796,
      "늘어날": 5797,
      "시가총액": 5798,
      "2030년까지": 5799,
      "저렴한": 5800,
      "D램": 5801,
      "산출": 5802,
      "연말": 5803,
      "오브": 5804,
      "청구": 5805,
      "특성": 5806,
      "소비자들이": 5807,
      "분석이다": 5808,
      "메리": 5809,
      "설문": 5810,
      "성수": 5811,
      "수용": 5812,
      "연맹": 5813,
      "홈쇼핑": 5814,
      "자산을": 5815,
      "ation": 5816,
      "이름을": 5817,
      "4시": 5818,
      "8K": 5819,
      "kg": 5820,
      "배치": 5821,
      "붕괴": 5822,
      "스피": 5823,
      "양사는": 5824,
      "올리는": 5825,
      "세계박람회": 5826,
      "가까운": 5827,
      "뛰어난": 5828,
      "RPG": 5829,
      "꼽았다": 5830,
      "사모": 5831,
      "지켜": 5832,
      "행진": 5833,
      "금융위원회": 5834,
      "선보였다": 5835,
      "상공회의소": 5836,
      "16일": 5837,
      "나올": 5838,
      "못하는": 5839,
      "기준금리를": 5840,
      "KB국민": 5841,
      "나스닥": 5842,
      "연방준비제도": 5843,
      "레인": 5844,
      "만으로": 5845,
      "운영한다": 5846,
      "구축하고": 5847,
      "등급을": 5848,
      "단백질": 5849,
      "140": 5850,
      "부사장": 5851,
      "충돌": 5852,
      "한미": 5853,
      "투자에": 5854,
      "겠다고": 5855,
      "협의체": 5856,
      "TO": 5857,
      "수당": 5858,
      "어도": 5859,
      "지와": 5860,
      "전환을": 5861,
      "전해졌다": 5862,
      "기한": 5863,
      "알아": 5864,
      "일각": 5865,
      "적으로는": 5866,
      "거래되고": 5867,
      "경영을": 5868,
      "내용은": 5869,
      "대책을": 5870,
      "보도했다": 5871,
      "화장품": 5872,
      "모양": 5873,
      "우는": 5874,
      "현행": 5875,
      "수출은": 5876,
      "자동으로": 5877,
      "사이클": 5878,
      "감지": 5879,
      "고요": 5880,
      "벨리": 5881,
      "액을": 5882,
      "즉시": 5883,
      "5년간": 5884,
      "이른바": 5885,
      "나아가": 5886,
      "ct": 5887,
      "길이": 5888,
      "단위": 5889,
      "답변": 5890,
      "실을": 5891,
      "어스": 5892,
      "이은": 5893,
      "준수": 5894,
      "초청": 5895,
      "가격으로": 5896,
      "기록할": 5897,
      "업계에서는": 5898,
      "정책에": 5899,
      "거리두": 5900,
      "목소리를": 5901,
      "In": 5902,
      "ra": 5903,
      "국정": 5904,
      "선사": 5905,
      "약세": 5906,
      "인건": 5907,
      "조차": 5908,
      "창작": 5909,
      "산업을": 5910,
      "SK브로드": 5911,
      "코로나19로": 5912,
      "러시아의": 5913,
      "7천": 5914,
      "높았다": 5915,
      "리포트": 5916,
      "속에": 5917,
      "신저": 5918,
      "이던": 5919,
      "입을": 5920,
      "자격": 5921,
      "관계를": 5922,
      "분석이": 5923,
      "진흥원": 5924,
      "매주": 5925,
      "억제": 5926,
      "인포": 5927,
      "장과": 5928,
      "학회": 5929,
      "00만원": 5930,
      "대한항공": 5931,
      "기여할": 5932,
      "14일": 5933,
      "et": 5934,
      "마사": 5935,
      "본인": 5936,
      "신차": 5937,
      "실장은": 5938,
      "축산": 5939,
      "art": 5940,
      "기회가": 5941,
      "개를": 5942,
      "녹색": 5943,
      "동력": 5944,
      "분명": 5945,
      "세제": 5946,
      "심리가": 5947,
      "투자하는": 5948,
      "한국거래소": 5949,
      "대상은": 5950,
      "출시를": 5951,
      "현장의": 5952,
      "파워": 5953,
      "해수": 5954,
      "세계적인": 5955,
      "하반기에도": 5956,
      "전략적": 5957,
      "분양가": 5958,
      "지상국": 5959,
      "정확한": 5960,
      "8개월": 5961,
      "리터": 5962,
      "스페": 5963,
      "여기": 5964,
      "와트": 5965,
      "캠프": 5966,
      "불확실성이": 5967,
      "31일까지": 5968,
      "Fed": 5969,
      "GT": 5970,
      "국제공": 5971,
      "급감": 5972,
      "냐는": 5973,
      "됐지만": 5974,
      "들로": 5975,
      "딜링": 5976,
      "보통": 5977,
      "예대금리": 5978,
      "이정": 5979,
      "가격도": 5980,
      "보험사": 5981,
      "부총리는": 5982,
      "양자암호통신": 5983,
      "UAM": 5984,
      "기재": 5985,
      "동원": 5986,
      "손잡고": 5987,
      "운반": 5988,
      "대해서도": 5989,
      "한일재계": 5990,
      "알뜰폰": 5991,
      "딜링룸": 5992,
      "7개월": 5993,
      "PA": 5994,
      "구분": 5995,
      "뚜렷": 5996,
      "세탁": 5997,
      "숙박": 5998,
      "우대": 5999,
      "추세": 6000,
      "위원회를": 6001,
      "대통령은": 6002,
      "번째로": 6003,
      "부가가치": 6004,
      "까요": 6005,
      "데요": 6006,
      "장의": 6007,
      "금융기관": 6008,
      "물가를": 6009,
      "고속도로": 6010,
      "천연가스": 6011,
      "멀티": 6012,
      "위협": 6013,
      "이중": 6014,
      "자치": 6015,
      "적합": 6016,
      "세미나": 6017,
      "됐으며": 6018,
      "매니": 6019,
      "없었다": 6020,
      "적을": 6021,
      "주에": 6022,
      "추얼": 6023,
      "흔들": 6024,
      "기간에": 6025,
      "LG유플러스가": 6026,
      "성능검증": 6027,
      "공시했다": 6028,
      "합리적인": 6029,
      "납품": 6030,
      "유치를": 6031,
      "중공업": 6032,
      "치열": 6033,
      "우려를": 6034,
      "마이크론": 6035,
      "시설을": 6036,
      "중앙은행": 6037,
      "가공식품": 6038,
      "경계": 6039,
      "냉동": 6040,
      "변호": 6041,
      "재개발": 6042,
      "저희": 6043,
      "전무": 6044,
      "증가할": 6045,
      "시작된": 6046,
      "추진한다": 6047,
      "구매할": 6048,
      "들과의": 6049,
      "휴가철": 6050,
      "연구팀은": 6051,
      "도움을": 6052,
      "무원": 6053,
      "무인": 6054,
      "의지를": 6055,
      "주말": 6056,
      "2011년": 6057,
      "금융시장": 6058,
      "고객들의": 6059,
      "카카오페이": 6060,
      "안전한": 6061,
      "KT가": 6062,
      "KDI": 6063,
      "가산": 6064,
      "과열": 6065,
      "비는": 6066,
      "열었다": 6067,
      "이어갈": 6068,
      "공급을": 6069,
      "내용이": 6070,
      "하이브리드": 6071,
      "광역시": 6072,
      "기타": 6073,
      "범죄": 6074,
      "한번": 6075,
      "있는지": 6076,
      "조정대상": 6077,
      "이달부터": 6078,
      "채널을": 6079,
      "4조": 6080,
      "SC": 6081,
      "목적으로": 6082,
      "반발": 6083,
      "컨테이": 6084,
      "훨씬": 6085,
      "확대에": 6086,
      "1년간": 6087,
      "모습이다": 6088,
      "갖추": 6089,
      "겠지만": 6090,
      "노후": 6091,
      "돼지고": 6092,
      "역을": 6093,
      "원희": 6094,
      "즐거": 6095,
      "진행됐다": 6096,
      "판매하는": 6097,
      "기간을": 6098,
      "매출을": 6099,
      "수산물": 6100,
      "컨테이너": 6101,
      "서류": 6102,
      "시점": 6103,
      "이게": 6104,
      "신한금융": 6105,
      "논의했다": 6106,
      "사실을": 6107,
      "사전에": 6108,
      "24일": 6109,
      "명은": 6110,
      "시킨": 6111,
      "실에서": 6112,
      "소비자가": 6113,
      "어려울": 6114,
      "사람들이": 6115,
      "P500": 6116,
      "멘트": 6117,
      "물량이": 6118,
      "배틀": 6119,
      "석학": 6120,
      "종이": 6121,
      "커졌다": 6122,
      "은행권": 6123,
      "기존의": 6124,
      "구글의": 6125,
      "자세한": 6126,
      "9000": 6127,
      "감면": 6128,
      "농산물": 6129,
      "오리지": 6130,
      "제는": 6131,
      "정보기술": 6132,
      "5억": 6133,
      "IR": 6134,
      "OLED": 6135,
      "강의": 6136,
      "달아": 6137,
      "동을": 6138,
      "실태": 6139,
      "원까지": 6140,
      "입증": 6141,
      "중기": 6142,
      "중순": 6143,
      "스트레": 6144,
      "40대": 6145,
      "해당하는": 6146,
      "계열사": 6147,
      "스페셜": 6148,
      "겪고": 6149,
      "고유가": 6150,
      "스파": 6151,
      "이프": 6152,
      "제정": 6153,
      "창의": 6154,
      "이어가고": 6155,
      "위원장은": 6156,
      "기존에": 6157,
      "지금은": 6158,
      "93": 6159,
      "곳을": 6160,
      "냉장": 6161,
      "노출": 6162,
      "능력을": 6163,
      "동에": 6164,
      "려는": 6165,
      "인가": 6166,
      "기술은": 6167,
      "개발자": 6168,
      "이상으로": 6169,
      "인상이": 6170,
      "하려면": 6171,
      "버추얼": 6172,
      "성은": 6173,
      "신임": 6174,
      "종류": 6175,
      "책을": 6176,
      "타이어": 6177,
      "팩트": 6178,
      "00억원": 6179,
      "가격의": 6180,
      "왼쪽부터": 6181,
      "디폴트옵션": 6182,
      "배럴당": 6183,
      "뉴얼": 6184,
      "리튬": 6185,
      "유료": 6186,
      "있었던": 6187,
      "사업체": 6188,
      "높아지고": 6189,
      "지적이": 6190,
      "특별한": 6191,
      "개장": 6192,
      "걱정": 6193,
      "과제를": 6194,
      "기상": 6195,
      "단을": 6196,
      "용품": 6197,
      "고객들에게": 6198,
      "증가하고": 6199,
      "브랜드를": 6200,
      "스트리밍": 6201,
      "파운드리": 6202,
      "원희룡": 6203,
      "그나": 6204,
      "버거": 6205,
      "사건": 6206,
      "소설": 6207,
      "안심": 6208,
      "않으면": 6209,
      "위믹스": 6210,
      "축적": 6211,
      "확대될": 6212,
      "예상되는": 6213,
      "긍정적인": 6214,
      "SA": 6215,
      "농가": 6216,
      "느끼": 6217,
      "므로": 6218,
      "번호": 6219,
      "복잡": 6220,
      "성도": 6221,
      "스코": 6222,
      "신도시": 6223,
      "안팎": 6224,
      "대한상의": 6225,
      "판매한다": 6226,
      "코로나바이러스": 6227,
      "2년간": 6228,
      "제시한": 6229,
      "사례를": 6230,
      "조선해양": 6231,
      "DF": 6232,
      "대거": 6233,
      "인출": 6234,
      "줄일": 6235,
      "지시": 6236,
      "처벌": 6237,
      "투표": 6238,
      "서비스에": 6239,
      "고등과학원": 6240,
      "더블": 6241,
      "세일": 6242,
      "싶은": 6243,
      "트라": 6244,
      "페이지를": 6245,
      "일본의": 6246,
      "설립된": 6247,
      "오리지널": 6248,
      "명령": 6249,
      "입국": 6250,
      "화해": 6251,
      "자리에서": 6252,
      "가입자": 6253,
      "SSG닷컴": 6254,
      "BMW": 6255,
      "기와": 6256,
      "나무": 6257,
      "선수": 6258,
      "한국전력": 6259,
      "기반을": 6260,
      "걸리": 6261,
      "농축": 6262,
      "서부": 6263,
      "종사": 6264,
      "주주가": 6265,
      "따라서": 6266,
      "업체의": 6267,
      "활동에": 6268,
      "포함된": 6269,
      "선정됐다": 6270,
      "요인이": 6271,
      "최적의": 6272,
      "2개월": 6273,
      "Re": 6274,
      "내놨": 6275,
      "로이터": 6276,
      "시그": 6277,
      "엔비": 6278,
      "일어": 6279,
      "일제": 6280,
      "저는": 6281,
      "탐사": 6282,
      "흥행": 6283,
      "운영을": 6284,
      "구조를": 6285,
      "3D": 6286,
      "7000": 6287,
      "PF": 6288,
      "TI": 6289,
      "리바": 6290,
      "말한다": 6291,
      "메디": 6292,
      "원활": 6293,
      "고객은": 6294,
      "상품의": 6295,
      "소비자들의": 6296,
      "환율이": 6297,
      "고용노동": 6298,
      "에이치": 6299,
      "형태의": 6300,
      "나서고": 6301,
      "MC": 6302,
      "신사업": 6303,
      "자릿": 6304,
      "주류": 6305,
      "질의": 6306,
      "키로": 6307,
      "트레이": 6308,
      "페스티": 6309,
      "하락세를": 6310,
      "구조조정": 6311,
      "동시": 6312,
      "때마다": 6313,
      "마진": 6314,
      "부한": 6315,
      "아르": 6316,
      "연말까지": 6317,
      "차원의": 6318,
      "태평양": 6319,
      "회생": 6320,
      "성장률": 6321,
      "경기가": 6322,
      "업체가": 6323,
      "적용한": 6324,
      "바이오로직": 6325,
      "임대주택": 6326,
      "실시간으로": 6327,
      "선제적으로": 6328,
      "는지": 6329,
      "됨에": 6330,
      "맞게": 6331,
      "경제적": 6332,
      "부문의": 6333,
      "변화에": 6334,
      "올리브": 6335,
      "애니메이션": 6336,
      "8개": 6337,
      "na": 6338,
      "말을": 6339,
      "문화를": 6340,
      "압력": 6341,
      "여객": 6342,
      "오고": 6343,
      "콘셉": 6344,
      "한시": 6345,
      "신용대출": 6346,
      "높아질": 6347,
      "감염증": 6348,
      "완전히": 6349,
      "프린스턴대": 6350,
      "엔비디아": 6351,
      "CS": 6352,
      "긴밀": 6353,
      "팩토리": 6354,
      "포털": 6355,
      "상품에": 6356,
      "참여했다": 6357,
      "인플레이션이": 6358,
      "요인으로": 6359,
      "현황을": 6360,
      "별도의": 6361,
      "직장인": 6362,
      "그만큼": 6363,
      "농촌": 6364,
      "말했습니다": 6365,
      "매물": 6366,
      "무게": 6367,
      "보를": 6368,
      "속도가": 6369,
      "수혜": 6370,
      "퀘어": 6371,
      "퍼스": 6372,
      "예정인": 6373,
      "증가하는": 6374,
      "자산관리": 6375,
      "국민연금": 6376,
      "시행령": 6377,
      "점검하고": 6378,
      "변동성이": 6379,
      "인프라를": 6380,
      "수익률을": 6381,
      "무역수지": 6382,
      "추첨을": 6383,
      "4차": 6384,
      "5000억원": 6385,
      "om": 6386,
      "사라": 6387,
      "하회": 6388,
      "2차전지": 6389,
      "주장했다": 6390,
      "NH농협": 6391,
      "과도한": 6392,
      "페스티벌": 6393,
      "P2": 6394,
      "노사": 6395,
      "달했다": 6396,
      "라운": 6397,
      "커진": 6398,
      "전국경제인": 6399,
      "건강한": 6400,
      "부회장이": 6401,
      "ve": 6402,
      "시대를": 6403,
      "진정": 6404,
      "한때": 6405,
      "출시했다고": 6406,
      "카드는": 6407,
      "자체가": 6408,
      "마이너스": 6409,
      "FC": 6410,
      "ver": 6411,
      "변이": 6412,
      "빨리": 6413,
      "엔데믹": 6414,
      "청정": 6415,
      "팝업": 6416,
      "펼쳐": 6417,
      "피부": 6418,
      "피트": 6419,
      "서비스다": 6420,
      "전문기업": 6421,
      "데이터센터": 6422,
      "업체인": 6423,
      "만들고": 6424,
      "지분을": 6425,
      "동일한": 6426,
      "건조": 6427,
      "남성": 6428,
      "되도록": 6429,
      "벗어나": 6430,
      "융자": 6431,
      "크레": 6432,
      "함에": 6433,
      "진행되는": 6434,
      "구축해": 6435,
      "방식이다": 6436,
      "3년간": 6437,
      "유가증권": 6438,
      "정상화": 6439,
      "3시": 6440,
      "나왔": 6441,
      "도쿄": 6442,
      "인력을": 6443,
      "트랜": 6444,
      "가능하며": 6445,
      "바이든": 6446,
      "노력할": 6447,
      "1개": 6448,
      "II": 6449,
      "세금": 6450,
      "세상": 6451,
      "알고": 6452,
      "연대": 6453,
      "컬렉": 6454,
      "트롤": 6455,
      "2013년": 6456,
      "제공된다": 6457,
      "억원에서": 6458,
      "교수의": 6459,
      "방향으로": 6460,
      "상승률을": 6461,
      "석유화학": 6462,
      "맞이": 6463,
      "식으로": 6464,
      "입점": 6465,
      "한경": 6466,
      "한국형": 6467,
      "개발했다": 6468,
      "제품에": 6469,
      "판매를": 6470,
      "국토부는": 6471,
      "이마트24": 6472,
      "현실화": 6473,
      "내리": 6474,
      "전화": 6475,
      "주얼": 6476,
      "티몬": 6477,
      "퍼니": 6478,
      "포항": 6479,
      "이용자가": 6480,
      "국제선": 6481,
      "하반기에": 6482,
      "목표다": 6483,
      "비율을": 6484,
      "진단했다": 6485,
      "GS25": 6486,
      "지하철": 6487,
      "측면에서": 6488,
      "PE": 6489,
      "다하겠다": 6490,
      "마저": 6491,
      "방한": 6492,
      "위주로": 6493,
      "지키": 6494,
      "차가": 6495,
      "최우선": 6496,
      "개발하고": 6497,
      "레이터": 6498,
      "유지하고": 6499,
      "3명": 6500,
      "노미": 6501,
      "높이기": 6502,
      "모드": 6503,
      "유산": 6504,
      "입어": 6505,
      "증여": 6506,
      "침공": 6507,
      "하더라도": 6508,
      "시장에서는": 6509,
      "전망을": 6510,
      "구성해": 6511,
      "이벤트도": 6512,
      "최저가": 6513,
      "지능형": 6514,
      "소개했다": 6515,
      "350": 6516,
      "3000억원": 6517,
      "내수": 6518,
      "려면": 6519,
      "만이": 6520,
      "매월": 6521,
      "스태그": 6522,
      "오일": 6523,
      "위안": 6524,
      "컨센서": 6525,
      "화한": 6526,
      "된다고": 6527,
      "산업에": 6528,
      "전망치를": 6529,
      "출시된": 6530,
      "추진하는": 6531,
      "방안도": 6532,
      "네이버웹툰": 6533,
      "협업해": 6534,
      "전날보다": 6535,
      "다운로드": 6536,
      "TSM": 6537,
      "기온": 6538,
      "단위로": 6539,
      "자랑": 6540,
      "재택": 6541,
      "체육": 6542,
      "컸다": 6543,
      "이어지는": 6544,
      "공급이": 6545,
      "해외여행": 6546,
      "외국인과": 6547,
      "25일": 6548,
      "거시": 6549,
      "겨냥": 6550,
      "단지는": 6551,
      "바디": 6552,
      "시원": 6553,
      "이더": 6554,
      "착용": 6555,
      "흡수": 6556,
      "세계적으로": 6557,
      "사용해": 6558,
      "적용할": 6559,
      "li": 6560,
      "나누": 6561,
      "음에도": 6562,
      "즈는": 6563,
      "쿠라": 6564,
      "나타냈다": 6565,
      "조합원": 6566,
      "자료사진": 6567,
      "ISO": 6568,
      "건전성": 6569,
      "26일": 6570,
      "단일": 6571,
      "잠정": 6572,
      "특례": 6573,
      "퍼즐": 6574,
      "하다고": 6575,
      "주가를": 6576,
      "반영한": 6577,
      "4개월": 6578,
      "9천": 6579,
      "높였다": 6580,
      "소스": 6581,
      "어로": 6582,
      "에너": 6583,
      "엘리": 6584,
      "일주일": 6585,
      "증명": 6586,
      "이라면서": 6587,
      "사업으로": 6588,
      "우리는": 6589,
      "위기에": 6590,
      "장비를": 6591,
      "소개하고": 6592,
      "홈페이지에서": 6593,
      "스태그플레이션": 6594,
      "TSMC": 6595,
      "만두": 6596,
      "쓰레": 6597,
      "연초": 6598,
      "임시": 6599,
      "초등": 6600,
      "컬러": 6601,
      "환급": 6602,
      "힘들": 6603,
      "수출입": 6604,
      "안정을": 6605,
      "수상한": 6606,
      "투자자들이": 6607,
      "책임을": 6608,
      "생태계를": 6609,
      "IMF": 6610,
      "LT": 6611,
      "Mo": 6612,
      "격려": 6613,
      "다누": 6614,
      "렉트": 6615,
      "살아": 6616,
      "수정": 6617,
      "씨가": 6618,
      "아무": 6619,
      "양호": 6620,
      "의원은": 6621,
      "폭은": 6622,
      "시키고": 6623,
      "서초구": 6624,
      "사모펀드": 6625,
      "문학": 6626,
      "셀러": 6627,
      "아산": 6628,
      "오래": 6629,
      "인더": 6630,
      "주인": 6631,
      "키움": 6632,
      "패널": 6633,
      "피해가": 6634,
      "필요하다고": 6635,
      "2회": 6636,
      "권한": 6637,
      "높게": 6638,
      "리포": 6639,
      "식당": 6640,
      "연봉": 6641,
      "추출": 6642,
      "취지": 6643,
      "2009년": 6644,
      "부산세계박람회": 6645,
      "늘어나는": 6646,
      "구글플레이": 6647,
      "end": 6648,
      "SK텔레콤은": 6649,
      "DNA": 6650,
      "ON": 6651,
      "개로": 6652,
      "광역": 6653,
      "네시아": 6654,
      "동아": 6655,
      "만약": 6656,
      "범위를": 6657,
      "부모": 6658,
      "커지면서": 6659,
      "키트": 6660,
      "지난주": 6661,
      "미국에서": 6662,
      "물가상승": 6663,
      "업계가": 6664,
      "수준에": 6665,
      "마련해": 6666,
      "점검을": 6667,
      "가맹점": 6668,
      "스러운": 6669,
      "30년": 6670,
      "2021": 6671,
      "인도네시아": 6672,
      "아웃링크": 6673,
      "시너지를": 6674,
      "2위": 6675,
      "그렇게": 6676,
      "디션": 6677,
      "매력": 6678,
      "쓰는": 6679,
      "예매": 6680,
      "일은": 6681,
      "잇따라": 6682,
      "풀어": 6683,
      "분석해": 6684,
      "회장의": 6685,
      "신한금융투자": 6686,
      "결정을": 6687,
      "편리하게": 6688,
      "브리핑": 6689,
      "AA": 6690,
      "갈아": 6691,
      "국면": 6692,
      "만을": 6693,
      "중계": 6694,
      "서비스도": 6695,
      "전망도": 6696,
      "정책이": 6697,
      "플랫폼으로": 6698,
      "확인됐다": 6699,
      "구매하는": 6700,
      "조치가": 6701,
      "81": 6702,
      "개척": 6703,
      "농식품": 6704,
      "드시": 6705,
      "보조": 6706,
      "빌딩": 6707,
      "안은": 6708,
      "유발": 6709,
      "이르": 6710,
      "한국과학기술": 6711,
      "10시": 6712,
      "국내에": 6713,
      "라이트": 6714,
      "주택을": 6715,
      "적용된": 6716,
      "KT의": 6717,
      "마련됐다": 6718,
      "구체적으로": 6719,
      "71": 6720,
      "권리": 6721,
      "보가": 6722,
      "식약": 6723,
      "요즘": 6724,
      "잔액은": 6725,
      "전주": 6726,
      "컴퍼니": 6727,
      "팀을": 6728,
      "혹은": 6729,
      "전용면적": 6730,
      "책임자": 6731,
      "업데이트를": 6732,
      "카이스트": 6733,
      "4호": 6734,
      "대리": 6735,
      "도쿠라": 6736,
      "미칠": 6737,
      "빅테크": 6738,
      "시멘트": 6739,
      "이었던": 6740,
      "혐의": 6741,
      "대상을": 6742,
      "SK이노베이션": 6743,
      "우리나라의": 6744,
      "임대차": 6745,
      "네트워크를": 6746,
      "발언을": 6747,
      "OP": 6748,
      "yna": 6749,
      "근본": 6750,
      "식물": 6751,
      "앤드": 6752,
      "장착": 6753,
      "재배": 6754,
      "환경에": 6755,
      "공급하는": 6756,
      "회사를": 6757,
      "5월까지": 6758,
      "증시는": 6759,
      "실질적인": 6760,
      "국제공항": 6761,
      "일제히": 6762,
      "식약처": 6763,
      "QLED": 6764,
      "그쳤다": 6765,
      "다각": 6766,
      "단축": 6767,
      "돌려": 6768,
      "빠져": 6769,
      "사들의": 6770,
      "성구": 6771,
      "찾은": 6772,
      "토대로": 6773,
      "성장이": 6774,
      "세계에서": 6775,
      "기록하고": 6776,
      "위원은": 6777,
      "CF": 6778,
      "고수": 6779,
      "다우": 6780,
      "어제": 6781,
      "없다고": 6782,
      "30분": 6783,
      "제품으로": 6784,
      "나타났": 6785,
      "의미가": 6786,
      "신혼부부": 6787,
      "5조": 6788,
      "답했다": 6789,
      "무신": 6790,
      "민관": 6791,
      "어업": 6792,
      "원이다": 6793,
      "인용": 6794,
      "서비스로": 6795,
      "기록하며": 6796,
      "공동으로": 6797,
      "모델링": 6798,
      "준비하고": 6799,
      "이뤄졌다": 6800,
      "공모전": 6801,
      "하우스": 6802,
      "08": 6803,
      "ur": 6804,
      "간다": 6805,
      "누릴": 6806,
      "명에게": 6807,
      "산화": 6808,
      "탄생": 6809,
      "서비스와": 6810,
      "위해서": 6811,
      "확대하는": 6812,
      "시작해": 6813,
      "사이언스": 6814,
      "있어서": 6815,
      "고를": 6816,
      "로지": 6817,
      "맛을": 6818,
      "법령": 6819,
      "산학": 6820,
      "심을": 6821,
      "인접": 6822,
      "증설": 6823,
      "대비해": 6824,
      "센터는": 6825,
      "결정했다": 6826,
      "선보이는": 6827,
      "오르면서": 6828,
      "금감원은": 6829,
      "지식재산": 6830,
      "저축은행": 6831,
      "카테고리": 6832,
      "한국항공우주연구원": 6833,
      "것처럼": 6834,
      "나와": 6835,
      "두산": 6836,
      "만달러": 6837,
      "분해": 6838,
      "야외": 6839,
      "어비스": 6840,
      "우연": 6841,
      "채택": 6842,
      "화성": 6843,
      "차량용": 6844,
      "감시": 6845,
      "개미": 6846,
      "나가는": 6847,
      "받침": 6848,
      "석사": 6849,
      "올릴": 6850,
      "정은": 6851,
      "정지": 6852,
      "창원": 6853,
      "캐시": 6854,
      "힘입어": 6855,
      "고객과": 6856,
      "상품권": 6857,
      "대출금리": 6858,
      "결의": 6859,
      "느냐": 6860,
      "맞은": 6861,
      "보관": 6862,
      "소요": 6863,
      "장으로": 6864,
      "타입": 6865,
      "휴대": 6866,
      "2050": 6867,
      "이라면": 6868,
      "알려진": 6869,
      "그라운드": 6870,
      "시중은행": 6871,
      "번역": 6872,
      "의회": 6873,
      "입사": 6874,
      "태국": 6875,
      "핀테크": 6876,
      "발전소": 6877,
      "구성된다": 6878,
      "의미다": 6879,
      "시대에": 6880,
      "이더리움": 6881,
      "3억원": 6882,
      "9일": 6883,
      "견인": 6884,
      "뒷받침": 6885,
      "로켓": 6886,
      "리의": 6887,
      "뱅킹": 6888,
      "업황": 6889,
      "요건": 6890,
      "전공": 6891,
      "정유사": 6892,
      "트럭": 6893,
      "해진": 6894,
      "행사는": 6895,
      "8조": 6896,
      "받기": 6897,
      "법적": 6898,
      "앞장": 6899,
      "위성이": 6900,
      "한국은": 6901,
      "중소기업의": 6902,
      "30일까지": 6903,
      "차량을": 6904,
      "보여주는": 6905,
      "이재용": 6906,
      "RE100": 6907,
      "지속가능경영": 6908,
      "노벨상": 6909,
      "인건비": 6910,
      "us": 6911,
      "대웅": 6912,
      "반드시": 6913,
      "배제": 6914,
      "승인을": 6915,
      "언트": 6916,
      "처분": 6917,
      "취향": 6918,
      "투데이": 6919,
      "제공하기": 6920,
      "10대": 6921,
      "상승이": 6922,
      "됐다는": 6923,
      "상품이": 6924,
      "인상에": 6925,
      "경쟁이": 6926,
      "하면서도": 6927,
      "변동성": 6928,
      "주담대": 6929,
      "성능검증위성": 6930,
      "ay": 6931,
      "듣고": 6932,
      "부당": 6933,
      "생성": 6934,
      "임명": 6935,
      "타깃": 6936,
      "효성": 6937,
      "진행되고": 6938,
      "참여를": 6939,
      "직원이": 6940,
      "비교적": 6941,
      "과기정통부는": 6942,
      "03": 6943,
      "권역": 6944,
      "납부": 6945,
      "내비": 6946,
      "대내외": 6947,
      "맥스": 6948,
      "선거": 6949,
      "아티": 6950,
      "여명이": 6951,
      "접종": 6952,
      "제에": 6953,
      "패턴": 6954,
      "한국에서": 6955,
      "산업단지": 6956,
      "자동화": 6957,
      "는데요": 6958,
      "부족한": 6959,
      "자유롭게": 6960,
      "내놓은": 6961,
      "목소리가": 6962,
      "급격한": 6963,
      "마이크로소프트": 6964,
      "WSJ": 6965,
      "BB": 6966,
      "oT": 6967,
      "관점에서": 6968,
      "농림": 6969,
      "양도": 6970,
      "컴투": 6971,
      "키워": 6972,
      "기대감": 6973,
      "23년": 6974,
      "대통령실": 6975,
      "위험이": 6976,
      "페이스북": 6977,
      "SRT": 6978,
      "블룸버그": 6979,
      "am": 6980,
      "상이다": 6981,
      "수시": 6982,
      "스퀘어": 6983,
      "유력": 6984,
      "일괄": 6985,
      "주체": 6986,
      "장관과": 6987,
      "구글이": 6988,
      "애플은": 6989,
      "인천공항": 6990,
      "만들기": 6991,
      "필요하다는": 6992,
      "급격히": 6993,
      "6조": 6994,
      "RA": 6995,
      "he": 6996,
      "모여": 6997,
      "분산": 6998,
      "불러": 6999,
      "적자가": 7000,
      "지속가능한": 7001,
      "기간이": 7002,
      "7월부터": 7003,
      "대응을": 7004,
      "도입을": 7005,
      "유니폼": 7006,
      "비상경제장관": 7007,
      "MMO": 7008,
      "경상": 7009,
      "공학": 7010,
      "리그": 7011,
      "망을": 7012,
      "모멘": 7013,
      "빗썸": 7014,
      "수리": 7015,
      "스마": 7016,
      "잡기": 7017,
      "기술적": 7018,
      "경우에는": 7019,
      "들어가": 7020,
      "강화할": 7021,
      "포인트를": 7022,
      "결과가": 7023,
      "KB금융": 7024,
      "IPTV": 7025,
      "입장이다": 7026,
      "il": 7027,
      "배분": 7028,
      "부지": 7029,
      "윤리": 7030,
      "이면": 7031,
      "점과": 7032,
      "창구": 7033,
      "총재": 7034,
      "세계적": 7035,
      "마련할": 7036,
      "확보하고": 7037,
      "공개한": 7038,
      "모델로": 7039,
      "24년": 7040,
      "고려하면": 7041,
      "편의성을": 7042,
      "언급했다": 7043,
      "확진자": 7044,
      "6억": 7045,
      "난다": 7046,
      "다수의": 7047,
      "매달": 7048,
      "식에": 7049,
      "압력이": 7050,
      "지스타": 7051,
      "해질": 7052,
      "서비스의": 7053,
      "제품이다": 7054,
      "정책의": 7055,
      "내용의": 7056,
      "세종시": 7057,
      "무엇보다": 7058,
      "5명": 7059,
      "CB": 7060,
      "그레이드": 7061,
      "달라고": 7062,
      "직면": 7063,
      "하학": 7064,
      "테크노": 7065,
      "의미한다": 7066,
      "다음달": 7067,
      "상당의": 7068,
      "엔지니어링": 7069,
      "360": 7070,
      "골드": 7071,
      "공매도": 7072,
      "국책": 7073,
      "김동": 7074,
      "분당": 7075,
      "만원에서": 7076,
      "분석한": 7077,
      "최초의": 7078,
      "선택할": 7079,
      "크리에이": 7080,
      "6시": 7081,
      "GB": 7082,
      "교보": 7083,
      "의류": 7084,
      "전혀": 7085,
      "가능할": 7086,
      "달러에": 7087,
      "기관에": 7088,
      "항공기": 7089,
      "스마트팩토리": 7090,
      "결제를": 7091,
      "제고를": 7092,
      "제3자": 7093,
      "기름값": 7094,
      "제네시스": 7095,
      "모멘텀": 7096,
      "02": 7097,
      "대장": 7098,
      "도어": 7099,
      "뒤를": 7100,
      "드론": 7101,
      "보입니다": 7102,
      "쓰고": 7103,
      "주어": 7104,
      "태원": 7105,
      "편입": 7106,
      "지역으로": 7107,
      "추진해": 7108,
      "기대감이": 7109,
      "아이폰14": 7110,
      "없고": 7111,
      "역전": 7112,
      "유저": 7113,
      "기술의": 7114,
      "10억": 7115,
      "적용된다": 7116,
      "부문에서": 7117,
      "IoT": 7118,
      "NI": 7119,
      "ag": 7120,
      "로스": 7121,
      "먹거리": 7122,
      "부의": 7123,
      "신축": 7124,
      "외화": 7125,
      "워터": 7126,
      "접어": 7127,
      "커넥": 7128,
      "홀로": 7129,
      "물가는": 7130,
      "상품이다": 7131,
      "관리하는": 7132,
      "하반기에는": 7133,
      "나타나": 7134,
      "행사에서": 7135,
      "테크놀": 7136,
      "기후변화": 7137,
      "감안하면": 7138,
      "이트": 7139,
      "이틀": 7140,
      "추산": 7141,
      "펄어비스": 7142,
      "포구": 7143,
      "우리금융": 7144,
      "소비자의": 7145,
      "시스템이": 7146,
      "웨이브": 7147,
      "관측이": 7148,
      "NH투자증권": 7149,
      "반려동물": 7150,
      "투기과열": 7151,
      "3사": 7152,
      "게재": 7153,
      "단말": 7154,
      "수로": 7155,
      "았던": 7156,
      "이외에도": 7157,
      "좋지": 7158,
      "차관": 7159,
      "제품이": 7160,
      "신한은행은": 7161,
      "개최했다": 7162,
      "사고가": 7163,
      "상당히": 7164,
      "유일하게": 7165,
      "전국경제인연합회": 7166,
      "MMORPG": 7167,
      "VC": 7168,
      "갖춰": 7169,
      "낮춰": 7170,
      "되길": 7171,
      "세운": 7172,
      "연평균": 7173,
      "이온": 7174,
      "층의": 7175,
      "편집": 7176,
      "개발과": 7177,
      "하락할": 7178,
      "분석된다": 7179,
      "카드를": 7180,
      "조사됐다": 7181,
      "금액을": 7182,
      "공인": 7183,
      "나섰": 7184,
      "법정": 7185,
      "지노": 7186,
      "충북": 7187,
      "키아": 7188,
      "증권가": 7189,
      "업체들이": 7190,
      "우려도": 7191,
      "늘어나고": 7192,
      "떨어져": 7193,
      "투자자들의": 7194,
      "경력": 7195,
      "다니": 7196,
      "스카이": 7197,
      "차는": 7198,
      "채소": 7199,
      "탑승": 7200,
      "파일": 7201,
      "판을": 7202,
      "지역은": 7203,
      "센터장은": 7204,
      "안정화": 7205,
      "나가고": 7206,
      "정기예금": 7207,
      "BGF": 7208,
      "im": 7209,
      "고공": 7210,
      "고시": 7211,
      "과는": 7212,
      "권이": 7213,
      "기억": 7214,
      "박차를": 7215,
      "부장": 7216,
      "원천": 7217,
      "으니": 7218,
      "이영": 7219,
      "이들이": 7220,
      "인베스트": 7221,
      "캡처": 7222,
      "표면": 7223,
      "대한상공회의소": 7224,
      "조건을": 7225,
      "이창양": 7226,
      "되자": 7227,
      "생존": 7228,
      "선포": 7229,
      "이송": 7230,
      "입금": 7231,
      "추락": 7232,
      "혈액": 7233,
      "협조": 7234,
      "선정해": 7235,
      "성공적인": 7236,
      "요청했다": 7237,
      "유사한": 7238,
      "중대재해": 7239,
      "P2E": 7240,
      "1000억원": 7241,
      "3나노": 7242,
      "VR": 7243,
      "단은": 7244,
      "분쟁": 7245,
      "장르": 7246,
      "조명": 7247,
      "차관은": 7248,
      "커버": 7249,
      "관리에": 7250,
      "평가다": 7251,
      "성과급": 7252,
      "위원회가": 7253,
      "대응할": 7254,
      "검토하고": 7255,
      "영역을": 7256,
      "반응을": 7257,
      "2대": 7258,
      "230": 7259,
      "700": 7260,
      "고위": 7261,
      "그럼": 7262,
      "더니": 7263,
      "카즈": 7264,
      "협상을": 7265,
      "회선": 7266,
      "시장조": 7267,
      "지원하기": 7268,
      "기록을": 7269,
      "우리의": 7270,
      "개인이": 7271,
      "떨어질": 7272,
      "KB증권": 7273,
      "상담을": 7274,
      "석유류": 7275,
      "표준화": 7276,
      "대웅제약": 7277,
      "대금": 7278,
      "때도": 7279,
      "별도로": 7280,
      "본사에서": 7281,
      "얘기": 7282,
      "이랜드": 7283,
      "지불": 7284,
      "처방": 7285,
      "출근": 7286,
      "하라": 7287,
      "한국투자증권": 7288,
      "생산하는": 7289,
      "현재는": 7290,
      "국제수학": 7291,
      "개선이": 7292,
      "결과에": 7293,
      "스크린": 7294,
      "설립한": 7295,
      "인데요": 7296,
      "더불어민주당": 7297,
      "투기과열지구": 7298,
      "검은": 7299,
      "그랜드": 7300,
      "김승": 7301,
      "느낄": 7302,
      "손을": 7303,
      "업그레이드": 7304,
      "우유": 7305,
      "이커머스": 7306,
      "졸업": 7307,
      "학계": 7308,
      "서울에서": 7309,
      "판매량이": 7310,
      "활용하는": 7311,
      "기록했습니다": 7312,
      "전반적인": 7313,
      "시민들이": 7314,
      "멘토링": 7315,
      "선진국": 7316,
      "국제수학연맹": 7317,
      "9조": 7318,
      "MM": 7319,
      "든지": 7320,
      "리면서": 7321,
      "밖에도": 7322,
      "세상을": 7323,
      "적격": 7324,
      "투자는": 7325,
      "되는데": 7326,
      "삼성증권": 7327,
      "때문입니다": 7328,
      "매출액은": 7329,
      "우려로": 7330,
      "실적은": 7331,
      "GS리테일": 7332,
      "돼지고기": 7333,
      "2주": 7334,
      "EZ": 7335,
      "깊은": 7336,
      "낙찰": 7337,
      "납입": 7338,
      "높인": 7339,
      "담긴": 7340,
      "만명": 7341,
      "밝히": 7342,
      "월간": 7343,
      "잡았다": 7344,
      "전광": 7345,
      "청은": 7346,
      "특성을": 7347,
      "디자인을": 7348,
      "보고서에": 7349,
      "스트리트": 7350,
      "컬렉션": 7351,
      "개막": 7352,
      "겪는": 7353,
      "노총": 7354,
      "등락": 7355,
      "메리츠": 7356,
      "용인": 7357,
      "있지": 7358,
      "재편": 7359,
      "정규": 7360,
      "준법": 7361,
      "증진": 7362,
      "트래": 7363,
      "화상": 7364,
      "기업이다": 7365,
      "이번이": 7366,
      "성장세를": 7367,
      "관리할": 7368,
      "대해서": 7369,
      "확인하고": 7370,
      "대응해": 7371,
      "기능이": 7372,
      "and": 7373,
      "이마트는": 7374,
      "인플루": 7375,
      "피트니스": 7376,
      "6G": 7377,
      "PB": 7378,
      "높을": 7379,
      "도에": 7380,
      "마친": 7381,
      "발달": 7382,
      "발대": 7383,
      "배포": 7384,
      "복구": 7385,
      "삭제": 7386,
      "상가": 7387,
      "식용": 7388,
      "아야": 7389,
      "였고": 7390,
      "이코": 7391,
      "전북": 7392,
      "합작": 7393,
      "혔다": 7394,
      "분야를": 7395,
      "항공사": 7396,
      "감소할": 7397,
      "가계부채": 7398,
      "입주민": 7399,
      "목소리": 7400,
      "B2": 7401,
      "RI": 7402,
      "갈수록": 7403,
      "거론": 7404,
      "것입니다": 7405,
      "더스": 7406,
      "로도": 7407,
      "신기술": 7408,
      "전방": 7409,
      "준공": 7410,
      "터를": 7411,
      "패스": 7412,
      "한국부동산": 7413,
      "상반기에": 7414,
      "안정적": 7415,
      "모델이": 7416,
      "코리아는": 7417,
      "인재를": 7418,
      "사무실": 7419,
      "살펴보면": 7420,
      "LG이노텍은": 7421,
      "S는": 7422,
      "러닝": 7423,
      "부합": 7424,
      "실장": 7425,
      "자극": 7426,
      "하드": 7427,
      "휴먼": 7428,
      "이어가": 7429,
      "평가가": 7430,
      "이익을": 7431,
      "1조원": 7432,
      "거리에": 7433,
      "기지국": 7434,
      "마사카즈": 7435,
      "GPU": 7436,
      "들고": 7437,
      "리며": 7438,
      "사들": 7439,
      "선행": 7440,
      "성분": 7441,
      "안타": 7442,
      "일대": 7443,
      "지갑": 7444,
      "지게": 7445,
      "청사": 7446,
      "커리": 7447,
      "관계자들이": 7448,
      "라인을": 7449,
      "실시한": 7450,
      "제출한": 7451,
      "대처": 7452,
      "밝혀": 7453,
      "부작용": 7454,
      "상회": 7455,
      "소화": 7456,
      "얻을": 7457,
      "지점": 7458,
      "홈플러스": 7459,
      "홈페이지를": 7460,
      "회에서": 7461,
      "횡령": 7462,
      "판매량은": 7463,
      "현대백화점": 7464,
      "반도체를": 7465,
      "180": 7466,
      "문제로": 7467,
      "여행을": 7468,
      "쌍용자동차": 7469,
      "GWh": 7470,
      "IBK": 7471,
      "시장조사업체": 7472,
      "거점": 7473,
      "과감": 7474,
      "당일": 7475,
      "대수기": 7476,
      "덕수": 7477,
      "막걸리": 7478,
      "미술": 7479,
      "웹소설": 7480,
      "포기": 7481,
      "발생했다": 7482,
      "현장에": 7483,
      "경험이": 7484,
      "배터리를": 7485,
      "폐기물": 7486,
      "아티스트": 7487,
      "9개": 7488,
      "ID": 7489,
      "ut": 7490,
      "부각": 7491,
      "의해": 7492,
      "전사": 7493,
      "전역": 7494,
      "졌고": 7495,
      "컨트롤": 7496,
      "헤지": 7497,
      "에너지정책": 7498,
      "준비했다": 7499,
      "패키징": 7500,
      "무료로": 7501,
      "Wh": 7502,
      "목을": 7503,
      "분들이": 7504,
      "식이": 7505,
      "실물": 7506,
      "월평균": 7507,
      "이르면": 7508,
      "이사장": 7509,
      "잡을": 7510,
      "클러스": 7511,
      "해왔": 7512,
      "기업집단": 7513,
      "11개": 7514,
      "적용되는": 7515,
      "성공한": 7516,
      "의견이": 7517,
      "미래에셋증권": 7518,
      "인베스트먼트": 7519,
      "2시": 7520,
      "가졌다": 7521,
      "렌즈": 7522,
      "사장이": 7523,
      "제이": 7524,
      "해지고": 7525,
      "힘든": 7526,
      "개인의": 7527,
      "확인했다": 7528,
      "효과적으로": 7529,
      "신용융자": 7530,
      "조직을": 7531,
      "자이너": 7532,
      "자이언트": 7533,
      "St": 7534,
      "ir": 7535,
      "거리를": 7536,
      "계기가": 7537,
      "권의": 7538,
      "논문": 7539,
      "다섯": 7540,
      "디자이너": 7541,
      "미분양": 7542,
      "법이": 7543,
      "온도": 7544,
      "정체": 7545,
      "찾기": 7546,
      "피크": 7547,
      "12일": 7548,
      "인상으로": 7549,
      "나타나고": 7550,
      "구성됐다": 7551,
      "매수세가": 7552,
      "이뤄진": 7553,
      "알려져": 7554,
      "리조트": 7555,
      "내놨다": 7556,
      "3AC": 7557,
      "4000억원": 7558,
      "개시": 7559,
      "그의": 7560,
      "노키아": 7561,
      "돕는": 7562,
      "블리": 7563,
      "수에": 7564,
      "저작": 7565,
      "예정된": 7566,
      "지수를": 7567,
      "수준인": 7568,
      "신청할": 7569,
      "신용카드": 7570,
      "논의를": 7571,
      "이제는": 7572,
      "프로모션을": 7573,
      "파트너십을": 7574,
      "적절한": 7575,
      "거리두기": 7576,
      "11일": 7577,
      "2명": 7578,
      "2층": 7579,
      "ig": 7580,
      "기쁘": 7581,
      "마의": 7582,
      "모은": 7583,
      "못해": 7584,
      "티켓": 7585,
      "상황은": 7586,
      "40년": 7587,
      "예상보다": 7588,
      "방안에": 7589,
      "높아졌다": 7590,
      "심각한": 7591,
      "한일재계회의": 7592,
      "250": 7593,
      "국방": 7594,
      "남미": 7595,
      "도출": 7596,
      "동국제": 7597,
      "모레": 7598,
      "민주": 7599,
      "출금": 7600,
      "카운": 7601,
      "커지는": 7602,
      "표를": 7603,
      "향한": 7604,
      "정부에서": 7605,
      "196": 7606,
      "지원금": 7607,
      "이상인": 7608,
      "상품과": 7609,
      "경우도": 7610,
      "100만원": 7611,
      "확보할": 7612,
      "가구가": 7613,
      "금감원": 7614,
      "데브": 7615,
      "았습니다": 7616,
      "음원": 7617,
      "즐기는": 7618,
      "통장": 7619,
      "핀란드": 7620,
      "선보이고": 7621,
      "소통을": 7622,
      "제휴를": 7623,
      "가파른": 7624,
      "CNBC": 7625,
      "900": 7626,
      "동남아": 7627,
      "배추": 7628,
      "부상": 7629,
      "비비": 7630,
      "사막": 7631,
      "얼굴": 7632,
      "정말": 7633,
      "지자": 7634,
      "치면서": 7635,
      "패러": 7636,
      "으로도": 7637,
      "위해선": 7638,
      "진행될": 7639,
      "함께하는": 7640,
      "하락을": 7641,
      "시스템에": 7642,
      "건설이": 7643,
      "신한울": 7644,
      "수수료를": 7645,
      "스럽게": 7646,
      "ad": 7647,
      "tv": 7648,
      "강연": 7649,
      "고성능": 7650,
      "니어": 7651,
      "다누리": 7652,
      "되었다": 7653,
      "비자": 7654,
      "상금": 7655,
      "순간": 7656,
      "신산업": 7657,
      "육박": 7658,
      "전동": 7659,
      "판매량": 7660,
      "참여한다": 7661,
      "우려에": 7662,
      "상태를": 7663,
      "계속해서": 7664,
      "이뤄질": 7665,
      "가게": 7666,
      "그림": 7667,
      "김성": 7668,
      "김주": 7669,
      "대량": 7670,
      "물량을": 7671,
      "상대로": 7672,
      "유해": 7673,
      "20대": 7674,
      "수요에": 7675,
      "방식의": 7676,
      "위험을": 7677,
      "클래스": 7678,
      "인플루언": 7679,
      "um": 7680,
      "간접": 7681,
      "공학과": 7682,
      "나은": 7683,
      "도모": 7684,
      "두드러": 7685,
      "막기": 7686,
      "맺고": 7687,
      "몰입": 7688,
      "미르": 7689,
      "사법": 7690,
      "신흥": 7691,
      "앞에서": 7692,
      "정이": 7693,
      "타격을": 7694,
      "트윈": 7695,
      "특구": 7696,
      "폭발": 7697,
      "푸르": 7698,
      "있다면": 7699,
      "LG화학": 7700,
      "안정적으로": 7701,
      "국민고통": 7702,
      "가상인간": 7703,
      "Ad": 7704,
      "EX": 7705,
      "PP": 7706,
      "ap": 7707,
      "끌고": 7708,
      "레저": 7709,
      "렉스": 7710,
      "사료": 7711,
      "생애": 7712,
      "여유": 7713,
      "오토": 7714,
      "우영": 7715,
      "유진": 7716,
      "직을": 7717,
      "쾌적": 7718,
      "팀이": 7719,
      "풍부한": 7720,
      "만원에": 7721,
      "변화가": 7722,
      "현대차는": 7723,
      "이야기를": 7724,
      "2025년까지": 7725,
      "이탈리아": 7726,
      "대표이사는": 7727,
      "3가지": 7728,
      "5억원": 7729,
      "건수는": 7730,
      "금호": 7731,
      "순차": 7732,
      "전원": 7733,
      "크루": 7734,
      "이어졌다": 7735,
      "침체에": 7736,
      "네이버는": 7737,
      "방송통신": 7738,
      "상무는": 7739,
      "대우조선해양": 7740,
      "미세먼": 7741,
      "TS": 7742,
      "러스트": 7743,
      "마치": 7744,
      "매김": 7745,
      "바꿔": 7746,
      "본점": 7747,
      "셔널": 7748,
      "수십": 7749,
      "야놀": 7750,
      "있으나": 7751,
      "플라이": 7752,
      "향이": 7753,
      "시장과": 7754,
      "산업부는": 7755,
      "지원해": 7756,
      "2027년": 7757,
      "진행해": 7758,
      "지속되고": 7759,
      "아니냐는": 7760,
      "제도가": 7761,
      "구글과": 7762,
      "감염병": 7763,
      "레미콘운송": 7764,
      "상한제": 7765,
      "무역수지는": 7766,
      "행복주택": 7767,
      "AT": 7768,
      "나라는": 7769,
      "노트": 7770,
      "도서": 7771,
      "명시": 7772,
      "불안정": 7773,
      "수협": 7774,
      "오리": 7775,
      "인텔": 7776,
      "직무": 7777,
      "파생": 7778,
      "화와": 7779,
      "금융회사": 7780,
      "이후에도": 7781,
      "대해선": 7782,
      "과정에": 7783,
      "삼성전자와": 7784,
      "도입한": 7785,
      "자리매김": 7786,
      "외국환": 7787,
      "전장보다": 7788,
      "대수기하학": 7789,
      "FO": 7790,
      "ab": 7791,
      "거운": 7792,
      "결혼": 7793,
      "공지": 7794,
      "데미": 7795,
      "레스": 7796,
      "무너": 7797,
      "손님": 7798,
      "위생": 7799,
      "응용": 7800,
      "회수": 7801,
      "상승세가": 7802,
      "환경에서": 7803,
      "대상이": 7804,
      "11번": 7805,
      "개선에": 7806,
      "사이언": 7807,
      "애플이": 7808,
      "의미를": 7809,
      "게이트": 7810,
      "start": 7811,
      "선호하는": 7812,
      "논란이": 7813,
      "시켰다": 7814,
      "나눔": 7815,
      "말레이": 7816,
      "베르": 7817,
      "수면": 7818,
      "스톱": 7819,
      "어서": 7820,
      "크리스": 7821,
      "텍은": 7822,
      "전문성을": 7823,
      "업계에서": 7824,
      "부분이": 7825,
      "1997년": 7826,
      "신속하게": 7827,
      "임무를": 7828,
      "IN": 7829,
      "과일": 7830,
      "드린다": 7831,
      "성적": 7832,
      "소주": 7833,
      "송옥": 7834,
      "어워드": 7835,
      "오염": 7836,
      "이례": 7837,
      "조속": 7838,
      "축제": 7839,
      "학년": 7840,
      "한덕수": 7841,
      "현장을": 7842,
      "기자가": 7843,
      "수요는": 7844,
      "규제혁신": 7845,
      "생활건강": 7846,
      "혜택이": 7847,
      "수익률이": 7848,
      "프레임": 7849,
      "최적화된": 7850,
      "송옥렬": 7851,
      "레븐": 7852,
      "발령": 7853,
      "서머": 7854,
      "쉽고": 7855,
      "약물": 7856,
      "역사": 7857,
      "연일": 7858,
      "일레븐": 7859,
      "자발": 7860,
      "점점": 7861,
      "체를": 7862,
      "크지": 7863,
      "한국을": 7864,
      "10분": 7865,
      "지역별": 7866,
      "종목은": 7867,
      "보건복지": 7868,
      "어렵다는": 7869,
      "클러스터": 7870,
      "말레이시아": 7871,
      "CD": 7872,
      "늘면서": 7873,
      "루나": 7874,
      "영양": 7875,
      "자사의": 7876,
      "전선": 7877,
      "전력을": 7878,
      "좋다": 7879,
      "주방": 7880,
      "지기": 7881,
      "첫날": 7882,
      "프랜": 7883,
      "들어서": 7884,
      "수준이": 7885,
      "케이블": 7886,
      "증시의": 7887,
      "법인세": 7888,
      "자료에": 7889,
      "방송을": 7890,
      "인식을": 7891,
      "차질이": 7892,
      "간편하게": 7893,
      "메시지를": 7894,
      "7억": 7895,
      "넓은": 7896,
      "런던": 7897,
      "레버": 7898,
      "맞춘": 7899,
      "발로": 7900,
      "발전기": 7901,
      "보낸": 7902,
      "북구": 7903,
      "손쉽게": 7904,
      "씨의": 7905,
      "팀은": 7906,
      "투자와": 7907,
      "투자한": 7908,
      "운영할": 7909,
      "포함됐다": 7910,
      "있는데요": 7911,
      "신호를": 7912,
      "세븐일레븐": 7913,
      "SK브로드밴드": 7914,
      "5개월": 7915,
      "FP": 7916,
      "es": 7917,
      "se": 7918,
      "곳의": 7919,
      "남부": 7920,
      "따로": 7921,
      "려고": 7922,
      "수량": 7923,
      "강화하는": 7924,
      "건강기능": 7925,
      "고려한": 7926,
      "스테이지": 7927,
      "질문에": 7928,
      "패러다": 7929,
      "갖췄다": 7930,
      "개통": 7931,
      "경품": 7932,
      "과태": 7933,
      "다채": 7934,
      "되기를": 7935,
      "만난": 7936,
      "선착": 7937,
      "소진": 7938,
      "이기도": 7939,
      "인원": 7940,
      "징계": 7941,
      "테니스": 7942,
      "펀딩": 7943,
      "화로": 7944,
      "이라도": 7945,
      "지원이": 7946,
      "대표와": 7947,
      "받아야": 7948,
      "실시한다": 7949,
      "담보비율": 7950,
      "인포테인먼트": 7951,
      "강세를": 7952,
      "대환": 7953,
      "리모델링": 7954,
      "머물": 7955,
      "송금": 7956,
      "이의": 7957,
      "줄이기": 7958,
      "증을": 7959,
      "질을": 7960,
      "크립": 7961,
      "키즈": 7962,
      "트랙": 7963,
      "합격": 7964,
      "사업자가": 7965,
      "관계부처": 7966,
      "이미지를": 7967,
      "수익률은": 7968,
      "만나볼": 7969,
      "산업통상자원부는": 7970,
      "차이즈": 7971,
      "1층": 7972,
      "1개월": 7973,
      "뜻을": 7974,
      "료품": 7975,
      "어드": 7976,
      "연준이": 7977,
      "올여름": 7978,
      "인턴": 7979,
      "저감": 7980,
      "통보": 7981,
      "투자할": 7982,
      "지역사회": 7983,
      "소비재": 7984,
      "협력사": 7985,
      "하반기부터": 7986,
      "설치된": 7987,
      "강원도": 7988,
      "수학계의": 7989,
      "MR": 7990,
      "공사는": 7991,
      "다중": 7992,
      "성남": 7993,
      "아일": 7994,
      "영어": 7995,
      "10여": 7996,
      "개발하는": 7997,
      "미국이": 7998,
      "최대전력": 7999
    },
    "merges": [
      [
        "으",
        "로"
      ],
      [
        "했",
        "다"
      ],
      [
        "에",
        "서"
      ],
      [
        "있",
        "다"
      ],
      [
        "하",
        "는"
      ],
      [
        "이",
        "다"
      ],
      [
        "하",
        "고"
      ],
      [
        "0",
        "0"
      ],
      [
        "2",
        "0"
      ],
      [
        "한",
        "다"
      ],
      [
        "니",
        "다"
      ],
      [
        "지",
        "난"
      ],
      [
        "기",
        "업"
      ],
      [
        "있",
        "는"
      ],
      [
        "이",
        "라"
      ],
      [
        "까",
        "지"
      ],
      [
        "사",
        "업"
      ],
      [
        "시",
        "장"
      ],
      [
        "서",
        "울"
      ],
      [
        "투",
        "자"
      ],
      [
        "면",
        "서"
      ],
      [
        "부",
        "터"
      ],
      [
        "한",
        "국"
      ],
      [
        "습",
        "니다"
      ],
      [
        "기",
        "술"
      ],
      [
        "것",
        "으로"
      ],
      [
        "비",
        "스"
      ],
      [
        "금",
        "융"
      ],
      [
        "제",
        "공"
      ],
      [
        "통",
        "해"
      ],
      [
        "적",
        "으로"
      ],
      [
        "서",
        "비스"
      ],
      [
        "1",
        "0"
      ],
      [
        "대",
        "한"
      ],
      [
        "된",
        "다"
      ],
      [
        "밝",
        "혔"
      ],
      [
        "위",
        "해"
      ],
      [
        "억",
        "원"
      ],
      [
        "밝혔",
        "다"
      ],
      [
        "들",
        "이"
      ],
      [
        "적",
        "인"
      ],
      [
        "개",
        "발"
      ],
      [
        "연",
        "구"
      ],
      [
        "국",
        "내"
      ],
      [
        "하",
        "기"
      ],
      [
        "가",
        "능"
      ],
      [
        "지",
        "만"
      ],
      [
        "기",
        "자"
      ],
      [
        "가",
        "격"
      ],
      [
        "보",
        "다"
      ],
      [
        "정",
        "부"
      ],
      [
        "1",
        "9"
      ],
      [
        "상",
        "승"
      ],
      [
        "됐",
        "다"
      ],
      [
        "3",
        "0"
      ],
      [
        "경",
        "제"
      ],
      [
        "금",
        "리"
      ],
      [
        "거",
        "래"
      ],
      [
        "산",
        "업"
      ],
      [
        "지",
        "원"
      ],
      [
        "이라",
        "고"
      ],
      [
        "말",
        "했다"
      ],
      [
        "이",
        "어"
      ],
      [
        "은",
        "행"
      ],
      [
        "올",
        "해"
      ],
      [
        "대",
        "표"
      ],
      [
        "고",
        "객"
      ],
      [
        "에",
        "는"
      ],
      [
        "20",
        "2"
      ],
      [
        "이",
        "번"
      ],
      [
        "00",
        "0"
      ],
      [
        "진",
        "행"
      ],
      [
        "자",
        "는"
      ],
      [
        "미",
        "국"
      ],
      [
        "시",
        "스"
      ],
      [
        "뉴",
        "스"
      ],
      [
        "위",
        "한"
      ],
      [
        "글",
        "로"
      ],
      [
        "반",
        "기"
      ],
      [
        "기",
        "준"
      ],
      [
        "사",
        "진"
      ],
      [
        "데",
        "이"
      ],
      [
        "었",
        "다"
      ],
      [
        "이",
        "후"
      ],
      [
        "계",
        "획"
      ],
      [
        "이",
        "상"
      ],
      [
        "글로",
        "벌"
      ],
      [
        "되",
        "는"
      ],
      [
        "물",
        "가"
      ],
      [
        "관",
        "계"
      ],
      [
        "정",
        "보"
      ],
      [
        "달",
        "러"
      ],
      [
        "에",
        "게"
      ],
      [
        "1",
        "일"
      ],
      [
        "레",
        "이"
      ],
      [
        "지난",
        "해"
      ],
      [
        "상",
        "품"
      ],
      [
        "지",
        "역"
      ],
      [
        "제",
        "품"
      ],
      [
        "성",
        "장"
      ],
      [
        "하",
        "게"
      ],
      [
        "확",
        "대"
      ],
      [
        "판",
        "매"
      ],
      [
        "하",
        "다"
      ],
      [
        "최",
        "근"
      ],
      [
        "예",
        "정"
      ],
      [
        "장",
        "은"
      ],
      [
        "삼",
        "성"
      ],
      [
        "대",
        "비"
      ],
      [
        "관",
        "련"
      ],
      [
        "등",
        "을"
      ],
      [
        "소",
        "비"
      ],
      [
        "너",
        "지"
      ],
      [
        "르",
        "면"
      ],
      [
        "도",
        "록"
      ],
      [
        "전",
        "망"
      ],
      [
        "겠",
        "다"
      ],
      [
        "세",
        "계"
      ],
      [
        "이",
        "용"
      ],
      [
        "프",
        "로"
      ],
      [
        "다",
        "양"
      ],
      [
        "에",
        "도"
      ],
      [
        "기",
        "관"
      ],
      [
        "환",
        "경"
      ],
      [
        "시",
        "간"
      ],
      [
        "전",
        "자"
      ],
      [
        "상",
        "황"
      ],
      [
        "함",
        "께"
      ],
      [
        "관",
        "리"
      ],
      [
        "따",
        "르면"
      ],
      [
        "5",
        "일"
      ],
      [
        "증",
        "가"
      ],
      [
        "에",
        "너지"
      ],
      [
        "하",
        "락"
      ],
      [
        "공",
        "급"
      ],
      [
        "전",
        "문"
      ],
      [
        "대",
        "상"
      ],
      [
        "다양",
        "한"
      ],
      [
        "게",
        "임"
      ],
      [
        "분",
        "기"
      ],
      [
        "마",
        "트"
      ],
      [
        "4",
        "일"
      ],
      [
        "L",
        "G"
      ],
      [
        "사",
        "용"
      ],
      [
        "들",
        "의"
      ],
      [
        "경",
        "기"
      ],
      [
        "경",
        "우"
      ],
      [
        "최",
        "대"
      ],
      [
        "활",
        "용"
      ],
      [
        "하",
        "며"
      ],
      [
        "기",
        "록"
      ],
      [
        "스",
        "트"
      ],
      [
        "데이",
        "터"
      ],
      [
        "업",
        "계"
      ],
      [
        "운",
        "영"
      ],
      [
        "규",
        "모"
      ],
      [
        "대",
        "출"
      ],
      [
        "회",
        "사"
      ],
      [
        "카",
        "오"
      ],
      [
        "정",
        "책"
      ],
      [
        "5",
        "0"
      ],
      [
        "1",
        "2"
      ],
      [
        "카",
        "카오"
      ],
      [
        "증",
        "권"
      ],
      [
        "위",
        "원"
      ],
      [
        "따",
        "라"
      ],
      [
        "같",
        "은"
      ],
      [
        "라",
        "이"
      ],
      [
        "지난",
        "달"
      ],
      [
        "6",
        "월"
      ],
      [
        "필",
        "요"
      ],
      [
        "우",
        "리"
      ],
      [
        "때",
        "문"
      ],
      [
        "1",
        "1"
      ],
      [
        "라",
        "인"
      ],
      [
        "경",
        "영"
      ],
      [
        "성",
        "을"
      ],
      [
        "만",
        "원"
      ],
      [
        "랜",
        "드"
      ],
      [
        "았",
        "다"
      ],
      [
        "지",
        "속"
      ],
      [
        "들",
        "은"
      ],
      [
        "A",
        "I"
      ],
      [
        "인",
        "상"
      ],
      [
        "수",
        "출"
      ],
      [
        "설",
        "명"
      ],
      [
        "플",
        "랫"
      ],
      [
        "플랫",
        "폼"
      ],
      [
        "들",
        "어"
      ],
      [
        "성",
        "이"
      ],
      [
        "대",
        "해"
      ],
      [
        "지",
        "수"
      ],
      [
        "디",
        "지"
      ],
      [
        "202",
        "2"
      ],
      [
        "에서",
        "는"
      ],
      [
        "가",
        "장"
      ],
      [
        "생",
        "산"
      ],
      [
        "그",
        "룹"
      ],
      [
        "하",
        "면"
      ],
      [
        "디지",
        "털"
      ],
      [
        "소비",
        "자"
      ],
      [
        "바",
        "이"
      ],
      [
        "로",
        "나"
      ],
      [
        "이",
        "날"
      ],
      [
        "자",
        "산"
      ],
      [
        "력",
        "을"
      ],
      [
        "수",
        "준"
      ],
      [
        "전",
        "기"
      ],
      [
        "현",
        "재"
      ],
      [
        "교",
        "수"
      ],
      [
        "평",
        "가"
      ],
      [
        "수",
        "요"
      ],
      [
        "반",
        "도"
      ],
      [
        "코",
        "로나"
      ],
      [
        "규",
        "제"
      ],
      [
        "통",
        "신"
      ],
      [
        "주",
        "택"
      ],
      [
        "현",
        "대"
      ],
      [
        "했다",
        "고"
      ],
      [
        "되",
        "고"
      ],
      [
        "주",
        "요"
      ],
      [
        "졌",
        "다"
      ],
      [
        "기",
        "간"
      ],
      [
        "스",
        "타"
      ],
      [
        "반도",
        "체"
      ],
      [
        "파",
        "트"
      ],
      [
        "발",
        "표"
      ],
      [
        "분",
        "야"
      ],
      [
        "연",
        "합"
      ],
      [
        "회",
        "의"
      ],
      [
        "이",
        "는"
      ],
      [
        "중",
        "국"
      ],
      [
        "출",
        "시"
      ],
      [
        "분",
        "석"
      ],
      [
        "안",
        "전"
      ],
      [
        "S",
        "K"
      ],
      [
        "플",
        "레이"
      ],
      [
        "관계",
        "자는"
      ],
      [
        "센",
        "터"
      ],
      [
        "시",
        "작"
      ],
      [
        "추",
        "진"
      ],
      [
        "국",
        "제"
      ],
      [
        "참",
        "여"
      ],
      [
        "있",
        "도록"
      ],
      [
        "업",
        "체"
      ],
      [
        "입",
        "니다"
      ],
      [
        "오",
        "는"
      ],
      [
        "시스",
        "템"
      ],
      [
        "4",
        "0"
      ],
      [
        "아",
        "이"
      ],
      [
        "적",
        "용"
      ],
      [
        "추",
        "가"
      ],
      [
        "경",
        "쟁"
      ],
      [
        "항",
        "공"
      ],
      [
        "1",
        "3"
      ],
      [
        "회",
        "장"
      ],
      [
        "해",
        "야"
      ],
      [
        "으",
        "며"
      ],
      [
        "하",
        "지"
      ],
      [
        "예정",
        "이다"
      ],
      [
        "최",
        "고"
      ],
      [
        "특",
        "히"
      ],
      [
        "1",
        "5"
      ],
      [
        "하",
        "면서"
      ],
      [
        "1",
        "00"
      ],
      [
        "기",
        "대"
      ],
      [
        "매",
        "출"
      ],
      [
        "개",
        "선"
      ],
      [
        "강",
        "화"
      ],
      [
        "5",
        "월"
      ],
      [
        "인",
        "트"
      ],
      [
        "1",
        "년"
      ],
      [
        "하",
        "겠다"
      ],
      [
        "주",
        "가"
      ],
      [
        "사",
        "회"
      ],
      [
        "해",
        "외"
      ],
      [
        "기",
        "반"
      ],
      [
        "보",
        "험"
      ],
      [
        "리",
        "는"
      ],
      [
        "것",
        "이"
      ],
      [
        "보",
        "고"
      ],
      [
        "였",
        "다"
      ],
      [
        "높",
        "은"
      ],
      [
        "개",
        "월"
      ],
      [
        "포",
        "인트"
      ],
      [
        "러",
        "스"
      ],
      [
        "우",
        "려"
      ],
      [
        "예",
        "상"
      ],
      [
        "협",
        "력"
      ],
      [
        "만",
        "에"
      ],
      [
        "기",
        "존"
      ],
      [
        "하",
        "반기"
      ],
      [
        "코",
        "스"
      ],
      [
        "스",
        "마트"
      ],
      [
        "1",
        "8"
      ],
      [
        "전",
        "략"
      ],
      [
        "문",
        "제"
      ],
      [
        "영",
        "상"
      ],
      [
        "브",
        "랜드"
      ],
      [
        "구",
        "축"
      ],
      [
        "나",
        "타"
      ],
      [
        "세",
        "대"
      ],
      [
        "자",
        "동"
      ],
      [
        "했",
        "습니다"
      ],
      [
        "개",
        "인"
      ],
      [
        "영",
        "향"
      ],
      [
        "다",
        "는"
      ],
      [
        "가",
        "치"
      ],
      [
        "계획",
        "이다"
      ],
      [
        "하",
        "나"
      ],
      [
        "기",
        "를"
      ],
      [
        "지",
        "는"
      ],
      [
        "직",
        "원"
      ],
      [
        "상",
        "반기"
      ],
      [
        "이",
        "를"
      ],
      [
        "콘",
        "텐"
      ],
      [
        "실",
        "적"
      ],
      [
        "아",
        "니"
      ],
      [
        "사",
        "를"
      ],
      [
        "결",
        "과"
      ],
      [
        "K",
        "T"
      ],
      [
        "시",
        "아"
      ],
      [
        "부",
        "담"
      ],
      [
        "코로나",
        "19"
      ],
      [
        "자",
        "가"
      ],
      [
        "7",
        "월"
      ],
      [
        "1",
        "7"
      ],
      [
        "지",
        "고"
      ],
      [
        "건",
        "설"
      ],
      [
        "성",
        "과"
      ],
      [
        "6",
        "일"
      ],
      [
        "대",
        "로"
      ],
      [
        "페",
        "이"
      ],
      [
        "감",
        "소"
      ],
      [
        "콘텐",
        "츠"
      ],
      [
        "발",
        "생"
      ],
      [
        "2",
        "00"
      ],
      [
        "혁",
        "신"
      ],
      [
        "1",
        "4"
      ],
      [
        "장",
        "을"
      ],
      [
        "사",
        "이"
      ],
      [
        "가",
        "운"
      ],
      [
        "연합",
        "뉴스"
      ],
      [
        "교",
        "육"
      ],
      [
        "2",
        "3"
      ],
      [
        "가운",
        "데"
      ],
      [
        "대",
        "학"
      ],
      [
        "연구",
        "원"
      ],
      [
        "만",
        "큼"
      ],
      [
        "라",
        "고"
      ],
      [
        "한다",
        "고"
      ],
      [
        "업",
        "무"
      ],
      [
        "과",
        "학"
      ],
      [
        "전",
        "력"
      ],
      [
        "안",
        "정"
      ],
      [
        "장",
        "관"
      ],
      [
        "영",
        "업"
      ],
      [
        "주",
        "식"
      ],
      [
        "들",
        "을"
      ],
      [
        "로",
        "운"
      ],
      [
        "마",
        "련"
      ],
      [
        "활",
        "동"
      ],
      [
        "뉴",
        "시스"
      ],
      [
        "전",
        "환"
      ],
      [
        "확",
        "보"
      ],
      [
        "미",
        "래"
      ],
      [
        "국",
        "민"
      ],
      [
        "수",
        "익"
      ],
      [
        "6",
        "0"
      ],
      [
        "서비스",
        "를"
      ],
      [
        "있",
        "어"
      ],
      [
        "이",
        "에"
      ],
      [
        "결",
        "제"
      ],
      [
        "카",
        "드"
      ],
      [
        "조",
        "사"
      ],
      [
        "지",
        "를"
      ],
      [
        "일",
        "본"
      ],
      [
        "모",
        "두"
      ],
      [
        "확",
        "인"
      ],
      [
        "등",
        "의"
      ],
      [
        "등",
        "이"
      ],
      [
        "과",
        "정"
      ],
      [
        "이라",
        "며"
      ],
      [
        "동",
        "안"
      ],
      [
        "목",
        "표"
      ],
      [
        "신",
        "규"
      ],
      [
        "보",
        "인"
      ],
      [
        "평",
        "균"
      ],
      [
        "적",
        "극"
      ],
      [
        "위",
        "기"
      ],
      [
        "것",
        "이다"
      ],
      [
        "중",
        "소"
      ],
      [
        "부",
        "산"
      ],
      [
        "국",
        "가"
      ],
      [
        "이",
        "나"
      ],
      [
        "뉴스",
        "1"
      ],
      [
        "발",
        "전"
      ],
      [
        "위원",
        "회"
      ],
      [
        "있다",
        "는"
      ],
      [
        "대",
        "응"
      ],
      [
        "2",
        "2"
      ],
      [
        "삼성",
        "전자"
      ],
      [
        "이",
        "고"
      ],
      [
        "공",
        "개"
      ],
      [
        "아",
        "파트"
      ],
      [
        "는",
        "데"
      ],
      [
        "침",
        "체"
      ],
      [
        "설명",
        "했다"
      ],
      [
        "그",
        "램"
      ],
      [
        "롯",
        "데"
      ],
      [
        "다",
        "른"
      ],
      [
        "방",
        "안"
      ],
      [
        "점",
        "을"
      ],
      [
        "많",
        "은"
      ],
      [
        "세",
        "를"
      ],
      [
        "공",
        "동"
      ],
      [
        "중",
        "심"
      ],
      [
        "사",
        "는"
      ],
      [
        "2",
        "5"
      ],
      [
        "계",
        "약"
      ],
      [
        "따",
        "른"
      ],
      [
        "화",
        "를"
      ],
      [
        "수",
        "학"
      ],
      [
        "포",
        "함"
      ],
      [
        "루",
        "션"
      ],
      [
        "20",
        "년"
      ],
      [
        "모",
        "델"
      ],
      [
        "라",
        "는"
      ],
      [
        "이",
        "미"
      ],
      [
        "앞",
        "으로"
      ],
      [
        "보",
        "유"
      ],
      [
        "해",
        "당"
      ],
      [
        "전",
        "국"
      ],
      [
        "1",
        "6"
      ],
      [
        "구",
        "매"
      ],
      [
        "제",
        "도"
      ],
      [
        "열",
        "린"
      ],
      [
        "2",
        "4"
      ],
      [
        "공",
        "공"
      ],
      [
        "구",
        "성"
      ],
      [
        "이라",
        "는"
      ],
      [
        "하",
        "지만"
      ],
      [
        "반",
        "영"
      ],
      [
        "유",
        "지"
      ],
      [
        "솔",
        "루션"
      ],
      [
        "에서",
        "도"
      ],
      [
        "내",
        "용"
      ],
      [
        "전",
        "체"
      ],
      [
        "조",
        "정"
      ],
      [
        "부",
        "문"
      ],
      [
        "스",
        "크"
      ],
      [
        "S",
        "G"
      ],
      [
        "방",
        "식"
      ],
      [
        "온",
        "라인"
      ],
      [
        "도",
        "입"
      ],
      [
        "새",
        "로운"
      ],
      [
        "2",
        "9"
      ],
      [
        "늘",
        "어"
      ],
      [
        "식",
        "품"
      ],
      [
        "이",
        "익"
      ],
      [
        "한다",
        "는"
      ],
      [
        "때문",
        "에"
      ],
      [
        "플",
        "러스"
      ],
      [
        "치",
        "를"
      ],
      [
        "신",
        "한"
      ],
      [
        "어",
        "려"
      ],
      [
        "각",
        "각"
      ],
      [
        "오",
        "후"
      ],
      [
        "강",
        "조"
      ],
      [
        "하",
        "이"
      ],
      [
        "바이",
        "오"
      ],
      [
        "부",
        "는"
      ],
      [
        "선",
        "정"
      ],
      [
        "것",
        "은"
      ],
      [
        "자",
        "체"
      ],
      [
        "부",
        "동"
      ],
      [
        "공",
        "정"
      ],
      [
        "요",
        "금"
      ],
      [
        "기",
        "능"
      ],
      [
        "운",
        "용"
      ],
      [
        "비",
        "용"
      ],
      [
        "떨",
        "어"
      ],
      [
        "자",
        "리"
      ],
      [
        "20",
        "20년"
      ],
      [
        "자",
        "를"
      ],
      [
        "부",
        "분"
      ],
      [
        "현",
        "장"
      ],
      [
        "현",
        "지"
      ],
      [
        "다",
        "고"
      ],
      [
        "등",
        "에"
      ],
      [
        "스",
        "는"
      ],
      [
        "서",
        "는"
      ],
      [
        "우",
        "주"
      ],
      [
        "할",
        "인"
      ],
      [
        "부동",
        "산"
      ],
      [
        "보",
        "호"
      ],
      [
        "1",
        "만"
      ],
      [
        "효",
        "과"
      ],
      [
        "있",
        "습니다"
      ],
      [
        "한",
        "편"
      ],
      [
        "자동",
        "차"
      ],
      [
        "인",
        "하"
      ],
      [
        "전",
        "년"
      ],
      [
        "3",
        "년"
      ],
      [
        "대상",
        "으로"
      ],
      [
        "벤",
        "트"
      ],
      [
        "가",
        "상"
      ],
      [
        "가",
        "구"
      ],
      [
        "8",
        "0"
      ],
      [
        "수",
        "도"
      ],
      [
        "유",
        "럽"
      ],
      [
        "이",
        "벤트"
      ],
      [
        "기",
        "획"
      ],
      [
        "프로",
        "그램"
      ],
      [
        "리",
        "고"
      ],
      [
        "제",
        "로"
      ],
      [
        "결",
        "정"
      ],
      [
        "있다",
        "고"
      ],
      [
        "성",
        "공"
      ],
      [
        "3",
        "일"
      ],
      [
        "구",
        "조"
      ],
      [
        "비",
        "중"
      ],
      [
        "그",
        "러"
      ],
      [
        "신",
        "청"
      ],
      [
        "가",
        "입"
      ],
      [
        "오",
        "전"
      ],
      [
        "처",
        "음"
      ],
      [
        "없",
        "이"
      ],
      [
        "시",
        "행"
      ],
      [
        "기",
        "에"
      ],
      [
        "일",
        "리"
      ],
      [
        "준",
        "비"
      ],
      [
        "수",
        "입"
      ],
      [
        "아니",
        "라"
      ],
      [
        "왔",
        "다"
      ],
      [
        "도",
        "를"
      ],
      [
        "도",
        "로"
      ],
      [
        "코스",
        "피"
      ],
      [
        "상",
        "을"
      ],
      [
        "인",
        "터"
      ],
      [
        "점",
        "검"
      ],
      [
        "2",
        "7"
      ],
      [
        "가",
        "스"
      ],
      [
        "등",
        "으로"
      ],
      [
        "플레이",
        "션"
      ],
      [
        "30",
        "일"
      ],
      [
        "개",
        "최"
      ],
      [
        "거",
        "나"
      ],
      [
        "2",
        "8"
      ],
      [
        "향",
        "후"
      ],
      [
        "비",
        "율"
      ],
      [
        "자",
        "의"
      ],
      [
        "역",
        "시"
      ],
      [
        "주",
        "는"
      ],
      [
        "참",
        "석"
      ],
      [
        "자",
        "금"
      ],
      [
        "여",
        "러"
      ],
      [
        "행",
        "사"
      ],
      [
        "장",
        "이"
      ],
      [
        "리",
        "아"
      ],
      [
        "버",
        "스"
      ],
      [
        "생",
        "활"
      ],
      [
        "여",
        "름"
      ],
      [
        "경",
        "험"
      ],
      [
        "보인",
        "다"
      ],
      [
        "들",
        "과"
      ],
      [
        "사",
        "람"
      ],
      [
        "들",
        "에게"
      ],
      [
        "원",
        "자"
      ],
      [
        "원",
        "을"
      ],
      [
        "대",
        "형"
      ],
      [
        "비",
        "롯"
      ],
      [
        "네",
        "이"
      ],
      [
        "구",
        "글"
      ],
      [
        "났",
        "다"
      ],
      [
        "지",
        "금"
      ],
      [
        "5",
        "00"
      ],
      [
        "핵",
        "심"
      ],
      [
        "케",
        "이"
      ],
      [
        "방",
        "향"
      ],
      [
        "관",
        "심"
      ],
      [
        "전문",
        "가"
      ],
      [
        "증",
        "시"
      ],
      [
        "2",
        "분기"
      ],
      [
        "또",
        "한"
      ],
      [
        "분",
        "양"
      ],
      [
        "7",
        "0"
      ],
      [
        "가",
        "지"
      ],
      [
        "E",
        "SG"
      ],
      [
        "협",
        "약"
      ],
      [
        "오",
        "른"
      ],
      [
        "사업",
        "을"
      ],
      [
        "데",
        "일리"
      ],
      [
        "전",
        "시"
      ],
      [
        "차",
        "량"
      ],
      [
        "직",
        "접"
      ],
      [
        "8",
        "월"
      ],
      [
        "있",
        "을"
      ],
      [
        "공",
        "간"
      ],
      [
        "혜",
        "택"
      ],
      [
        "유",
        "가"
      ],
      [
        "그",
        "는"
      ],
      [
        "이",
        "달"
      ],
      [
        "상",
        "장"
      ],
      [
        "건",
        "강"
      ],
      [
        "신",
        "용"
      ],
      [
        "기",
        "념"
      ],
      [
        "제",
        "작"
      ],
      [
        "대표",
        "는"
      ],
      [
        "중",
        "요"
      ],
      [
        "장",
        "기"
      ],
      [
        "앞",
        "서"
      ],
      [
        "메",
        "타"
      ],
      [
        "소",
        "재"
      ],
      [
        "K",
        "B"
      ],
      [
        "원",
        "에"
      ],
      [
        "c",
        "o"
      ],
      [
        "생",
        "각"
      ],
      [
        "세",
        "가"
      ],
      [
        "했",
        "고"
      ],
      [
        "다",
        "시"
      ],
      [
        "스",
        "토"
      ],
      [
        "논",
        "의"
      ],
      [
        "사",
        "의"
      ],
      [
        "T",
        "V"
      ],
      [
        "원",
        "전"
      ],
      [
        "매",
        "수"
      ],
      [
        "마",
        "이"
      ],
      [
        "n",
        "e"
      ],
      [
        "사",
        "가"
      ],
      [
        "최",
        "초"
      ],
      [
        "크",
        "게"
      ],
      [
        "시",
        "설"
      ],
      [
        "모",
        "든"
      ],
      [
        "액",
        "은"
      ],
      [
        "단",
        "계"
      ],
      [
        "의",
        "료"
      ],
      [
        "우",
        "드"
      ],
      [
        "2",
        "년"
      ],
      [
        "상",
        "태"
      ],
      [
        "많",
        "이"
      ],
      [
        "테",
        "크"
      ],
      [
        "무",
        "역"
      ],
      [
        "문",
        "화"
      ],
      [
        "치",
        "료"
      ],
      [
        "교",
        "통"
      ],
      [
        "외",
        "국"
      ],
      [
        "일",
        "부"
      ],
      [
        "기록",
        "했다"
      ],
      [
        "나",
        "라"
      ],
      [
        "본",
        "부"
      ],
      [
        "기",
        "가"
      ],
      [
        "더",
        "욱"
      ],
      [
        "5",
        "년"
      ],
      [
        "리",
        "를"
      ],
      [
        "모",
        "습"
      ],
      [
        "중",
        "이다"
      ],
      [
        "탄",
        "소"
      ],
      [
        "없",
        "는"
      ],
      [
        "수",
        "상"
      ],
      [
        "도",
        "가"
      ],
      [
        "받",
        "을"
      ],
      [
        "기술",
        "을"
      ],
      [
        "가",
        "는"
      ],
      [
        "다",
        "만"
      ],
      [
        "펀",
        "드"
      ],
      [
        "바",
        "일"
      ],
      [
        "모",
        "바일"
      ],
      [
        "방",
        "문"
      ],
      [
        "인",
        "플레이션"
      ],
      [
        "본",
        "격"
      ],
      [
        "네이",
        "버"
      ],
      [
        "단",
        "지"
      ],
      [
        "I",
        "T"
      ],
      [
        "원",
        "으로"
      ],
      [
        "유",
        "통"
      ],
      [
        "일",
        "반"
      ],
      [
        "법",
        "인"
      ],
      [
        "기업",
        "의"
      ],
      [
        "회",
        "를"
      ],
      [
        "사",
        "실"
      ],
      [
        "이",
        "런"
      ],
      [
        "클",
        "라"
      ],
      [
        "체",
        "계"
      ],
      [
        "체",
        "결"
      ],
      [
        "도",
        "시"
      ],
      [
        "코",
        "인"
      ],
      [
        "계",
        "속"
      ],
      [
        "판",
        "단"
      ],
      [
        "인",
        "수"
      ],
      [
        "위",
        "를"
      ],
      [
        "고",
        "려"
      ],
      [
        "것",
        "을"
      ],
      [
        "4",
        "월"
      ],
      [
        "시장",
        "에서"
      ],
      [
        "애",
        "플"
      ],
      [
        "지수",
        "는"
      ],
      [
        "협",
        "회"
      ],
      [
        "프",
        "리"
      ],
      [
        "여",
        "행"
      ],
      [
        "는",
        "다"
      ],
      [
        "높",
        "아"
      ],
      [
        "가능",
        "한"
      ],
      [
        "집",
        "중"
      ],
      [
        "상승",
        "률"
      ],
      [
        "지",
        "급"
      ],
      [
        "가능",
        "성이"
      ],
      [
        "량",
        "을"
      ],
      [
        "러",
        "시아"
      ],
      [
        "제",
        "조"
      ],
      [
        "별",
        "로"
      ],
      [
        "하기",
        "로"
      ],
      [
        "처",
        "럼"
      ],
      [
        "정부",
        "는"
      ],
      [
        "자",
        "원"
      ],
      [
        "선",
        "보"
      ],
      [
        "자",
        "인"
      ],
      [
        "통",
        "령"
      ],
      [
        "가격",
        "이"
      ],
      [
        "중",
        "인"
      ],
      [
        "대",
        "통령"
      ],
      [
        "번",
        "째"
      ],
      [
        "했",
        "던"
      ],
      [
        "노",
        "동"
      ],
      [
        "I",
        "P"
      ],
      [
        "력",
        "이"
      ],
      [
        "없",
        "다"
      ],
      [
        "최",
        "저"
      ],
      [
        "클라",
        "우드"
      ],
      [
        "지",
        "적"
      ],
      [
        "진",
        "단"
      ],
      [
        "위",
        "성"
      ],
      [
        "전기",
        "차"
      ],
      [
        "조",
        "합"
      ],
      [
        "국",
        "토"
      ],
      [
        "이",
        "동"
      ],
      [
        "인",
        "천"
      ],
      [
        "올",
        "랐"
      ],
      [
        "이",
        "뤄"
      ],
      [
        "요",
        "구"
      ],
      [
        "투자",
        "자"
      ],
      [
        "프",
        "트"
      ],
      [
        "배",
        "터"
      ],
      [
        "나",
        "온"
      ],
      [
        "알",
        "려"
      ],
      [
        "외",
        "환"
      ],
      [
        "쇼",
        "핑"
      ],
      [
        "사",
        "고"
      ],
      [
        "드",
        "는"
      ],
      [
        "스타",
        "트"
      ],
      [
        "전",
        "용"
      ],
      [
        "특",
        "별"
      ],
      [
        "필요",
        "한"
      ],
      [
        "프",
        "라"
      ],
      [
        "받",
        "아"
      ],
      [
        "중",
        "앙"
      ],
      [
        "D",
        "B"
      ],
      [
        "위",
        "험"
      ],
      [
        "정부",
        "가"
      ],
      [
        "인",
        "공"
      ],
      [
        "해",
        "서"
      ],
      [
        "제",
        "시"
      ],
      [
        "금",
        "을"
      ],
      [
        "장",
        "비"
      ],
      [
        "합",
        "니다"
      ],
      [
        "워",
        "크"
      ],
      [
        "때문",
        "이다"
      ],
      [
        "변",
        "화"
      ],
      [
        "되",
        "면서"
      ],
      [
        "역",
        "할"
      ],
      [
        "이",
        "유"
      ],
      [
        "보",
        "면"
      ],
      [
        "연",
        "속"
      ],
      [
        "w",
        "s"
      ],
      [
        "통",
        "합"
      ],
      [
        "가능",
        "하다"
      ],
      [
        "강조",
        "했다"
      ],
      [
        "공",
        "사"
      ],
      [
        "대",
        "를"
      ],
      [
        "암",
        "호"
      ],
      [
        "디",
        "어"
      ],
      [
        "스타트",
        "업"
      ],
      [
        "비",
        "교"
      ],
      [
        "원",
        "이"
      ],
      [
        "마",
        "켓"
      ],
      [
        "9",
        "0"
      ],
      [
        "렸",
        "다"
      ],
      [
        "1",
        "조"
      ],
      [
        "창",
        "업"
      ],
      [
        "지",
        "능"
      ],
      [
        "000",
        "억원"
      ],
      [
        "완",
        "화"
      ],
      [
        "의",
        "미"
      ],
      [
        "현대",
        "차"
      ],
      [
        "리",
        "티"
      ],
      [
        "넘",
        "어"
      ],
      [
        "i",
        "s"
      ],
      [
        "수요",
        "가"
      ],
      [
        "유",
        "플러스"
      ],
      [
        "C",
        "E"
      ],
      [
        "노",
        "력"
      ],
      [
        "우",
        "수"
      ],
      [
        "전",
        "했다"
      ],
      [
        "프로",
        "젝"
      ],
      [
        "조",
        "치"
      ],
      [
        "회",
        "장은"
      ],
      [
        "체",
        "인"
      ],
      [
        "e",
        "r"
      ],
      [
        "니",
        "스"
      ],
      [
        "이",
        "하"
      ],
      [
        "편",
        "의"
      ],
      [
        "르",
        "게"
      ],
      [
        "소",
        "득"
      ],
      [
        "사",
        "장"
      ],
      [
        "통",
        "계"
      ],
      [
        "공",
        "장"
      ],
      [
        "베",
        "이"
      ],
      [
        "LG",
        "유플러스"
      ],
      [
        "프로젝",
        "트"
      ],
      [
        "인",
        "증"
      ],
      [
        "3",
        "월"
      ],
      [
        "제",
        "한"
      ],
      [
        "실",
        "제"
      ],
      [
        "협",
        "업"
      ],
      [
        "코",
        "리아"
      ],
      [
        "두",
        "고"
      ],
      [
        "부",
        "가"
      ],
      [
        "의",
        "견"
      ],
      [
        "명",
        "이"
      ],
      [
        "자",
        "료"
      ],
      [
        "금리",
        "를"
      ],
      [
        "중소",
        "기업"
      ],
      [
        "간",
        "담"
      ],
      [
        "있",
        "고"
      ],
      [
        "금",
        "지"
      ],
      [
        "또",
        "는"
      ],
      [
        "파",
        "이"
      ],
      [
        "교수",
        "는"
      ],
      [
        "선",
        "택"
      ],
      [
        "다",
        "음"
      ],
      [
        "환",
        "율"
      ],
      [
        "2022",
        "년"
      ],
      [
        "당",
        "시"
      ],
      [
        "20",
        "19"
      ],
      [
        "스",
        "포"
      ],
      [
        "이",
        "전"
      ],
      [
        "통",
        "한"
      ],
      [
        "가",
        "를"
      ],
      [
        "종",
        "합"
      ],
      [
        "해",
        "결"
      ],
      [
        "중심",
        "으로"
      ],
      [
        "리",
        "가"
      ],
      [
        "민",
        "간"
      ],
      [
        "원",
        "은"
      ],
      [
        "기",
        "로"
      ],
      [
        "노",
        "조"
      ],
      [
        "진",
        "출"
      ],
      [
        "차",
        "지"
      ],
      [
        "통",
        "상"
      ],
      [
        "보",
        "안"
      ],
      [
        "메",
        "이"
      ],
      [
        "확",
        "장"
      ],
      [
        "검",
        "토"
      ],
      [
        "상품",
        "을"
      ],
      [
        "블",
        "록"
      ],
      [
        "영향",
        "을"
      ],
      [
        "그",
        "래"
      ],
      [
        "시",
        "에"
      ],
      [
        "E",
        "T"
      ],
      [
        "효",
        "율"
      ],
      [
        "기",
        "도"
      ],
      [
        "내",
        "년"
      ],
      [
        "받",
        "은"
      ],
      [
        "나타",
        "났다"
      ],
      [
        "방",
        "침"
      ],
      [
        "사",
        "례"
      ],
      [
        "이",
        "며"
      ],
      [
        "확",
        "산"
      ],
      [
        "2",
        "6"
      ],
      [
        "친",
        "환경"
      ],
      [
        "3",
        "7"
      ],
      [
        "연구원",
        "은"
      ],
      [
        "제공",
        "한다"
      ],
      [
        "뱅",
        "크"
      ],
      [
        "되",
        "지"
      ],
      [
        "고",
        "용"
      ],
      [
        "파트",
        "너"
      ],
      [
        "으",
        "나"
      ],
      [
        "포",
        "스"
      ],
      [
        "물",
        "류"
      ],
      [
        "에",
        "선"
      ],
      [
        "3",
        "5"
      ],
      [
        "설",
        "립"
      ],
      [
        "있",
        "게"
      ],
      [
        "8",
        "년"
      ],
      [
        "우",
        "크"
      ],
      [
        "임",
        "금"
      ],
      [
        "조",
        "직"
      ],
      [
        "라이",
        "나"
      ],
      [
        "메타",
        "버스"
      ],
      [
        "2019",
        "년"
      ],
      [
        "2",
        "1"
      ],
      [
        "테",
        "이"
      ],
      [
        "지",
        "정"
      ],
      [
        "이",
        "자"
      ],
      [
        "9",
        "월"
      ],
      [
        "수",
        "급"
      ],
      [
        "위",
        "치"
      ],
      [
        "우",
        "선"
      ],
      [
        "품",
        "질"
      ],
      [
        "웨",
        "어"
      ],
      [
        "소",
        "프트"
      ],
      [
        "연",
        "결"
      ],
      [
        "외국",
        "인"
      ],
      [
        "책",
        "임"
      ],
      [
        "화",
        "된"
      ],
      [
        "매",
        "매"
      ],
      [
        "주",
        "의"
      ],
      [
        "성",
        "능"
      ],
      [
        "거래",
        "일"
      ],
      [
        "네",
        "트"
      ],
      [
        "배터",
        "리"
      ],
      [
        "명",
        "을"
      ],
      [
        "우크",
        "라이나"
      ],
      [
        "co",
        "m"
      ],
      [
        "운",
        "송"
      ],
      [
        "이",
        "노"
      ],
      [
        "인",
        "력"
      ],
      [
        "선",
        "을"
      ],
      [
        "1",
        "분기"
      ],
      [
        "물",
        "론"
      ],
      [
        "실",
        "시"
      ],
      [
        "원",
        "의"
      ],
      [
        "작",
        "년"
      ],
      [
        "방",
        "송"
      ],
      [
        "5",
        "G"
      ],
      [
        "7",
        "일"
      ],
      [
        "정",
        "도"
      ],
      [
        "않",
        "은"
      ],
      [
        "상",
        "담"
      ],
      [
        "수",
        "는"
      ],
      [
        "기",
        "는"
      ],
      [
        "제",
        "를"
      ],
      [
        "역",
        "대"
      ],
      [
        "케",
        "어"
      ],
      [
        "회",
        "복"
      ],
      [
        "오",
        "픈"
      ],
      [
        "인",
        "재"
      ],
      [
        "원",
        "에서"
      ],
      [
        "연",
        "금"
      ],
      [
        "종",
        "목"
      ],
      [
        "했",
        "지만"
      ],
      [
        "사",
        "전"
      ],
      [
        "오",
        "르"
      ],
      [
        "채",
        "널"
      ],
      [
        "공급",
        "망"
      ],
      [
        "설",
        "계"
      ],
      [
        "공",
        "식"
      ],
      [
        "석",
        "유"
      ],
      [
        "3",
        "00"
      ],
      [
        "수",
        "행"
      ],
      [
        "있",
        "으며"
      ],
      [
        "유",
        "치"
      ],
      [
        "피",
        "해"
      ],
      [
        "스",
        "를"
      ],
      [
        "F",
        "T"
      ],
      [
        "기",
        "본"
      ],
      [
        "여",
        "전"
      ],
      [
        "원자",
        "재"
      ],
      [
        "제",
        "약"
      ],
      [
        "활",
        "성"
      ],
      [
        "않",
        "고"
      ],
      [
        "과학",
        "기술"
      ],
      [
        "이용",
        "자"
      ],
      [
        "라",
        "며"
      ],
      [
        "줄",
        "어"
      ],
      [
        "인",
        "정"
      ],
      [
        "에",
        "어"
      ],
      [
        "변",
        "동"
      ],
      [
        "우리",
        "나라"
      ],
      [
        "거",
        "리"
      ],
      [
        "량",
        "이"
      ],
      [
        "정",
        "상"
      ],
      [
        "만",
        "들"
      ],
      [
        "소비자",
        "물가"
      ],
      [
        "점",
        "에서"
      ],
      [
        "당",
        "국"
      ],
      [
        "조",
        "성"
      ],
      [
        "근",
        "로"
      ],
      [
        "벤",
        "처"
      ],
      [
        "되",
        "면"
      ],
      [
        "스마트",
        "폰"
      ],
      [
        "시장",
        "에"
      ],
      [
        "제공",
        "하는"
      ],
      [
        "마",
        "감"
      ],
      [
        "이",
        "었다"
      ],
      [
        "대",
        "구"
      ],
      [
        "담",
        "당"
      ],
      [
        "받",
        "고"
      ],
      [
        "2",
        "만"
      ],
      [
        "가능",
        "성"
      ],
      [
        "품",
        "목"
      ],
      [
        "나온",
        "다"
      ],
      [
        "3",
        "8"
      ],
      [
        "정보",
        "를"
      ],
      [
        "방",
        "법"
      ],
      [
        "으",
        "면"
      ],
      [
        "소",
        "개"
      ],
      [
        "자",
        "로"
      ],
      [
        "주",
        "목"
      ],
      [
        "데이터",
        "를"
      ],
      [
        "협",
        "의"
      ],
      [
        "ne",
        "ws"
      ],
      [
        "측",
        "은"
      ],
      [
        "받",
        "았다"
      ],
      [
        "페",
        "인"
      ],
      [
        "거래",
        "소"
      ],
      [
        "202",
        "1년"
      ],
      [
        "동",
        "기"
      ],
      [
        "비",
        "즈"
      ],
      [
        "제품",
        "을"
      ],
      [
        "나",
        "가"
      ],
      [
        "상",
        "당"
      ],
      [
        "디",
        "자인"
      ],
      [
        "화",
        "폐"
      ],
      [
        "올",
        "라"
      ],
      [
        "방안",
        "을"
      ],
      [
        "반",
        "면"
      ],
      [
        "i",
        "n"
      ],
      [
        "o",
        "n"
      ],
      [
        "전",
        "달"
      ],
      [
        "복",
        "합"
      ],
      [
        "오",
        "프"
      ],
      [
        "표",
        "준"
      ],
      [
        "오",
        "늘"
      ],
      [
        "생",
        "태"
      ],
      [
        "바",
        "탕"
      ],
      [
        "참",
        "가"
      ],
      [
        "news",
        "is"
      ],
      [
        "되",
        "며"
      ],
      [
        "20",
        "30"
      ],
      [
        "양",
        "자"
      ],
      [
        "보고",
        "서"
      ],
      [
        "가격",
        "은"
      ],
      [
        "주",
        "도"
      ],
      [
        "요",
        "인"
      ],
      [
        "쳤",
        "다"
      ],
      [
        "하",
        "여"
      ],
      [
        "임",
        "직원"
      ],
      [
        "정부",
        "의"
      ],
      [
        "내",
        "부"
      ],
      [
        "인",
        "프라"
      ],
      [
        "11",
        "월"
      ],
      [
        "재",
        "생"
      ],
      [
        "금",
        "액"
      ],
      [
        "에",
        "이"
      ],
      [
        "그",
        "런"
      ],
      [
        "분",
        "의"
      ],
      [
        "영업",
        "이익"
      ],
      [
        "4",
        "년"
      ],
      [
        "변",
        "경"
      ],
      [
        "인공",
        "지능"
      ],
      [
        "억원",
        "으로"
      ],
      [
        "앞으로",
        "도"
      ],
      [
        "명",
        "의"
      ],
      [
        "e",
        "n"
      ],
      [
        "활용",
        "해"
      ],
      [
        "정보",
        "통신"
      ],
      [
        "S",
        "T"
      ],
      [
        "만",
        "들어"
      ],
      [
        "치",
        "는"
      ],
      [
        "근",
        "무"
      ],
      [
        "집",
        "계"
      ],
      [
        "매",
        "각"
      ],
      [
        "상",
        "공"
      ],
      [
        "공",
        "유"
      ],
      [
        "마",
        "케"
      ],
      [
        "담",
        "보"
      ],
      [
        "인",
        "식"
      ],
      [
        "제",
        "보"
      ],
      [
        "조",
        "선"
      ],
      [
        "빌",
        "리티"
      ],
      [
        "취",
        "약"
      ],
      [
        "수",
        "가"
      ],
      [
        "나",
        "갈"
      ],
      [
        "수",
        "주"
      ],
      [
        "중",
        "단"
      ],
      [
        "호",
        "텔"
      ],
      [
        "기",
        "다"
      ],
      [
        "공",
        "모"
      ],
      [
        "000",
        "만"
      ],
      [
        "간담",
        "회"
      ],
      [
        "바탕",
        "으로"
      ],
      [
        "광",
        "고"
      ],
      [
        "단",
        "체"
      ],
      [
        "2",
        "차"
      ],
      [
        "19",
        "9"
      ],
      [
        "우려",
        "가"
      ],
      [
        "업",
        "종"
      ],
      [
        "기준",
        "으로"
      ],
      [
        "t",
        "o"
      ],
      [
        "필요",
        "하다"
      ],
      [
        "기",
        "여"
      ],
      [
        "기업",
        "이"
      ],
      [
        "감",
        "독"
      ],
      [
        "텔",
        "레"
      ],
      [
        "있",
        "지만"
      ],
      [
        "입",
        "장"
      ],
      [
        "규모",
        "의"
      ],
      [
        "마케",
        "팅"
      ],
      [
        "매",
        "도"
      ],
      [
        "임",
        "대"
      ],
      [
        "지",
        "분"
      ],
      [
        "1",
        "월"
      ],
      [
        "설",
        "치"
      ],
      [
        "재",
        "무"
      ],
      [
        "재",
        "정"
      ],
      [
        "수",
        "를"
      ],
      [
        "주",
        "유"
      ],
      [
        "7",
        "5"
      ],
      [
        "기반",
        "으로"
      ],
      [
        "세",
        "종"
      ],
      [
        "강",
        "남"
      ],
      [
        "공",
        "시"
      ],
      [
        "지",
        "구"
      ],
      [
        "10",
        "년"
      ],
      [
        "수",
        "료"
      ],
      [
        "N",
        "FT"
      ],
      [
        "이",
        "사"
      ],
      [
        "중",
        "구"
      ],
      [
        "검",
        "증"
      ],
      [
        "누",
        "리"
      ],
      [
        "아",
        "직"
      ],
      [
        "공공",
        "기관"
      ],
      [
        "C",
        "J"
      ],
      [
        "등",
        "급"
      ],
      [
        "발",
        "사"
      ],
      [
        "네트",
        "워크"
      ],
      [
        "진",
        "다"
      ],
      [
        "부",
        "총"
      ],
      [
        "이",
        "해"
      ],
      [
        "억원",
        "을"
      ],
      [
        "대",
        "책"
      ],
      [
        "생태",
        "계"
      ],
      [
        "주",
        "거"
      ],
      [
        "수도",
        "권"
      ],
      [
        "들",
        "도"
      ],
      [
        "영",
        "국"
      ],
      [
        "3",
        "4"
      ],
      [
        "학",
        "생"
      ],
      [
        "촬",
        "영"
      ],
      [
        "후",
        "보"
      ],
      [
        "빠",
        "르게"
      ],
      [
        "한",
        "화"
      ],
      [
        "통",
        "화"
      ],
      [
        "부",
        "품"
      ],
      [
        "움",
        "을"
      ],
      [
        "개",
        "정"
      ],
      [
        "대",
        "부분"
      ],
      [
        "제",
        "외"
      ],
      [
        "주",
        "로"
      ],
      [
        "보",
        "건"
      ],
      [
        "a",
        "n"
      ],
      [
        "대",
        "전"
      ],
      [
        "시장",
        "이"
      ],
      [
        "서울",
        "대"
      ],
      [
        "지",
        "방"
      ],
      [
        "투자",
        "를"
      ],
      [
        "모",
        "빌리티"
      ],
      [
        "않",
        "는"
      ],
      [
        "혜택",
        "을"
      ],
      [
        "부",
        "족"
      ],
      [
        "유",
        "류"
      ],
      [
        "리",
        "스크"
      ],
      [
        "이",
        "와"
      ],
      [
        "사",
        "항"
      ],
      [
        "시",
        "키"
      ],
      [
        "찾",
        "아"
      ],
      [
        "인터",
        "넷"
      ],
      [
        "작",
        "업"
      ],
      [
        "전망",
        "이다"
      ],
      [
        "3",
        "3"
      ],
      [
        "밖",
        "에"
      ],
      [
        "스토",
        "어"
      ],
      [
        "같",
        "이"
      ],
      [
        "나",
        "는"
      ],
      [
        "차",
        "를"
      ],
      [
        "었",
        "던"
      ],
      [
        "지",
        "면서"
      ],
      [
        "비",
        "트"
      ],
      [
        "화",
        "학"
      ],
      [
        "일",
        "까지"
      ],
      [
        "사회",
        "적"
      ],
      [
        "페이",
        "지"
      ],
      [
        "a",
        "l"
      ],
      [
        "관",
        "광"
      ],
      [
        "게",
        "이"
      ],
      [
        "미",
        "디어"
      ],
      [
        "달",
        "성"
      ],
      [
        "가",
        "까"
      ],
      [
        "먼",
        "트"
      ],
      [
        "윤",
        "석"
      ],
      [
        "자",
        "율"
      ],
      [
        "큐",
        "브"
      ],
      [
        "매",
        "장"
      ],
      [
        "손",
        "실"
      ],
      [
        "3",
        "9"
      ],
      [
        "형",
        "태"
      ],
      [
        "점",
        "이"
      ],
      [
        "CE",
        "O"
      ],
      [
        "덧",
        "붙"
      ],
      [
        "프리",
        "미"
      ],
      [
        "캠",
        "페인"
      ],
      [
        "청",
        "약"
      ],
      [
        "수",
        "소"
      ],
      [
        "대",
        "회"
      ],
      [
        "시장",
        "의"
      ],
      [
        "소",
        "통"
      ],
      [
        "시장",
        "을"
      ],
      [
        "이",
        "데일리"
      ],
      [
        "병",
        "원"
      ],
      [
        "주",
        "행"
      ],
      [
        "인",
        "한"
      ],
      [
        "처",
        "리"
      ],
      [
        "전",
        "반"
      ],
      [
        "텔레",
        "콤"
      ],
      [
        "해",
        "양"
      ],
      [
        "은행",
        "은"
      ],
      [
        "비롯",
        "해"
      ],
      [
        "방침",
        "이다"
      ],
      [
        ".",
        "."
      ],
      [
        "동",
        "시에"
      ],
      [
        "디",
        "오"
      ],
      [
        "앵",
        "커"
      ],
      [
        "전",
        "자는"
      ],
      [
        "부",
        "회장"
      ],
      [
        "코스",
        "닥"
      ],
      [
        "급",
        "등"
      ],
      [
        "사",
        "태"
      ],
      [
        "둔",
        "화"
      ],
      [
        "이",
        "기"
      ],
      [
        "했",
        "으며"
      ],
      [
        "억",
        "달러"
      ],
      [
        "P",
        "C"
      ],
      [
        "있",
        "었다"
      ],
      [
        "3",
        "6"
      ],
      [
        "왼",
        "쪽"
      ],
      [
        "전",
        "쟁"
      ],
      [
        "수익",
        "률"
      ],
      [
        "현지",
        "시간"
      ],
      [
        "활동",
        "을"
      ],
      [
        "좋",
        "은"
      ],
      [
        "가",
        "계"
      ],
      [
        "감",
        "을"
      ],
      [
        "윤석",
        "열"
      ],
      [
        "조",
        "원"
      ],
      [
        "주",
        "시"
      ],
      [
        "맞",
        "춤"
      ],
      [
        "h",
        "o"
      ],
      [
        "채",
        "권"
      ],
      [
        "하",
        "루"
      ],
      [
        "주유",
        "소"
      ],
      [
        "사",
        "와"
      ],
      [
        "사업",
        "자"
      ],
      [
        "올랐",
        "다"
      ],
      [
        "역할",
        "을"
      ],
      [
        "연",
        "계"
      ],
      [
        "롭",
        "게"
      ],
      [
        "받",
        "는"
      ],
      [
        "이",
        "마트"
      ],
      [
        "20",
        "18"
      ],
      [
        "최초",
[...]
