{
  "version": "1.0",
  "truncation": null,
  "padding": null,
  "added_tokens": [
    {
      "id": 0,
      "content": "[UNK]",
      "single_word": false,
      "lstrip": false,
      "rstrip": false,
      "normalized": false,
      "special": true
    },
    {
      "id": 1,
      "content": "[PAD]",
      "single_word": false,
      "lstrip": false,
      "rstrip": false,
      "normalized": false,
      "special": true
    },
    {
      "id": 2,
      "content": "[CLS]",
      "single_word": false,
      "lstrip": false,
      "rstrip": false,
      "normalized": false,
      "special": true
    },
    {
      "id": 3,
      "content": "[SEP]",
      "single_word": false,
      "lstrip": false,
      "rstrip": false,
      "normalized": false,
      "special": true
    },
    {
      "id": 4,
      "content": "[MASK]",
      "single_word": false,
      "lstrip": false,
      "rstrip": false,
      "normalized": false,
      "special": true
    }
  ],
  "normalizer": null,
  "pre_tokenizer": {
    "type": "Whitespace"
  },
  "post_processor": null,
  "decoder": null,
  "model": {
    "type": "WordPiece",
    "unk_token": "[UNK]",
    "continuing_subword_prefix": "##",
    "max_input_chars_per_word": 100,
    "vocab": {
      "[UNK]": 0,
      "[PAD]": 1,
      "[CLS]": 2,
      "[SEP]": 3,
      "[MASK]": 4,
      ".": 5,
      "0": 6,
      "1": 7,
      "2": 8,
      "3": 9,
      "4": 10,
      "5": 11,
      "6": 12,
      "7": 13,
      "8": 14,
      "9": 15,
      "A": 16,
      "B": 17,
      "C": 18,
      "D": 19,
      "E": 20,
      "F": 21,
      "G": 22,
      "H": 23,
      "I": 24,
      "J": 25,
      "K": 26,
      "L": 27,
      "M": 28,
      "N": 29,
      "O": 30,
      "P": 31,
      "Q": 32,
      "R": 33,
      "S": 34,
      "T": 35,
      "U": 36,
      "V": 37,
      "W": 38,
      "X": 39,
      "Y": 40,
      "Z": 41,
      "a": 42,
      "b": 43,
      "c": 44,
      "d": 45,
      "e": 46,
      "f": 47,
      "g": 48,
      "h": 49,
      "i": 50,
      "j": 51,
      "k": 52,
      "l": 53,
      "m": 54,
      "n": 55,
      "o": 56,
      "p": 57,
      "q": 58,
      "r": 59,
      "s": 60,
      "t": 61,
      "u": 62,
      "v": 63,
      "w": 64,
      "x": 65,
      "y": 66,
      "z": 67,
      "가": 68,
      "각": 69,
      "간": 70,
      "갇": 71,
      "갈": 72,
      "갉": 73,
      "감": 74,
      "갑": 75,
      "값": 76,
      "갓": 77,
      "갔": 78,
      "강": 79,
      "갖": 80,
      "같": 81,
      "갚": 82,
      "갛": 83,
      "개": 84,
      "객": 85,
      "갤": 86,
      "갬": 87,
      "갭": 88,
      "갯": 89,
      "갱": 90,
      "갸": 91,
      "갹": 92,
      "걀": 93,
      "걍": 94,
      "걔": 95,
      "거": 96,
      "걱": 97,
      "건": 98,
      "걷": 99,
      "걸": 100,
      "검": 101,
      "겁": 102,
      "것": 103,
      "겅": 104,
      "겆": 105,
      "겉": 106,
      "게": 107,
      "겐": 108,
      "겔": 109,
      "겜": 110,
      "겟": 111,
      "겠": 112,
      "겨": 113,
      "격": 114,
      "겪": 115,
      "견": 116,
      "결": 117,
      "겸": 118,
      "겹": 119,
      "겻": 120,
      "겼": 121,
      "경": 122,
      "곁": 123,
      "계": 124,
      "고": 125,
      "곡": 126,
      "곤": 127,
      "곧": 128,
      "골": 129,
      "곰": 130,
      "곱": 131,
      "곳": 132,
      "공": 133,
      "곶": 134,
      "과": 135,
      "곽": 136,
      "관": 137,
      "괄": 138,
      "괌": 139,
      "광": 140,
      "괘": 141,
      "괜": 142,
      "괭": 143,
      "괴": 144,
      "괵": 145,
      "굉": 146,
      "교": 147,
      "굣": 148,
      "구": 149,
      "국": 150,
      "군": 151,
      "굳": 152,
      "굴": 153,
      "굵": 154,
      "굶": 155,
      "굼": 156,
      "굽": 157,
      "굿": 158,
      "궁": 159,
      "궂": 160,
      "궈": 161,
      "권": 162,
      "궐": 163,
      "궜": 164,
      "궤": 165,
      "귀": 166,
      "귄": 167,
      "규": 168,
      "균": 169,
      "귤": 170,
      "그": 171,
      "극": 172,
      "근": 173,
      "글": 174,
      "긁": 175,
      "금": 176,
      "급": 177,
      "긋": 178,
      "긍": 179,
      "기": 180,
      "긱": 181,
      "긴": 182,
      "길": 183,
      "김": 184,
      "깁": 185,
      "깃": 186,
      "깅": 187,
      "깊": 188,
      "까": 189,
      "깍": 190,
      "깎": 191,
      "깐": 192,
      "깔": 193,
      "깜": 194,
      "깝": 195,
      "깡": 196,
      "깥": 197,
      "깨": 198,
      "깬": 199,
      "깰": 200,
      "깻": 201,
      "깼": 202,
      "꺼": 203,
      "꺽": 204,
      "꺾": 205,
      "껄": 206,
      "껌": 207,
      "껍": 208,
      "껏": 209,
      "껐": 210,
      "껑": 211,
      "께": 212,
      "껴": 213,
      "꼈": 214,
      "꼐": 215,
      "꼬": 216,
      "꼭": 217,
      "꼰": 218,
      "꼴": 219,
      "꼼": 220,
      "꼽": 221,
      "꽁": 222,
      "꽂": 223,
      "꽃": 224,
      "꽈": 225,
      "꽉": 226,
      "꽝": 227,
      "꽤": 228,
      "꾀": 229,
      "꾸": 230,
      "꾹": 231,
      "꾼": 232,
      "꿀": 233,
      "꿇": 234,
      "꿈": 235,
      "꿉": 236,
      "꿋": 237,
      "꿍": 238,
      "꿎": 239,
      "꿔": 240,
      "꿨": 241,
      "꿰": 242,
      "뀌": 243,
      "뀐": 244,
      "뀔": 245,
      "뀜": 246,
      "뀝": 247,
      "끄": 248,
      "끈": 249,
      "끊": 250,
      "끌": 251,
      "끓": 252,
      "끔": 253,
      "끗": 254,
      "끙": 255,
      "끝": 256,
      "끼": 257,
      "끽": 258,
      "낀": 259,
      "낄": 260,
      "낌": 261,
      "나": 262,
      "낙": 263,
      "낚": 264,
      "난": 265,
      "날": 266,
      "낡": 267,
      "남": 268,
      "납": 269,
      "낫": 270,
      "났": 271,
      "낭": 272,
      "낮": 273,
      "낯": 274,
      "낱": 275,
      "낳": 276,
      "내": 277,
      "낵": 278,
      "낸": 279,
      "낼": 280,
      "냄": 281,
      "냅": 282,
      "냈": 283,
      "냉": 284,
      "냐": 285,
      "냔": 286,
      "냠": 287,
      "냥": 288,
      "너": 289,
      "넉": 290,
      "넌": 291,
      "널": 292,
      "넒": 293,
      "넓": 294,
      "넘": 295,
      "넙": 296,
      "넛": 297,
      "넜": 298,
      "넝": 299,
      "넣": 300,
      "네": 301,
      "넥": 302,
      "넨": 303,
      "넬": 304,
      "넵": 305,
      "넷": 306,
      "넸": 307,
      "녀": 308,
      "녁": 309,
      "년": 310,
      "념": 311,
      "녔": 312,
      "녕": 313,
      "녘": 314,
      "노": 315,
      "녹": 316,
      "논": 317,
      "놀": 318,
      "놈": 319,
      "놉": 320,
      "농": 321,
      "높": 322,
      "놓": 323,
      "놔": 324,
      "놨": 325,
      "뇌": 326,
      "뇨": 327,
      "뇽": 328,
      "누": 329,
      "눅": 330,
      "눈": 331,
      "눌": 332,
      "눔": 333,
      "눕": 334,
      "눗": 335,
      "눠": 336,
      "눴": 337,
      "뉘": 338,
      "뉜": 339,
      "뉠": 340,
      "뉩": 341,
      "뉴": 342,
      "늄": 343,
      "늉": 344,
      "느": 345,
      "늑": 346,
      "는": 347,
      "늘": 348,
      "늙": 349,
      "늠": 350,
      "늡": 351,
      "능": 352,
      "늦": 353,
      "늪": 354,
      "늬": 355,
      "니": 356,
      "닉": 357,
      "닌": 358,
      "닐": 359,
      "님": 360,
      "닙": 361,
      "닛": 362,
      "닝": 363,
      "다": 364,
      "닥": 365,
      "닦": 366,
      "단": 367,
      "닫": 368,
      "달": 369,
      "닭": 370,
      "닮": 371,
      "닳": 372,
      "담": 373,
      "답": 374,
      "닷": 375,
      "당": 376,
      "닻": 377,
      "닿": 378,
      "대": 379,
      "댁": 380,
      "댄": 381,
      "댈": 382,
      "댐": 383,
      "댑": 384,
      "댓": 385,
      "댔": 386,
      "댜": 387,
      "댠": 388,
      "더": 389,
      "덕": 390,
      "던": 391,
      "덜": 392,
      "덟": 393,
      "덤": 394,
      "덥": 395,
      "덧": 396,
      "덩": 397,
      "덫": 398,
      "덮": 399,
      "데": 400,
      "덱": 401,
      "덴": 402,
      "델": 403,
      "뎀": 404,
      "뎃": 405,
      "뎅": 406,
      "뎌": 407,
      "뎠": 408,
      "뎬": 409,
      "도": 410,
      "독": 411,
      "돈": 412,
      "돋": 413,
      "돌": 414,
      "돔": 415,
      "돕": 416,
      "돗": 417,
      "동": 418,
      "돛": 419,
      "돤": 420,
      "돼": 421,
      "됐": 422,
      "되": 423,
      "된": 424,
      "될": 425,
      "됨": 426,
      "됩": 427,
      "두": 428,
      "둑": 429,
      "둔": 430,
      "둘": 431,
      "둠": 432,
      "둡": 433,
      "둣": 434,
      "둥": 435,
      "둬": 436,
      "뒀": 437,
      "뒤": 438,
      "뒷": 439,
      "듀": 440,
      "듈": 441,
      "듐": 442,
      "드": 443,
      "득": 444,
      "든": 445,
      "듣": 446,
      "들": 447,
      "듦": 448,
      "듬": 449,
      "듭": 450,
      "듯": 451,
      "등": 452,
      "디": 453,
      "딕": 454,
      "딘": 455,
      "딛": 456,
      "딜": 457,
      "딤": 458,
      "딥": 459,
      "딧": 460,
      "딩": 461,
      "딪": 462,
      "따": 463,
      "딱": 464,
      "딴": 465,
      "딸": 466,
      "땀": 467,
      "땄": 468,
      "땅": 469,
      "때": 470,
      "땐": 471,
      "땔": 472,
      "땜": 473,
      "땠": 474,
      "땡": 475,
      "떄": 476,
      "떠": 477,
      "떡": 478,
      "떤": 479,
      "떨": 480,
      "떴": 481,
      "떻": 482,
      "떼": 483,
      "뗀": 484,
      "뗄": 485,
      "뗍": 486,
      "뗏": 487,
      "뗐": 488,
      "또": 489,
      "똑": 490,
      "똘": 491,
      "똠": 492,
      "똥": 493,
      "뚜": 494,
      "뚝": 495,
      "뚫": 496,
      "뚱": 497,
      "뛰": 498,
      "뛴": 499,
      "뛸": 500,
      "뜀": 501,
      "뜁": 502,
      "뜨": 503,
      "뜩": 504,
      "뜬": 505,
      "뜯": 506,
      "뜰": 507,
      "뜸": 508,
      "뜹": 509,
      "뜻": 510,
      "띄": 511,
      "띈": 512,
      "띌": 513,
      "띔": 514,
      "띕": 515,
      "띠": 516,
      "띤": 517,
      "띨": 518,
      "띵": 519,
      "라": 520,
      "락": 521,
      "란": 522,
      "랄": 523,
      "람": 524,
      "랍": 525,
      "랏": 526,
      "랐": 527,
      "랑": 528,
      "랗": 529,
      "래": 530,
      "랙": 531,
      "랜": 532,
      "랠": 533,
      "램": 534,
      "랩": 535,
      "랫": 536,
      "랬": 537,
      "랭": 538,
      "랴": 539,
      "략": 540,
      "랸": 541,
      "량": 542,
      "러": 543,
      "럭": 544,
      "런": 545,
      "럴": 546,
      "럼": 547,
      "럽": 548,
      "럿": 549,
      "렀": 550,
      "렁": 551,
      "렇": 552,
      "레": 553,
      "렉": 554,
      "렌": 555,
      "렐": 556,
      "렘": 557,
      "렙": 558,
      "렛": 559,
      "려": 560,
      "력": 561,
      "련": 562,
      "렬": 563,
      "렴": 564,
      "렵": 565,
      "렷": 566,
      "렸": 567,
      "령": 568,
      "례": 569,
      "롄": 570,
      "롑": 571,
      "로": 572,
      "록": 573,
      "론": 574,
      "롤": 575,
      "롬": 576,
      "롭": 577,
      "롯": 578,
      "롱": 579,
      "롸": 580,
      "뢰": 581,
      "룀": 582,
      "료": 583,
      "룟": 584,
      "룡": 585,
      "루": 586,
      "룩": 587,
      "룬": 588,
      "룰": 589,
      "룸": 590,
      "룹": 591,
      "룻": 592,
      "룽": 593,
      "뤄": 594,
      "뤘": 595,
      "뤼": 596,
      "륀": 597,
      "류": 598,
      "륙": 599,
      "륜": 600,
      "률": 601,
      "륨": 602,
      "륭": 603,
      "르": 604,
      "륵": 605,
      "른": 606,
      "를": 607,
      "름": 608,
      "릅": 609,
      "릇": 610,
      "릉": 611,
      "릍": 612,
      "릎": 613,
      "리": 614,
      "릭": 615,
      "린": 616,
      "릴": 617,
      "림": 618,
      "립": 619,
      "릿": 620,
      "링": 621,
      "마": 622,
      "막": 623,
      "만": 624,
      "많": 625,
      "맏": 626,
      "말": 627,
      "맑": 628,
      "맘": 629,
      "맙": 630,
      "맛": 631,
      "망": 632,
      "맞": 633,
      "맡": 634,
      "맣": 635,
      "매": 636,
      "맥": 637,
      "맨": 638,
      "맬": 639,
      "맴": 640,
      "맵": 641,
      "맷": 642,
      "맹": 643,
      "맺": 644,
      "먀": 645,
      "머": 646,
      "먹": 647,
      "먼": 648,
      "멀": 649,
      "멈": 650,
      "멉": 651,
      "멋": 652,
      "멍": 653,
      "멎": 654,
      "메": 655,
      "멕": 656,
      "멘": 657,
      "멜": 658,
      "멤": 659,
      "멥": 660,
      "멧": 661,
      "멩": 662,
      "며": 663,
      "면": 664,
      "멸": 665,
      "몄": 666,
      "명": 667,
      "몇": 668,
      "모": 669,
      "목": 670,
      "몫": 671,
      "몬": 672,
      "몰": 673,
      "몸": 674,
      "몹": 675,
      "못": 676,
      "몽": 677,
      "묘": 678,
      "무": 679,
      "묵": 680,
      "묶": 681,
      "문": 682,
      "묻": 683,
      "물": 684,
      "묽": 685,
      "뭄": 686,
      "뭅": 687,
      "뭇": 688,
      "뭉": 689,
      "뭐": 690,
      "뭔": 691,
      "뭘": 692,
      "뭡": 693,
      "뮌": 694,
      "뮐": 695,
      "뮤": 696,
      "뮨": 697,
      "뮬": 698,
      "뮴": 699,
      "므": 700,
      "믈": 701,
      "믐": 702,
      "미": 703,
      "믹": 704,
      "민": 705,
      "믿": 706,
      "밀": 707,
      "밈": 708,
      "밉": 709,
      "밋": 710,
      "밌": 711,
      "밍": 712,
      "및": 713,
      "밑": 714,
      "바": 715,
      "박": 716,
      "밖": 717,
      "반": 718,
      "받": 719,
      "발": 720,
      "밝": 721,
      "밞": 722,
      "밟": 723,
      "밤": 724,
      "밥": 725,
      "밧": 726,
      "방": 727,
      "밭": 728,
      "배": 729,
      "백": 730,
      "밴": 731,
      "밸": 732,
      "뱀": 733,
      "뱁": 734,
      "뱃": 735,
      "뱄": 736,
      "뱅": 737,
      "뱉": 738,
      "뱡": 739,
      "버": 740,
      "벅": 741,
      "번": 742,
      "벌": 743,
      "범": 744,
      "법": 745,
      "벗": 746,
      "벙": 747,
      "벚": 748,
      "베": 749,
      "벡": 750,
      "벤": 751,
      "벨": 752,
      "벳": 753,
      "벵": 754,
      "벼": 755,
      "벽": 756,
      "변": 757,
      "별": 758,
      "볍": 759,
      "볏": 760,
      "볐": 761,
      "병": 762,
      "볕": 763,
      "보": 764,
      "복": 765,
      "볶": 766,
      "본": 767,
      "볼": 768,
      "봄": 769,
      "봅": 770,
      "봇": 771,
      "봉": 772,
      "봐": 773,
      "봤": 774,
      "봬": 775,
      "뵈": 776,
      "뵌": 777,
      "뵙": 778,
      "부": 779,
      "북": 780,
      "분": 781,
      "붇": 782,
      "불": 783,
      "붉": 784,
      "붐": 785,
      "붑": 786,
      "붓": 787,
      "붕": 788,
      "붙": 789,
      "뷔": 790,
      "뷜": 791,
      "뷰": 792,
      "뷸": 793,
      "브": 794,
      "븐": 795,
      "블": 796,
      "비": 797,
      "빅": 798,
      "빈": 799,
      "빌": 800,
      "빔": 801,
      "빕": 802,
      "빗": 803,
      "빙": 804,
      "빚": 805,
      "빛": 806,
      "빠": 807,
      "빡": 808,
      "빤": 809,
      "빨": 810,
      "빴": 811,
      "빵": 812,
      "빼": 813,
      "빽": 814,
      "뺀": 815,
      "뺄": 816,
      "뺏": 817,
      "뺐": 818,
      "뺨": 819,
      "뻐": 820,
      "뻑": 821,
      "뻔": 822,
      "뻗": 823,
      "뻘": 824,
      "뻤": 825,
      "뻥": 826,
      "뻬": 827,
      "뼈": 828,
      "뼉": 829,
      "뼛": 830,
      "뽀": 831,
      "뽐": 832,
      "뽑": 833,
      "뽕": 834,
      "뾰": 835,
      "뿅": 836,
      "뿌": 837,
      "뿍": 838,
      "뿐": 839,
      "뿔": 840,
      "뿜": 841,
      "쁘": 842,
      "쁜": 843,
      "쁠": 844,
      "쁨": 845,
      "삐": 846,
      "사": 847,
      "삭": 848,
      "산": 849,
      "살": 850,
      "삶": 851,
      "삼": 852,
      "삽": 853,
      "삿": 854,
      "샀": 855,
      "상": 856,
      "새": 857,
      "색": 858,
      "샌": 859,
      "샐": 860,
      "샘": 861,
      "샙": 862,
      "샛": 863,
      "생": 864,
      "샤": 865,
      "샨": 866,
      "샬": 867,
      "샴": 868,
      "샵": 869,
      "샷": 870,
      "샹": 871,
      "섀": 872,
      "서": 873,
      "석": 874,
      "섞": 875,
      "선": 876,
      "섣": 877,
      "설": 878,
      "섬": 879,
      "섭": 880,
      "섯": 881,
      "섰": 882,
      "성": 883,
      "세": 884,
      "섹": 885,
      "센": 886,
      "셀": 887,
      "셈": 888,
      "셉": 889,
      "셋": 890,
      "셌": 891,
      "셍": 892,
      "셔": 893,
      "션": 894,
      "셜": 895,
      "셤": 896,
      "셧": 897,
      "셨": 898,
      "셰": 899,
      "셸": 900,
      "소": 901,
      "속": 902,
      "솎": 903,
      "손": 904,
      "솔": 905,
      "솜": 906,
      "솝": 907,
      "솟": 908,
      "송": 909,
      "솥": 910,
      "솦": 911,
      "솽": 912,
      "쇄": 913,
      "쇠": 914,
      "쇤": 915,
      "쇳": 916,
      "쇼": 917,
      "숄": 918,
      "숍": 919,
      "숏": 920,
      "숑": 921,
      "수": 922,
      "숙": 923,
      "순": 924,
      "숟": 925,
      "술": 926,
      "숨": 927,
      "숩": 928,
      "숫": 929,
      "숭": 930,
      "숯": 931,
      "숱": 932,
      "숲": 933,
      "숴": 934,
      "쉐": 935,
      "쉔": 936,
      "쉘": 937,
      "쉥": 938,
      "쉬": 939,
      "쉰": 940,
      "쉴": 941,
      "쉼": 942,
      "쉽": 943,
      "슈": 944,
      "슌": 945,
      "슐": 946,
      "슘": 947,
      "슝": 948,
      "스": 949,
      "슨": 950,
      "슬": 951,
      "슴": 952,
      "습": 953,
      "슷": 954,
      "승": 955,
      "시": 956,
      "식": 957,
      "신": 958,
      "싣": 959,
      "실": 960,
      "싫": 961,
      "심": 962,
      "십": 963,
      "싯": 964,
      "싱": 965,
      "싶": 966,
      "싸": 967,
      "싹": 968,
      "싼": 969,
      "쌀": 970,
      "쌈": 971,
      "쌉": 972,
      "쌌": 973,
      "쌍": 974,
      "쌓": 975,
      "쌤": 976,
      "쌩": 977,
      "써": 978,
      "썩": 979,
      "썬": 980,
      "썰": 981,
      "썸": 982,
      "썹": 983,
      "썼": 984,
      "썽": 985,
      "쎄": 986,
      "쎈": 987,
      "쏘": 988,
      "쏙": 989,
      "쏜": 990,
      "쏟": 991,
      "쏠": 992,
      "쏭": 993,
      "쏴": 994,
      "쐈": 995,
      "쐐": 996,
      "쐬": 997,
      "쑤": 998,
      "쑥": 999,
      "쑨": 1000,
      "쓰": 1001,
      "쓱": 1002,
      "쓴": 1003,
      "쓸": 1004,
      "씀": 1005,
      "씁": 1006,
      "씌": 1007,
      "씨": 1008,
      "씩": 1009,
      "씬": 1010,
      "씰": 1011,
      "씸": 1012,
      "씹": 1013,
      "씻": 1014,
      "씽": 1015,
      "아": 1016,
      "악": 1017,
      "안": 1018,
      "앉": 1019,
      "않": 1020,
      "알": 1021,
      "앓": 1022,
      "암": 1023,
      "압": 1024,
      "앗": 1025,
      "았": 1026,
      "앙": 1027,
      "앞": 1028,
      "애": 1029,
      "액": 1030,
      "앤": 1031,
      "앨": 1032,
      "앰": 1033,
      "앱": 1034,
      "앳": 1035,
      "앴": 1036,
      "앵": 1037,
      "야": 1038,
      "약": 1039,
      "얀": 1040,
      "얄": 1041,
      "얆": 1042,
      "얇": 1043,
      "얌": 1044,
      "얏": 1045,
      "양": 1046,
      "얕": 1047,
      "얘": 1048,
      "어": 1049,
      "억": 1050,
      "언": 1051,
      "얹": 1052,
      "얻": 1053,
      "얼": 1054,
      "얽": 1055,
      "엄": 1056,
      "업": 1057,
      "없": 1058,
      "엇": 1059,
      "었": 1060,
      "엉": 1061,
      "엊": 1062,
      "엌": 1063,
      "엎": 1064,
      "에": 1065,
      "엑": 1066,
      "엔": 1067,
      "엘": 1068,
      "엠": 1069,
      "엡": 1070,
      "엣": 1071,
      "엥": 1072,
      "여": 1073,
      "역": 1074,
      "엮": 1075,
      "연": 1076,
      "열": 1077,
      "엷": 1078,
      "염": 1079,
      "엽": 1080,
      "엿": 1081,
      "였": 1082,
      "영": 1083,
      "옅": 1084,
      "옆": 1085,
      "예": 1086,
      "옌": 1087,
      "옐": 1088,
      "옛": 1089,
      "오": 1090,
      "옥": 1091,
      "온": 1092,
      "올": 1093,
      "옭": 1094,
      "옮": 1095,
      "옳": 1096,
      "옴": 1097,
      "옵": 1098,
      "옷": 1099,
      "옹": 1100,
      "와": 1101,
      "왁": 1102,
      "완": 1103,
      "왈": 1104,
      "왑": 1105,
      "왓": 1106,
      "왔": 1107,
      "왕": 1108,
      "왜": 1109,
      "왠": 1110,
      "외": 1111,
      "왼": 1112,
      "요": 1113,
      "욕": 1114,
      "욘": 1115,
      "욜": 1116,
      "욤": 1117,
      "욥": 1118,
      "용": 1119,
      "우": 1120,
      "욱": 1121,
      "운": 1122,
      "울": 1123,
      "움": 1124,
      "웁": 1125,
      "웃": 1126,
      "웅": 1127,
      "워": 1128,
      "웍": 1129,
      "원": 1130,
      "월": 1131,
      "웜": 1132,
      "웠": 1133,
      "웡": 1134,
      "웨": 1135,
      "웬": 1136,
      "웰": 1137,
      "웸": 1138,
      "웹": 1139,
      "웻": 1140,
      "위": 1141,
      "윅": 1142,
      "윈": 1143,
      "윌": 1144,
      "윔": 1145,
      "윗": 1146,
      "윙": 1147,
      "유": 1148,
      "육": 1149,
      "윤": 1150,
      "율": 1151,
      "윱": 1152,
      "윳": 1153,
      "융": 1154,
      "으": 1155,
      "은": 1156,
      "을": 1157,
      "음": 1158,
      "읍": 1159,
      "읏": 1160,
      "응": 1161,
      "의": 1162,
      "이": 1163,
      "익": 1164,
      "인": 1165,
      "일": 1166,
      "읽": 1167,
      "잃": 1168,
      "임": 1169,
      "입": 1170,
      "잇": 1171,
      "있": 1172,
      "잉": 1173,
      "잊": 1174,
      "잎": 1175,
      "자": 1176,
      "작": 1177,
      "잔": 1178,
      "잖": 1179,
      "잘": 1180,
      "잠": 1181,
      "잡": 1182,
      "잣": 1183,
      "잤": 1184,
      "장": 1185,
      "잦": 1186,
      "재": 1187,
      "잭": 1188,
      "잰": 1189,
      "잼": 1190,
      "잽": 1191,
      "잿": 1192,
      "쟁": 1193,
      "쟝": 1194,
      "쟤": 1195,
      "저": 1196,
      "적": 1197,
      "전": 1198,
      "절": 1199,
      "젊": 1200,
      "젋": 1201,
      "점": 1202,
      "접": 1203,
      "젓": 1204,
      "정": 1205,
      "젖": 1206,
      "제": 1207,
      "젝": 1208,
      "젠": 1209,
      "젤": 1210,
      "젬": 1211,
      "젭": 1212,
      "젯": 1213,
      "져": 1214,
      "젼": 1215,
      "졌": 1216,
      "조": 1217,
      "족": 1218,
      "존": 1219,
      "졸": 1220,
      "좀": 1221,
      "좁": 1222,
      "종": 1223,
      "좇": 1224,
      "좋": 1225,
      "좌": 1226,
      "좡": 1227,
      "죄": 1228,
      "죈": 1229,
      "죌": 1230,
      "죠": 1231,
      "죤": 1232,
      "주": 1233,
      "죽": 1234,
      "준": 1235,
      "줄": 1236,
      "줌": 1237,
      "줍": 1238,
      "줏": 1239,
      "중": 1240,
      "줘": 1241,
      "줬": 1242,
      "쥐": 1243,
      "쥔": 1244,
      "쥘": 1245,
      "쥬": 1246,
      "쥴": 1247,
      "즈": 1248,
      "즉": 1249,
      "즌": 1250,
      "즐": 1251,
      "즘": 1252,
      "즙": 1253,
      "증": 1254,
      "지": 1255,
      "직": 1256,
      "진": 1257,
      "질": 1258,
      "짊": 1259,
      "짐": 1260,
      "집": 1261,
      "짓": 1262,
      "징": 1263,
      "짖": 1264,
      "짙": 1265,
      "짚": 1266,
      "짜": 1267,
      "짝": 1268,
      "짠": 1269,
      "짤": 1270,
      "짧": 1271,
      "짬": 1272,
      "짭": 1273,
      "짰": 1274,
      "짱": 1275,
      "째": 1276,
      "쨉": 1277,
      "쨌": 1278,
      "쨍": 1279,
      "쨰": 1280,
      "쩌": 1281,
      "쩍": 1282,
      "쩐": 1283,
      "쩔": 1284,
      "쩜": 1285,
      "쩡": 1286,
      "쪄": 1287,
      "쪼": 1288,
      "쪽": 1289,
      "쫀": 1290,
      "쫄": 1291,
      "쫒": 1292,
      "쫓": 1293,
      "쫙": 1294,
      "쬐": 1295,
      "쭈": 1296,
      "쭉": 1297,
      "쭐": 1298,
      "쭙": 1299,
      "쭤": 1300,
      "쯔": 1301,
      "쯤": 1302,
      "쯩": 1303,
      "찌": 1304,
      "찍": 1305,
      "찐": 1306,
      "찔": 1307,
      "찜": 1308,
      "찡": 1309,
      "찢": 1310,
      "차": 1311,
      "착": 1312,
      "찬": 1313,
      "찮": 1314,
      "찰": 1315,
      "참": 1316,
      "찹": 1317,
      "찻": 1318,
      "찼": 1319,
      "창": 1320,
      "찾": 1321,
      "챁": 1322,
      "채": 1323,
      "책": 1324,
      "챈": 1325,
      "챌": 1326,
      "챔": 1327,
      "챕": 1328,
      "챗": 1329,
      "챘": 1330,
      "챙": 1331,
      "챠": 1332,
      "챤": 1333,
      "처": 1334,
      "척": 1335,
      "천": 1336,
      "철": 1337,
      "첨": 1338,
      "첩": 1339,
      "첫": 1340,
      "첬": 1341,
      "청": 1342,
      "체": 1343,
      "첵": 1344,
      "첸": 1345,
      "첼": 1346,
      "쳇": 1347,
      "쳐": 1348,
      "쳤": 1349,
      "초": 1350,
      "촉": 1351,
      "촌": 1352,
      "촐": 1353,
      "촘": 1354,
      "촛": 1355,
      "총": 1356,
      "촨": 1357,
      "촬": 1358,
      "촹": 1359,
      "최": 1360,
      "쵸": 1361,
      "추": 1362,
      "축": 1363,
      "춘": 1364,
      "출": 1365,
      "춤": 1366,
      "춥": 1367,
      "춧": 1368,
      "충": 1369,
      "춰": 1370,
      "췄": 1371,
      "췌": 1372,
      "취": 1373,
      "췼": 1374,
      "츄": 1375,
      "츈": 1376,
      "츠": 1377,
      "측": 1378,
      "츰": 1379,
      "층": 1380,
      "치": 1381,
      "칙": 1382,
      "친": 1383,
      "칠": 1384,
      "침": 1385,
      "칩": 1386,
      "칫": 1387,
      "칭": 1388,
      "카": 1389,
      "칵": 1390,
      "칸": 1391,
      "칼": 1392,
      "캄": 1393,
      "캅": 1394,
      "캇": 1395,
      "캉": 1396,
      "캐": 1397,
      "캔": 1398,
      "캘": 1399,
      "캠": 1400,
      "캡": 1401,
      "캣": 1402,
      "캥": 1403,
      "캬": 1404,
      "커": 1405,
      "컥": 1406,
      "컨": 1407,
      "컫": 1408,
      "컬": 1409,
      "컴": 1410,
      "컵": 1411,
      "컷": 1412,
      "컸": 1413,
      "컽": 1414,
      "케": 1415,
      "켄": 1416,
      "켈": 1417,
      "켐": 1418,
      "켓": 1419,
      "켜": 1420,
      "켠": 1421,
      "켤": 1422,
      "켰": 1423,
      "코": 1424,
      "콕": 1425,
      "콘": 1426,
      "콜": 1427,
      "콤": 1428,
      "콥": 1429,
      "콧": 1430,
      "콩": 1431,
      "콬": 1432,
      "콰": 1433,
      "콴": 1434,
      "쾌": 1435,
      "쾨": 1436,
      "쿄": 1437,
      "쿠": 1438,
      "쿡": 1439,
      "쿤": 1440,
      "쿨": 1441,
      "쿰": 1442,
      "쿱": 1443,
      "쿵": 1444,
      "쿼": 1445,
      "퀀": 1446,
      "퀄": 1447,
      "퀘": 1448,
      "퀴": 1449,
      "퀵": 1450,
      "퀸": 1451,
      "큅": 1452,
      "큐": 1453,
      "큘": 1454,
      "큠": 1455,
      "크": 1456,
      "큰": 1457,
      "클": 1458,
      "큼": 1459,
      "큽": 1460,
      "킁": 1461,
      "키": 1462,
      "킥": 1463,
      "킨": 1464,
      "킬": 1465,
      "킴": 1466,
      "킵": 1467,
      "킷": 1468,
      "킹": 1469,
      "타": 1470,
      "탁": 1471,
      "탄": 1472,
      "탈": 1473,
      "탐": 1474,
      "탑": 1475,
      "탓": 1476,
      "탔": 1477,
      "탕": 1478,
      "태": 1479,
      "택": 1480,
      "탠": 1481,
      "탤": 1482,
      "탬": 1483,
      "탭": 1484,
      "탯": 1485,
      "탰": 1486,
      "탱": 1487,
      "터": 1488,
      "턱": 1489,
      "턴": 1490,
      "털": 1491,
      "텀": 1492,
      "텁": 1493,
      "텃": 1494,
      "텄": 1495,
      "텅": 1496,
      "테": 1497,
      "텍": 1498,
      "텐": 1499,
      "텔": 1500,
      "템": 1501,
      "텝": 1502,
      "텡": 1503,
      "텨": 1504,
      "텼": 1505,
      "톈": 1506,
      "토": 1507,
      "톡": 1508,
      "톤": 1509,
      "톨": 1510,
      "톰": 1511,
      "톱": 1512,
      "통": 1513,
      "톺": 1514,
      "퇀": 1515,
      "퇴": 1516,
      "투": 1517,
      "툭": 1518,
      "툰": 1519,
      "툴": 1520,
      "툼": 1521,
      "퉁": 1522,
      "퉈": 1523,
      "퉨": 1524,
      "튀": 1525,
      "튄": 1526,
      "튈": 1527,
      "튕": 1528,
      "튜": 1529,
      "튠": 1530,
      "튤": 1531,
      "튬": 1532,
      "트": 1533,
      "특": 1534,
      "튼": 1535,
      "튿": 1536,
      "틀": 1537,
      "틈": 1538,
      "틋": 1539,
      "틍": 1540,
      "틔": 1541,
      "틜": 1542,
      "티": 1543,
      "틱": 1544,
      "틴": 1545,
      "틸": 1546,
      "팀": 1547,
      "팁": 1548,
      "팃": 1549,
      "팅": 1550,
      "파": 1551,
      "팍": 1552,
      "팎": 1553,
      "판": 1554,
      "팔": 1555,
      "팜": 1556,
      "팝": 1557,
      "팟": 1558,
      "팠": 1559,
      "팡": 1560,
      "팥": 1561,
      "패": 1562,
      "팩": 1563,
      "팬": 1564,
      "팰": 1565,
      "팸": 1566,
      "팹": 1567,
      "팻": 1568,
      "팽": 1569,
      "퍈": 1570,
      "퍼": 1571,
      "펀": 1572,
      "펄": 1573,
      "펌": 1574,
      "펍": 1575,
      "펑": 1576,
      "페": 1577,
      "펙": 1578,
      "펜": 1579,
      "펠": 1580,
      "펨": 1581,
      "펩": 1582,
      "펫": 1583,
      "펭": 1584,
      "펴": 1585,
      "편": 1586,
      "펼": 1587,
      "폈": 1588,
      "평": 1589,
      "폐": 1590,
      "포": 1591,
      "폭": 1592,
      "폰": 1593,
      "폴": 1594,
      "폼": 1595,
      "폿": 1596,
      "퐁": 1597,
      "표": 1598,
      "푸": 1599,
      "푹": 1600,
      "푼": 1601,
      "풀": 1602,
      "품": 1603,
      "풋": 1604,
      "풍": 1605,
      "퓌": 1606,
      "퓨": 1607,
      "퓰": 1608,
      "프": 1609,
      "픈": 1610,
      "플": 1611,
      "픔": 1612,
      "픕": 1613,
      "피": 1614,
      "픽": 1615,
      "핀": 1616,
      "필": 1617,
      "핌": 1618,
      "핍": 1619,
      "핏": 1620,
      "핑": 1621,
      "하": 1622,
      "학": 1623,
      "한": 1624,
      "할": 1625,
      "핥": 1626,
      "함": 1627,
      "합": 1628,
      "핫": 1629,
      "항": 1630,
      "해": 1631,
      "핵": 1632,
      "핸": 1633,
      "햄": 1634,
      "햅": 1635,
      "햇": 1636,
      "했": 1637,
      "행": 1638,
      "햐": 1639,
      "향": 1640,
      "햬": 1641,
      "헀": 1642,
      "허": 1643,
      "헌": 1644,
      "헐": 1645,
      "험": 1646,
      "헙": 1647,
      "헛": 1648,
      "헝": 1649,
      "헤": 1650,
      "헥": 1651,
      "헨": 1652,
      "헬": 1653,
      "헷": 1654,
      "헹": 1655,
      "혀": 1656,
      "혁": 1657,
      "현": 1658,
      "혈": 1659,
      "혐": 1660,
      "협": 1661,
      "혔": 1662,
      "형": 1663,
      "혖": 1664,
      "혜": 1665,
      "호": 1666,
      "혹": 1667,
      "혼": 1668,
      "홀": 1669,
      "홈": 1670,
      "홉": 1671,
      "홋": 1672,
      "홍": 1673,
      "홑": 1674,
      "화": 1675,
      "확": 1676,
      "환": 1677,
      "홛": 1678,
      "활": 1679,
      "홧": 1680,
      "황": 1681,
      "회": 1682,
      "획": 1683,
      "횟": 1684,
      "횡": 1685,
      "효": 1686,
      "후": 1687,
      "훅": 1688,
      "훈": 1689,
      "훌": 1690,
      "훑": 1691,
      "훔": 1692,
      "훗": 1693,
      "훙": 1694,
      "훤": 1695,
      "훨": 1696,
      "훼": 1697,
      "휘": 1698,
      "휙": 1699,
      "휠": 1700,
      "휩": 1701,
      "휴": 1702,
      "흄": 1703,
      "흉": 1704,
      "흐": 1705,
      "흑": 1706,
      "흔": 1707,
      "흘": 1708,
      "흙": 1709,
      "흠": 1710,
      "흡": 1711,
      "흥": 1712,
      "흩": 1713,
      "희": 1714,
      "흰": 1715,
      "흽": 1716,
      "히": 1717,
      "힉": 1718,
      "힌": 1719,
      "힐": 1720,
      "힘": 1721,
      "힙": 1722,
      "힛": 1723,
      "힝": 1724,
      "##원": 1725,
      "##재": 1726,
      "##활": 1727,
      "##용": 1728,
      "##면": 1729,
      "##전": 1730,
      "##문": 1731,
      "##점": 1732,
      "##도": 1733,
      "##맥": 1734,
      "##은": 1735,
      "##제": 1736,
      "##금": 1737,
      "##융": 1738,
      "##심": 1739,
      "##의": 1740,
      "##관": 1741,
      "##력": 1742,
      "##추": 1743,
      "##럴": 1744,
      "##업": 1745,
      "##화": 1746,
      "##와": 1747,
      "##일": 1748,
      "##로": 1749,
      "##부": 1750,
      "##터": 1751,
      "##옥": 1752,
      "##고": 1753,
      "##플": 1754,
      "##리": 1755,
      "##케": 1756,
      "##이": 1757,
      "##션": 1758,
      "##3": 1759,
      "##0": 1760,
      "##선": 1761,
      "##에": 1762,
      "##풀": 1763,
      "##려": 1764,
      "##진": 1765,
      "##치": 1766,
      "##을": 1767,
      "##만": 1768,
      "##달": 1769,
      "##러": 1770,
      "##년": 1771,
      "##과": 1772,
      "##았": 1773,
      "##울": 1774,
      "##지": 1775,
      "##방": 1776,
      "##보": 1777,
      "##훈": 1778,
      "##청": 1779,
      "##계": 1780,
      "##획": 1781,
      "##서": 1782,
      "##를": 1783,
      "##협": 1784,
      "##환": 1785,
      "##경": 1786,
      "##모": 1787,
      "##였": 1788,
      "##다": 1789,
      "##랐": 1790,
      "##나": 1791,
      "##던": 1792,
      "##속": 1793,
      "##한": 1794,
      "##는": 1795,
      "##했": 1796,
      "##법": 1797,
      "##주": 1798,
      "##임": 1799,
      "##하": 1800,
      "##게": 1801,
      "##양": 1802,
      "##항": 1803,
      "##밀": 1804,
      "##생": 1805,
      "##들": 1806,
      "##우": 1807,
      "##4": 1808,
      "##억": 1809,
      "##개": 1810,
      "##희": 1811,
      "##찬": 1812,
      "##효": 1813,
      "##발": 1814,
      "##현": 1815,
      "##자": 1816,
      "##단": 1817,
      "##체": 1818,
      "##장": 1819,
      "##급": 1820,
      "##안": 1821,
      "##비": 1822,
      "##감": 1823,
      "##할": 1824,
      "##셍": 1825,
      "##중": 1826,
      "##국": 1827,
      "##기": 1828,
      "##별": 1829,
      "##공": 1830,
      "##6": 1831,
      "##해": 1832,
      "##져": 1833,
      "##7": 1834,
      "##1": 1835,
      "##조": 1836,
      "##인": 1837,
      "##넷": 1838,
      "##타": 1839,
      "##시": 1840,
      "##옹": 1841,
      "##F": 1842,
      "##정": 1843,
      "##됐": 1844,
      "##으": 1845,
      "##며": 1846,
      "##본": 1847,
      "##미": 1848,
      "##산": 1849,
      "##총": 1850,
      "##괄": 1851,
      "##소": 1852,
      "##된": 1853,
      "##디": 1854,
      "##2": 1855,
      "##꾸": 1856,
      "##량": 1857,
      "##까": 1858,
      "##대": 1859,
      "##되": 1860,
      "##므": 1861,
      "##돼": 1862,
      "##겐": 1863,
      "##스": 1864,
      "##마": 1865,
      "##켜": 1866,
      "##영": 1867,
      "##역": 1868,
      "##탁": 1869,
      "##식": 1870,
      "##라": 1871,
      "##브": 1872,
      "##동": 1873,
      "##록": 1874,
      "##각": 1875,
      "##물": 1876,
      "##건": 1877,
      "##명": 1878,
      "##세": 1879,
      "##수": 1880,
      "##G": 1881,
      "##e": 1882,
      "##n": 1883,
      "##i": 1884,
      "##드": 1885,
      "##롭": 1886,
      "##츠": 1887,
      "##버": 1888,
      "##그": 1889,
      "##네": 1890,
      "##움": 1891,
      "##랩": 1892,
      "##가": 1893,
      "##a": 1894,
      "##v": 1895,
      "##격": 1896,
      "##말": 1897,
      "##렸": 1898,
      "##간": 1899,
      "##팔": 1900,
      "##반": 1901,
      "##태": 1902,
      "##염": 1903,
      "##키": 1904,
      "##탄": 1905,
      "##었": 1906,
      "##길": 1907,
      "##근": 1908,
      "##채": 1909,
      "##무": 1910,
      "##품": 1911,
      "##질": 1912,
      "##학": 1913,
      "##회": 1914,
      "##성": 1915,
      "##8": 1916,
      "##포": 1917,
      "##트": 1918,
      "##합": 1919,
      "##병": 1920,
      "##겠": 1921,
      "##형": 1922,
      "##글": 1923,
      "##침": 1924,
      "##혁": 1925,
      "##겨": 1926,
      "##내": 1927,
      "##퍼": 1928,
      "##섬": 1929,
      "##유": 1930,
      "##어": 1931,
      "##아": 1932,
      "##작": 1933,
      "##외": 1934,
      "##교": 1935,
      "##5": 1936,
      "##상": 1937,
      "##크": 1938,
      "##분": 1939,
      "##층": 1940,
      "##필": 1941,
      "##니": 1942,
      "##럭": 1943,
      "##위": 1944,
      "##엔": 1945,
      "##l": 1946,
      "##u": 1947,
      "##c": 1948,
      "##g": 1949,
      "##o": 1950,
      "##접": 1951,
      "##폭": 1952,
      "##슨": 1953,
      "##파": 1954,
      "##프": 1955,
      "##구": 1956,
      "##류": 1957,
      "##촌": 1958,
      "##연": 1959,
      "##즈": 1960,
      "##있": 1961,
      "##앗": 1962,
      "##호": 1963,
      "##떡": 1964,
      "##볼": 1965,
      "##객": 1966,
      "##9": 1967,
      "##입": 1968,
      "##행": 1969,
      "##규": 1970,
      "##칙": 1971,
      "##순": 1972,
      "##손": 1973,
      "##익": 1974,
      "##솔": 1975,
      "##루": 1976,
      "##백": 1977,
      "##신": 1978,
      "##티": 1979,
      "##저": 1980,
      "##통": 1981,
      "##A": 1982,
      "##V": 1983,
      "##E": 1984,
      "##R": 1985,
      "##홍": 1986,
      "##담": 1987,
      "##론": 1988,
      "##취": 1989,
      "##여": 1990,
      "##술": 1991,
      "##폴": 1992,
      "##오": 1993,
      "##큰": 1994,
      "##레": 1995,
      "##램": 1996,
      "##래": 1997,
      "##창": 1998,
      "##I": 1999,
      "##T": 2000,
      "##흥": 2001,
      "##료": 2002,
      "##넸": 2003,
      "##B": 2004,
      "##w": 2005,
      "##s": 2006,
      "##납": 2007,
      "##p": 2008,
      "##D": 2009,
      "##C": 2010,
      "##륙": 2011,
      "##사": 2012,
      "##곡": 2013,
      "##권": 2014,
      "##노": 2015,
      "##데": 2016,
      "##요": 2017,
      "##핏": 2018,
      "##른": 2019,
      "##렷": 2020,
      "##육": 2021,
      "##평": 2022,
      "##코": 2023,
      "##더": 2024,
      "##슬": 2025,
      "##뮬": 2026,
      "##매": 2027,
      "##령": 2028,
      "##워": 2029,
      "##온": 2030,
      "##불": 2031,
      "##벌": 2032,
      "##죄": 2033,
      "##야": 2034,
      "##실": 2035,
      "##굴": 2036,
      "##뼈": 2037,
      "##찰": 2038,
      "##액": 2039,
      "##월": 2040,
      "##출": 2041,
      "##황": 2042,
      "##운": 2043,
      "##셋": 2044,
      "##쪽": 2045,
      "##망": 2046,
      "##준": 2047,
      "##S": 2048,
      "##설": 2049,
      "##광": 2050,
      "##템": 2051,
      "##배": 2052,
      "##컵": 2053,
      "##후": 2054,
      "##함": 2055,
      "##써": 2056,
      "##쉬": 2057,
      "##빛": 2058,
      "##락": 2059,
      "##짓": 2060,
      "##천": 2061,
      "##거": 2062,
      "##누": 2063,
      "##W": 2064,
      "##삼": 2065,
      "##Z": 2066,
      "##븐": 2067,
      "##르": 2068,
      "##살": 2069,
      "##람": 2070,
      "##적": 2071,
      "##앱": 2072,
      "##결": 2073,
      "##닙": 2074,
      "##빌": 2075,
      "##차": 2076,
      "##칼": 2077,
      "##칭": 2078,
      "##련": 2079,
      "##번": 2080,
      "##클": 2081,
      "##민": 2082,
      "##막": 2083,
      "##증": 2084,
      "##왔": 2085,
      "##팅": 2086,
      "##피": 2087,
      "##홀": 2088,
      "##딩": 2089,
      "##올": 2090,
      "##릴": 2091,
      "##받": 2092,
      "##책": 2093,
      "##폐": 2094,
      "##투": 2095,
      "##습": 2096,
      "##등": 2097,
      "##란": 2098,
      "##턴": 2099,
      "##링": 2100,
      "##봉": 2101,
      "##킨": 2102,
      "##십": 2103,
      "##튼": 2104,
      "##젤": 2105,
      "##랍": 2106,
      "##텍": 2107,
      "##립": 2108,
      "##박": 2109,
      "##늘": 2110,
      "##페": 2111,
      "##축": 2112,
      "##셀": 2113,
      "##랑": 2114,
      "##놀": 2115,
      "##베": 2116,
      "##약": 2117,
      "##먼": 2118,
      "##종": 2119,
      "##랫": 2120,
      "##폼": 2121,
      "##틴": 2122,
      "##표": 2123,
      "##될": 2124,
      "##센": 2125,
      "##없": 2126,
      "##음": 2127,
      "##당": 2128,
      "##린": 2129,
      "##험": 2130,
      "##악": 2131,
      "##카": 2132,
      "##웨": 2133,
      "##P": 2134,
      "##O": 2135,
      "##팸": 2136,
      "##참": 2137,
      "##팀": 2138,
      "##승": 2139,
      "##캐": 2140,
      "##강": 2141,
      "##헬": 2142,
      "##처": 2143,
      "##바": 2144,
      "##테": 2145,
      "##퓨": 2146,
      "##틱": 2147,
      "##률": 2148,
      "##컴": 2149,
      "##토": 2150,
      "##춰": 2151,
      "##셔": 2152,
      "##N": 2153,
      "##절": 2154,
      "##엄": 2155,
      "##럼": 2156,
      "##톤": 2157,
      "##돈": 2158,
      "##킹": 2159,
      "##맘": 2160,
      "##톱": 2161,
      "##샵": 2162,
      "##송": 2163,
      "##석": 2164,
      "##밍": 2165,
      "##U": 2166,
      "##섰": 2167,
      "##콤": 2168,
      "##H": 2169,
      "##K": 2170,
      "##윗": 2171,
      "##r": 2172,
      "##t": 2173,
      "##믹": 2174,
      "##칠": 2175,
      "##애": 2176,
      "##m": 2177,
      "##쟁": 2178,
      "##녹": 2179,
      "##념": 2180,
      "##난": 2181,
      "##능": 2182,
      "##떠": 2183,
      "##셨": 2184,
      "##랙": 2185,
      "##앤": 2186,
      "##커": 2187,
      "##b": 2188,
      "##복": 2189,
      "##L": 2190,
      "##뢰": 2191,
      "##툰": 2192,
      "##털": 2193,
      "##겼": 2194,
      "##북": 2195,
      "##극": 2196,
      "##특": 2197,
      "##착": 2198,
      "##뒤": 2199,
      "##핸": 2200,
      "##판": 2201,
      "##집": 2202,
      "##X": 2203,
      "##직": 2204,
      "##곳": 2205,
      "##덕": 2206,
      "##척": 2207,
      "##콘": 2208,
      "##날": 2209,
      "##폰": 2210,
      "##켓": 2211,
      "##h": 2212,
      "##득": 2213,
      "##웰": 2214,
      "##떨": 2215,
      "##닝": 2216,
      "##y": 2217,
      "##벨": 2218,
      "##줘": 2219,
      "##빵": 2220,
      "##편": 2221,
      "##큼": 2222,
      "##갈": 2223,
      "##군": 2224,
      "##잔": 2225,
      "##펀": 2226,
      "##목": 2227,
      "##롤": 2228,
      "##툴": 2229,
      "##늠": 2230,
      "##님": 2231,
      "##곤": 2232,
      "##텔": 2233,
      "##졌": 2234,
      "##뱅": 2235,
      "##콩": 2236,
      "##택": 2237,
      "##욕": 2238,
      "##k": 2239,
      "##짐": 2240,
      "##웍": 2241,
      "##잎": 2242,
      "##넘": 2243,
      "##머": 2244,
      "##럽": 2245,
      "##웠": 2246,
      "##초": 2247,
      "##옵": 2248,
      "##측": 2249,
      "##농": 2250,
      "##율": 2251,
      "##탈": 2252,
      "##d": 2253,
      "##색": 2254,
      "##텐": 2255,
      "##독": 2256,
      "##휴": 2257,
      "##M": 2258,
      "##변": 2259,
      "##빙": 2260,
      "##캠": 2261,
      "##완": 2262,
      "##델": 2263,
      "##잉": 2264,
      "##랜": 2265,
      "##맛": 2266,
      "##남": 2267,
      "##훼": 2268,
      "##예": 2269,
      "##패": 2270,
      "##싼": 2271,
      "##메": 2272,
      "##혼": 2273,
      "##런": 2274,
      "##틀": 2275,
      "##끼": 2276,
      "##친": 2277,
      "##풍": 2278,
      "##블": 2279,
      "##든": 2280,
      "##언": 2281,
      "##팩": 2282,
      "##뉴": 2283,
      "##얼": 2284,
      "##Y": 2285,
      "##족": 2286,
      "##둘": 2287,
      "##섭": 2288,
      "##히": 2289,
      "##느": 2290,
      "##냐": 2291,
      "##쇼": 2292,
      "##핑": 2293,
      "##몰": 2294,
      "##팽": 2295,
      "##밭": 2296,
      "##닥": 2297,
      "##왕": 2298,
      "##골": 2299,
      "##께": 2300,
      "##넥": 2301,
      "##쉘": 2302,
      "##뮤": 2303,
      "##햄": 2304,
      "##룸": 2305,
      "##콜": 2306,
      "##렉": 2307,
      "##최": 2308,
      "##룡": 2309,
      "##례": 2310,
      "##룩": 2311,
      "##캡": 2312,
      "##범": 2313,
      "##잡": 2314,
      "##몸": 2315,
      "##홈": 2316,
      "##쿼": 2317,
      "##밖": 2318,
      "##춘": 2319,
      "##덩": 2320,
      "##룹": 2321,
      "##너": 2322,
      "##Q": 2323,
      "##릉": 2324,
      "##림": 2325,
      "##픽": 2326,
      "##향": 2327,
      "##둬": 2328,
      "##쾌": 2329,
      "##봇": 2330,
      "##뎌": 2331,
      "##김": 2332,
      "##름": 2333,
      "##튬": 2334,
      "##귀": 2335,
      "##두": 2336,
      "##엌": 2337,
      "##씨": 2338,
      "##엠": 2339,
      "##혹": 2340,
      "##밸": 2341,
      "##쑥": 2342,
      "##견": 2343,
      "##윤": 2344,
      "##응": 2345,
      "##충": 2346,
      "##략": 2347,
      "##갑": 2348,
      "##슈": 2349,
      "##릿": 2350,
      "##탑": 2351,
      "##냈": 2352,
      "##쿠": 2353,
      "##뿐": 2354,
      "##뷰": 2355,
      "##몬": 2356,
      "##텅": 2357,
      "##냥": 2358,
      "##f": 2359,
      "##걸": 2360,
      "##찮": 2361,
      "##돌": 2362,
      "##검": 2363,
      "##돋": 2364,
      "##쳤": 2365,
      "##존": 2366,
      "##열": 2367,
      "##맹": 2368,
      "##확": 2369,
      "##째": 2370,
      "##넛": 2371,
      "##놔": 2372,
      "##힘": 2373,
      "##x": 2374,
      "##촉": 2375,
      "##렀": 2376,
      "##롯": 2377,
      "##컨": 2378,
      "##윳": 2379,
      "##값": 2380,
      "##벤": 2381,
      "##랄": 2382,
      "##넌": 2383,
      "##닷": 2384,
      "##딧": 2385,
      "##쳐": 2386,
      "##철": 2387,
      "##튜": 2388,
      "##닉": 2389,
      "##떼": 2390,
      "##팡": 2391,
      "##숍": 2392,
      "##혀": 2393,
      "##셜": 2394,
      "##혈": 2395,
      "##웅": 2396,
      "##륜": 2397,
      "##첵": 2398,
      "##긴": 2399,
      "##렁": 2400,
      "##널": 2401,
      "##알": 2402,
      "##릭": 2403,
      "##붙": 2404,
      "##멀": 2405,
      "##솟": 2406,
      "##쉴": 2407,
      "##퇴": 2408,
      "##곱": 2409,
      "##뚜": 2410,
      "##펴": 2411,
      "##답": 2412,
      "##찌": 2413,
      "##덴": 2414,
      "##암": 2415,
      "##촬": 2416,
      "##앙": 2417,
      "##죠": 2418,
      "##허": 2419,
      "##듀": 2420,
      "##낙": 2421,
      "##탕": 2422,
      "##압": 2423,
      "##렛": 2424,
      "##빈": 2425,
      "##숙": 2426,
      "##킬": 2427,
      "##짜": 2428,
      "##첨": 2429,
      "##멕": 2430,
      "##줍": 2431,
      "##젠": 2432,
      "##윈": 2433,
      "##칩": 2434,
      "##않": 2435,
      "##캔": 2436,
      "##큐": 2437,
      "##멘": 2438,
      "##즌": 2439,
      "##z": 2440,
      "##겹": 2441,
      "##놓": 2442,
      "##녔": 2443,
      "##펜": 2444,
      "##깃": 2445,
      "##갱": 2446,
      "##봤": 2447,
      "##귤": 2448,
      "##덮": 2449,
      "##팬": 2450,
      "##궤": 2451,
      "##킵": 2452,
      "##밋": 2453,
      "##잣": 2454,
      "##얄": 2455,
      "##껴": 2456,
      "##끌": 2457,
      "##뤘": 2458,
      "##빗": 2459,
      "##핵": 2460,
      "##쏘": 2461,
      "##씩": 2462,
      "##듭": 2463,
      "##톡": 2464,
      "##벽": 2465,
      "##푸": 2466,
      "##낮": 2467,
      "##렌": 2468,
      "##닌": 2469,
      "##맨": 2470,
      "##픈": 2471,
      "##즘": 2472,
      "##땅": 2473,
      "##눔": 2474,
      "##녀": 2475,
      "##낭": 2476,
      "##셉": 2477,
      "##줄": 2478,
      "##쯤": 2479,
      "##슘": 2480,
      "##춧": 2481,
      "##듬": 2482,
      "##닐": 2483,
      "##좌": 2484,
      "##것": 2485,
      "##낸": 2486,
      "##혜": 2487,
      "##렴": 2488,
      "##덱": 2489,
      "##첩": 2490,
      "##눠": 2491,
      "##새": 2492,
      "##컬": 2493,
      "##짖": 2494,
      "##렐": 2495,
      "##됩": 2496,
      "##싹": 2497,
      "##렵": 2498,
      "##높": 2499,
      "##괴": 2500,
      "##밥": 2501,
      "##쇄": 2502,
      "##릅": 2503,
      "##밤": 2504,
      "##젝": 2505,
      "##콕": 2506,
      "##핀": 2507,
      "##둔": 2508,
      "##띠": 2509,
      "##묘": 2510,
      "##잘": 2511,
      "##쓸": 2512,
      "##뤄": 2513,
      "##뜰": 2514,
      "##징": 2515,
      "##뜩": 2516,
      "##딱": 2517,
      "##렇": 2518,
      "##틈": 2519,
      "##줬": 2520,
      "##쁜": 2521,
      "##묵": 2522,
      "##듈": 2523,
      "##볍": 2524,
      "##씀": 2525,
      "##팁": 2526,
      "##쁘": 2527,
      "##팜": 2528,
      "##켰": 2529,
      "##뜻": 2530,
      "##팃": 2531,
      "##겁": 2532,
      "##섯": 2533,
      "##흡": 2534,
      "##뿅": 2535,
      "##싱": 2536,
      "##틸": 2537,
      "##쿨": 2538,
      "##젯": 2539,
      "##닭": 2540,
      "##킷": 2541,
      "##썼": 2542,
      "##균": 2543,
      "##딜": 2544,
      "##깔": 2545,
      "##몽": 2546,
      "##륨": 2547,
      "##렬": 2548,
      "##났": 2549,
      "##슴": 2550,
      "##붕": 2551,
      "##궁": 2552,
      "##꺼": 2553,
      "##팹": 2554,
      "##깨": 2555,
      "##톨": 2556,
      "##뜨": 2557,
      "##엘": 2558,
      "##햇": 2559,
      "##탠": 2560,
      "##짝": 2561,
      "##줌": 2562,
      "##찾": 2563,
      "##늄": 2564,
      "##욱": 2565,
      "##슷": 2566,
      "##흐": 2567,
      "##J": 2568,
      "##졸": 2569,
      "##펑": 2570,
      "##빠": 2571,
      "##휘": 2572,
      "##헌": 2573,
      "##붐": 2574,
      "##맙": 2575,
      "##깝": 2576,
      "##꽃": 2577,
      "##쓰": 2578,
      "##따": 2579,
      "##때": 2580,
      "##잖": 2581,
      "##엑": 2582,
      "##읍": 2583,
      "##뷔": 2584,
      "##텁": 2585,
      "##펫": 2586,
      "##봄": 2587,
      "##뀌": 2588,
      "##듯": 2589,
      "##쉐": 2590,
      "##갔": 2591,
      "##엽": 2592,
      "##잠": 2593,
      "##긋": 2594,
      "##봐": 2595,
      "##뚝": 2596,
      "##쎄": 2597,
      "##뇨": 2598,
      "##됨": 2599,
      "##쇠": 2600,
      "##멍": 2601,
      "##츄": 2602,
      "##탱": 2603,
      "##붓": 2604,
      "##웃": 2605,
      "##쌀": 2606,
      "##춤": 2607,
      "##밴": 2608,
      "##뿌": 2609,
      "##겔": 2610,
      "##팻": 2611,
      "##쨰": 2612,
      "##딪": 2613,
      "##댐": 2614,
      "##혔": 2615,
      "##겅": 2616,
      "##둥": 2617,
      "##핫": 2618,
      "##맞": 2619,
      "##펙": 2620,
      "##못": 2621,
      "##딸": 2622,
      "##곶": 2623,
      "##멸": 2624,
      "##텼": 2625,
      "##숲": 2626,
      "##큘": 2627,
      "##벡": 2628,
      "##볶": 2629,
      "##헤": 2630,
      "##멥": 2631,
      "##쥐": 2632,
      "##곽": 2633,
      "##텀": 2634,
      "##챗": 2635,
      "##쿄": 2636,
      "##굽": 2637,
      "##칫": 2638,
      "##퀘": 2639,
      "##삽": 2640,
      "##냉": 2641,
      "##홋": 2642,
      "##썸": 2643,
      "##롬": 2644,
      "##펌": 2645,
      "##먹": 2646,
      "##숫": 2647,
      "##꿀": 2648,
      "##셰": 2649,
      "##볐": 2650,
      "##샘": 2651,
      "##뼉": 2652,
      "##헨": 2653,
      "##셈": 2654,
      "##끄": 2655,
      "##궐": 2656,
      "##섹": 2657,
      "##슐": 2658,
      "##팝": 2659,
      "##및": 2660,
      "##톰": 2661,
      "##삐": 2662,
      "##같": 2663,
      "##뻐": 2664,
      "##죽": 2665,
      "##렙": 2666,
      "##컫": 2667,
      "##씽": 2668,
      "##덤": 2669,
      "##샛": 2670,
      "##젬": 2671,
      "##닛": 2672,
      "##힐": 2673,
      "##눌": 2674,
      "##논": 2675,
      "##낫": 2676,
      "##툼": 2677,
      "##펠": 2678,
      "##췄": 2679,
      "##썹": 2680,
      "##젭": 2681,
      "##볕": 2682,
      "##믈": 2683,
      "##쉽": 2684,
      "##놨": 2685,
      "##꼬": 2686,
      "##릇": 2687,
      "##쿤": 2688,
      "##낼": 2689,
      "##꿔": 2690,
      "##갬": 2691,
      "##빔": 2692,
      "##롱": 2693,
      "##륭": 2694,
      "##걀": 2695,
      "##엉": 2696,
      "##짚": 2697,
      "##콰": 2698,
      "##팟": 2699,
      "##쥬": 2700,
      "##큅": 2701,
      "##윙": 2702,
      "##랭": 2703,
      "##앰": 2704,
      "##쌈": 2705,
      "##꼽": 2706,
      "##삭": 2707,
      "##놈": 2708,
      "##샤": 2709,
      "##웹": 2710,
      "##즐": 2711,
      "##칸": 2712,
      "##샹": 2713,
      "##싸": 2714,
      "##첸": 2715,
      "##샴": 2716,
      "##룬": 2717,
      "##퉁": 2718,
      "##j": 2719,
      "##흰": 2720,
      "##녁": 2721,
      "##꿨": 2722,
      "##퀴": 2723,
      "##윔": 2724,
      "##갤": 2725,
      "##킴": 2726,
      "##꼈": 2727,
      "##뭄": 2728,
      "##캘": 2729,
      "##뷸": 2730,
      "##묻": 2731,
      "##숴": 2732,
      "##겟": 2733,
      "##꿍": 2734,
      "##샷": 2735,
      "##쑤": 2736,
      "##깁": 2737,
      "##잿": 2738,
      "##룽": 2739,
      "##뉜": 2740,
      "##뇌": 2741,
      "##띵": 2742,
      "##뛰": 2743,
      "##핍": 2744,
      "##딤": 2745,
      "##룰": 2746,
      "##또": 2747,
      "##럿": 2748,
      "##푹": 2749,
      "##끈": 2750,
      "##텝": 2751,
      "##즙": 2752,
      "##싶": 2753,
      "##앉": 2754,
      "##쓴": 2755,
      "##똑": 2756,
      "##덜": 2757,
      "##굵": 2758,
      "##엇": 2759,
      "##깊": 2760,
      "##땜": 2761,
      "##탐": 2762,
      "##낀": 2763,
      "##깅": 2764,
      "##봬": 2765,
      "##뽀": 2766,
      "##겸": 2767,
      "##똥": 2768,
      "##굿": 2769,
      "##풋": 2770,
      "##넉": 2771,
      "##젼": 2772,
      "##텨": 2773,
      "##끔": 2774,
      "##렘": 2775,
      "##떤": 2776,
      "##힌": 2777,
      "##솜": 2778,
      "##챠": 2779,
      "##딘": 2780,
      "##갭": 2781,
      "##넬": 2782,
      "##껑": 2783,
      "##밌": 2784,
      "##촘": 2785,
      "##퓌": 2786,
      "##엣": 2787,
      "##랬": 2788,
      "##멤": 2789,
      "##캣": 2790,
      "##땡": 2791,
      "##탬": 2792,
      "##킁": 2793,
      "##썩": 2794,
      "##챌": 2795,
      "##탤": 2796,
      "##껏": 2797,
      "##켈": 2798,
      "##쉰": 2799,
      "##펩": 2800,
      "##넣": 2801,
      "##캉": 2802,
      "##멜": 2803,
      "##벼": 2804,
      "##킥": 2805,
      "##좀": 2806,
      "##떻": 2807,
      "##얇": 2808,
      "##쭤": 2809,
      "##눅": 2810,
      "##챔": 2811,
      "##깡": 2812,
      "##둠": 2813,
      "##턱": 2814,
      "##힉": 2815,
      "##빨": 2816,
      "##숨": 2817,
      "##컷": 2818,
      "##뒷": 2819,
      "##땐": 2820,
      "##얏": 2821,
      "##얀": 2822,
      "##흉": 2823,
      "##숭": 2824,
      "##쩌": 2825,
      "##윅": 2826,
      "##궈": 2827,
      "##앞": 2828,
      "##넓": 2829,
      "##꾼": 2830,
      "##댑": 2831,
      "##씬": 2832,
      "##퓰": 2833,
      "##씰": 2834,
      "##짠": 2835,
      "##뒀": 2836,
      "##롄": 2837,
      "##딕": 2838,
      "##돕": 2839,
      "##웬": 2840,
      "##벅": 2841,
      "##걷": 2842,
      "##횡": 2843,
      "##곰": 2844,
      "##틔": 2845,
      "##맵": 2846,
      "##흔": 2847,
      "##늦": 2848,
      "##쿡": 2849,
      "##긍": 2850,
      "##쁨": 2851,
      "##튿": 2852,
      "##휠": 2853,
      "##꿈": 2854,
      "##닿": 2855,
      "##뉘": 2856,
      "##멧": 2857,
      "##끝": 2858,
      "##흘": 2859,
      "##엡": 2860,
      "##빅": 2861,
      "##옷": 2862,
      "##쩡": 2863,
      "##팠": 2864,
      "##옴": 2865,
      "##찍": 2866,
      "##뿜": 2867,
      "##랏": 2868,
      "##빚": 2869,
      "##왜": 2870,
      "##봅": 2871,
      "##댄": 2872,
      "##츈": 2873,
      "##찼": 2874,
      "##뤼": 2875,
      "##낌": 2876,
      "##읽": 2877,
      "##땠": 2878,
      "##q": 2879,
      "##팍": 2880,
      "##귄": 2881,
      "##엥": 2882,
      "##췼": 2883,
      "##즉": 2884,
      "##뇽": 2885,
      "##넨": 2886,
      "##싯": 2887,
      "##삿": 2888,
      "##샌": 2889,
      "##푼": 2890,
      "##짱": 2891,
      "##랠": 2892,
      "##붇": 2893,
      "##뿔": 2894,
      "##.": 2895,
      "##깍": 2896,
      "##맡": 2897,
      "##깐": 2898,
      "##흠": 2899,
      "##댈": 2900,
      "##깥": 2901,
      "##탓": 2902,
      "##횟": 2903,
      "##탭": 2904,
      "##뭇": 2905,
      "##눴": 2906,
      "##듐": 2907,
      "##닫": 2908,
      "##쌓": 2909,
      "##쯩": 2910,
      "##줏": 2911,
      "##맷": 2912,
      "##팥": 2913,
      "##꽝": 2914,
      "##잇": 2915,
      "##욜": 2916,
      "##퉨": 2917,
      "##폿": 2918,
      "##릎": 2919,
      "##컥": 2920,
      "##낱": 2921,
      "##욘": 2922,
      "##빴": 2923,
      "##꼭": 2924,
      "##쫄": 2925,
      "##퀀": 2926,
      "##냔": 2927,
      "##꼴": 2928,
      "##팎": 2929,
      "##끗": 2930,
      "##눈": 2931,
      "##몫": 2932,
      "##뜸": 2933,
      "##녕": 2934,
      "##낵": 2935,
      "##뻑": 2936,
      "##챁": 2937,
      "##쩜": 2938,
      "##갸": 2939,
      "##뻤": 2940,
      "##찔": 2941,
      "##룀": 2942,
      "##찜": 2943,
      "##픔": 2944,
      "##쌌": 2945,
      "##끽": 2946,
      "##둑": 2947,
      "##늬": 2948,
      "##챙": 2949,
      "##벳": 2950,
      "##켐": 2951,
      "##돔": 2952,
      "##튀": 2953,
      "##퐁": 2954,
      "##펄": 2955,
      "##헙": 2956,
      "##콧": 2957,
      "##왑": 2958,
      "##뎀": 2959,
      "##힙": 2960,
      "##흑": 2961,
      "##섞": 2962,
      "##웁": 2963,
      "##씹": 2964,
      "##랗": 2965,
      "##탯": 2966,
      "##뭉": 2967,
      "##윌": 2968,
      "##왓": 2969,
      "##챈": 2970,
      "##쌍": 2971,
      "##헥": 2972,
      "##덟": 2973,
      "##곧": 2974,
      "##캄": 2975,
      "##퉈": 2976,
      "##뚫": 2977,
      "##촹": 2978,
      "##짤": 2979,
      "##둡": 2980,
      "##룟": 2981,
      "##뎠": 2982,
      "##뀜": 2983,
      "##텡": 2984,
      "##댓": 2985,
      "##챕": 2986,
      "##잭": 2987,
      "##헷": 2988,
      "##썽": 2989,
      "##옆": 2990,
      "##숩": 2991,
      "##촨": 2992,
      "##쿰": 2993,
      "##쉼": 2994,
      "##웜": 2995,
      "##홉": 2996,
      "##폈": 2997,
      "##켄": 2998,
      "##꿋": 2999,
      "##뵌": 3000,
      "##왈": 3001,
      "##쏟": 3002,
      "##닦": 3003,
      "##뀐": 3004,
      "##갚": 3005,
      "##훅": 3006,
      "##끙": 3007,
      "##좋": 3008,
      "##밑": 3009,
      "##듦": 3010,
      "##낄": 3011,
      "##셌": 3012,
      "##썰": 3013,
      "##돗": 3014,
      "##옌": 3015,
      "##퍈": 3016,
      "##펨": 3017,
      "##꽁": 3018,
      "##쿵": 3019,
      "##꿉": 3020,
      "##밈": 3021,
      "##퀄": 3022,
      "##첼": 3023,
      "##낯": 3024,
      "##쫓": 3025,
      "##팰": 3026,
      "##솥": 3027,
      "##쨉": 3028,
      "##뚱": 3029,
      "##랸": 3030,
      "##딴": 3031,
      "##죤": 3032,
      "##쳇": 3033,
      "##딥": 3034,
      "##젓": 3035,
      "##딛": 3036,
      "##껍": 3037,
      "##쩍": 3038,
      "##솝": 3039,
      "##넜": 3040,
      "##똘": 3041,
      "##앓": 3042,
      "##땀": 3043,
      "##츰": 3044,
      "##갯": 3045,
      "##뀔": 3046,
      "##띔": 3047,
      "##갓": 3048,
      "##뎅": 3049,
      "##젖": 3050,
      "##갖": 3051,
      "##훙": 3052,
      "##샐": 3053,
      "##걱": 3054,
      "##튠": 3055,
      "##쏙": 3056,
      "##찹": 3057,
      "##촐": 3058,
      "##냅": 3059,
      "##좡": 3060,
      "##햬": 3061,
      "##훤": 3062,
      "##굣": 3063,
      "##얘": 3064,
      "##늉": 3065,
      "##쪼": 3066,
      "##왼": 3067,
      "##쿱": 3068,
      "##펍": 3069,
      "##벵": 3070,
      "##쨌": 3071,
      "##쌤": 3072,
      "##벗": 3073,
      "##늪": 3074,
      "##몇": 3075,
      "##많": 3076,
      "##펭": 3077,
      "##핌": 3078,
      "##쭉": 3079,
      "##큠": 3080,
      "##꾹": 3081,
      "##뿍": 3082,
      "##씸": 3083,
      "##깎": 3084,
      "##숑": 3085,
      "##궜": 3086,
      "##엎": 3087,
      "##겜": 3088,
      "##뱀": 3089,
      "##샨": 3090,
      "##뉠": 3091,
      "##콥": 3092,
      "##릍": 3093,
      "##맬": 3094,
      "##뮨": 3095,
      "##빽": 3096,
      "##얹": 3097,
      "##흄": 3098,
      "##쏠": 3099,
      "##헀": 3100,
      "##쌉": 3101,
      "##뱡": 3102,
      "##쥴": 3103,
      "##웻": 3104,
      "##쨍": 3105,
      "##꽂": 3106,
      "##앴": 3107,
      "##듣": 3108,
      "##륀": 3109,
      "##첬": 3110,
      "##눕": 3111,
      "##뉩": 3112,
      "##겆": 3113,
      "##앵": 3114,
      "##뽕": 3115,
      "##댜": 3116,
      "##췌": 3117,
      "##뽑": 3118,
      "##떄": 3119,
      "##맣": 3120,
      "##밝": 3121,
      "##혐": 3122,
      "##틋": 3123,
      "##뵙": 3124,
      "##헐": 3125,
      "##흙": 3126,
      "##웸": 3127,
      "##뮴": 3128,
      "##핥": 3129,
      "##켠": 3130,
      "##챤": 3131,
      "##햐": 3132,
      "##셸": 3133,
      "##꼼": 3134,
      "##댔": 3135,
      "##룻": 3136,
      "##뎬": 3137,
      "##샬": 3138,
      "##뜬": 3139,
      "##슝": 3140,
      "##냄": 3141,
      "##둣": 3142,
      "##뭐": 3143,
      "##컽": 3144,
      "##쟝": 3145,
      "##쁠": 3146,
      "##눗": 3147,
      "##툭": 3148,
      "##엿": 3149,
      "##탰": 3150,
      "##띄": 3151,
      "##뵈": 3152,
      "##겪": 3153,
      "##쩐": 3154,
      "##쓱": 3155,
      "##쥘": 3156,
      "##쥔": 3157,
      "##챘": 3158,
      "##읏": 3159,
      "##뻘": 3160,
      "##엊": 3161,
      "##앨": 3162,
      "##쏭": 3163,
      "##놉": 3164,
      "##멩": 3165,
      "##픕": 3166,
      "##짧": 3167,
      "##몄": 3168,
      "##덥": 3169,
      "##롑": 3170,
      "##돛": 3171,
      "##얌": 3172,
      "##숏": 3173,
      "##갹": 3174,
      "##랴": 3175,
      "##쯔": 3176,
      "##쭐": 3177,
      "##썬": 3178,
      "##륵": 3179,
      "##빡": 3180,
      "##싣": 3181,
      "##밉": 3182,
      "##넒": 3183,
      "##댠": 3184,
      "##뀝": 3185,
      "##녘": 3186,
      "##샙": 3187,
      "##쩔": 3188,
      "##믐": 3189,
      "##텃": 3190,
      "##빕": 3191,
      "##햅": 3192,
      "##삶": 3193,
      "##퇀": 3194,
      "##괭": 3195,
      "##잼": 3196,
      "##깜": 3197,
      "##캅": 3198,
      "##쭙": 3199,
      "##넝": 3200,
      "##덧": 3201,
      "##흽": 3202,
      "##묶": 3203,
      "##윱": 3204,
      "##꼐": 3205,
      "##붑": 3206,
      "##죈": 3207,
      "##텄": 3208,
      "##쫀": 3209,
      "##뗏": 3210,
      "##돤": 3211,
      "##캬": 3212,
      "##갛": 3213,
      "##띤": 3214,
      "##뱃": 3215,
      "##욤": 3216,
      "##꿎": 3217,
      "##밟": 3218,
      "##탔": 3219,
      "##훗": 3220,
      "##끓": 3221,
      "##뼛": 3222,
      "##넵": 3223,
      "##맑": 3224,
      "##숄": 3225,
      "##뎃": 3226,
      "##으로": 3227,
      "##했다": 3228,
      "##에서": 3229,
      "있다": 3230,
      "##하는": 3231,
      "##이다": 3232,
      "##00": 3233,
      "##하고": 3234,
      "20": 3235,
      "##니다": 3236,
      "지난": 3237,
      "##한다": 3238,
      "있는": 3239,
      "##까지": 3240,
      "서울": 3241,
      "기업": 3242,
      "한국": 3243,
      "##부터": 3244,
      "##습니다": 3245,
      "것으로": 3246,
      "##비스": 3247,
      "##적으로": 3248,
      "##면서": 3249,
      "통해": 3250,
      "밝혔": 3251,
      "시장": 3252,
      "202": 3253,
      "투자": 3254,
      "제공": 3255,
      "##억원": 3256,
      "위해": 3257,
      "사업": 3258,
      "이라": 3259,
      "밝혔다": 3260,
      "##적인": 3261,
      "##들이": 3262,
      "대한": 3263,
      "국내": 3264,
      "##지만": 3265,
      "10": 3266,
      "##하기": 3267,
      "서비스": 3268,
      "기자": 3269,
      "##다는": 3270,
      "금융": 3271,
      "상승": 3272,
      "말했다": 3273,
      "기술": 3274,
      "가격": 3275,
      "올해": 3276,
      "##된다": 3277,
      "정부": 3278,
      "가능": 3279,
      "이번": 3280,
      "##에는": 3281,
      "##자는": 3282,
      "고객": 3283,
      "진행": 3284,
      "미국": 3285,
      "대표": 3286,
      "##000": 3287,
      "위한": 3288,
      "이어": 3289,
      "지원": 3290,
      "개발": 3291,
      "##됐다": 3292,
      "이후": 3293,
      "##반기": 3294,
      "##기업": 3295,
      "##로벌": 3296,
      "##었다": 3297,
      "이상": 3298,
      "지난해": 3299,
      "##장은": 3300,
      "##보다": 3301,
      "연구": 3302,
      "기준": 3303,
      "##에게": 3304,
      "##이터": 3305,
      "글로벌": 3306,
      "확대": 3307,
      "삼성": 3308,
      "최근": 3309,
      "이라고": 3310,
      "##너지": 3311,
      "사진": 3312,
      "##르면": 3313,
      "관련": 3314,
      "관계": 3315,
      "예정": 3316,
      "##하게": 3317,
      "##도록": 3318,
      "30": 3319,
      "201": 3320,
      "등을": 3321,
      "계획": 3322,
      "이용": 3323,
      "전망": 3324,
      "##에도": 3325,
      "##레이": 3326,
      "따르면": 3327,
      "##되는": 3328,
      "다양": 3329,
      "증가": 3330,
      "금리": 3331,
      "하락": 3332,
      "함께": 3333,
      "최대": 3334,
      "대비": 3335,
      "##은행": 3336,
      "거래": 3337,
      "산업": 3338,
      "경제": 3339,
      "상품": 3340,
      "상황": 3341,
      "했다": 3342,
      "##마트": 3343,
      "소비": 3344,
      "것이": 3345,
      "경우": 3346,
      "다양한": 3347,
      "LG": 3348,
      "##들의": 3349,
      "프로": 3350,
      "성장": 3351,
      "1일": 3352,
      "공급": 3353,
      "판매": 3354,
      "##하다": 3355,
      "경기": 3356,
      "기록": 3357,
      "##하며": 3358,
      "운영": 3359,
      "##카오": 3360,
      "사용": 3361,
      "6월": 3362,
      "우리": 3363,
      "카카오": 3364,
      "5일": 3365,
      "제품": 3366,
      "지난달": 3367,
      "##분기": 3368,
      "세계": 3369,
      "##사업": 3370,
      "때문": 3371,
      "##전자": 3372,
      "같은": 3373,
      "##성을": 3374,
      "##성이": 3375,
      "필요": 3376,
      "따라": 3377,
      "4일": 3378,
      "대상": 3379,
      "##만원": 3380,
      "##스트": 3381,
      "수출": 3382,
      "전문": 3383,
      "11": 3384,
      "지속": 3385,
      "##들은": 3386,
      "지역": 3387,
      "활용": 3388,
      "##랜드": 3389,
      "##시스": 3390,
      "##랫폼": 3391,
      "설명": 3392,
      "##겠다": 3393,
      "##았다": 3394,
      "##지털": 3395,
      "가장": 3396,
      "##력을": 3397,
      "##로나": 3398,
      "한다": 3399,
      "물가": 3400,
      "대해": 3401,
      "이날": 3402,
      "현재": 3403,
      "수준": 3404,
      "12": 3405,
      "##에서는": 3406,
      "##도체": 3407,
      "##0년": 3408,
      "2022": 3409,
      "플랫폼": 3410,
      "주요": 3411,
      "코로나": 3412,
      "게임": 3413,
      "디지털": 3414,
      "중국": 3415,
      "##라인": 3416,
      "19": 3417,
      "규모": 3418,
      "##기술": 3419,
      "##시장": 3420,
      "##했다고": 3421,
      "##하면": 3422,
      "생산": 3423,
      "##이나": 3424,
      "##수는": 3425,
      "SK": 3426,
      "시작": 3427,
      "##위원": 3428,
      "관계자는": 3429,
      "소비자": 3430,
      "##졌다": 3431,
      "발표": 3432,
      "##라는": 3433,
      "##으며": 3434,
      "규제": 3435,
      "인상": 3436,
      "##달러": 3437,
      "참여": 3438,
      "매출": 3439,
      "##리는": 3440,
      "##뉴스": 3441,
      "전기": 3442,
      "있도록": 3443,
      "환경": 3444,
      "분야": 3445,
      "특히": 3446,
      "##시간": 3447,
      "데이터": 3448,
      "수요": 3449,
      "현대": 3450,
      "반도체": 3451,
      "출시": 3452,
      "적용": 3453,
      "추가": 3454,
      "분석": 3455,
      "##입니다": 3456,
      "에너지": 3457,
      "##되고": 3458,
      "예정이다": 3459,
      "기대": 3460,
      "##인트": 3461,
      "5월": 3462,
      "강화": 3463,
      "최고": 3464,
      "높은": 3465,
      "추진": 3466,
      "AI": 3467,
      "예상": 3468,
      "##러스": 3469,
      "##개월": 3470,
      "##19": 3471,
      "국제": 3472,
      "정책": 3473,
      "해외": 3474,
      "##기관": 3475,
      "정보": 3476,
      "관리": 3477,
      "뉴스": 3478,
      "15": 3479,
      "우려": 3480,
      "기존": 3481,
      "##사를": 3482,
      "스마트": 3483,
      "##하면서": 3484,
      "개선": 3485,
      "##해야": 3486,
      "##지는": 3487,
      "경쟁": 3488,
      "하반기": 3489,
      "##센터": 3490,
      "상반기": 3491,
      "하는": 3492,
      "##라고": 3493,
      "아이": 3494,
      "구축": 3495,
      "나타": 3496,
      "##금리": 3497,
      "##기를": 3498,
      "##였다": 3499,
      "##증권": 3500,
      "13": 3501,
      "계획이다": 3502,
      "대출": 3503,
      "연합": 3504,
      "들어": 3505,
      "코스": 3506,
      "7월": 3507,
      "100": 3508,
      "##연구": 3509,
      "##하지": 3510,
      "회사": 3511,
      "업계": 3512,
      "##시아": 3513,
      "문제": 3514,
      "##자가": 3515,
      "영향": 3516,
      "기반": 3517,
      "코로나19": 3518,
      "##플레이": 3519,
      "##지고": 3520,
      "아니": 3521,
      "##거래": 3522,
      "##그룹": 3523,
      "경영": 3524,
      "개인": 3525,
      "연합뉴스": 3526,
      "에서": 3527,
      "##경제": 3528,
      "감소": 3529,
      "브랜드": 3530,
      "결과": 3531,
      "##는데": 3532,
      "평가": 3533,
      "기간": 3534,
      "안전": 3535,
      "##정보": 3536,
      "발생": 3537,
      "##운데": 3538,
      "일본": 3539,
      "##치를": 3540,
      "하나": 3541,
      "##원은": 3542,
      "##산업": 3543,
      "가운데": 3544,
      "오는": 3545,
      "달러": 3546,
      "##투자": 3547,
      "##장이": 3548,
      "KT": 3549,
      "부담": 3550,
      "##장을": 3551,
      "확보": 3552,
      "##들을": 3553,
      "사회": 3554,
      "##상을": 3555,
      "만에": 3556,
      "##했습니다": 3557,
      "중소": 3558,
      "##텐츠": 3559,
      "협력": 3560,
      "##금융": 3561,
      "마련": 3562,
      "##로운": 3563,
      "모두": 3564,
      "##지를": 3565,
      "삼성전자": 3566,
      "이를": 3567,
      "##파트": 3568,
      "##회의": 3569,
      "적극": 3570,
      "것이다": 3571,
      "뉴시스": 3572,
      "전국": 3573,
      "등의": 3574,
      "신규": 3575,
      "실적": 3576,
      "14": 3577,
      "있어": 3578,
      "##통신": 3579,
      "롯데": 3580,
      "국가": 3581,
      "##스템": 3582,
      "50": 3583,
      "미래": 3584,
      "업무": 3585,
      "하고": 3586,
      "##세를": 3587,
      "##이고": 3588,
      "목표": 3589,
      "주택": 3590,
      "확인": 3591,
      "이라며": 3592,
      "##세대": 3593,
      "뉴스1": 3594,
      "23": 3595,
      "보고": 3596,
      "##그램": 3597,
      "있다는": 3598,
      "은행": 3599,
      "설명했다": 3600,
      "앞으로": 3601,
      "전략": 3602,
      "서비스를": 3603,
      "##이트": 3604,
      "##사는": 3605,
      "콘텐츠": 3606,
      "##화를": 3607,
      "전력": 3608,
      "해당": 3609,
      "선보": 3610,
      "##대로": 3611,
      "6일": 3612,
      "주가": 3613,
      "시스템": 3614,
      "온라인": 3615,
      "##이스": 3616,
      "##이오": 3617,
      "영업": 3618,
      "##하겠다": 3619,
      "장관": 3620,
      "40": 3621,
      "##물가": 3622,
      "##다고": 3623,
      "대응": 3624,
      "200": 3625,
      "만들": 3626,
      "이에": 3627,
      "다른": 3628,
      "포함": 3629,
      "많은": 3630,
      "주식": 3631,
      "등이": 3632,
      "따른": 3633,
      "자동": 3634,
      "22": 3635,
      "##도를": 3636,
      "공동": 3637,
      "늘어": 3638,
      "전체": 3639,
      "##부는": 3640,
      "반영": 3641,
      "부산": 3642,
      "##기에": 3643,
      "열린": 3644,
      "##에서도": 3645,
      "중심": 3646,
      "##정을": 3647,
      "유지": 3648,
      "이미": 3649,
      "어려": 3650,
      "강조": 3651,
      "25": 3652,
      "##위원회": 3653,
      "구매": 3654,
      "##루션": 3655,
      "공공": 3656,
      "오후": 3657,
      "수익": 3658,
      "새로운": 3659,
      "교수": 3660,
      "##한다고": 3661,
      "아파트": 3662,
      "2020년": 3663,
      "##환경": 3664,
      "각각": 3665,
      "도입": 3666,
      "교육": 3667,
      "##SG": 3668,
      "구성": 3669,
      "것은": 3670,
      "떨어": 3671,
      "##8년": 3672,
      "때문에": 3673,
      "##관리": 3674,
      "만큼": 3675,
      "기관": 3676,
      "24": 3677,
      "대상으로": 3678,
      "##상자": 3679,
      "##개발": 3680,
      "##서는": 3681,
      "선정": 3682,
      "전환": 3683,
      "성공": 3684,
      "신한": 3685,
      "##벤트": 3686,
      "##자를": 3687,
      "현지": 3688,
      "국민": 3689,
      "한편": 3690,
      "##일까지": 3691,
      "##이버": 3692,
      "유럽": 3693,
      "처음": 3694,
      "전년": 3695,
      "수학": 3696,
      "21": 3697,
      "스타": 3698,
      "업체": 3699,
      "그러": 3700,
      "평균": 3701,
      "이벤트": 3702,
      "혁신": 3703,
      "##플러스": 3704,
      "비중": 3705,
      "1년": 3706,
      "오전": 3707,
      "##리고": 3708,
      "있습니다": 3709,
      "##자의": 3710,
      "아니라": 3711,
      "공개": 3712,
      "##리를": 3713,
      "수입": 3714,
      "##인다": 3715,
      "안정": 3716,
      "있다고": 3717,
      "포인트": 3718,
      "발전": 3719,
      "시행": 3720,
      "##사가": 3721,
      "##기가": 3722,
      "향후": 3723,
      "##리아": 3724,
      "개최": 3725,
      "등에": 3726,
      "방식": 3727,
      "자산": 3728,
      "##금을": 3729,
      "보유": 3730,
      "##이는": 3731,
      "가입": 3732,
      "방안": 3733,
      "활동": 3734,
      "3일": 3735,
      "제조": 3736,
      "할인": 3737,
      "##일리": 3738,
      "##거나": 3739,
      "코스피": 3740,
      "여러": 3741,
      "##스크": 3742,
      "인하": 3743,
      "##났다": 3744,
      "보다": 3745,
      "##플레이션": 3746,
      "##스는": 3747,
      "참석": 3748,
      "##동산": 3749,
      "사람": 3750,
      "프로그램": 3751,
      "모델": 3752,
      "##조원": 3753,
      "##대출": 3754,
      "관심": 3755,
      "구글": 3756,
      "현장": 3757,
      "실제": 3758,
      "2분기": 3759,
      "비롯": 3760,
      "생각": 3761,
      "##도가": 3762,
      "##량을": 3763,
      "##세가": 3764,
      "시간": 3765,
      "이는": 3766,
      "##에너지": 3767,
      "##약을": 3768,
      "하지만": 3769,
      "18": 3770,
      "중요": 3771,
      "##사의": 3772,
      "지금": 3773,
      "##들과": 3774,
      "16": 3775,
      "17": 3776,
      "##9년": 3777,
      "ESG": 3778,
      "등으로": 3779,
      "##점을": 3780,
      "##업계": 3781,
      "##들에게": 3782,
      "##우드": 3783,
      "8월": 3784,
      "제작": 3785,
      "자체": 3786,
      "또한": 3787,
      "핵심": 3788,
      "이달": 3789,
      "직접": 3790,
      "1만": 3791,
      "##도로": 3792,
      "##이션": 3793,
      "크게": 3794,
      "된다": 3795,
      "##가는": 3796,
      "내용": 3797,
      "있을": 3798,
      "KB": 3799,
      "오른": 3800,
      "공정": 3801,
      "비용": 3802,
      "혜택": 3803,
      "##서비스": 3804,
      "##스타": 3805,
      "##항공": 3806,
      "기능": 3807,
      "##라우드": 3808,
      "더욱": 3809,
      "##액은": 3810,
      "앞서": 3811,
      "##원이": 3812,
      "수도": 3813,
      "대형": 3814,
      "많이": 3815,
      "효과": 3816,
      "논의": 3817,
      "신청": 3818,
      "중소기업": 3819,
      "침체": 3820,
      "메타": 3821,
      "원자": 3822,
      "모습": 3823,
      "보험": 3824,
      "회장": 3825,
      "대표는": 3826,
      "항공": 3827,
      "계속": 3828,
      "##이익": 3829,
      "여름": 3830,
      "29": 3831,
      "##1년": 3832,
      "결정": 3833,
      "##드는": 3834,
      "이런": 3835,
      "동안": 3836,
      "역시": 3837,
      "27": 3838,
      "그는": 3839,
      "다시": 3840,
      "##력이": 3841,
      "건설": 3842,
      "다만": 3843,
      "본격": 3844,
      "##회를": 3845,
      "모든": 3846,
      "##이지": 3847,
      "네이버": 3848,
      "상장": 3849,
      "28": 3850,
      "기획": 3851,
      "##했고": 3852,
      "일부": 3853,
      "##라이": 3854,
      "##가를": 3855,
      "##인을": 3856,
      "기록했다": 3857,
      "성과": 3858,
      "체결": 3859,
      "고려": 3860,
      "판단": 3861,
      "과학": 3862,
      "마이": 3863,
      "##업체": 3864,
      "기념": 3865,
      "30일": 3866,
      "건강": 3867,
      "라고": 3868,
      "과정": 3869,
      "집중": 3870,
      "##버스": 3871,
      "4월": 3872,
      "##ew": 3873,
      "가능성이": 3874,
      "조정": 3875,
      "##30": 3876,
      "최초": 3877,
      "결제": 3878,
      "##50": 3879,
      "##보험": 3880,
      "부동산": 3881,
      "##지역": 3882,
      "가치": 3883,
      "외국": 3884,
      "##제품": 3885,
      "co": 3886,
      "##학교": 3887,
      "##왔다": 3888,
      "사실": 3889,
      "높아": 3890,
      "준비": 3891,
      "##원에": 3892,
      "##위를": 3893,
      "##바일": 3894,
      "이유": 3895,
      "방문": 3896,
      "인수": 3897,
      "러시아": 3898,
      "무역": 3899,
      "경험": 3900,
      "됐다": 3901,
      "부회": 3902,
      "중이다": 3903,
      "##경영": 3904,
      "##er": 3905,
      "상태": 3906,
      "60": 3907,
      "일반": 3908,
      "전문가": 3909,
      "##는다": 3910,
      "##주택": 3911,
      "이뤄": 3912,
      "조사": 3913,
      "통신": 3914,
      "애플": 3915,
      "##원을": 3916,
      "##수가": 3917,
      "##인이": 3918,
      "올랐": 3919,
      "장기": 3920,
      "증권": 3921,
      "때문이다": 3922,
      "인터": 3923,
      "것을": 3924,
      "없는": 3925,
      "##년간": 3926,
      "##유플러스": 3927,
      "##프트": 3928,
      "##겠다는": 3929,
      "LG유플러스": 3930,
      "증시": 3931,
      "전기차": 3932,
      "유통": 3933,
      "행사": 3934,
      "원전": 3935,
      "##별로": 3936,
      "나온": 3937,
      "강조했다": 3938,
      "역할": 3939,
      "점검": 3940,
      "부문": 3941,
      "지적": 3942,
      "정부는": 3943,
      "없다": 3944,
      "알려": 3945,
      "인플레이션": 3946,
      "최저": 3947,
      "##협회": 3948,
      "대학": 3949,
      "##주는": 3950,
      "국토": 3951,
      "지급": 3952,
      "영상": 3953,
      "##하기로": 3954,
      "신용": 3955,
      "제시": 3956,
      "정부가": 3957,
      "외환": 3958,
      "##정책": 3959,
      "##처럼": 3960,
      "##000억원": 3961,
      "모바일": 3962,
      "전시": 3963,
      "##기로": 3964,
      "##한다는": 3965,
      "##계를": 3966,
      "사업을": 3967,
      "으로": 3968,
      "기술을": 3969,
      "##니스": 3970,
      "##기는": 3971,
      "가격이": 3972,
      "우주": 3973,
      "##통령": 3974,
      "연속": 3975,
      "중인": 3976,
      "직원": 3977,
      "비교": 3978,
      "##기도": 3979,
      "대통령": 3980,
      "##이드": 3981,
      "##률이": 3982,
      "필요한": 3983,
      "##is": 3984,
      "나타났다": 3985,
      "자동차": 3986,
      "##디어": 3987,
      "##데이터": 3988,
      "넘어": 3989,
      "당시": 3990,
      "생활": 3991,
      "전했다": 3992,
      "차량": 3993,
      "##제를": 3994,
      "##식품": 3995,
      "클라우드": 3996,
      "##했던": 3997,
      "인천": 3998,
      "##트업": 3999,
      "##르게": 4000,
      "보인다": 4001,
      "##과학": 4002,
      "노력": 4003,
      "선택": 4004,
      "의미": 4005,
      "26": 4006,
      "##ews": 4007,
      "이동": 4008,
      "##가능": 4009,
      "면서": 4010,
      "완화": 4011,
      "라이": 4012,
      "##포인트": 4013,
      "또는": 4014,
      "스타트업": 4015,
      "우수": 4016,
      "##율이": 4017,
      "내년": 4018,
      "2019년": 4019,
      "IT": 4020,
      "탄소": 4021,
      "##리티": 4022,
      "##젝트": 4023,
      "##리가": 4024,
      "##회사": 4025,
      "##프라": 4026,
      "2022년": 4027,
      "3월": 4028,
      "중심으로": 4029,
      "친환경": 4030,
      "특별": 4031,
      "##으나": 4032,
      "##렸다": 4033,
      "31": 4034,
      "이하": 4035,
      "요구": 4036,
      "차지": 4037,
      "있고": 4038,
      "##되면서": 4039,
      "##료를": 4040,
      "진출": 4041,
      "배터": 4042,
      "##데일리": 4043,
      "구조": 4044,
      "다음": 4045,
      "교수는": 4046,
      "##원으로": 4047,
      "프로젝트": 4048,
      "##에선": 4049,
      "DB": 4050,
      "민간": 4051,
      "##크라": 4052,
      "사이": 4053,
      "##시에": 4054,
      "이전": 4055,
      "해결": 4056,
      "##정부": 4057,
      "급등": 4058,
      "##본부": 4059,
      "없이": 4060,
      "전용": 4061,
      "우리나": 4062,
      "확산": 4063,
      "소재": 4064,
      "##이며": 4065,
      "##세계": 4066,
      "투자자": 4067,
      "확장": 4068,
      "수상": 4069,
      "##7년": 4070,
      "그래": 4071,
      "협업": 4072,
      "설립": 4073,
      "##가구": 4074,
      "우크라": 4075,
      "프리": 4076,
      "##제로": 4077,
      "방침": 4078,
      "금지": 4079,
      "계약": 4080,
      "##카드": 4081,
      "고용": 4082,
      "##5년": 4083,
      "인공": 4084,
      "현대차": 4085,
      "통합": 4086,
      "제공한다": 4087,
      "IP": 4088,
      "##율은": 4089,
      "##위기": 4090,
      "공급망": 4091,
      "그룹": 4092,
      "##on": 4093,
      "우크라이나": 4094,
      "솔루션": 4095,
      "##자인": 4096,
      "##자산": 4097,
      "분양": 4098,
      "그런": 4099,
      "가능한": 4100,
      "수요가": 4101,
      "방향": 4102,
      "##치는": 4103,
      "받을": 4104,
      "가능하다": 4105,
      "영향을": 4106,
      "##가지": 4107,
      "역대": 4108,
      "물론": 4109,
      "##화된": 4110,
      "않고": 4111,
      "com": 4112,
      "운용": 4113,
      "통한": 4114,
      "##웨어": 4115,
      "공간": 4116,
      "##지원": 4117,
      "9월": 4118,
      "##성과": 4119,
      "##분의": 4120,
      "##스를": 4121,
      "##식을": 4122,
      "##테크": 4123,
      "사전": 4124,
      "주목": 4125,
      "메타버스": 4126,
      "연결": 4127,
      "199": 4128,
      "보면": 4129,
      "##워크": 4130,
      "스마트폰": 4131,
      "의료": 4132,
      "##량이": 4133,
      "원자재": 4134,
      "않은": 4135,
      "##요금": 4136,
      "품목": 4137,
      "변동": 4138,
      "올라": 4139,
      "창업": 4140,
      "##20": 4141,
      "##원의": 4142,
      "##수를": 4143,
      "소비자물가": 4144,
      "있으며": 4145,
      "##대를": 4146,
      "가상": 4147,
      "1분기": 4148,
      "위험": 4149,
      "작년": 4150,
      "5G": 4151,
      "양자": 4152,
      "##해서": 4153,
      "여전": 4154,
      "의견": 4155,
      "##명이": 4156,
      "상품을": 4157,
      "진단": 4158,
      "있게": 4159,
      "##일부터": 4160,
      "줄어": 4161,
      "편의": 4162,
      "##건설": 4163,
      "이용자": 4164,
      "전자": 4165,
      "사례": 4166,
      "##체인": 4167,
      "우리나라": 4168,
      "##억원으로": 4169,
      "##시스템": 4170,
      "수행": 4171,
      "2021년": 4172,
      "실시": 4173,
      "검토": 4174,
      "오르": 4175,
      "##리에": 4176,
      "나온다": 4177,
      "##으면": 4178,
      "##명을": 4179,
      "##사와": 4180,
      "##in": 4181,
      "##뱅크": 4182,
      "제공하는": 4183,
      "물류": 4184,
      "연구원은": 4185,
      "##스코": 4186,
      "오늘": 4187,
      "영업이익": 4188,
      "##지능": 4189,
      "##선을": 4190,
      "##원에서": 4191,
      "참가": 4192,
      "서울대": 4193,
      "제한": 4194,
      "피해": 4195,
      "오픈": 4196,
      "위치": 4197,
      "조성": 4198,
      "##하여": 4199,
      "##담회": 4200,
      "만들어": 4201,
      "정도": 4202,
      "큐브": 4203,
      "바이오": 4204,
      "반면": 4205,
      "영국": 4206,
      "##시설": 4207,
      "3년": 4208,
      "임직": 4209,
      "##고를": 4210,
      "news": 4211,
      "##판매": 4212,
      "통계": 4213,
      "##바이오": 4214,
      "11월": 4215,
      "##이라고": 4216,
      "기업의": 4217,
      "70": 4218,
      "배터리": 4219,
      "조치": 4220,
      "공식": 4221,
      "##IS": 4222,
      "않는": 4223,
      "여행": 4224,
      "##되지": 4225,
      "대전": 4226,
      "소개": 4227,
      "인정": 4228,
      "회의": 4229,
      "앞으로도": 4230,
      "newsis": 4231,
      "한화": 4232,
      "내부": 4233,
      "공유": 4234,
      "설계": 4235,
      "회복": 4236,
      "나오": 4237,
      "라며": 4238,
      "마감": 4239,
      "##쳤다": 4240,
      "정부의": 4241,
      "활성": 4242,
      "##운용": 4243,
      "CE": 4244,
      "받아": 4245,
      "##FT": 4246,
      "##en": 4247,
      "보호": 4248,
      "바탕": 4249,
      "수주": 4250,
      "종목": 4251,
      "##지가": 4252,
      "매수": 4253,
      "상당": 4254,
      "설치": 4255,
      "전달": 4256,
      "집계": 4257,
      "CJ": 4258,
      "대부": 4259,
      "아직": 4260,
      "##스토": 4261,
      "##동안": 4262,
      "##3년": 4263,
      "##위성": 4264,
      "블록": 4265,
      "제도": 4266,
      "##되며": 4267,
      "##500": 4268,
      "##상품": 4269,
      "##가격": 4270,
      "2년": 4271,
      "##자로": 4272,
      "변화": 4273,
      "1월": 4274,
      "37": 4275,
      "보안": 4276,
      "자율": 4277,
      "제보": 4278,
      "##트너": 4279,
      "##합니다": 4280,
      "공모": 4281,
      "##화폐": 4282,
      "인공지능": 4283,
      "##지수": 4284,
      "유치": 4285,
      "##규모": 4286,
      "우려가": 4287,
      "##진다": 4288,
      "##라도": 4289,
      "자금": 4290,
      "카드": 4291,
      "##률을": 4292,
      "활용해": 4293,
      "정상": 4294,
      "조직": 4295,
      "##연구원": 4296,
      "80": 4297,
      "번째": 4298,
      "##이노": 4299,
      "NFT": 4300,
      "기여": 4301,
      "##공사": 4302,
      "외국인": 4303,
      "대구": 4304,
      "##움을": 4305,
      "2만": 4306,
      "##케어": 4307,
      "과학기술": 4308,
      "근로": 4309,
      "종합": 4310,
      "치료": 4311,
      "발사": 4312,
      "우선": 4313,
      "인재": 4314,
      "##지수는": 4315,
      "##디오": 4316,
      "##트워크": 4317,
      "바탕으로": 4318,
      "ET": 4319,
      "##가가": 4320,
      "##케팅": 4321,
      "기준으로": 4322,
      "품질": 4323,
      "매각": 4324,
      "부분": 4325,
      "비즈": 4326,
      "파트너": 4327,
      "효율": 4328,
      "규모의": 4329,
      "가계": 4330,
      "중구": 4331,
      "##기간": 4332,
      "가능성": 4333,
      "자리": 4334,
      "취약": 4335,
      "변경": 4336,
      "생태": 4337,
      "기본": 4338,
      "##성장": 4339,
      "혜택을": 4340,
      "달성": 4341,
      "공공기관": 4342,
      "만나": 4343,
      "빠르게": 4344,
      "주파": 4345,
      "채널": 4346,
      "##억달러": 4347,
      "전망이다": 4348,
      "##들도": 4349,
      "##안전": 4350,
      "1조": 4351,
      "작품": 4352,
      "##률은": 4353,
      "방법": 4354,
      "유류": 4355,
      "##억원을": 4356,
      "지정": 4357,
      "300": 4358,
      "방송": 4359,
      "있지만": 4360,
      "##al": 4361,
      "하이": 4362,
      "##결제": 4363,
      "##했지만": 4364,
      "##10": 4365,
      "데이터를": 4366,
      "##시키": 4367,
      "가까": 4368,
      "성능": 4369,
      "##an": 4370,
      "재무": 4371,
      "##지면서": 4372,
      "##사에서": 4373,
      "중단": 4374,
      "##게임": 4375,
      "왼쪽": 4376,
      "##빌리티": 4377,
      "##000만": 4378,
      "단계": 4379,
      "제외": 4380,
      "##이어": 4381,
      "역할을": 4382,
      "##평가": 4383,
      "이데일리": 4384,
      "지분": 4385,
      "도시": 4386,
      "이해": 4387,
      "##이었다": 4388,
      "##서를": 4389,
      "공장": 4390,
      "덧붙": 4391,
      "동기": 4392,
      "소통": 4393,
      "##발전": 4394,
      "##연금": 4395,
      "기반으로": 4396,
      "단지": 4397,
      "##보고": 4398,
      "##4년": 4399,
      "제품을": 4400,
      "찾아": 4401,
      "##었던": 4402,
      "가격은": 4403,
      "입장": 4404,
      "자료": 4405,
      "##자들이": 4406,
      "##6년": 4407,
      "##전자는": 4408,
      "##상공": 4409,
      "사회적": 4410,
      "방안을": 4411,
      "500": 4412,
      "투자를": 4413,
      "7일": 4414,
      "윤석": 4415,
      "후보": 4416,
      "##이라는": 4417,
      "##to": 4418,
      "재정": 4419,
      "GS": 4420,
      "책임": 4421,
      "##유소": 4422,
      "좋은": 4423,
      "전반": 4424,
      "현지시간": 4425,
      "먼저": 4426,
      "식품": 4427,
      "인증": 4428,
      "##하이": 4429,
      "##교통": 4430,
      "시장에": 4431,
      "시장에서": 4432,
      "비롯해": 4433,
      "홈페": 4434,
      "##위는": 4435,
      "TV": 4436,
      "##텔레": 4437,
      "사고": 4438,
      "전쟁": 4439,
      "##먼트": 4440,
      "그러나": 4441,
      "강남": 4442,
      "앵커": 4443,
      "비상": 4444,
      "인도": 4445,
      "방침이다": 4446,
      "35": 4447,
      "전날": 4448,
      "##솔루션": 4449,
      "2018년": 4450,
      "##은행은": 4451,
      "정보를": 4452,
      "##60": 4453,
      "##권을": 4454,
      "CEO": 4455,
      "##마켓": 4456,
      "장비": 4457,
      "##했으며": 4458,
      "##액이": 4459,
      "##텔레콤": 4460,
      "가상자": 4461,
      "##감을": 4462,
      "진행한다": 4463,
      "윤석열": 4464,
      "최소": 4465,
      "조합": 4466,
      "##차를": 4467,
      "마케팅": 4468,
      "둔화": 4469,
      "인력": 4470,
      "인사": 4471,
      "##주년": 4472,
      "어렵": 4473,
      "인프라": 4474,
      "필즈": 4475,
      "매장": 4476,
      "##가스": 4477,
      "거쳐": 4478,
      "자신": 4479,
      "프리미": 4480,
      "가상자산": 4481,
      "가스": 4482,
      "리스크": 4483,
      "##프라인": 4484,
      "까지": 4485,
      "암호": 4486,
      "인한": 4487,
      "하루": 4488,
      "##ar": 4489,
      "올랐다": 4490,
      "제주": 4491,
      "코스닥": 4492,
      "상황이": 4493,
      "##니까": 4494,
      "동시에": 4495,
      "에어": 4496,
      "금리를": 4497,
      "##전을": 4498,
      "실시간": 4499,
      "어떤": 4500,
      "형태": 4501,
      "##롭게": 4502,
      "산업통": 4503,
      "##ho": 4504,
      "업무협": 4505,
      "덧붙였다": 4506,
      "주거": 4507,
      "캠페": 4508,
      "##80": 4509,
      "##투자증권": 4510,
      "내려": 4511,
      "세종": 4512,
      "최초로": 4513,
      "비즈니스": 4514,
      "나선": 4515,
      "노동": 4516,
      "사태": 4517,
      "전경": 4518,
      "증가했다": 4519,
      "있었다": 4520,
      "상담": 4521,
      "업종": 4522,
      "작업": 4523,
      "##리지": 4524,
      "여성": 4525,
      "문화": 4526,
      "나서": 4527,
      "아닌": 4528,
      "쌍용": 4529,
      "##주의": 4530,
      "##연합": 4531,
      "각종": 4532,
      "중앙": 4533,
      "33": 4534,
      "발행": 4535,
      "##안을": 4536,
      "기업이": 4537,
      "맞춤": 4538,
      "수급": 4539,
      "차별": 4540,
      "##상승": 4541,
      "대부분": 4542,
      "재생": 4543,
      "##TV": 4544,
      "산업통상자": 4545,
      "석유": 4546,
      "여부": 4547,
      "##마다": 4548,
      "산업통상자원": 4549,
      "1위": 4550,
      "이와": 4551,
      "이사": 4552,
      "##인은": 4553,
      "##트코": 4554,
      "비해": 4555,
      "인해": 4556,
      "수도권": 4557,
      "2차": 4558,
      "##과의": 4559,
      "되는": 4560,
      "포스코": 4561,
      "담당": 4562,
      "운송": 4563,
      "한일": 4564,
      "##펀드": 4565,
      "10월": 4566,
      "필요하다": 4567,
      "뛰어": 4568,
      "바이": 4569,
      "받은": 4570,
      "악화": 4571,
      "증가한": 4572,
      "##운드": 4573,
      "공시": 4574,
      "보내": 4575,
      "않을": 4576,
      "##주가": 4577,
      "개정": 4578,
      "SK텔레콤": 4579,
      "프리미엄": 4580,
      "임직원": 4581,
      "42": 4582,
      "부족": 4583,
      "##하도록": 4584,
      "##코리아": 4585,
      "이마트": 4586,
      "##로부터": 4587,
      "##자동": 4588,
      "##섰다": 4589,
      "##렇게": 4590,
      "제출": 4591,
      "할당": 4592,
      "과정에서": 4593,
      "아울": 4594,
      "##인데": 4595,
      "이상의": 4596,
      "대체": 4597,
      "출범": 4598,
      "##영상": 4599,
      "매매": 4600,
      "인기": 4601,
      "측은": 4602,
      "과기": 4603,
      "자유": 4604,
      "특징": 4605,
      "##약품": 4606,
      "것도": 4607,
      "부품": 4608,
      "##감독": 4609,
      "비롯한": 4610,
      "PC": 4611,
      "광고": 4612,
      "꾸준": 4613,
      "##제도": 4614,
      "##at": 4615,
      "주파수": 4616,
      "네트워크": 4617,
      "지방": 4618,
      "##하거나": 4619,
      "##혁신": 4620,
      "##정보통신": 4621,
      "자본": 4622,
      "기준금리": 4623,
      "상황에서": 4624,
      "아울러": 4625,
      "구체": 4626,
      "34": 4627,
      "##레스": 4628,
      "대표이": 4629,
      "최종": 4630,
      "케이": 4631,
      "##침체": 4632,
      "것이라는": 4633,
      "배출": 4634,
      "##자에게": 4635,
      "##산물": 4636,
      "52": 4637,
      "##점에서": 4638,
      "##보호": 4639,
      "표준": 4640,
      "##구조": 4641,
      "##율을": 4642,
      "시장이": 4643,
      "##상이": 4644,
      "보여": 4645,
      "추정": 4646,
      "유류세": 4647,
      "##전략": 4648,
      "기다": 4649,
      "누리": 4650,
      "활용한": 4651,
      "##주시": 4652,
      "경기침체": 4653,
      "예상된다": 4654,
      "보유한": 4655,
      "발굴": 4656,
      "비트코": 4657,
      "완료": 4658,
      "##하려": 4659,
      "##인의": 4660,
      "12월": 4661,
      "ETF": 4662,
      "두고": 4663,
      "회장은": 4664,
      "##장의": 4665,
      "##동을": 4666,
      "75": 4667,
      "내린": 4668,
      "누적": 4669,
      "청년": 4670,
      "##하다는": 4671,
      "그동안": 4672,
      "주유소": 4673,
      "##계획": 4674,
      "3분기": 4675,
      "대신": 4676,
      "쇼핑": 4677,
      "##소를": 4678,
      "##000만원": 4679,
      "주문": 4680,
      "지상": 4681,
      "##량은": 4682,
      "요청": 4683,
      "##미콘": 4684,
      "39": 4685,
      "##부가": 4686,
      "거래일": 4687,
      "독일": 4688,
      "##되면": 4689,
      "##스포": 4690,
      "노조": 4691,
      "32": 4692,
      "구현": 4693,
      "급증": 4694,
      "받았다": 4695,
      "어려운": 4696,
      "낮은": 4697,
      "##전지": 4698,
      "##lo": 4699,
      "홍보": 4700,
      "있는데": 4701,
      "급락": 4702,
      "현실": 4703,
      "##자와": 4704,
      "##건을": 4705,
      "##명의": 4706,
      "##움이": 4707,
      "##니터": 4708,
      "##자동차": 4709,
      "이익": 4710,
      "플레이": 4711,
      "오프라인": 4712,
      "국내외": 4713,
      "여전히": 4714,
      "한다는": 4715,
      "##진흥": 4716,
      "##하기도": 4717,
      "장관은": 4718,
      "대기업": 4719,
      "임상": 4720,
      "##부문": 4721,
      "유가": 4722,
      "유튜": 4723,
      "재판매": 4724,
      "##스가": 4725,
      "38": 4726,
      "##하겠다는": 4727,
      "처음으로": 4728,
      "간담회": 4729,
      "예측": 4730,
      "협의": 4731,
      "내놓": 4732,
      "##지에": 4733,
      "지속적으로": 4734,
      "주가가": 4735,
      "늘어난": 4736,
      "홈페이지": 4737,
      "디자인": 4738,
      "고객에게": 4739,
      "LG전자": 4740,
      "관측": 4741,
      "임대": 4742,
      "활성화": 4743,
      "2일": 4744,
      "기회": 4745,
      "대책": 4746,
      "영역": 4747,
      "##당국": 4748,
      "기사": 4749,
      "독자": 4750,
      "미만": 4751,
      "경유": 4752,
      "바로": 4753,
      "##나는": 4754,
      "연간": 4755,
      "감염": 4756,
      "공연": 4757,
      "복합": 4758,
      "금융감독": 4759,
      "발표한": 4760,
      "2월": 4761,
      "연계": 4762,
      "파악": 4763,
      "##준이": 4764,
      "모집": 4765,
      "##겠습니다": 4766,
      "##밖에": 4767,
      "생태계": 4768,
      "##물을": 4769,
      "##ED": 4770,
      "교통": 4771,
      "요금": 4772,
      "통화": 4773,
      "##리즈": 4774,
      "개발한": 4775,
      "어떻": 4776,
      "전월": 4777,
      "발표했다": 4778,
      "신설": 4779,
      "트렌": 4780,
      "모니터": 4781,
      "퇴직": 4782,
      "##이기": 4783,
      "인터넷": 4784,
      "로봇": 4785,
      "사장": 4786,
      "##없이": 4787,
      "##IST": 4788,
      "공감": 4789,
      "상위": 4790,
      "##란드": 4791,
      "하락했다": 4792,
      "##스의": 4793,
      "소득": 4794,
      "##쇼핑": 4795,
      "##벤처": 4796,
      "부진": 4797,
      "주도": 4798,
      "휘발": 4799,
      "기획재": 4800,
      "지속가능": 4801,
      "가구": 4802,
      "해제": 4803,
      "##점이": 4804,
      "##메라": 4805,
      "블록체인": 4806,
      "나갈": 4807,
      "시대": 4808,
      "울산": 4809,
      "##데믹": 4810,
      "203": 4811,
      "나가": 4812,
      "##인으로": 4813,
      "선도": 4814,
      "충전": 4815,
      "학생": 4816,
      "##하우": 4817,
      "##트리": 4818,
      "반대": 4819,
      "하락한": 4820,
      "적극적으로": 4821,
      "##성에": 4822,
      "시장의": 4823,
      "것이라고": 4824,
      "경쟁력": 4825,
      "07": 4826,
      "채권": 4827,
      "##부에": 4828,
      "##DI": 4829,
      "시장을": 4830,
      "결국": 4831,
      "근무": 4832,
      "소프트": 4833,
      "인식": 4834,
      "유튜브": 4835,
      "대규모": 4836,
      "탑재": 4837,
      "살펴": 4838,
      "위원": 4839,
      "이제": 4840,
      "차세대": 4841,
      "##사로": 4842,
      "수소": 4843,
      "##데이트": 4844,
      "##름을": 4845,
      "라는": 4846,
      "만든": 4847,
      "##전문": 4848,
      "테슬": 4849,
      "##개의": 4850,
      "카카오톡": 4851,
      "수준으로": 4852,
      "경쟁력을": 4853,
      "6개월": 4854,
      "유니": 4855,
      "가격을": 4856,
      "과학기술정보통신": 4857,
      "받고": 4858,
      "위기": 4859,
      "지수": 4860,
      "패키": 4861,
      "##2년": 4862,
      "알려졌다": 4863,
      "90": 4864,
      "손실": 4865,
      "##40": 4866,
      "##총리": 4867,
      "2017년": 4868,
      "안내": 4869,
      "##르는": 4870,
      "부담을": 4871,
      "비중이": 4872,
      "휘발유": 4873,
      "##정통": 4874,
      "서울시": 4875,
      "어떻게": 4876,
      "이러": 4877,
      "##단계": 4878,
      "불안": 4879,
      "의무": 4880,
      "활동을": 4881,
      "자사": 4882,
      "제2": 4883,
      "고객의": 4884,
      "과기정통": 4885,
      "레미콘": 4886,
      "시민": 4887,
      "진입": 4888,
      "완성": 4889,
      "카메라": 4890,
      "##와의": 4891,
      "##협력": 4892,
      "상황을": 4893,
      "##스토어": 4894,
      "검증": 4895,
      "그리고": 4896,
      "아시아": 4897,
      "제약": 4898,
      "##공항": 4899,
      "미디어": 4900,
      "비대": 4901,
      "수수": 4902,
      "일정": 4903,
      "##방향": 4904,
      "##튜디오": 4905,
      "관련해": 4906,
      "정기": 4907,
      "##로드": 4908,
      "##사에": 4909,
      "기능을": 4910,
      "순매": 4911,
      "##이가": 4912,
      "##냈다": 4913,
      "이미지": 4914,
      "과거": 4915,
      "##페이스": 4916,
      "##뮤니": 4917,
      "삼성전자는": 4918,
      "그린": 4919,
      "움직": 4920,
      "있기": 4921,
      "늘었다": 4922,
      "돌파": 4923,
      "열고": 4924,
      "펀드": 4925,
      "##암호": 4926,
      "기획재정부": 4927,
      "결합": 4928,
      "##대상": 4929,
      "해소": 4930,
      "채용": 4931,
      "청약": 4932,
      "있었": 4933,
      "않았다": 4934,
      "이끌": 4935,
      "점유": 4936,
      "맞춤형": 4937,
      "예방": 4938,
      "원유": 4939,
      "돌아": 4940,
      "맞춰": 4941,
      "업데이트": 4942,
      "위성": 4943,
      "한국의": 4944,
      "이번에": 4945,
      "금감": 4946,
      "이같": 4947,
      "점을": 4948,
      "##리오": 4949,
      "##티브": 4950,
      "재생에너지": 4951,
      "##수록": 4952,
      "고객이": 4953,
      "외부": 4954,
      "##ic": 4955,
      "중요한": 4956,
      "성과를": 4957,
      "미국의": 4958,
      "낮아": 4959,
      "않아": 4960,
      "정확": 4961,
      "촬영": 4962,
      "##바이": 4963,
      "8일": 4964,
      "뉴욕": 4965,
      "##우주": 4966,
      "##립니다": 4967,
      "지원을": 4968,
      "##재단": 4969,
      "##관은": 4970,
      "##주를": 4971,
      "여러분의": 4972,
      "암호화폐": 4973,
      "쉽게": 4974,
      "##거래소": 4975,
      "가동": 4976,
      "상용": 4977,
      "고민": 4978,
      "주관": 4979,
      "##학과": 4980,
      "확인할": 4981,
      "별도": 4982,
      "임금": 4983,
      "##000원": 4984,
      "고도": 4985,
      "##00원": 4986,
      "분야에서": 4987,
      "##화점": 4988,
      "##상의": 4989,
      "필수": 4990,
      "##국제": 4991,
      "##리스": 4992,
      "##스케어": 4993,
      "마이크": 4994,
      "큐브위성": 4995,
      "가지": 4996,
      "스토": 4997,
      "않았": 4998,
      "제휴": 4999,
      "치솟": 5000,
      "파이": 5001,
      "##피스": 5002,
      "트렌드": 5003,
      "비대면": 5004,
      "영상을": 5005,
      "전세": 5006,
      "제기": 5007,
      "##스터": 5008,
      "2030년": 5009,
      "##민국": 5010,
      "설명이다": 5011,
      "상생": 5012,
      "신뢰": 5013,
      "이자": 5014,
      "접근": 5015,
      "10년": 5016,
      "부담이": 5017,
      "36": 5018,
      "시설": 5019,
      "위축": 5020,
      "##00만": 5021,
      "##서울": 5022,
      "##했다는": 5023,
      "전력수": 5024,
      "45": 5025,
      "매년": 5026,
      "육성": 5027,
      "적립": 5028,
      "조선": 5029,
      "차질": 5030,
      "하향": 5031,
      "##이자": 5032,
      "##보건": 5033,
      "##장과": 5034,
      "##소득": 5035,
      "NH": 5036,
      "체험": 5037,
      "##중립": 5038,
      "##더라도": 5039,
      "대한민국": 5040,
      "소프트웨어": 5041,
      "과제": 5042,
      "넘게": 5043,
      "##문화": 5044,
      "이러한": 5045,
      "맞아": 5046,
      "재개": 5047,
      "지하": 5048,
      "커뮤니": 5049,
      "##단체": 5050,
      "##중앙": 5051,
      "##스와": 5052,
      "제공하고": 5053,
      "KA": 5054,
      "소상공": 5055,
      "##대학교": 5056,
      "##위가": 5057,
      "금리가": 5058,
      "등록": 5059,
      "희망": 5060,
      "것이란": 5061,
      "KT는": 5062,
      "국토교통": 5063,
      "게이": 5064,
      "상대": 5065,
      "장중": 5066,
      "이벤트를": 5067,
      "탄소중립": 5068,
      "3만": 5069,
      "보도": 5070,
      "언급": 5071,
      "창출": 5072,
      "최적": 5073,
      "##25": 5074,
      "관심이": 5075,
      "##hoto": 5076,
      "57": 5077,
      "매우": 5078,
      "제공할": 5079,
      "경기도": 5080,
      "사무": 5081,
      "작용": 5082,
      "거래를": 5083,
      "입주": 5084,
      "##리어": 5085,
      "##법인": 5086,
      "전망했다": 5087,
      "수준이다": 5088,
      "48": 5089,
      "목표로": 5090,
      "##24": 5091,
      "##설팅": 5092,
      "운영하는": 5093,
      "달리": 5094,
      "분기": 5095,
      "불확": 5096,
      "인근": 5097,
      "##만큼": 5098,
      "##두고": 5099,
      "시작으로": 5100,
      "정책을": 5101,
      "감사": 5102,
      "##re": 5103,
      "경험을": 5104,
      "꾸준히": 5105,
      "보였다": 5106,
      "시리즈": 5107,
      "커지고": 5108,
      "##금은": 5109,
      "##조합": 5110,
      "역량을": 5111,
      "최신": 5112,
      "방식으로": 5113,
      "OT": 5114,
      "수립": 5115,
      "아래": 5116,
      "##14": 5117,
      "##노동": 5118,
      "신속": 5119,
      "주장": 5120,
      "##가고": 5121,
      "##파이": 5122,
      "누리호": 5123,
      "##의를": 5124,
      "##비를": 5125,
      "불확실": 5126,
      "필요가": 5127,
      "##했는데": 5128,
      "영향으로": 5129,
      "수신": 5130,
      "여기에": 5131,
      "이야": 5132,
      "상승했다": 5133,
      "끌어": 5134,
      "##회는": 5135,
      "상호": 5136,
      "해양": 5137,
      "##수의": 5138,
      "##평균": 5139,
      "성장을": 5140,
      "확정": 5141,
      "##스로": 5142,
      "목소": 5143,
      "비슷": 5144,
      "원하는": 5145,
      "특정": 5146,
      "협력을": 5147,
      "##테이": 5148,
      "배송": 5149,
      "##DC": 5150,
      "이슈": 5151,
      "##만에": 5152,
      "##소비": 5153,
      "시장은": 5154,
      "##시장에서": 5155,
      "포함한": 5156,
      "모니터링": 5157,
      "금액": 5158,
      "내다": 5159,
      "반등": 5160,
      "##서치": 5161,
      "##라스": 5162,
      "##교육": 5163,
      "##불어": 5164,
      "##거리": 5165,
      "이용할": 5166,
      "콘텐츠를": 5167,
      "더불어": 5168,
      "코인": 5169,
      "패션": 5170,
      "##비율": 5171,
      "문제가": 5172,
      "기후": 5173,
      "보이고": 5174,
      "인앱": 5175,
      "##머스": 5176,
      "기업들이": 5177,
      "연구개발": 5178,
      "한다고": 5179,
      "photo": 5180,
      "단순": 5181,
      "세대": 5182,
      "##개국": 5183,
      "##ent": 5184,
      "위반": 5185,
      "자연": 5186,
      "부회장은": 5187,
      "그런데": 5188,
      "전경련": 5189,
      "골프": 5190,
      "보장": 5191,
      "현황": 5192,
      "##생활": 5193,
      "##대비": 5194,
      "##le": 5195,
      "지적했다": 5196,
      "테슬라": 5197,
      "MZ": 5198,
      "없어": 5199,
      "5년": 5200,
      "유명": 5201,
      "조달": 5202,
      "한은": 5203,
      "제안": 5204,
      "##도는": 5205,
      "분석했다": 5206,
      "##연구소": 5207,
      "실적을": 5208,
      "인정받": 5209,
      "정비": 5210,
      "##지로": 5211,
      "##주로": 5212,
      "백신": 5213,
      "센터": 5214,
      "이렇게": 5215,
      "즐길": 5216,
      "##화학": 5217,
      "##90": 5218,
      "##사이": 5219,
      "##번째": 5220,
      "집계됐다": 5221,
      "77": 5222,
      "계열": 5223,
      "마음": 5224,
      "발언": 5225,
      "이들": 5226,
      "주력": 5227,
      "##라면": 5228,
      "##테인": 5229,
      "법인": 5230,
      "증정": 5231,
      "측면": 5232,
      "##중한": 5233,
      "상황이다": 5234,
      "태양": 5235,
      "44": 5236,
      "면제": 5237,
      "신제품": 5238,
      "허준이": 5239,
      "##금이": 5240,
      "##항을": 5241,
      "##린다": 5242,
      "관심을": 5243,
      "무역수": 5244,
      "필즈상": 5245,
      "등에서": 5246,
      "원장은": 5247,
      "시스템을": 5248,
      "고물가": 5249,
      "화물": 5250,
      "##케이션": 5251,
      "##그룹은": 5252,
      "처리": 5253,
      "파업": 5254,
      "환율": 5255,
      "##부와": 5256,
      "##프로": 5257,
      "기록한": 5258,
      "가전": 5259,
      "높다": 5260,
      "##도시": 5261,
      "##릭터": 5262,
      "수치": 5263,
      "획득": 5264,
      "국민의": 5265,
      "지배": 5266,
      "##제약": 5267,
      "##장에서": 5268,
      "##되어": 5269,
      "담보": 5270,
      "절반": 5271,
      "체계": 5272,
      "##데이": 5273,
      "전망이": 5274,
      "금리인": 5275,
      "추가로": 5276,
      "그러면서": 5277,
      "불가": 5278,
      "빠른": 5279,
      "이른": 5280,
      "##활동": 5281,
      "##관계": 5282,
      "##내용": 5283,
      "장관이": 5284,
      "비중은": 5285,
      "실제로": 5286,
      "등급": 5287,
      "지표": 5288,
      "##무리": 5289,
      "##하는데": 5290,
      "금융당국": 5291,
      "##70": 5292,
      "시작했다": 5293,
      "초기": 5294,
      "##지구": 5295,
      "2008년": 5296,
      "대형마트": 5297,
      "제보를": 5298,
      "가까이": 5299,
      "기다립니다": 5300,
      "갖고": 5301,
      "긍정": 5302,
      "기조": 5303,
      "매입": 5304,
      "예비": 5305,
      "##고리": 5306,
      "##에만": 5307,
      "##하던": 5308,
      "##었습니다": 5309,
      "##병원": 5310,
      "가량": 5311,
      "심사": 5312,
      "##테인먼트": 5313,
      "##공급": 5314,
      "##ed": 5315,
      "##트를": 5316,
      "##테일": 5317,
      "상승률이": 5318,
      "고객을": 5319,
      "수준을": 5320,
      "문제를": 5321,
      "3개월": 5322,
      "유동": 5323,
      "##소프트": 5324,
      "한국은행": 5325,
      "사업에": 5326,
      "검색": 5327,
      "절감": 5328,
      "##장에": 5329,
      "##명으로": 5330,
      "##회에서": 5331,
      "결과를": 5332,
      "##에너지솔루션": 5333,
      "그렇": 5334,
      "지수는": 5335,
      "취득": 5336,
      "물가상승": 5337,
      "계약을": 5338,
      "규정": 5339,
      "지원하는": 5340,
      "아이폰": 5341,
      "5만": 5342,
      "긴축": 5343,
      "양성": 5344,
      "전해": 5345,
      "##대금리": 5346,
      "의견을": 5347,
      "줄어들": 5348,
      "IC": 5349,
      "가진": 5350,
      "재고": 5351,
      "신한은행": 5352,
      "49": 5353,
      "투입": 5354,
      "##니아": 5355,
      "LG에너지솔루션": 5356,
      "프로그램을": 5357,
      "퇴직연금": 5358,
      "반응": 5359,
      "여파": 5360,
      "외식": 5361,
      "29일": 5362,
      "OTT": 5363,
      "상환": 5364,
      "캐릭터": 5365,
      "합리": 5366,
      "##관에서": 5367,
      "##조정": 5368,
      "##it": 5369,
      "##트남": 5370,
      "##유가": 5371,
      "마쳤다": 5372,
      "않다": 5373,
      "##리츠": 5374,
      "72": 5375,
      "감축": 5376,
      "베트남": 5377,
      "충분": 5378,
      "##기의": 5379,
      "수는": 5380,
      "요약": 5381,
      "출발": 5382,
      "##자리": 5383,
      "##사진": 5384,
      "2023년": 5385,
      "수준의": 5386,
      "이내": 5387,
      "총괄": 5388,
      "호텔": 5389,
      "##자에": 5390,
      "##위로": 5391,
      "##사인": 5392,
      "보고서": 5393,
      "1억": 5394,
      "DS": 5395,
      "같이": 5396,
      "비판": 5397,
      "실천": 5398,
      "회원": 5399,
      "##자금": 5400,
      "##됩니다": 5401,
      "수수료": 5402,
      "개편": 5403,
      "주행": 5404,
      "편리": 5405,
      "##치고": 5406,
      "##점에": 5407,
      "마켓": 5408,
      "빅데이터": 5409,
      "연준": 5410,
      "예금": 5411,
      "코리아": 5412,
      "합의": 5413,
      "##비용": 5414,
      "84": 5415,
      "동일": 5416,
      "라인": 5417,
      "실질": 5418,
      "추경": 5419,
      "##해왔다": 5420,
      "##00만원": 5421,
      "저렴": 5422,
      "협약": 5423,
      "##위에": 5424,
      "관광": 5425,
      "광주": 5426,
      "등은": 5427,
      "배경": 5428,
      "새롭게": 5429,
      "소유": 5430,
      "앞두고": 5431,
      "##점검": 5432,
      "##단지": 5433,
      "밝혔습니다": 5434,
      "늘어나": 5435,
      "쌍용차": 5436,
      "공략": 5437,
      "양국": 5438,
      "장을": 5439,
      "취임": 5440,
      "화제": 5441,
      "##자들의": 5442,
      "##기구": 5443,
      "##되기": 5444,
      "##스플레이": 5445,
      "내용을": 5446,
      "급격": 5447,
      "매도": 5448,
      "방역": 5449,
      "크다": 5450,
      "관한": 5451,
      "기초": 5452,
      "도움이": 5453,
      "오름": 5454,
      "중고": 5455,
      "추천": 5456,
      "##란다": 5457,
      "##낸셜": 5458,
      "2025년": 5459,
      "LG이노": 5460,
      "금융감독원": 5461,
      "LG이노텍": 5462,
      "가치를": 5463,
      "갖춘": 5464,
      "##화할": 5465,
      "##장으로": 5466,
      "서울경제": 5467,
      "농협": 5468,
      "등도": 5469,
      "컨설팅": 5470,
      "##주식": 5471,
      "넘는": 5472,
      "01": 5473,
      "감안": 5474,
      "무료": 5475,
      "프랑": 5476,
      "##대학": 5477,
      "1일부터": 5478,
      "..": 5479,
      "1천": 5480,
      "조금": 5481,
      "지나": 5482,
      "마감했다": 5483,
      "신세계": 5484,
      "##서도": 5485,
      "##시는": 5486,
      "##봤다": 5487,
      "대해서는": 5488,
      "바란다": 5489,
      "중견": 5490,
      "##으로써": 5491,
      "##하겠다고": 5492,
      "기아": 5493,
      "스포": 5494,
      "작가": 5495,
      "지니": 5496,
      "힘을": 5497,
      "##보다는": 5498,
      "##모델": 5499,
      "##모빌리티": 5500,
      "##상황": 5501,
      "이어질": 5502,
      "떨어졌다": 5503,
      "커뮤니티": 5504,
      "41": 5505,
      "설정": 5506,
      "제고": 5507,
      "##수학": 5508,
      "##호텔": 5509,
      "##센서": 5510,
      "##뿐만": 5511,
      "통계청": 5512,
      "부채": 5513,
      "##션을": 5514,
      "이라는": 5515,
      "웹툰": 5516,
      "##세로": 5517,
      "##MC": 5518,
      "추경호": 5519,
      "신고": 5520,
      "자회사": 5521,
      "장애": 5522,
      "지구": 5523,
      "폭염": 5524,
      "##자들은": 5525,
      "##조사": 5526,
      "##소재": 5527,
      "기업은": 5528,
      "산업통상자원부": 5529,
      "불과": 5530,
      "수밖에": 5531,
      "##에셋": 5532,
      "시작한": 5533,
      "감소했다": 5534,
      "나섰다": 5535,
      "비전": 5536,
      "중장": 5537,
      "##문을": 5538,
      "##업을": 5539,
      "##었고": 5540,
      "2016년": 5541,
      "##게임즈": 5542,
      "기사내용": 5543,
      "단체": 5544,
      "대외": 5545,
      "동반": 5546,
      "특허": 5547,
      "##재산": 5548,
      "##로를": 5549,
      "##사회": 5550,
      "위치한": 5551,
      "전보다": 5552,
      "커피": 5553,
      "현금": 5554,
      "##스턴": 5555,
      "##글로벌": 5556,
      "효과를": 5557,
      "누구": 5558,
      "시범": 5559,
      "정치": 5560,
      "##들에": 5561,
      "기업으로": 5562,
      "업계에": 5563,
      "이행": 5564,
      "행복": 5565,
      "##감이": 5566,
      "##기자": 5567,
      "##NS": 5568,
      "##하고자": 5569,
      "2030": 5570,
      "고려해": 5571,
      "증권사": 5572,
      "대중": 5573,
      "어느": 5574,
      "연방": 5575,
      "이다": 5576,
      "##치료": 5577,
      "##ion": 5578,
      "소상공인": 5579,
      "선언": 5580,
      "시각": 5581,
      "접수": 5582,
      "##만의": 5583,
      "58": 5584,
      "MO": 5585,
      "더해": 5586,
      "아마": 5587,
      "완전": 5588,
      "향상": 5589,
      "##보증": 5590,
      "기대된다": 5591,
      "IB": 5592,
      "데일리": 5593,
      "맞는": 5594,
      "목적": 5595,
      "역량": 5596,
      "연말": 5597,
      "##활용": 5598,
      "##보는": 5599,
      "##생산": 5600,
      "상대적으로": 5601,
      "가정": 5602,
      "초과": 5603,
      "풀이": 5604,
      "##점으로": 5605,
      "##어나": 5606,
      "##폭이": 5607,
      "진행하고": 5608,
      "KAIST": 5609,
      "많아": 5610,
      "상무": 5611,
      "회장이": 5612,
      "##등급": 5613,
      "기업들의": 5614,
      "가족": 5615,
      "나왔다": 5616,
      "일상": 5617,
      "##기준": 5618,
      "##공단": 5619,
      "##ck": 5620,
      "##담보": 5621,
      "가능성을": 5622,
      "사장은": 5623,
      "이스타": 5624,
      "허용": 5625,
      "##하자": 5626,
      "28일": 5627,
      "연료": 5628,
      "정유": 5629,
      "제3": 5630,
      "화면": 5631,
      "##화로": 5632,
      "##으면서": 5633,
      "##세다": 5634,
      "분야의": 5635,
      "최저임": 5636,
      "그래서": 5637,
      "가계대출": 5638,
      "특징이다": 5639,
      "개별": 5640,
      "배달": 5641,
      "설비": 5642,
      "이재": 5643,
      "전장": 5644,
      "##트는": 5645,
      "##차가": 5646,
      "##값이": 5647,
      "소중한": 5648,
      "어린": 5649,
      "##로는": 5650,
      "##이지만": 5651,
      "##계약": 5652,
      "##경영자": 5653,
      "MZ세대": 5654,
      "1000": 5655,
      "단독": 5656,
      "명품": 5657,
      "유일": 5658,
      "##화가": 5659,
      "##하지만": 5660,
      "위해서는": 5661,
      "개발을": 5662,
      "프로모": 5663,
      "SK하이": 5664,
      "여름철": 5665,
      "SK하이닉": 5666,
      "65": 5667,
      "대로": 5668,
      "시험": 5669,
      "종료": 5670,
      "팬데믹": 5671,
      "##리스트": 5672,
      "##부터는": 5673,
      "기대한다": 5674,
      "업무협약": 5675,
      "대역": 5676,
      "메뉴": 5677,
      "음식": 5678,
      "##의도": 5679,
      "##UV": 5680,
      "거래소": 5681,
      "인앱결제": 5682,
      "4분기": 5683,
      "95": 5684,
      "마지": 5685,
      "오피스": 5686,
      "응답": 5687,
      "젊은": 5688,
      "##전력": 5689,
      "##분간": 5690,
      "##매매": 5691,
      "본격적인": 5692,
      "사실상": 5693,
      "고등": 5694,
      "선호": 5695,
      "스튜디오": 5696,
      "조건": 5697,
      "##GW": 5698,
      "##or": 5699,
      "1차": 5700,
      "실현": 5701,
      "얼마": 5702,
      "##였던": 5703,
      "##법을": 5704,
      "지원한다": 5705,
      "라이브": 5706,
      "43": 5707,
      "SW": 5708,
      "단기": 5709,
      "디폴": 5710,
      "줄었다": 5711,
      "기반의": 5712,
      "비중을": 5713,
      "체결했다고": 5714,
      "대학생": 5715,
      "차별화된": 5716,
      "기회를": 5717,
      "나아": 5718,
      "달라": 5719,
      "발견": 5720,
      "셈이다": 5721,
      "##대회": 5722,
      "##홀딩": 5723,
      "##페이": 5724,
      "##LED": 5725,
      "디폴트": 5726,
      "건물": 5727,
      "너무": 5728,
      "수집": 5729,
      "##도에": 5730,
      "##es": 5731,
      "하나은행": 5732,
      "데일리안": 5733,
      "시가": 5734,
      "에스": 5735,
      "행정": 5736,
      "##플릭": 5737,
      "##무를": 5738,
      "계획을": 5739,
      "##사업을": 5740,
      "활용할": 5741,
      "평가를": 5742,
      "어려움을": 5743,
      "강원": 5744,
      "##화에": 5745,
      "##웨이": 5746,
      "2300": 5747,
      "부회장": 5748,
      "비교해": 5749,
      "파이낸셜": 5750,
      "이스타항공": 5751,
      "공격": 5752,
      "넷플릭": 5753,
      "매일": 5754,
      "##체계": 5755,
      "##반도체": 5756,
      "##람회": 5757,
      "##회의를": 5758,
      "5개": 5759,
      "구독": 5760,
      "되고": 5761,
      "전통": 5762,
      "측정": 5763,
      "##과정": 5764,
      "##규제": 5765,
      "##PS": 5766,
      "##푸드": 5767,
      "사진은": 5768,
      "태양광": 5769,
      "기부": 5770,
      "아니다": 5771,
      "헬스케어": 5772,
      "##공간": 5773,
      "##마블": 5774,
      "##요일": 5775,
      "확대를": 5776,
      "업무를": 5777,
      "동향": 5778,
      "자세": 5779,
      "##경쟁": 5780,
      "##인터": 5781,
      "##DA": 5782,
      "삼성S": 5783,
      "3개": 5784,
      "나노": 5785,
      "당부": 5786,
      "부사": 5787,
      "전면": 5788,
      "확진": 5789,
      "##대가": 5790,
      "##분을": 5791,
      "보유하고": 5792,
      "고정": 5793,
      "쉽지": 5794,
      "시즌": 5795,
      "재건": 5796,
      "신한금융": 5797,
      "교신": 5798,
      "많다": 5799,
      "메모": 5800,
      "무엇": 5801,
      "받는": 5802,
      "연장": 5803,
      "존재": 5804,
      "##해보험": 5805,
      "##가치": 5806,
      "매출은": 5807,
      "아이디어": 5808,
      "선보일": 5809,
      "우수한": 5810,
      "양자암호": 5811,
      "그간": 5812,
      "도전": 5813,
      "산하": 5814,
      "실행": 5815,
      "양산": 5816,
      "출하": 5817,
      "##임을": 5818,
      "##22": 5819,
      "개발에": 5820,
      "이용해": 5821,
      "교수가": 5822,
      "59": 5823,
      "국산": 5824,
      "시상": 5825,
      "##지도": 5826,
      "연구팀": 5827,
      "노하우": 5828,
      "당국": 5829,
      "시기": 5830,
      "왔다": 5831,
      "주변": 5832,
      "##기기": 5833,
      "##15": 5834,
      "##됐습니다": 5835,
      "계좌": 5836,
      "선박": 5837,
      "유입": 5838,
      "주제로": 5839,
      "##했으나": 5840,
      "##주행": 5841,
      "규모로": 5842,
      "소속": 5843,
      "지식": 5844,
      "테스트": 5845,
      "통상": 5846,
      "한정": 5847,
      "##디아": 5848,
      "1998년": 5849,
      "달하는": 5850,
      "소식": 5851,
      "승인": 5852,
      "##장비": 5853,
      "##있는": 5854,
      "##갔다": 5855,
      "IM": 5856,
      "SM": 5857,
      "않는다": 5858,
      "나선다": 5859,
      "무선": 5860,
      "해석": 5861,
      "##재인": 5862,
      "##장관": 5863,
      "##100": 5864,
      "매출액": 5865,
      "이유로": 5866,
      "과정을": 5867,
      "국무": 5868,
      "넷마블": 5869,
      "당분간": 5870,
      "새로": 5871,
      "상승한": 5872,
      "##위원장": 5873,
      "떨어진": 5874,
      "편의점": 5875,
      "마지막": 5876,
      "91": 5877,
      "거리": 5878,
      "단행": 5879,
      "전세계": 5880,
      "##화하고": 5881,
      "##메이션": 5882,
      "금융위원회": 5883,
      "강력": 5884,
      "공기": 5885,
      "##파크": 5886,
      "사용할": 5887,
      "카카오뱅크": 5888,
      "전략을": 5889,
      "선보인": 5890,
      "캠페인": 5891,
      "4년": 5892,
      "선물": 5893,
      "한전": 5894,
      "##대표": 5895,
      "환경을": 5896,
      "대표이사": 5897,
      "##12": 5898,
      "##00억원": 5899,
      "회사는": 5900,
      "코스피가": 5901,
      "가속": 5902,
      "걸쳐": 5903,
      "경북": 5904,
      "농업": 5905,
      "담은": 5906,
      "첨단": 5907,
      "##너스": 5908,
      "진행된다": 5909,
      "처음이다": 5910,
      "27일": 5911,
      "방문해": 5912,
      "인터뷰": 5913,
      "동물": 5914,
      "신선": 5915,
      "주재": 5916,
      "##하겠습니다": 5917,
      "##권에": 5918,
      "##르고": 5919,
      "##NA": 5920,
      "규제를": 5921,
      "매출이": 5922,
      "선보인다": 5923,
      "하지": 5924,
      "##졌습니다": 5925,
      "미래에셋": 5926,
      "##라스틱": 5927,
      "46": 5928,
      "만족": 5929,
      "주로": 5930,
      "##제공": 5931,
      "비트코인": 5932,
      "보증": 5933,
      "정도로": 5934,
      "##원과": 5935,
      "##그룹의": 5936,
      "경남": 5937,
      "##라마": 5938,
      "##버그": 5939,
      "##상으로": 5940,
      "겁니다": 5941,
      "등과": 5942,
      "제1": 5943,
      "테라": 5944,
      "##DP": 5945,
      "진행할": 5946,
      "주가는": 5947,
      "차지하는": 5948,
      "##연합회": 5949,
      "내다봤다": 5950,
      "등장": 5951,
      "등이다": 5952,
      "열리는": 5953,
      "적자를": 5954,
      "흐름": 5955,
      "##대에": 5956,
      "전망된다": 5957,
      "참석했다": 5958,
      "상태다": 5959,
      "낮추": 5960,
      "만드는": 5961,
      "시중": 5962,
      "않도록": 5963,
      "외에도": 5964,
      "특수": 5965,
      "##실적": 5966,
      "##받은": 5967,
      "물가가": 5968,
      "63": 5969,
      "68": 5970,
      "거주": 5971,
      "경고": 5972,
      "시너지": 5973,
      "신호": 5974,
      "저장": 5975,
      "점에서": 5976,
      "지연": 5977,
      "##드로": 5978,
      "발생하는": 5979,
      "오른쪽": 5980,
      "##주년을": 5981,
      "풀이된다": 5982,
      "드러": 5983,
      "벤처": 5984,
      "여의도": 5985,
      "적자": 5986,
      "전개": 5987,
      "##ro": 5988,
      "2024년": 5989,
      "게임을": 5990,
      "포함해": 5991,
      "거의": 5992,
      "문재인": 5993,
      "주는": 5994,
      "철강": 5995,
      "통과": 5996,
      "##언론": 5997,
      "플랫폼을": 5998,
      "##ing": 5999,
      "치료제": 6000,
      "시가총": 6001,
      "2배": 6002,
      "곡물": 6003,
      "대폭": 6004,
      "디자": 6005,
      "부과": 6006,
      "속도": 6007,
      "최우": 6008,
      "##화와": 6009,
      "##이라": 6010,
      "##계의": 6011,
      "##타워": 6012,
      "##폴리오": 6013,
      "연구진": 6014,
      "공정거래": 6015,
      "강남구": 6016,
      "스포츠": 6017,
      "MOU": 6018,
      "간편": 6019,
      "구입": 6020,
      "그대로": 6021,
      "보건": 6022,
      "폴란드": 6023,
      "##했을": 6024,
      "##포르": 6025,
      "##준다": 6026,
      "사진영상": 6027,
      "2천": 6028,
      "64": 6029,
      "늘고": 6030,
      "만기": 6031,
      "추첨": 6032,
      "쿠팡": 6033,
      "포트": 6034,
      "해도": 6035,
      "##백화점": 6036,
      "##달러로": 6037,
      "전기요금": 6038,
      "##증권은": 6039,
      "그래픽": 6040,
      "2000": 6041,
      "요소": 6042,
      "홍콩": 6043,
      "##부를": 6044,
      "##폭을": 6045,
      "##사들이": 6046,
      "##PG": 6047,
      "##웠다": 6048,
      "판단되는": 6049,
      "외환위기": 6050,
      "IS": 6051,
      "다소": 6052,
      "일환": 6053,
      "##진단": 6054,
      "2015년": 6055,
      "경제부": 6056,
      "개인정보": 6057,
      "효과가": 6058,
      "##시키는": 6059,
      "시도": 6060,
      "예약": 6061,
      "##면적": 6062,
      "##니어": 6063,
      "확대해": 6064,
      "지속적인": 6065,
      "안정적인": 6066,
      "94": 6067,
      "아웃": 6068,
      "이정": 6069,
      "행사를": 6070,
      "##격을": 6071,
      "##런스": 6072,
      "규모는": 6073,
      "바이러스": 6074,
      "##바이러스": 6075,
      "것과": 6076,
      "나라": 6077,
      "대만": 6078,
      "유사": 6079,
      "이외": 6080,
      "카페": 6081,
      "합니다": 6082,
      "##점은": 6083,
      "##제일": 6084,
      "##BC": 6085,
      "가격에": 6086,
      "전망치": 6087,
      "지금까지": 6088,
      "2개": 6089,
      "선발": 6090,
      "최악": 6091,
      "형성": 6092,
      "##터테인먼트": 6093,
      "##시코": 6094,
      "##히려": 6095,
      "30대": 6096,
      "198": 6097,
      "적극적인": 6098,
      "##주시면": 6099,
      "...": 6100,
      "국립": 6101,
      "당첨": 6102,
      "##받습니다": 6103,
      "감소한": 6104,
      "24시간": 6105,
      "전문가들은": 6106,
      "프랑스": 6107,
      "파이낸셜뉴스": 6108,
      "리서치": 6109,
      "오히려": 6110,
      "원을": 6111,
      "해야": 6112,
      "##일을": 6113,
      "##영업": 6114,
      "##식에서": 6115,
      "##받을": 6116,
      "##베이션": 6117,
      "업무협약을": 6118,
      "56": 6119,
      "논란": 6120,
      "주주": 6121,
      "##부채": 6122,
      "##자체": 6123,
      "##극재": 6124,
      "기업에": 6125,
      "가치나": 6126,
      "DSR": 6127,
      "벌어": 6128,
      "실내": 6129,
      "인기를": 6130,
      "자원": 6131,
      "지도": 6132,
      "토레스": 6133,
      "표현": 6134,
      "##나다": 6135,
      "##오롱": 6136,
      "##MW": 6137,
      "카카오모빌리티": 6138,
      "중심의": 6139,
      "상한": 6140,
      "안에": 6141,
      "주민": 6142,
      "직장": 6143,
      "직후": 6144,
      "코오롱": 6145,
      "##관을": 6146,
      "##대한": 6147,
      "뉴시스가": 6148,
      "반영하겠습니다": 6149,
      "LG유플러스는": 6150,
      "영업이익은": 6151,
      "제보받습니다": 6152,
      "보내주시면": 6153,
      "공감언론": 6154,
      "지배구조": 6155,
      "화제성이": 6156,
      "사진영상부": 6157,
      "포트폴리오": 6158,
      "53": 6159,
      "검사": 6160,
      "부정": 6161,
      "이창": 6162,
      "##적이다": 6163,
      "국토부": 6164,
      "불가피": 6165,
      "##담보대출": 6166,
      "LH": 6167,
      "SNS": 6168,
      "구간": 6169,
      "데다": 6170,
      "입찰": 6171,
      "축소": 6172,
      "하면": 6173,
      "##AM": 6174,
      "이용하는": 6175,
      "최고경영자": 6176,
      "##별로는": 6177,
      "##자산운용": 6178,
      "불편": 6179,
      "세포": 6180,
      "심각": 6181,
      "싱가": 6182,
      "전남": 6183,
      "제어": 6184,
      "차례": 6185,
      "##화해": 6186,
      "##EC": 6187,
      "##받는": 6188,
      "삼성전자가": 6189,
      "47": 6190,
      "55": 6191,
      "kr": 6192,
      "국채": 6193,
      "발급": 6194,
      "시청": 6195,
      "압박": 6196,
      "예산": 6197,
      "인간": 6198,
      "##전환": 6199,
      "##선이": 6200,
      "##시켜": 6201,
      "##품을": 6202,
      "목표를": 6203,
      "자신의": 6204,
      "국민의힘": 6205,
      "00": 6206,
      "67": 6207,
      "못한": 6208,
      "방통": 6209,
      "북미": 6210,
      "의존": 6211,
      "휴가": 6212,
      "6개": 6213,
      "개방": 6214,
      "높이": 6215,
      "마무리": 6216,
      "모빌리티": 6217,
      "미니": 6218,
      "속도를": 6219,
      "투명": 6220,
      "##여개": 6221,
      "##함으로써": 6222,
      "기술이": 6223,
      "전시회": 6224,
      "1회": 6225,
      "근거": 6226,
      "리더": 6227,
      "스탠": 6228,
      "융합": 6229,
      "회계": 6230,
      "##지며": 6231,
      "##서다": 6232,
      "본격적으로": 6233,
      "형태로": 6234,
      "메모리": 6235,
      "인스타": 6236,
      "##스티": 6237,
      "참석한": 6238,
      "노력을": 6239,
      "앱을": 6240,
      "양방향": 6241,
      "장마": 6242,
      "테마": 6243,
      "했습니다": 6244,
      "협약을": 6245,
      "##의약품": 6246,
      "##력과": 6247,
      "##프레": 6248,
      "##NG": 6249,
      "##언스": 6250,
      "과학기술정보통신부": 6251,
      "85": 6252,
      "같다": 6253,
      "론칭": 6254,
      "버전": 6255,
      "사출": 6256,
      "##계층": 6257,
      "##단을": 6258,
      "##건이": 6259,
      "##BS": 6260,
      "##든요": 6261,
      "추진할": 6262,
      "문제는": 6263,
      "자율주행": 6264,
      "전력수급": 6265,
      "96": 6266,
      "선제": 6267,
      "온실": 6268,
      "크래": 6269,
      "##리드": 6270,
      "##방안": 6271,
      "##기획": 6272,
      "##수기": 6273,
      "##km": 6274,
      "사업자": 6275,
      "시간이": 6276,
      "줄어든": 6277,
      "가공": 6278,
      "경매": 6279,
      "때는": 6280,
      "분리": 6281,
      "##리기": 6282,
      "##협의": 6283,
      "##미칼": 6284,
      "##트로": 6285,
      "##99": 6286,
      "##준비": 6287,
      "##복지": 6288,
      "##으로는": 6289,
      "가능성도": 6290,
      "어렵다": 6291,
      "오를": 6292,
      "위메": 6293,
      "##재해": 6294,
      "##로서": 6295,
      "##세는": 6296,
      "##거든요": 6297,
      "##테리어": 6298,
      "##거래일": 6299,
      "솔루션을": 6300,
      "74": 6301,
      "거듭": 6302,
      "구미": 6303,
      "심의": 6304,
      "외교": 6305,
      "이종": 6306,
      "절차": 6307,
      "티빙": 6308,
      "환자": 6309,
      "##만5": 6310,
      "##보유": 6311,
      "##드경제": 6312,
      "##ER": 6313,
      "##됐다고": 6314,
      "2012년": 6315,
      "선정된": 6316,
      "나오고": 6317,
      "여부를": 6318,
      "어린이": 6319,
      "51": 6320,
      "BG": 6321,
      "대회": 6322,
      "애널": 6323,
      "약속": 6324,
      "중간": 6325,
      "질병": 6326,
      "헤럴": 6327,
      "##지지": 6328,
      "##보면": 6329,
      "##청사에서": 6330,
      "##레일": 6331,
      "##함을": 6332,
      "확대할": 6333,
      "사용자": 6334,
      "중국의": 6335,
      "참여한": 6336,
      "끌어올": 6337,
      "대우": 6338,
      "실무": 6339,
      "인지": 6340,
      "##복현": 6341,
      "##회의에서": 6342,
      "가상화폐": 6343,
      "싱가포르": 6344,
      "가지고": 6345,
      "봉쇄": 6346,
      "세부": 6347,
      "소폭": 6348,
      "유도": 6349,
      "이복현": 6350,
      "##관광": 6351,
      "##촬영": 6352,
      "진행한": 6353,
      "나타나": 6354,
      "마이크로": 6355,
      "87": 6356,
      "건전": 6357,
      "바뀌": 6358,
      "보는": 6359,
      "사랑": 6360,
      "제재": 6361,
      "프린": 6362,
      "##시킬": 6363,
      "##스텝": 6364,
      "카카오는": 6365,
      "순매수": 6366,
      "헤럴드경제": 6367,
      "54": 6368,
      "무더": 6369,
      "애니": 6370,
      "재활용": 6371,
      "중기": 6372,
      "최선을": 6373,
      "##진을": 6374,
      "##안정": 6375,
      "##해진": 6376,
      "##13": 6377,
      "##표준": 6378,
      "경우가": 6379,
      "우리은행": 6380,
      "최고의": 6381,
      "##센터에서": 6382,
      "##lock": 6383,
      "이같이": 6384,
      "DX": 6385,
      "교류": 6386,
      "임원": 6387,
      "잇따": 6388,
      "지자체": 6389,
      "한번": 6390,
      "허브": 6391,
      "##기능": 6392,
      "##아이": 6393,
      "##구하고": 6394,
      "기업을": 6395,
      "##기업의": 6396,
      "규모가": 6397,
      "참석해": 6398,
      "05": 6399,
      "나설": 6400,
      "동월": 6401,
      "말씀": 6402,
      "사상": 6403,
      "잠재": 6404,
      "조치를": 6405,
      "##만8": 6406,
      "##MO": 6407,
      "규제가": 6408,
      "확보를": 6409,
      "04": 6410,
      "9시": 6411,
      "SUV": 6412,
      "미치는": 6413,
      "세븐": 6414,
      "없다는": 6415,
      "##리케이션": 6416,
      "##지주": 6417,
      "##내는": 6418,
      "##분양": 6419,
      "##검증": 6420,
      "##췄다": 6421,
      "금융시장": 6422,
      "정부와": 6423,
      "진행했다": 6424,
      "모습을": 6425,
      "국회": 6426,
      "부총": 6427,
      "의사": 6428,
      "##분야": 6429,
      "##종의": 6430,
      "출시했다": 6431,
      "체결했다": 6432,
      "인스타그램": 6433,
      "EU": 6434,
      "가파": 6435,
      "노벨": 6436,
      "반려": 6437,
      "불리는": 6438,
      "유로": 6439,
      "이탈": 6440,
      "점도": 6441,
      "테크": 6442,
      "##지면": 6443,
      "##음을": 6444,
      "##으로부터": 6445,
      "##에서의": 6446,
      "기업과": 6447,
      "코스피는": 6448,
      "##과학기술": 6449,
      "제외한": 6450,
      "반대매매": 6451,
      "1인": 6452,
      "CP": 6453,
      "경신": 6454,
      "당초": 6455,
      "멕시코": 6456,
      "불법": 6457,
      "접목": 6458,
      "##공개": 6459,
      "##받고": 6460,
      "운영하고": 6461,
      "가맹": 6462,
      "게시": 6463,
      "연동": 6464,
      "유출": 6465,
      "집값": 6466,
      "##워드": 6467,
      "##박스": 6468,
      "##토리": 6469,
      "회사의": 6470,
      "##는데요": 6471,
      "평가했다": 6472,
      "발생한": 6473,
      "누구나": 6474,
      "재건축": 6475,
      "1위를": 6476,
      "4개": 6477,
      "다누": 6478,
      "생명": 6479,
      "원가": 6480,
      "천연": 6481,
      "##건으로": 6482,
      "##수산": 6483,
      "##et": 6484,
      "197": 6485,
      "23일": 6486,
      "제시했다": 6487,
      "SSG": 6488,
      "동참": 6489,
      "운동": 6490,
      "유리": 6491,
      "창립": 6492,
      "폭이": 6493,
      "학습": 6494,
      "활발": 6495,
      "##리테일": 6496,
      "##35": 6497,
      "##적이고": 6498,
      "기업들은": 6499,
      "금리는": 6500,
      "이유는": 6501,
      "노력하겠다": 6502,
      "##하려는": 6503,
      "76": 6504,
      "부실": 6505,
      "신약": 6506,
      "입장을": 6507,
      "##탄소": 6508,
      "##여행": 6509,
      "##닷컴": 6510,
      "##에게는": 6511,
      "확대하고": 6512,
      "사용하는": 6513,
      "하나로": 6514,
      "방식을": 6515,
      "시간을": 6516,
      "62": 6517,
      "강제": 6518,
      "극대": 6519,
      "높일": 6520,
      "답변": 6521,
      "배당": 6522,
      "충족": 6523,
      "치킨": 6524,
      "캐나다": 6525,
      "##리금": 6526,
      "##이를": 6527,
      "##위의": 6528,
      "##구를": 6529,
      "##링크": 6530,
      "##까지는": 6531,
      "삼성전자의": 6532,
      "원자력": 6533,
      "애널리스트": 6534,
      "TS": 6535,
      "독립": 6536,
      "되면": 6537,
      "미세": 6538,
      "방지": 6539,
      "방어": 6540,
      "배럴": 6541,
      "병원": 6542,
      "의약품": 6543,
      "작은": 6544,
      "제대로": 6545,
      "철저": 6546,
      "##주일": 6547,
      "##종을": 6548,
      "이어지고": 6549,
      "출시한": 6550,
      "작품을": 6551,
      "5대": 6552,
      "밸류": 6553,
      "법률": 6554,
      "적정": 6555,
      "추측": 6556,
      "현상": 6557,
      "후속": 6558,
      "##IC": 6559,
      "가능해": 6560,
      "지원할": 6561,
      "참여할": 6562,
      "비슷한": 6563,
      "강력한": 6564,
      "뿐만": 6565,
      "실증": 6566,
      "원격": 6567,
      "재미": 6568,
      "조기": 6569,
      "##국민": 6570,
      "##커머스": 6571,
      "구체적인": 6572,
      "아마존": 6573,
      "과도": 6574,
      "상업": 6575,
      "취업": 6576,
      "##부처": 6577,
      "##리콘": 6578,
      "##만명": 6579,
      "##다가": 6580,
      "##1억원": 6581,
      "##가와": 6582,
      "##힌다": 6583,
      "정부서울": 6584,
      "2014년": 6585,
      "수출이": 6586,
      "주택담보대출": 6587,
      "과기정통부": 6588,
      "계기로": 6589,
      "불가능": 6590,
      "스트": 6591,
      "요인": 6592,
      "유형": 6593,
      "이루": 6594,
      "트위": 6595,
      "##인지": 6596,
      "##200": 6597,
      "##량의": 6598,
      "##그라": 6599,
      "##사항": 6600,
      "##농협": 6601,
      "우리가": 6602,
      "디지털데일리": 6603,
      "정보통신": 6604,
      "150": 6605,
      "중장기": 6606,
      "06": 6607,
      "기름": 6608,
      "보이": 6609,
      "서로": 6610,
      "청소": 6611,
      "##케미칼": 6612,
      "##우고": 6613,
      "##국의": 6614,
      "##사고": 6615,
      "##베스트": 6616,
      "##옵션": 6617,
      "4일부터": 6618,
      "구축을": 6619,
      "수익성": 6620,
      "구성된": 6621,
      "제조업": 6622,
      "발사체": 6623,
      "66": 6624,
      "block": 6625,
      "복지": 6626,
      "인테리어": 6627,
      "전에": 6628,
      "컴퓨": 6629,
      "특화": 6630,
      "화장": 6631,
      "##공정": 6632,
      "##아요": 6633,
      "##순환": 6634,
      "적용해": 6635,
      "예상했다": 6636,
      "73": 6637,
      "둘러": 6638,
      "모색": 6639,
      "예고": 6640,
      "##다면": 6641,
      "##명은": 6642,
      "##포럼": 6643,
      "##AS": 6644,
      "10일": 6645,
      "##이노베이션": 6646,
      "##호텔에서": 6647,
      "극복": 6648,
      "많았다": 6649,
      "맥주": 6650,
      "스페": 6651,
      "지수가": 6652,
      "폭락": 6653,
      "해운": 6654,
      "환율은": 6655,
      "##퍼런스": 6656,
      "##럭시": 6657,
      "##책임": 6658,
      "##OS": 6659,
      "2조": 6660,
      "3대": 6661,
      "가져": 6662,
      "나머": 6663,
      "내고": 6664,
      "분할": 6665,
      "시절": 6666,
      "저희": 6667,
      "체감": 6668,
      "##화하는": 6669,
      "##었지만": 6670,
      "##천만": 6671,
      "하나의": 6672,
      "사람이": 6673,
      "기념촬영": 6674,
      "BA": 6675,
      "가중": 6676,
      "드라마": 6677,
      "보이는": 6678,
      "열어": 6679,
      "정리": 6680,
      "초반": 6681,
      "##건강": 6682,
      "##백질": 6683,
      "최대주": 6684,
      "개선을": 6685,
      "이동통신": 6686,
      "##000만달러": 6687,
      "여파로": 6688,
      "78": 6689,
      "고급": 6690,
      "못하고": 6691,
      "보조": 6692,
      "본부": 6693,
      "수가": 6694,
      "전담": 6695,
      "직전": 6696,
      "##금액": 6697,
      "##단렌": 6698,
      "##기와": 6699,
      "##산화": 6700,
      "##가로": 6701,
      "##포트": 6702,
      "##박람회": 6703,
      "##NM": 6704,
      "사업은": 6705,
      "대표적인": 6706,
      "관련된": 6707,
      "발생할": 6708,
      "주식을": 6709,
      "게이단렌": 6710,
      "박사": 6711,
      "받았": 6712,
      "사항": 6713,
      "절차를": 6714,
      "점포": 6715,
      "제정": 6716,
      "차주": 6717,
      "화학": 6718,
      "##계가": 6719,
      "##손해보험": 6720,
      "피해를": 6721,
      "3배": 6722,
      "SR": 6723,
      "굉장": 6724,
      "본사": 6725,
      "서초": 6726,
      "운행": 6727,
      "유기": 6728,
      "플라스틱": 6729,
      "후원": 6730,
      "##수익": 6731,
      "10개": 6732,
      "상승에": 6733,
      "경찰": 6734,
      "돈을": 6735,
      "명예": 6736,
      "분위": 6737,
      "음악": 6738,
      "폐기": 6739,
      "한층": 6740,
      "##시험": 6741,
      "##스에서": 6742,
      "##세포": 6743,
      "##복합": 6744,
      "어려워": 6745,
      "높여": 6746,
      "디스플레이": 6747,
      "분류": 6748,
      "애로": 6749,
      "언제": 6750,
      "##리의": 6751,
      "##리카": 6752,
      "##nd": 6753,
      "##IP": 6754,
      "혁신을": 6755,
      "KBS": 6756,
      "대통령이": 6757,
      "긴급": 6758,
      "돌입": 6759,
      "바다": 6760,
      "스스로": 6761,
      "##대의": 6762,
      "##상환": 6763,
      "##st": 6764,
      "진행하는": 6765,
      "관련한": 6766,
      "관계자": 6767,
      "##겠다고": 6768,
      "120": 6769,
      "강화를": 6770,
      "성공했다": 6771,
      "애플리케이션": 6772,
      "다운": 6773,
      "멤버": 6774,
      "블랙": 6775,
      "이래": 6776,
      "이들은": 6777,
      "##공원": 6778,
      "##시티": 6779,
      "상황에": 6780,
      "##라이브": 6781,
      "무역적": 6782,
      "라이프": 6783,
      "협업을": 6784,
      "파트너십": 6785,
      "충분히": 6786,
      "최악의": 6787,
      "네오": 6788,
      "선임": 6789,
      "일자리": 6790,
      "종로": 6791,
      "푸드": 6792,
      "금융기관": 6793,
      "최고치를": 6794,
      "아이템": 6795,
      "움직임": 6796,
      "국토교통부": 6797,
      "P500": 6798,
      "내에서": 6799,
      "멘토": 6800,
      "불구하고": 6801,
      "심화": 6802,
      "월드": 6803,
      "이차": 6804,
      "인플": 6805,
      "점차": 6806,
      "차이가": 6807,
      "출연": 6808,
      "##구역": 6809,
      "회사가": 6810,
      "중앙은행": 6811,
      "##벤처기업": 6812,
      "최저임금": 6813,
      "건축": 6814,
      "메인": 6815,
      "못했다": 6816,
      "원으로": 6817,
      "유연": 6818,
      "이름": 6819,
      "전일": 6820,
      "파운드": 6821,
      "##관이": 6822,
      "##고객": 6823,
      "##인력": 6824,
      "##97": 6825,
      "##사용": 6826,
      "##운송": 6827,
      "##당은": 6828,
      "##겼다": 6829,
      "GC": 6830,
      "갤럭시": 6831,
      "부가": 6832,
      "시내": 6833,
      "연령": 6834,
      "오랜": 6835,
      "올레": 6836,
      "작성": 6837,
      "주최": 6838,
      "출신": 6839,
      "커질": 6840,
      "코레일": 6841,
      "##효과": 6842,
      "##대에서": 6843,
      "##bp": 6844,
      "##예금": 6845,
      "진행된": 6846,
      "연방준비": 6847,
      "굉장히": 6848,
      "사망": 6849,
      "실패": 6850,
      "연세대": 6851,
      "##질환": 6852,
      "##학생": 6853,
      "사업의": 6854,
      "상승으로": 6855,
      "기술로": 6856,
      "규모다": 6857,
      "트위터": 6858,
      "000": 6859,
      "82": 6860,
      "내에": 6861,
      "동남": 6862,
      "서민": 6863,
      "질문": 6864,
      "토지": 6865,
      "폐지": 6866,
      "##방송": 6867,
      "##16": 6868,
      "이상을": 6869,
      "산업부": 6870,
      "지속될": 6871,
      "지역의": 6872,
      "온실가스": 6873,
      "GDP": 6874,
      "개설": 6875,
      "높이는": 6876,
      "유망": 6877,
      "중대": 6878,
      "찾는": 6879,
      "##리트": 6880,
      "##지수가": 6881,
      "##인증": 6882,
      "##씨는": 6883,
      "기업인": 6884,
      "산업의": 6885,
      "아이오": 6886,
      "비용을": 6887,
      "차지했다": 6888,
      "지상국": 6889,
      "이야기": 6890,
      "ENM": 6891,
      "민감": 6892,
      "봤다": 6893,
      "##러운": 6894,
      "##였습니다": 6895,
      "##해양": 6896,
      "##상증": 6897,
      "##실을": 6898,
      "올해는": 6899,
      "고객들이": 6900,
      "생각한다": 6901,
      "##업계에": 6902,
      "사례가": 6903,
      "ICT": 6904,
      "프로모션": 6905,
      "IDC": 6906,
      "고금리": 6907,
      "넥슨": 6908,
      "다이": 6909,
      "분위기": 6910,
      "상향": 6911,
      "주담": 6912,
      "힘들": 6913,
      "##조3": 6914,
      "##세에": 6915,
      "##믹스": 6916,
      "대출금리": 6917,
      "수익을": 6918,
      "비교하면": 6919,
      "4시": 6920,
      "보니": 6921,
      "사이버": 6922,
      "악재": 6923,
      "카테": 6924,
      "##리면서": 6925,
      "##과제": 6926,
      "##나갈": 6927,
      "##어요": 6928,
      "##노조": 6929,
      "##억원의": 6930,
      "대표가": 6931,
      "13일": 6932,
      "프로젝트를": 6933,
      "정부서울청사에서": 6934,
      "88": 6935,
      "AP": 6936,
      "RE": 6937,
      "갈등": 6938,
      "나눠": 6939,
      "도로": 6940,
      "모아": 6941,
      "반복": 6942,
      "베이": 6943,
      "원료": 6944,
      "##화한": 6945,
      "##있다": 6946,
      "기술력을": 6947,
      "참여해": 6948,
      "마이데이터": 6949,
      "프린스턴": 6950,
      "부여": 6951,
      "부처": 6952,
      "진정": 6953,
      "##보를": 6954,
      "##잡고": 6955,
      "상승률": 6956,
      "규모를": 6957,
      "정보보호": 6958,
      "사회공": 6959,
      "##항공우주": 6960,
      "케이뱅크": 6961,
      "D램": 6962,
      "명확": 6963,
      "밝힌": 6964,
      "배우": 6965,
      "석탄": 6966,
      "슈퍼": 6967,
      "실리콘": 6968,
      "얘기": 6969,
      "예대금리": 6970,
      "원화": 6971,
      "타이": 6972,
      "##용품": 6973,
      "##나노": 6974,
      "##기금": 6975,
      "##조선": 6976,
      "기대하고": 6977,
      "공개했다": 6978,
      "##과학원": 6979,
      "79": 6980,
      "83": 6981,
      "거부": 6982,
      "고속": 6983,
      "단백질": 6984,
      "미리": 6985,
      "변화를": 6986,
      "스테": 6987,
      "점이": 6988,
      "조언": 6989,
      "채무": 6990,
      "##18": 6991,
      "##조5": 6992,
      "서울의": 6993,
      "성장할": 6994,
      "고양": 6995,
      "달한다": 6996,
      "메시": 6997,
      "바닥": 6998,
      "상속": 6999,
      "집행": 7000,
      "착수": 7001,
      "##의료": 7002,
      "##부동산": 7003,
      "##임대": 7004,
      "##어로": 7005,
      "국내에서": 7006,
      "강화하고": 7007,
      "안전보건": 7008,
      "IPO": 7009,
      "중견기업": 7010,
      "경제부총리": 7011,
      "뷰티": 7012,
      "빅스텝": 7013,
      "운전자": 7014,
      "이로": 7015,
      "확충": 7016,
      "##개선": 7017,
      "##위험": 7018,
      "##담회를": 7019,
      "##한다면": 7020,
      "성공적으로": 7021,
      "중요하다": 7022,
      "나오는": 7023,
      "CJ제일": 7024,
      "가스요금": 7025,
      "간담회에서": 7026,
      "얼마나": 7027,
      "CJ제일제": 7028,
      "비율": 7029,
      "소형": 7030,
      "예를": 7031,
      "인구": 7032,
      "적금": 7033,
      "주의": 7034,
      "쿠폰": 7035,
      "해서": 7036,
      "##캐피": 7037,
      "투자가": 7038,
      "거래가": 7039,
      "운영한다": 7040,
      "환경부": 7041,
      "분야에": 7042,
      "이같은": 7043,
      "3천": 7044,
      "고령": 7045,
      "담아": 7046,
      "보완": 7047,
      "신종": 7048,
      "이름을": 7049,
      "있던": 7050,
      "자기": 7051,
      "좋아": 7052,
      "##까요": 7053,
      "##채널": 7054,
      "##권의": 7055,
      "제공해": 7056,
      "10만": 7057,
      "서비스는": 7058,
      "상승을": 7059,
      "추진하고": 7060,
      "실적이": 7061,
      "하이브": 7062,
      "당부했다": 7063,
      "99": 7064,
      "것에": 7065,
      "마찬": 7066,
      "매주": 7067,
      "면역": 7068,
      "없을": 7069,
      "친구": 7070,
      "##치지": 7071,
      "##해도": 7072,
      "##내고": 7073,
      "##AC": 7074,
      "##ET": 7075,
      "##판에": 7076,
      "사업이": 7077,
      "미국과": 7078,
      "연구를": 7079,
      "최대한": 7080,
      "미래를": 7081,
      "2030년까지": 7082,
      "KDI": 7083,
      "관람": 7084,
      "높이고": 7085,
      "받는다": 7086,
      "보급": 7087,
      "신작": 7088,
      "일시": 7089,
      "전송": 7090,
      "폭으로": 7091,
      "표시": 7092,
      "##지와": 7093,
      "##나가": 7094,
      "##대책": 7095,
      "##스에": 7096,
      "##브로드": 7097,
      "##동구": 7098,
      "##el": 7099,
      "##석유": 7100,
      "지역에": 7101,
      "SKT": 7102,
      "늘어날": 7103,
      "삼성SDI": 7104,
      "사회공헌": 7105,
      "강한": 7106,
      "교체": 7107,
      "발간": 7108,
      "심사를": 7109,
      "의결": 7110,
      "한도": 7111,
      "##이즈": 7112,
      "##공장": 7113,
      "##물이": 7114,
      "##분이": 7115,
      "##신용": 7116,
      "##월드": 7117,
      "##웹툰": 7118,
      "상품은": 7119,
      "본격화": 7120,
      "직원들이": 7121,
      "필즈상을": 7122,
      "건의": 7123,
      "김치": 7124,
      "선진": 7125,
      "수상자": 7126,
      "원칙": 7127,
      "##이스트": 7128,
      "##조4": 7129,
      "##프톤": 7130,
      "##클라우드": 7131,
      "##철도": 7132,
      "상승세를": 7133,
      "사진제공": 7134,
      "영향이": 7135,
      "사람들이": 7136,
      "성능검증": 7137,
      "크래프톤": 7138,
      "1명": 7139,
      "8K": 7140,
      "겪고": 7141,
      "공포": 7142,
      "자녀": 7143,
      "전파": 7144,
      "##했기": 7145,
      "##자원": 7146,
      "금융위기": 7147,
      "강화해": 7148,
      "##회의소": 7149,
      "전략적": 7150,
      "이끌어": 7151,
      "점유율": 7152,
      "##중앙회": 7153,
      "마찬가지": 7154,
      "1호": 7155,
      "61": 7156,
      "어디": 7157,
      "주간": 7158,
      "현상이": 7159,
      "##고요": 7160,
      "##주간": 7161,
      "##조8": 7162,
      "##스테": 7163,
      "##밴드": 7164,
      "구축하고": 7165,
      "경영진": 7166,
      "스토어": 7167,
      "오피스텔": 7168,
      "7만": 7169,
      "공사": 7170,
      "대를": 7171,
      "됩니다": 7172,
      "자금을": 7173,
      "재계": 7174,
      "##부담": 7175,
      "##이던": 7176,
      "##물질": 7177,
      "##무원": 7178,
      "진행한다고": 7179,
      "최근에는": 7180,
      "분석이다": 7181,
      "130": 7182,
      "거래일보다": 7183,
      "##고리즘": 7184,
      "종로구": 7185,
      "기울": 7186,
      "다르": 7187,
      "당장": 7188,
      "물량": 7189,
      "산정": 7190,
      "지출": 7191,
      "투기": 7192,
      "하기": 7193,
      "##재계": 7194,
      "##억3": 7195,
      "##ec": 7196,
      "##처리": 7197,
      "##히는": 7198,
      "현대자동차": 7199,
      "후보자는": 7200,
      "금리인상": 7201,
      "양자암호통신": 7202,
      "시중은행": 7203,
      "기념촬영을": 7204,
      "납품": 7205,
      "무인": 7206,
      "상하이": 7207,
      "속에서": 7208,
      "정식": 7209,
      "##공업": 7210,
      "##스럽": 7211,
      "##유의": 7212,
      "##om": 7213,
      "이용한": 7214,
      "제품은": 7215,
      "하는데": 7216,
      "중소벤처기업": 7217,
      "LG유플러스가": 7218,
      "증시가": 7219,
      "디폴트옵션": 7220,
      "일환으로": 7221,
      "아이오닉": 7222,
      "늘려": 7223,
      "바람": 7224,
      "블룸": 7225,
      "수석": 7226,
      "에코": 7227,
      "유료": 7228,
      "특성": 7229,
      "##제한": 7230,
      "##장치": 7231,
      "##됐던": 7232,
      "대출을": 7233,
      "1년간": 7234,
      "Fed": 7235,
      "권고": 7236,
      "바라": 7237,
      "부총리": 7238,
      "전주": 7239,
      "차단": 7240,
      "##재생": 7241,
      "##주당": 7242,
      "##회관에서": 7243,
      "##액을": 7244,
      "관리를": 7245,
      "반영해": 7246,
      "수익률": 7247,
      "제조사": 7248,
      "증정한다": 7249,
      "유동성": 7250,
      "이차전지": 7251,
      "도착": 7252,
      "시공": 7253,
      "여신": 7254,
      "용산": 7255,
      "일단": 7256,
      "주말": 7257,
      "축적": 7258,
      "##3억": 7259,
      "##안이": 7260,
      "##억원에": 7261,
      "##000억": 7262,
      "증가할": 7263,
      "이날부터": 7264,
      "일본의": 7265,
      "마련했다": 7266,
      "발전을": 7267,
      "비상경제": 7268,
      "최소화": 7269,
      "뛰어난": 7270,
      "기준금리를": 7271,
      "나가겠다": 7272,
      "블룸버그": 7273,
      "CU": 7274,
      "꼽았다": 7275,
      "블루": 7276,
      "사우": 7277,
      "세제": 7278,
      "약세": 7279,
      "에이": 7280,
      "요인으로": 7281,
      "적은": 7282,
      "제가": 7283,
      "토론": 7284,
      "##려면": 7285,
      "##시켰": 7286,
      "##광역": 7287,
      "한국항공우주": 7288,
      "진행됐다": 7289,
      "대해서도": 7290,
      "기존의": 7291,
      "기여할": 7292,
      "##ation": 7293,
      "연구팀은": 7294,
      "5년간": 7295,
      "92": 7296,
      "UAM": 7297,
      "계산": 7298,
      "다수": 7299,
      "본인": 7300,
      "연금": 7301,
      "##개사": 7302,
      "##체를": 7303,
      "##대는": 7304,
      "##역을": 7305,
      "##동에": 7306,
      "세계적인": 7307,
      "##조원을": 7308,
      "캠페인을": 7309,
      "나아가": 7310,
      "급감": 7311,
      "모듈": 7312,
      "배틀": 7313,
      "신사업": 7314,
      "아트": 7315,
      "연내": 7316,
      "음료": 7317,
      "자리를": 7318,
      "추구": 7319,
      "충남": 7320,
      "취소": 7321,
      "##모터": 7322,
      "##28": 7323,
      "##신문": 7324,
      "##평양": 7325,
      "##종합": 7326,
      "##린지": 7327,
      "기술과": 7328,
      "##레이션": 7329,
      "SK브로드": 7330,
      "방향을": 7331,
      "한일재계": 7332,
      "보도했다": 7333,
      "SK하이닉스": 7334,
      "자세한": 7335,
      "4만": 7336,
      "김영": 7337,
      "꼽힌다": 7338,
      "보일": 7339,
      "스위": 7340,
      "유한": 7341,
      "주고": 7342,
      "흐름을": 7343,
      "##원전": 7344,
      "##17": 7345,
      "##CC": 7346,
      "지원하고": 7347,
      "개발해": 7348,
      "IPTV": 7349,
      "##상공회의소": 7350,
      "배럴당": 7351,
      "나머지": 7352,
      "독점": 7353,
      "레이": 7354,
      "충격": 7355,
      "##제는": 7356,
      "##로그": 7357,
      "##조7": 7358,
      "##시킨": 7359,
      "##유행": 7360,
      "##표를": 7361,
      "업계의": 7362,
      "내용은": 7363,
      "비용이": 7364,
      "기념해": 7365,
      "근로자": 7366,
      "MS": 7367,
      "갖추": 7368,
      "구분": 7369,
      "눈에": 7370,
      "많았": 7371,
      "복잡": 7372,
      "수술": 7373,
      "웨이": 7374,
      "음성": 7375,
      "제도를": 7376,
      "해상": 7377,
      "호주": 7378,
      "##분에": 7379,
      "##차는": 7380,
      "##억원에서": 7381,
      "상품으로": 7382,
      "협력해": 7383,
      "은행의": 7384,
      "선보였다": 7385,
      "패키지": 7386,
      "금감원": 7387,
      "아래로": 7388,
      "동남아": 7389,
      "기계": 7390,
      "농산물": 7391,
      "말한다": 7392,
      "수여": 7393,
      "위협": 7394,
      "적절": 7395,
      "진료": 7396,
      "훨씬": 7397,
      "##추얼": 7398,
      "##스페이스": 7399,
      "##변화": 7400,
      "상승률은": 7401,
      "##만원을": 7402,
      "##만원으로": 7403,
      "외환보유": 7404,
      "활성화를": 7405,
      "##가가치": 7406,
      "상용화": 7407,
      "넷플릭스": 7408,
      "시가총액": 7409,
      "##스티벌": 7410,
      "화장품": 7411,
      "4대": 7412,
      "물리": 7413,
      "보상": 7414,
      "사내": 7415,
      "쏟아": 7416,
      "여기": 7417,
      "영화": 7418,
      "이중": 7419,
      "체계를": 7420,
      "해지": 7421,
      "##에이": 7422,
      "##보안": 7423,
      "##주고": 7424,
      "##비가": 7425,
      "##됐고": 7426,
      "##동향": 7427,
      "##프랜드": 7428,
      "##ra": 7429,
      "2010년": 7430,
      "인상을": 7431,
      "하반기에도": 7432,
      "롯데마트": 7433,
      "기관이": 7434,
      "현장에서": 7435,
      "지금은": 7436,
      "2년간": 7437,
      "3시": 7438,
      "녹색": 7439,
      "레벨": 7440,
      "수원": 7441,
      "장소": 7442,
      "##37": 7443,
      "##들로": 7444,
      "##우는": 7445,
      "##됐으며": 7446,
      "##기술을": 7447,
      "##경제인": 7448,
      "구글의": 7449,
      "완성차": 7450,
      "수치다": 7451,
      "거리두": 7452,
      "400": 7453,
      "가산": 7454,
      "걱정": 7455,
      "나스": 7456,
      "노후": 7457,
      "브라": 7458,
      "인건": 7459,
      "일이": 7460,
      "##리며": 7461,
      "##생명": 7462,
      "##수수": 7463,
      "##iv": 7464,
      "##통화": 7465,
      "##목을": 7466,
      "##MI": 7467,
      "##뉴얼": 7468,
      "거래되고": 7469,
      "판매하는": 7470,
      "현재까지": 7471,
      "참여하는": 7472,
      "추진한다": 7473,
      "모델을": 7474,
      "사전에": 7475,
      "이른바": 7476,
      "애니메이션": 7477,
      "고수": 7478,
      "남아": 7479,
      "대기": 7480,
      "마사": 7481,
      "명의": 7482,
      "아우": 7483,
      "알뜰": 7484,
      "열었다": 7485,
      "카이스트": 7486,
      "파산": 7487,
      "포럼": 7488,
      "##려는": 7489,
      "##미나": 7490,
      "##간담회": 7491,
      "##연맹": 7492,
      "##오는": 7493,
      "20일": 7494,
      "카카오게임즈": 7495,
      "따라서": 7496,
      "21일": 7497,
      "진출을": 7498,
      "TF": 7499,
      "돼지고": 7500,
      "서버": 7501,
      "억제": 7502,
      "일으": 7503,
      "작동": 7504,
      "접속": 7505,
      "차원에서": 7506,
      "토스": 7507,
      "페이스": 7508,
      "하다": 7509,
      "##도와": 7510,
      "##리움": 7511,
      "##네시아": 7512,
      "고객들에게": 7513,
      "이어갈": 7514,
      "판매가": 7515,
      "수출은": 7516,
      "저렴한": 7517,
      "교환": 7518,
      "못하는": 7519,
      "봉사": 7520,
      "아동": 7521,
      "언론": 7522,
      "이처럼": 7523,
      "휴대": 7524,
      "##95": 7525,
      "이라면서": 7526,
      "데이터센터": 7527,
      "KT가": 7528,
      "전년동": 7529,
      "러시아의": 7530,
      "장애인": 7531,
      "파운드리": 7532,
      "국정": 7533,
      "김대": 7534,
      "버추얼": 7535,
      "비행": 7536,
      "초대": 7537,
      "##하나": 7538,
      "##소시": 7539,
      "##수요": 7540,
      "##un": 7541,
      "##신청": 7542,
      "##레이드": 7543,
      "코로나19로": 7544,
      "교육을": 7545,
      "기관은": 7546,
      "BT": 7547,
      "US": 7548,
      "공매": 7549,
      "도움을": 7550,
      "바꾸": 7551,
      "설문": 7552,
      "의원": 7553,
      "조회": 7554,
      "퍼즐": 7555,
      "##모듈": 7556,
      "##태그": 7557,
      "##어도": 7558,
      "##실에서": 7559,
      "투자의": 7560,
      "대한상의": 7561,
      "196": 7562,
      "달러를": 7563,
      "자동으로": 7564,
      "고용노동": 7565,
      "방법을": 7566,
      "직장인": 7567,
      "3년간": 7568,
      "기재": 7569,
      "높았다": 7570,
      "빅테크": 7571,
      "신혼": 7572,
      "유예": 7573,
      "일각": 7574,
      "제로": 7575,
      "지켜": 7576,
      "##력은": 7577,
      "##만으로": 7578,
      "##수로": 7579,
      "##98": 7580,
      "##느냐": 7581,
      "##렉트": 7582,
      "이상으로": 7583,
      "2011년": 7584,
      "140": 7585,
      "22일": 7586,
      "장기화": 7587,
      "##진흥원": 7588,
      "패키징": 7589,
      "별도의": 7590,
      "##홀딩스": 7591,
      "추첨을": 7592,
      "LNG": 7593,
      "개념": 7594,
      "남성": 7595,
      "말까지": 7596,
      "맞이": 7597,
      "물질": 7598,
      "민생": 7599,
      "신차": 7600,
      "잠정": 7601,
      "콜라": 7602,
      "##에스": 7603,
      "##개를": 7604,
      "##운영": 7605,
      "가격으로": 7606,
      "예상되는": 7607,
      "모습이다": 7608,
      "건강한": 7609,
      "공모전": 7610,
      "작업을": 7611,
      "나서고": 7612,
      "전력수요": 7613,
      "노하우를": 7614,
      "97": 7615,
      "CN": 7616,
      "노출": 7617,
      "실태": 7618,
      "역전": 7619,
      "워크": 7620,
      "종가": 7621,
      "즉시": 7622,
      "한미": 7623,
      "합병": 7624,
      "##심을": 7625,
      "##가의": 7626,
      "##ce": 7627,
      "##거운": 7628,
      "##축은행": 7629,
      "##으로서": 7630,
      "금융권": 7631,
      "수요를": 7632,
      "시행령": 7633,
      "논의했다": 7634,
      "네이버웹툰": 7635,
      "조정대상": 7636,
      "가까운": 7637,
      "##트리온": 7638,
      "무역수지": 7639,
      "긍정적인": 7640,
      "휴가철": 7641,
      "News": 7642,
      "감독": 7643,
      "드림": 7644,
      "상시": 7645,
      "순으로": 7646,
      "시세": 7647,
      "일제": 7648,
      "줄여": 7649,
      "추세": 7650,
      "피부": 7651,
      "##자재": 7652,
      "##인간": 7653,
      "##DS": 7654,
      "매출을": 7655,
      "정보기술": 7656,
      "정확한": 7657,
      "전해졌다": 7658,
      "부총리는": 7659,
      "올레드": 7660,
      "연방준비제도": 7661,
      "P2": 7662,
      "국책": 7663,
      "달간": 7664,
      "도쿄": 7665,
      "밖에": 7666,
      "셀트리온": 7667,
      "소송": 7668,
      "수혜": 7669,
      "요인이": 7670,
      "촉진": 7671,
      "폭을": 7672,
      "##단은": 7673,
      "##23": 7674,
      "##었는데": 7675,
      "##즈를": 7676,
      "이용자가": 7677,
      "##사업자": 7678,
      "시작된": 7679,
      "규제지역": 7680,
      "구축해": 7681,
      "해당하는": 7682,
      "기회가": 7683,
      "BN": 7684,
      "공항": 7685,
      "긴밀": 7686,
      "나올": 7687,
      "범위": 7688,
      "선사": 7689,
      "원활": 7690,
      "중에": 7691,
      "크리에": 7692,
      "하며": 7693,
      "학교": 7694,
      "한때": 7695,
      "협상": 7696,
      "##리와": 7697,
      "##주도": 7698,
      "##해온": 7699,
      "##해주는": 7700,
      "##어야": 7701,
      "##96": 7702,
      "##쿠라": 7703,
      "투자하는": 7704,
      "이상이": 7705,
      "기록할": 7706,
      "분석이": 7707,
      "만들고": 7708,
      "선정됐다": 7709,
      "특별한": 7710,
      "오르고": 7711,
      "오르는": 7712,
      "전반에": 7713,
      "##art": 7714,
      "구체적으로": 7715,
      "불확실성이": 7716,
      "그렇게": 7717,
      "뚜렷": 7718,
      "무신": 7719,
      "배치": 7720,
      "적합": 7721,
      "초청": 7722,
      "취재": 7723,
      "치열": 7724,
      "확실": 7725,
      "##제에": 7726,
      "##비는": 7727,
      "하락세를": 7728,
      "구매할": 7729,
      "가치가": 7730,
      "사실을": 7731,
      "제시한": 7732,
      "GS25": 7733,
      "마이크론": 7734,
      "위메이드": 7735,
      "나스닥": 7736,
      "##소시엄": 7737,
      "조정대상지역": 7738,
      "가시": 7739,
      "공고": 7740,
      "내렸다": 7741,
      "만이다": 7742,
      "시점": 7743,
      "올렸다": 7744,
      "종류": 7745,
      "착용": 7746,
      "페이": 7747,
      "현행": 7748,
      "##됐지만": 7749,
      "##차례": 7750,
      "반영한": 7751,
      "어려울": 7752,
      "변동성이": 7753,
      "고도화": 7754,
      "7개월": 7755,
      "FC": 7756,
      "감면": 7757,
      "그만큼": 7758,
      "기지": 7759,
      "빗썸": 7760,
      "샌드": 7761,
      "손잡고": 7762,
      "스페이스": 7763,
      "신경": 7764,
      "양사는": 7765,
      "유전자": 7766,
      "임시": 7767,
      "줄일": 7768,
      "커졌다": 7769,
      "합동": 7770,
      "##제가": 7771,
      "##플랫폼": 7772,
      "##는지": 7773,
      "##27": 7774,
      "##수도": 7775,
      "##아야": 7776,
      "이어가고": 7777,
      "기준을": 7778,
      "프로세": 7779,
      "전국경제인": 7780,
      "KB국민": 7781,
      "가상인간": 7782,
      "##보고서": 7783,
      "##테이너": 7784,
      "합리적인": 7785,
      "03": 7786,
      "4천": 7787,
      "6만": 7788,
      "모양": 7789,
      "손해": 7790,
      "엔진": 7791,
      "유전": 7792,
      "이은": 7793,
      "취급": 7794,
      "환불": 7795,
      "흔들": 7796,
      "##다른": 7797,
      "##브랜드": 7798,
      "##시장에": 7799,
      "전환을": 7800,
      "성능을": 7801,
      "왼쪽부터": 7802,
      "순매도": 7803,
      "News1": 7804,
      "내는": 7805,
      "느끼": 7806,
      "리포트": 7807,
      "본다": 7808,
      "붕괴": 7809,
      "수산": 7810,
      "스트리": 7811,
      "신재생": 7812,
      "위탁": 7813,
      "입점": 7814,
      "중순": 7815,
      "했지만": 7816,
      "화질": 7817,
      "##회가": 7818,
      "##성능": 7819,
      "##호를": 7820,
      "##DF": 7821,
      "##뮤직": 7822,
      "LG전자는": 7823,
      "카카오가": 7824,
      "세계적으로": 7825,
      "출시를": 7826,
      "자체가": 7827,
      "에어컨": 7828,
      "가이드": 7829,
      "발주": 7830,
      "운항": 7831,
      "컨테이너": 7832,
      "페스티벌": 7833,
      "##기고": 7834,
      "##공학": 7835,
      "##조치": 7836,
      "##조6": 7837,
      "##시와": 7838,
      "##2억": 7839,
      "##키로": 7840,
      "지난주": 7841,
      "제품의": 7842,
      "##그룹이": 7843,
      "40대": 7844,
      "##건설은": 7845,
      "실시간으로": 7846,
      "쇼핑몰": 7847,
      "선제적으로": 7848,
      "각국": 7849,
      "고유가": 7850,
      "내놨": 7851,
      "매월": 7852,
      "목적으로": 7853,
      "속도가": 7854,
      "실험": 7855,
      "유행": 7856,
      "유치를": 7857,
      "있었던": 7858,
      "##심의": 7859,
      "##로우": 7860,
      "##4억원": 7861,
      "##na": 7862,
      "##레이터": 7863,
      "##데요": 7864,
      "##LS": 7865,
      "한국거래소": 7866,
      "우려를": 7867,
      "보험료": 7868,
      "자료사진": 7869,
      "공시했다": 7870,
      "성적": 7871,
      "알고리즘": 7872,
      "와인": 7873,
      "재산": 7874,
      "주류": 7875,
      "출처": 7876,
      "해수": 7877,
      "##리브": 7878,
      "##체계를": 7879,
      "##사들의": 7880,
      "##향을": 7881,
      "한국과학기술": 7882,
      "투자에": 7883,
      "가격도": 7884,
      "고객은": 7885,
      "전문기업": 7886,
      "적용할": 7887,
      "브랜드를": 7888,
      "인도네시아": 7889,
      "NH농협": 7890,
      "TSMC": 7891,
      "81": 7892,
      "In": 7893,
      "다가": 7894,
      "단일": 7895,
      "달했다": 7896,
      "도약": 7897,
      "도쿠라": 7898,
      "성수": 7899,
      "소셜": 7900,
      "안팎": 7901,
      "예술": 7902,
      "조절": 7903,
      "합성": 7904,
      "##고기": 7905,
      "##달라": 7906,
      "##디션": 7907,
      "##대응": 7908,
      "##가에": 7909,
      "##트의": 7910,
      "##어는": 7911,
      "##RI": 7912,
      "##카이": 7913,
      "대한항공": 7914,
      "주요국": 7915,
      "100만": 7916,
      "보고서를": 7917,
      "##들과의": 7918,
      "##인터넷": 7919,
      "성능검증위성": 7920,
      "7개": 7921,
      "CS": 7922,
      "st": 7923,
      "딜링": 7924,
      "리츠": 7925,
      "부서": 7926,
      "센서": 7927,
      "쏘카": 7928,
      "아무": 7929,
      "올려": 7930,
      "위주로": 7931,
      "클래": 7932,
      "펼쳐": 7933,
      "##력으로": 7934,
      "##지니어": 7935,
      "##겠지만": 7936,
      "##퍼스": 7937,
      "##여명이": 7938,
      "경제가": 7939,
      "코로나바이러스": 7940,
      "인상이": 7941,
      "##달러를": 7942,
      "적용한": 7943,
      "하반기에": 7944,
      "컴퓨터": 7945,
      "딜링룸": 7946,
      "AS": 7947,
      "OLED": 7948,
      "기타": 7949,
      "김정": 7950,
      "다하겠다": 7951,
      "동시": 7952,
      "맞게": 7953,
      "메이": 7954,
      "무게": 7955,
      "비율이": 7956,
      "서류": 7957,
      "숙박": 7958,
      "원희": 7959,
      "원장": 7960,
      "재료": 7961,
      "환율이": 7962,
      "##지표": 7963,
      "##안에": 7964,
      "##시가": 7965,
      "##미디어": 7966,
      "있는지": 7967,
      "출시했다고": 7968,
      "기존에": 7969,
      "지적이": 7970,
      "##가격은": 7971,
      "취약계층": 7972,
      "주장했다": 7973,
      "CI": 7974,
      "개혁": 7975,
      "급여": 7976,
      "사모": 7977,
      "싶은": 7978,
      "양측": 7979,
      "없다고": 7980,
      "엔데믹": 7981,
      "와이": 7982,
      "외에": 7983,
      "요즘": 7984,
      "재택": 7985,
      "콘셉": 7986,
      "크레": 7987,
      "풍력": 7988,
      "하면서": 7989,
      "##주인": 7990,
      "##아웃": 7991,
      "##TE": 7992,
      "##TI": 7993,
      "##등학교": 7994,
      "##곳에서": 7995,
      "개발하고": 7996,
      "증가하고": 7997,
      "목표다": 7998,
      "포함된": 7999
    }
  }
}