{
  "version": "1.0",
  "truncation": null,
  "padding": null,
  "added_tokens": [
    {
      "id": 0,
      "content": "[UNK]",
      "single_word": false,
      "lstrip": false,
      "rstrip": false,
      "normalized": false,
      "special": true
    },
    {
      "id": 1,
      "content": "[PAD]",
      "single_word": false,
      "lstrip": false,
      "rstrip": false,
      "normalized": false,
      "special": true
    },
    {
      "id": 2,
      "content": "[CLS]",
      "single_word": false,
      "lstrip": false,
      "rstrip": false,
      "normalized": false,
      "special": true
    },
    {
      "id": 3,
      "content": "[SEP]",
      "single_word": false,
      "lstrip": false,
      "rstrip": false,
      "normalized": false,
      "special": true
    },
    {
      "id": 4,
      "content": "[MASK]",
      "single_word": false,
      "lstrip": false,
      "rstrip": false,
      "normalized": false,
      "special": true
    }
  ],
  "normalizer": null,
  "pre_tokenizer": {
    "type": "Whitespace"
  },
  "post_processor": null,
  "decoder": null,
  "model": {
    "type": "WordPiece",
    "unk_token": "[UNK]",
    "continuing_subword_prefix": "##",
    "max_input_chars_per_word": 100,
    "vocab": {
      "[UNK]": 0,
      "[PAD]": 1,
      "[CLS]": 2,
      "[SEP]": 3,
      "[MASK]": 4,
      ".": 5,
      "0": 6,
      "1": 7,
      "2": 8,
      "3": 9,
      "4": 10,
      "5": 11,
      "6": 12,
      "7": 13,
      "8": 14,
      "9": 15,
      "A": 16,
      "B": 17,
      "C": 18,
      "D": 19,
      "E": 20,
      "F": 21,
      "G": 22,
      "H": 23,
      "I": 24,
      "J": 25,
      "K": 26,
      "L": 27,
      "M": 28,
      "N": 29,
      "O": 30,
      "P": 31,
      "Q": 32,
      "R": 33,
      "S": 34,
      "T": 35,
      "U": 36,
      "V": 37,
      "W": 38,
      "X": 39,
      "Y": 40,
      "Z": 41,
      "a": 42,
      "b": 43,
      "c": 44,
      "d": 45,
      "e": 46,
      "f": 47,
      "g": 48,
      "h": 49,
      "i": 50,
      "j": 51,
      "k": 52,
      "l": 53,
      "m": 54,
      "n": 55,
      "o": 56,
      "p": 57,
      "q": 58,
      "r": 59,
      "s": 60,
      "t": 61,
      "u": 62,
      "v": 63,
      "w": 64,
      "x": 65,
      "y": 66,
      "z": 67,
      "가": 68,
      "각": 69,
      "간": 70,
      "갇": 71,
      "갈": 72,
      "감": 73,
      "갑": 74,
      "값": 75,
      "갓": 76,
      "갔": 77,
      "강": 78,
      "갖": 79,
      "같": 80,
      "갚": 81,
      "개": 82,
      "객": 83,
      "갤": 84,
      "갭": 85,
      "갯": 86,
      "갱": 87,
      "갸": 88,
      "걀": 89,
      "거": 90,
      "걱": 91,
      "건": 92,
      "걷": 93,
      "걸": 94,
      "검": 95,
      "겁": 96,
      "것": 97,
      "겉": 98,
      "게": 99,
      "겐": 100,
      "겔": 101,
      "겜": 102,
      "겟": 103,
      "겠": 104,
      "겨": 105,
      "격": 106,
      "겪": 107,
      "견": 108,
      "결": 109,
      "겸": 110,
      "겹": 111,
      "겼": 112,
      "경": 113,
      "곁": 114,
      "계": 115,
      "고": 116,
      "곡": 117,
      "곤": 118,
      "곧": 119,
      "골": 120,
      "곰": 121,
      "곱": 122,
      "곳": 123,
      "공": 124,
      "곶": 125,
      "과": 126,
      "곽": 127,
      "관": 128,
      "괄": 129,
      "괌": 130,
      "광": 131,
      "괜": 132,
      "괭": 133,
      "괴": 134,
      "굉": 135,
      "교": 136,
      "구": 137,
      "국": 138,
      "군": 139,
      "굳": 140,
      "굴": 141,
      "굵": 142,
      "굼": 143,
      "굽": 144,
      "굿": 145,
      "궁": 146,
      "궈": 147,
      "권": 148,
      "궐": 149,
      "궤": 150,
      "귀": 151,
      "귄": 152,
      "규": 153,
      "균": 154,
      "귤": 155,
      "그": 156,
      "극": 157,
      "근": 158,
      "글": 159,
      "긁": 160,
      "금": 161,
      "급": 162,
      "긋": 163,
      "긍": 164,
      "기": 165,
      "긱": 166,
      "긴": 167,
      "길": 168,
      "김": 169,
      "깁": 170,
      "깃": 171,
      "깅": 172,
      "깊": 173,
      "까": 174,
      "깍": 175,
      "깎": 176,
      "깐": 177,
      "깔": 178,
      "깜": 179,
      "깝": 180,
      "깡": 181,
      "깥": 182,
      "깨": 183,
      "깬": 184,
      "깰": 185,
      "꺼": 186,
      "꺽": 187,
      "꺾": 188,
      "껌": 189,
      "껍": 190,
      "껏": 191,
      "껑": 192,
      "께": 193,
      "껴": 194,
      "꼈": 195,
      "꼬": 196,
      "꼭": 197,
      "꼴": 198,
      "꼼": 199,
      "꼽": 200,
      "꽁": 201,
      "꽂": 202,
      "꽃": 203,
      "꽈": 204,
      "꽉": 205,
      "꽤": 206,
      "꾀": 207,
      "꾸": 208,
      "꾼": 209,
      "꿀": 210,
      "꿈": 211,
      "꿉": 212,
      "꿋": 213,
      "꿔": 214,
      "꿨": 215,
      "꿰": 216,
      "뀌": 217,
      "뀐": 218,
      "뀔": 219,
      "뀝": 220,
      "끄": 221,
      "끈": 222,
      "끊": 223,
      "끌": 224,
      "끓": 225,
      "끔": 226,
      "끗": 227,
      "끝": 228,
      "끼": 229,
      "끽": 230,
      "낀": 231,
      "낄": 232,
      "낌": 233,
      "나": 234,
      "낙": 235,
      "낚": 236,
      "난": 237,
      "날": 238,
      "낡": 239,
      "남": 240,
      "납": 241,
      "낫": 242,
      "났": 243,
      "낭": 244,
      "낮": 245,
      "낯": 246,
      "낱": 247,
      "낳": 248,
      "내": 249,
      "낵": 250,
      "낸": 251,
      "낼": 252,
      "냄": 253,
      "냅": 254,
      "냈": 255,
      "냉": 256,
      "냐": 257,
      "냥": 258,
      "너": 259,
      "넉": 260,
      "넌": 261,
      "널": 262,
      "넓": 263,
      "넘": 264,
      "넙": 265,
      "넛": 266,
      "넣": 267,
      "네": 268,
      "넥": 269,
      "넨": 270,
      "넬": 271,
      "넵": 272,
      "넷": 273,
      "넸": 274,
      "녀": 275,
      "녁": 276,
      "년": 277,
      "념": 278,
      "녔": 279,
      "녕": 280,
      "녘": 281,
      "노": 282,
      "녹": 283,
      "논": 284,
      "놀": 285,
      "놈": 286,
      "놉": 287,
      "농": 288,
      "높": 289,
      "놓": 290,
      "놔": 291,
      "놨": 292,
      "뇌": 293,
      "뇨": 294,
      "뇽": 295,
      "누": 296,
      "눅": 297,
      "눈": 298,
      "눌": 299,
      "눔": 300,
      "눕": 301,
      "눠": 302,
      "눴": 303,
      "뉘": 304,
      "뉜": 305,
      "뉠": 306,
      "뉴": 307,
      "늄": 308,
      "늉": 309,
      "느": 310,
      "늑": 311,
      "는": 312,
      "늘": 313,
      "늙": 314,
      "늠": 315,
      "능": 316,
      "늦": 317,
      "늪": 318,
      "늬": 319,
      "니": 320,
      "닉": 321,
      "닌": 322,
      "닐": 323,
      "님": 324,
      "닙": 325,
      "닛": 326,
      "닝": 327,
      "다": 328,
      "닥": 329,
      "닦": 330,
      "단": 331,
      "닫": 332,
      "달": 333,
      "닭": 334,
      "닮": 335,
      "담": 336,
      "답": 337,
      "닷": 338,
      "당": 339,
      "닿": 340,
      "대": 341,
      "댄": 342,
      "댈": 343,
      "댐": 344,
      "댑": 345,
      "댓": 346,
      "댔": 347,
      "댠": 348,
      "더": 349,
      "덕": 350,
      "던": 351,
      "덜": 352,
      "덟": 353,
      "덤": 354,
      "덥": 355,
      "덧": 356,
      "덩": 357,
      "덮": 358,
      "데": 359,
      "덱": 360,
      "덴": 361,
      "델": 362,
      "뎅": 363,
      "뎌": 364,
      "뎠": 365,
      "도": 366,
      "독": 367,
      "돈": 368,
      "돋": 369,
      "돌": 370,
      "돔": 371,
      "돕": 372,
      "돗": 373,
      "동": 374,
      "돛": 375,
      "돤": 376,
      "돼": 377,
      "됐": 378,
      "되": 379,
      "된": 380,
      "될": 381,
      "됨": 382,
      "됩": 383,
      "두": 384,
      "둑": 385,
      "둔": 386,
      "둘": 387,
      "둠": 388,
      "둡": 389,
      "둥": 390,
      "둬": 391,
      "뒀": 392,
      "뒤": 393,
      "뒷": 394,
      "듀": 395,
      "듈": 396,
      "듐": 397,
      "드": 398,
      "득": 399,
      "든": 400,
      "듣": 401,
      "들": 402,
      "듬": 403,
      "듭": 404,
      "듯": 405,
      "등": 406,
      "디": 407,
      "딕": 408,
      "딘": 409,
      "딛": 410,
      "딜": 411,
      "딤": 412,
      "딥": 413,
      "딧": 414,
      "딩": 415,
      "딪": 416,
      "따": 417,
      "딱": 418,
      "딴": 419,
      "딸": 420,
      "땀": 421,
      "땄": 422,
      "땅": 423,
      "때": 424,
      "땐": 425,
      "땔": 426,
      "땜": 427,
      "땠": 428,
      "땡": 429,
      "떠": 430,
      "떡": 431,
      "떤": 432,
      "떨": 433,
      "떻": 434,
      "떼": 435,
      "뗀": 436,
      "뗄": 437,
      "뗐": 438,
      "또": 439,
      "똑": 440,
      "똘": 441,
      "똥": 442,
      "뚜": 443,
      "뚝": 444,
      "뚫": 445,
      "뚱": 446,
      "뛰": 447,
      "뛴": 448,
      "뛸": 449,
      "뜨": 450,
      "뜩": 451,
      "뜬": 452,
      "뜯": 453,
      "뜰": 454,
      "뜸": 455,
      "뜹": 456,
      "뜻": 457,
      "띄": 458,
      "띈": 459,
      "띔": 460,
      "띕": 461,
      "띠": 462,
      "띤": 463,
      "띵": 464,
      "라": 465,
      "락": 466,
      "란": 467,
      "랄": 468,
      "람": 469,
      "랍": 470,
      "랏": 471,
      "랐": 472,
      "랑": 473,
      "랗": 474,
      "래": 475,
      "랙": 476,
      "랜": 477,
      "랠": 478,
      "램": 479,
      "랩": 480,
      "랫": 481,
      "랬": 482,
      "랭": 483,
      "랴": 484,
      "략": 485,
      "량": 486,
      "러": 487,
      "럭": 488,
      "런": 489,
      "럴": 490,
      "럼": 491,
      "럽": 492,
      "럿": 493,
      "렀": 494,
      "렁": 495,
      "렇": 496,
      "레": 497,
      "렉": 498,
      "렌": 499,
      "렐": 500,
      "렘": 501,
      "렙": 502,
      "렛": 503,
      "려": 504,
      "력": 505,
      "련": 506,
      "렬": 507,
      "렴": 508,
      "렵": 509,
      "렷": 510,
      "렸": 511,
      "령": 512,
      "례": 513,
      "롄": 514,
      "로": 515,
      "록": 516,
      "론": 517,
      "롤": 518,
      "롬": 519,
      "롭": 520,
      "롯": 521,
      "롱": 522,
      "뢰": 523,
      "료": 524,
      "룟": 525,
      "룡": 526,
      "루": 527,
      "룩": 528,
      "룬": 529,
      "룰": 530,
      "룸": 531,
      "룹": 532,
      "룻": 533,
      "룽": 534,
      "뤄": 535,
      "뤘": 536,
      "뤼": 537,
      "류": 538,
      "륙": 539,
      "륜": 540,
      "률": 541,
      "륨": 542,
      "륭": 543,
      "르": 544,
      "른": 545,
      "를": 546,
      "름": 547,
      "릅": 548,
      "릇": 549,
      "릉": 550,
      "릍": 551,
      "릎": 552,
      "리": 553,
      "릭": 554,
      "린": 555,
      "릴": 556,
      "림": 557,
      "립": 558,
      "릿": 559,
      "링": 560,
      "마": 561,
      "막": 562,
      "만": 563,
      "많": 564,
      "맏": 565,
      "말": 566,
      "맑": 567,
      "맘": 568,
      "맙": 569,
      "맛": 570,
      "망": 571,
      "맞": 572,
      "맡": 573,
      "매": 574,
      "맥": 575,
      "맨": 576,
      "맴": 577,
      "맵": 578,
      "맷": 579,
      "맹": 580,
      "맺": 581,
      "먀": 582,
      "머": 583,
      "먹": 584,
      "먼": 585,
      "멀": 586,
      "멈": 587,
      "멉": 588,
      "멋": 589,
      "멍": 590,
      "멎": 591,
      "메": 592,
      "멕": 593,
      "멘": 594,
      "멜": 595,
      "멤": 596,
      "멧": 597,
      "며": 598,
      "면": 599,
      "멸": 600,
      "몄": 601,
      "명": 602,
      "몇": 603,
      "모": 604,
      "목": 605,
      "몫": 606,
      "몬": 607,
      "몰": 608,
      "몸": 609,
      "못": 610,
      "몽": 611,
      "묘": 612,
      "무": 613,
      "묵": 614,
      "묶": 615,
      "문": 616,
      "묻": 617,
      "물": 618,
      "뭄": 619,
      "뭇": 620,
      "뭉": 621,
      "뭐": 622,
      "뭔": 623,
      "뭘": 624,
      "뮌": 625,
      "뮐": 626,
      "뮤": 627,
      "뮬": 628,
      "므": 629,
      "믈": 630,
      "미": 631,
      "믹": 632,
      "민": 633,
      "믿": 634,
      "밀": 635,
      "밋": 636,
      "밌": 637,
      "밍": 638,
      "및": 639,
      "밑": 640,
      "바": 641,
      "박": 642,
      "밖": 643,
      "반": 644,
      "받": 645,
      "발": 646,
      "밝": 647,
      "밟": 648,
      "밤": 649,
      "밥": 650,
      "밧": 651,
      "방": 652,
      "밭": 653,
      "배": 654,
      "백": 655,
      "밴": 656,
      "밸": 657,
      "뱀": 658,
      "뱁": 659,
      "뱅": 660,
      "버": 661,
      "벅": 662,
      "번": 663,
      "벌": 664,
      "범": 665,
      "법": 666,
      "벗": 667,
      "벙": 668,
      "벚": 669,
      "베": 670,
      "벡": 671,
      "벤": 672,
      "벨": 673,
      "벳": 674,
      "벵": 675,
      "벼": 676,
      "벽": 677,
      "변": 678,
      "별": 679,
      "볍": 680,
      "볐": 681,
      "병": 682,
      "보": 683,
      "복": 684,
      "볶": 685,
      "본": 686,
      "볼": 687,
      "봄": 688,
      "봅": 689,
      "봇": 690,
      "봉": 691,
      "봐": 692,
      "봤": 693,
      "봬": 694,
      "뵈": 695,
      "뵌": 696,
      "부": 697,
      "북": 698,
      "분": 699,
      "불": 700,
      "붉": 701,
      "붐": 702,
      "붓": 703,
      "붕": 704,
      "붙": 705,
      "뷔": 706,
      "뷰": 707,
      "뷸": 708,
      "브": 709,
      "븐": 710,
      "블": 711,
      "비": 712,
      "빅": 713,
      "빈": 714,
      "빌": 715,
      "빔": 716,
      "빕": 717,
      "빗": 718,
      "빙": 719,
      "빚": 720,
      "빛": 721,
      "빠": 722,
      "빡": 723,
      "빤": 724,
      "빨": 725,
      "빵": 726,
      "빼": 727,
      "빽": 728,
      "뺀": 729,
      "뺏": 730,
      "뺨": 731,
      "뻐": 732,
      "뻔": 733,
      "뻗": 734,
      "뻘": 735,
      "뻤": 736,
      "뼈": 737,
      "뽀": 738,
      "뽐": 739,
      "뽑": 740,
      "뽕": 741,
      "뾰": 742,
      "뿌": 743,
      "뿍": 744,
      "뿐": 745,
      "뿔": 746,
      "뿜": 747,
      "쁘": 748,
      "쁜": 749,
      "쁠": 750,
      "쁨": 751,
      "삐": 752,
      "사": 753,
      "삭": 754,
      "산": 755,
      "살": 756,
      "삶": 757,
      "삼": 758,
      "삽": 759,
      "삿": 760,
      "샀": 761,
      "상": 762,
      "새": 763,
      "색": 764,
      "샌": 765,
      "샐": 766,
      "샘": 767,
      "샛": 768,
      "생": 769,
      "샤": 770,
      "샨": 771,
      "샴": 772,
      "샵": 773,
      "샷": 774,
      "샹": 775,
      "섀": 776,
      "서": 777,
      "석": 778,
      "섞": 779,
      "선": 780,
      "섣": 781,
      "설": 782,
      "섬": 783,
      "섭": 784,
      "섯": 785,
      "섰": 786,
      "성": 787,
      "세": 788,
      "섹": 789,
      "센": 790,
      "셀": 791,
      "셈": 792,
      "셉": 793,
      "셋": 794,
      "셍": 795,
      "셔": 796,
      "션": 797,
      "셜": 798,
      "셧": 799,
      "셨": 800,
      "셰": 801,
      "셸": 802,
      "소": 803,
      "속": 804,
      "솎": 805,
      "손": 806,
      "솔": 807,
      "솜": 808,
      "솝": 809,
      "솟": 810,
      "송": 811,
      "솥": 812,
      "쇄": 813,
      "쇠": 814,
      "쇳": 815,
      "쇼": 816,
      "숄": 817,
      "숍": 818,
      "숏": 819,
      "수": 820,
      "숙": 821,
      "순": 822,
      "술": 823,
      "숨": 824,
      "숩": 825,
      "숫": 826,
      "숭": 827,
      "숲": 828,
      "쉐": 829,
      "쉘": 830,
      "쉬": 831,
      "쉰": 832,
      "쉴": 833,
      "쉼": 834,
      "쉽": 835,
      "슈": 836,
      "슌": 837,
      "슐": 838,
      "슘": 839,
      "슝": 840,
      "스": 841,
      "슨": 842,
      "슬": 843,
      "슴": 844,
      "습": 845,
      "슷": 846,
      "승": 847,
      "시": 848,
      "식": 849,
      "신": 850,
      "싣": 851,
      "실": 852,
      "싫": 853,
      "심": 854,
      "십": 855,
      "싯": 856,
      "싱": 857,
      "싶": 858,
      "싸": 859,
      "싹": 860,
      "싼": 861,
      "쌀": 862,
      "쌈": 863,
      "쌉": 864,
      "쌌": 865,
      "쌍": 866,
      "쌓": 867,
      "쌤": 868,
      "써": 869,
      "썩": 870,
      "썬": 871,
      "썰": 872,
      "썸": 873,
      "썼": 874,
      "썽": 875,
      "쎄": 876,
      "쏘": 877,
      "쏙": 878,
      "쏜": 879,
      "쏟": 880,
      "쏠": 881,
      "쐈": 882,
      "쐐": 883,
      "쑤": 884,
      "쑥": 885,
      "쑨": 886,
      "쓰": 887,
      "쓱": 888,
      "쓴": 889,
      "쓸": 890,
      "씀": 891,
      "씌": 892,
      "씨": 893,
      "씩": 894,
      "씬": 895,
      "씹": 896,
      "씻": 897,
      "아": 898,
      "악": 899,
      "안": 900,
      "앉": 901,
      "않": 902,
      "알": 903,
      "앓": 904,
      "암": 905,
      "압": 906,
      "앗": 907,
      "았": 908,
      "앙": 909,
      "앞": 910,
      "애": 911,
      "액": 912,
      "앤": 913,
      "앨": 914,
      "앰": 915,
      "앱": 916,
      "앴": 917,
      "앵": 918,
      "야": 919,
      "약": 920,
      "얀": 921,
      "얄": 922,
      "얇": 923,
      "얌": 924,
      "얏": 925,
      "양": 926,
      "얕": 927,
      "얘": 928,
      "어": 929,
      "억": 930,
      "언": 931,
      "얹": 932,
      "얻": 933,
      "얼": 934,
      "얽": 935,
      "엄": 936,
      "업": 937,
      "없": 938,
      "엇": 939,
      "었": 940,
      "엉": 941,
      "엊": 942,
      "엌": 943,
      "엎": 944,
      "에": 945,
      "엑": 946,
      "엔": 947,
      "엘": 948,
      "엠": 949,
      "엣": 950,
      "여": 951,
      "역": 952,
      "엮": 953,
      "연": 954,
      "열": 955,
      "염": 956,
      "엽": 957,
      "엿": 958,
      "였": 959,
      "영": 960,
      "옆": 961,
      "예": 962,
      "옐": 963,
      "옛": 964,
      "오": 965,
      "옥": 966,
      "온": 967,
      "올": 968,
      "옮": 969,
      "옳": 970,
      "옴": 971,
      "옵": 972,
      "옷": 973,
      "옹": 974,
      "와": 975,
      "완": 976,
      "왈": 977,
      "왑": 978,
      "왓": 979,
      "왔": 980,
      "왕": 981,
      "왜": 982,
      "외": 983,
      "왼": 984,
      "요": 985,
      "욕": 986,
      "욘": 987,
      "욜": 988,
      "욤": 989,
      "용": 990,
      "우": 991,
      "욱": 992,
      "운": 993,
      "울": 994,
      "움": 995,
      "웃": 996,
      "웅": 997,
      "워": 998,
      "웍": 999,
      "원": 1000,
      "월": 1001,
      "웠": 1002,
      "웨": 1003,
      "웬": 1004,
      "웰": 1005,
      "웹": 1006,
      "웻": 1007,
      "위": 1008,
      "윈": 1009,
      "윌": 1010,
      "윔": 1011,
      "윗": 1012,
      "윙": 1013,
      "유": 1014,
      "육": 1015,
      "윤": 1016,
      "율": 1017,
      "윱": 1018,
      "윳": 1019,
      "융": 1020,
      "으": 1021,
      "은": 1022,
      "을": 1023,
      "음": 1024,
      "읍": 1025,
      "응": 1026,
      "의": 1027,
      "이": 1028,
      "익": 1029,
      "인": 1030,
      "일": 1031,
      "읽": 1032,
      "잃": 1033,
      "임": 1034,
      "입": 1035,
      "잇": 1036,
      "있": 1037,
      "잉": 1038,
      "잊": 1039,
      "잎": 1040,
      "자": 1041,
      "작": 1042,
      "잔": 1043,
      "잖": 1044,
      "잘": 1045,
      "잠": 1046,
      "잡": 1047,
      "잣": 1048,
      "장": 1049,
      "잦": 1050,
      "재": 1051,
      "잭": 1052,
      "잰": 1053,
      "잼": 1054,
      "잿": 1055,
      "쟁": 1056,
      "쟝": 1057,
      "쟤": 1058,
      "저": 1059,
      "적": 1060,
      "전": 1061,
      "절": 1062,
      "젊": 1063,
      "점": 1064,
      "접": 1065,
      "젓": 1066,
      "정": 1067,
      "젖": 1068,
      "제": 1069,
      "젝": 1070,
      "젠": 1071,
      "젤": 1072,
      "젬": 1073,
      "젯": 1074,
      "져": 1075,
      "젼": 1076,
      "졌": 1077,
      "조": 1078,
      "족": 1079,
      "존": 1080,
      "졸": 1081,
      "좀": 1082,
      "좁": 1083,
      "종": 1084,
      "좇": 1085,
      "좋": 1086,
      "좌": 1087,
      "좡": 1088,
      "죄": 1089,
      "죠": 1090,
      "죤": 1091,
      "주": 1092,
      "죽": 1093,
      "준": 1094,
      "줄": 1095,
      "줌": 1096,
      "줍": 1097,
      "중": 1098,
      "줘": 1099,
      "줬": 1100,
      "쥐": 1101,
      "쥔": 1102,
      "쥘": 1103,
      "쥬": 1104,
      "즈": 1105,
      "즉": 1106,
      "즌": 1107,
      "즐": 1108,
      "즘": 1109,
      "즙": 1110,
      "증": 1111,
      "지": 1112,
      "직": 1113,
      "진": 1114,
      "질": 1115,
      "짊": 1116,
      "짐": 1117,
      "집": 1118,
      "짓": 1119,
      "징": 1120,
      "짖": 1121,
      "짙": 1122,
      "짚": 1123,
      "짜": 1124,
      "짝": 1125,
      "짠": 1126,
      "짤": 1127,
      "짧": 1128,
      "짬": 1129,
      "짭": 1130,
      "짰": 1131,
      "짱": 1132,
      "째": 1133,
      "쨌": 1134,
      "쩌": 1135,
      "쩍": 1136,
      "쩔": 1137,
      "쩡": 1138,
      "쪼": 1139,
      "쪽": 1140,
      "쫄": 1141,
      "쫓": 1142,
      "쭉": 1143,
      "쭐": 1144,
      "쭤": 1145,
      "쯤": 1146,
      "찌": 1147,
      "찍": 1148,
      "찐": 1149,
      "찔": 1150,
      "찜": 1151,
      "찢": 1152,
      "차": 1153,
      "착": 1154,
      "찬": 1155,
      "찮": 1156,
      "찰": 1157,
      "참": 1158,
      "찹": 1159,
      "찻": 1160,
      "찼": 1161,
      "창": 1162,
      "찾": 1163,
      "채": 1164,
      "책": 1165,
      "챌": 1166,
      "챔": 1167,
      "챕": 1168,
      "챗": 1169,
      "챙": 1170,
      "챠": 1171,
      "챤": 1172,
      "처": 1173,
      "척": 1174,
      "천": 1175,
      "철": 1176,
      "첨": 1177,
      "첩": 1178,
      "첫": 1179,
      "청": 1180,
      "체": 1181,
      "첸": 1182,
      "첼": 1183,
      "쳐": 1184,
      "쳤": 1185,
      "초": 1186,
      "촉": 1187,
      "촌": 1188,
      "촘": 1189,
      "촛": 1190,
      "총": 1191,
      "촨": 1192,
      "촬": 1193,
      "촹": 1194,
      "최": 1195,
      "쵸": 1196,
      "추": 1197,
      "축": 1198,
      "춘": 1199,
      "출": 1200,
      "춤": 1201,
      "춧": 1202,
      "충": 1203,
      "춰": 1204,
      "췄": 1205,
      "췌": 1206,
      "취": 1207,
      "췼": 1208,
      "츄": 1209,
      "츠": 1210,
      "측": 1211,
      "츰": 1212,
      "층": 1213,
      "치": 1214,
      "칙": 1215,
      "친": 1216,
      "칠": 1217,
      "침": 1218,
      "칩": 1219,
      "칫": 1220,
      "칭": 1221,
      "카": 1222,
      "칵": 1223,
      "칸": 1224,
      "칼": 1225,
      "캄": 1226,
      "캅": 1227,
      "캉": 1228,
      "캐": 1229,
      "캔": 1230,
      "캘": 1231,
      "캠": 1232,
      "캡": 1233,
      "캥": 1234,
      "캬": 1235,
      "커": 1236,
      "컥": 1237,
      "컨": 1238,
      "컫": 1239,
      "컬": 1240,
      "컴": 1241,
      "컵": 1242,
      "컷": 1243,
      "컸": 1244,
      "케": 1245,
      "켄": 1246,
      "켈": 1247,
      "켐": 1248,
      "켓": 1249,
      "켜": 1250,
      "켠": 1251,
      "켰": 1252,
      "코": 1253,
      "콕": 1254,
      "콘": 1255,
      "콜": 1256,
      "콤": 1257,
      "콥": 1258,
      "콧": 1259,
      "콩": 1260,
      "콰": 1261,
      "콴": 1262,
      "쾌": 1263,
      "쾨": 1264,
      "쿄": 1265,
      "쿠": 1266,
      "쿡": 1267,
      "쿤": 1268,
      "쿨": 1269,
      "쿵": 1270,
      "쿼": 1271,
      "퀀": 1272,
      "퀄": 1273,
      "퀘": 1274,
      "퀴": 1275,
      "퀵": 1276,
      "퀸": 1277,
      "큅": 1278,
      "큐": 1279,
      "큘": 1280,
      "크": 1281,
      "큰": 1282,
      "클": 1283,
      "큼": 1284,
      "큽": 1285,
      "키": 1286,
      "킥": 1287,
      "킨": 1288,
      "킬": 1289,
      "킴": 1290,
      "킵": 1291,
      "킷": 1292,
      "킹": 1293,
      "타": 1294,
      "탁": 1295,
      "탄": 1296,
      "탈": 1297,
      "탐": 1298,
      "탑": 1299,
      "탓": 1300,
      "탔": 1301,
      "탕": 1302,
      "태": 1303,
      "택": 1304,
      "탠": 1305,
      "탤": 1306,
      "탬": 1307,
      "탭": 1308,
      "탰": 1309,
      "탱": 1310,
      "터": 1311,
      "턱": 1312,
      "턴": 1313,
      "털": 1314,
      "텀": 1315,
      "텁": 1316,
      "텃": 1317,
      "텄": 1318,
      "텅": 1319,
      "테": 1320,
      "텍": 1321,
      "텐": 1322,
      "텔": 1323,
      "템": 1324,
      "텝": 1325,
      "텨": 1326,
      "텼": 1327,
      "톈": 1328,
      "토": 1329,
      "톡": 1330,
      "톤": 1331,
      "톨": 1332,
      "톰": 1333,
      "톱": 1334,
      "통": 1335,
      "톺": 1336,
      "퇀": 1337,
      "퇴": 1338,
      "투": 1339,
      "툰": 1340,
      "툴": 1341,
      "툼": 1342,
      "퉁": 1343,
      "퉈": 1344,
      "퉨": 1345,
      "튀": 1346,
      "튄": 1347,
      "튈": 1348,
      "튕": 1349,
      "튜": 1350,
      "튠": 1351,
      "튤": 1352,
      "튬": 1353,
      "트": 1354,
      "특": 1355,
      "튼": 1356,
      "튿": 1357,
      "틀": 1358,
      "틈": 1359,
      "틍": 1360,
      "티": 1361,
      "틱": 1362,
      "틴": 1363,
      "틸": 1364,
      "팀": 1365,
      "팁": 1366,
      "팃": 1367,
      "팅": 1368,
      "파": 1369,
      "팍": 1370,
      "팎": 1371,
      "판": 1372,
      "팔": 1373,
      "팜": 1374,
      "팝": 1375,
      "팟": 1376,
      "팠": 1377,
      "팡": 1378,
      "팥": 1379,
      "패": 1380,
      "팩": 1381,
      "팬": 1382,
      "팰": 1383,
      "팸": 1384,
      "팹": 1385,
      "팻": 1386,
      "팽": 1387,
      "퍈": 1388,
      "퍼": 1389,
      "펀": 1390,
      "펄": 1391,
      "펌": 1392,
      "펍": 1393,
      "펑": 1394,
      "페": 1395,
      "펙": 1396,
      "펜": 1397,
      "펠": 1398,
      "펩": 1399,
      "펫": 1400,
      "펭": 1401,
      "펴": 1402,
      "편": 1403,
      "펼": 1404,
      "폈": 1405,
      "평": 1406,
      "폐": 1407,
      "포": 1408,
      "폭": 1409,
      "폰": 1410,
      "폴": 1411,
      "폼": 1412,
      "퐁": 1413,
      "표": 1414,
      "푸": 1415,
      "푹": 1416,
      "푼": 1417,
      "풀": 1418,
      "품": 1419,
      "풋": 1420,
      "풍": 1421,
      "퓌": 1422,
      "퓨": 1423,
      "퓰": 1424,
      "프": 1425,
      "픈": 1426,
      "플": 1427,
      "픔": 1428,
      "피": 1429,
      "픽": 1430,
      "핀": 1431,
      "필": 1432,
      "핌": 1433,
      "핍": 1434,
      "핏": 1435,
      "핑": 1436,
      "하": 1437,
      "학": 1438,
      "한": 1439,
      "할": 1440,
      "함": 1441,
      "합": 1442,
      "핫": 1443,
      "항": 1444,
      "해": 1445,
      "핵": 1446,
      "핸": 1447,
      "햄": 1448,
      "햇": 1449,
      "했": 1450,
      "행": 1451,
      "햐": 1452,
      "향": 1453,
      "허": 1454,
      "헌": 1455,
      "헐": 1456,
      "험": 1457,
      "헙": 1458,
      "헛": 1459,
      "헝": 1460,
      "헤": 1461,
      "헥": 1462,
      "헨": 1463,
      "헬": 1464,
      "헷": 1465,
      "헹": 1466,
      "혀": 1467,
      "혁": 1468,
      "현": 1469,
      "혈": 1470,
      "혐": 1471,
      "협": 1472,
      "혔": 1473,
      "형": 1474,
      "혜": 1475,
      "호": 1476,
      "혹": 1477,
      "혼": 1478,
      "홀": 1479,
      "홈": 1480,
      "홉": 1481,
      "홋": 1482,
      "홍": 1483,
      "화": 1484,
      "확": 1485,
      "환": 1486,
      "활": 1487,
      "황": 1488,
      "회": 1489,
      "획": 1490,
      "횟": 1491,
      "횡": 1492,
      "효": 1493,
      "후": 1494,
      "훈": 1495,
      "훌": 1496,
      "훑": 1497,
      "훔": 1498,
      "훗": 1499,
      "훙": 1500,
      "훨": 1501,
      "훼": 1502,
      "휘": 1503,
      "휠": 1504,
      "휩": 1505,
      "휴": 1506,
      "흉": 1507,
      "흐": 1508,
      "흑": 1509,
      "흔": 1510,
      "흘": 1511,
      "흙": 1512,
      "흠": 1513,
      "흡": 1514,
      "흥": 1515,
      "흩": 1516,
      "희": 1517,
      "흰": 1518,
      "히": 1519,
      "힌": 1520,
      "힐": 1521,
      "힘": 1522,
      "힙": 1523,
      "##이": 1524,
      "##그": 1525,
      "##레": 1526,
      "##션": 1527,
      "##에": 1528,
      "##거": 1529,
      "##하": 1530,
      "##지": 1531,
      "##R": 1532,
      "##L": 1533,
      "##루": 1534,
      "##투": 1535,
      "##스": 1536,
      "##로": 1537,
      "##은": 1538,
      "##고": 1539,
      "##치": 1540,
      "##였": 1541,
      "##던": 1542,
      "##종": 1543,
      "##규": 1544,
      "##성": 1545,
      "##호": 1546,
      "##암": 1547,
      "##상": 1548,
      "##출": 1549,
      "##업": 1550,
      "##체": 1551,
      "##들": 1552,
      "##짐": 1553,
      "##퐁": 1554,
      "##당": 1555,
      "##기": 1556,
      "##대": 1557,
      "##응": 1558,
      "##행": 1559,
      "##통": 1560,
      "##망": 1561,
      "##만": 1562,
      "##텝": 1563,
      "##큐": 1564,
      "##브": 1565,
      "##랩": 1566,
      "##2": 1567,
      "##는": 1568,
      "##령": 1569,
      "##의": 1570,
      "##단": 1571,
      "##계": 1572,
      "##4": 1573,
      "##0": 1574,
      "##주": 1575,
      "##며": 1576,
      "##형": 1577,
      "##다": 1578,
      "##외": 1579,
      "##송": 1580,
      "##서": 1581,
      "##트": 1582,
      "##자": 1583,
      "##광": 1584,
      "##급": 1585,
      "##됐": 1586,
      "##키": 1587,
      "##년": 1588,
      "##3": 1589,
      "##7": 1590,
      "##억": 1591,
      "##원": 1592,
      "##을": 1593,
      "##미": 1594,
      "##듭": 1595,
      "##나": 1596,
      "##1": 1597,
      "##5": 1598,
      "##오": 1599,
      "##량": 1600,
      "##리": 1601,
      "##벨": 1602,
      "##모": 1603,
      "##난": 1604,
      "##6": 1605,
      "##b": 1606,
      "##p": 1607,
      "##까": 1608,
      "##W": 1609,
      "##캠": 1610,
      "##프": 1611,
      "##려": 1612,
      "##워": 1613,
      "##졌": 1614,
      "##르": 1615,
      "##결": 1616,
      "##일": 1617,
      "##합": 1618,
      "##니": 1619,
      "##발": 1620,
      "##할": 1621,
      "##8": 1622,
      "##건": 1623,
      "##으": 1624,
      "##채": 1625,
      "##움": 1626,
      "##공": 1627,
      "##제": 1628,
      "##9": 1629,
      "##토": 1630,
      "##담": 1631,
      "##게": 1632,
      "##위": 1633,
      "##아": 1634,
      "##면": 1635,
      "##여": 1636,
      "##천": 1637,
      "##D": 1638,
      "##r": 1639,
      "##i": 1640,
      "##v": 1641,
      "##e": 1642,
      "##비": 1643,
      "##장": 1644,
      "##한": 1645,
      "##쳐": 1646,
      "##줄": 1647,
      "##T": 1648,
      "##x": 1649,
      "##를": 1650,
      "##해": 1651,
      "##평": 1652,
      "##가": 1653,
      "##M": 1654,
      "##요": 1655,
      "##증": 1656,
      "##신": 1657,
      "##소": 1658,
      "##했": 1659,
      "##금": 1660,
      "##융": 1661,
      "##권": 1662,
      "##우": 1663,
      "##와": 1664,
      "##라": 1665,
      "##티": 1666,
      "##목": 1667,
      "##받": 1668,
      "##울": 1669,
      "##러": 1670,
      "##국": 1671,
      "##인": 1672,
      "##중": 1673,
      "##개": 1674,
      "##사": 1675,
      "##협": 1676,
      "##회": 1677,
      "##정": 1678,
      "##무": 1679,
      "##력": 1680,
      "##도": 1681,
      "##설": 1682,
      "##식": 1683,
      "##뇨": 1684,
      "##약": 1685,
      "##층": 1686,
      "##류": 1687,
      "##었": 1688,
      "##O": 1689,
      "##U": 1690,
      "##P": 1691,
      "##룹": 1692,
      "##별": 1693,
      "##격": 1694,
      "##추": 1695,
      "##돼": 1696,
      "##직": 1697,
      "##임": 1698,
      "##두": 1699,
      "##세": 1700,
      "##준": 1701,
      "##표": 1702,
      "##터": 1703,
      "##센": 1704,
      "##물": 1705,
      "##V": 1706,
      "##S": 1707,
      "##C": 1708,
      "##슷": 1709,
      "##데": 1710,
      "##월": 1711,
      "##드": 1712,
      "##타": 1713,
      "##턱": 1714,
      "##냈": 1715,
      "##경": 1716,
      "##염": 1717,
      "##유": 1718,
      "##차": 1719,
      "##l": 1720,
      "##록": 1721,
      "##파": 1722,
      "##마": 1723,
      "##카": 1724,
      "##즈": 1725,
      "##부": 1726,
      "##간": 1727,
      "##것": 1728,
      "##퍼": 1729,
      "##품": 1730,
      "##영": 1731,
      "##웃": 1732,
      "##심": 1733,
      "##작": 1734,
      "##큼": 1735,
      "##I": 1736,
      "##산": 1737,
      "##분": 1738,
      "##환": 1739,
      "##속": 1740,
      "##문": 1741,
      "##객": 1742,
      "##크": 1743,
      "##림": 1744,
      "##허": 1745,
      "##청": 1746,
      "##케": 1747,
      "##슨": 1748,
      "##항": 1749,
      "##집": 1750,
      "##보": 1751,
      "##홀": 1752,
      "##화": 1753,
      "##패": 1754,
      "##진": 1755,
      "##윤": 1756,
      "##택": 1757,
      "##수": 1758,
      "##앙": 1759,
      "##코": 1760,
      "##어": 1761,
      "##실": 1762,
      "##달": 1763,
      "##m": 1764,
      "##학": 1765,
      "##전": 1766,
      "##않": 1767,
      "##랜": 1768,
      "##민": 1769,
      "##턴": 1770,
      "##립": 1771,
      "##툰": 1772,
      "##율": 1773,
      "##구": 1774,
      "##플": 1775,
      "##랫": 1776,
      "##폼": 1777,
      "##북": 1778,
      "##괄": 1779,
      "##엠": 1780,
      "##귀": 1781,
      "##획": 1782,
      "##디": 1783,
      "##방": 1784,
      "##초": 1785,
      "##옥": 1786,
      "##활": 1787,
      "##육": 1788,
      "##연": 1789,
      "##든": 1790,
      "##병": 1791,
      "##관": 1792,
      "##못": 1793,
      "##널": 1794,
      "##혈": 1795,
      "##a": 1796,
      "##o": 1797,
      "##c": 1798,
      "##t": 1799,
      "##n": 1800,
      "##메": 1801,
      "##승": 1802,
      "##본": 1803,
      "##질": 1804,
      "##버": 1805,
      "##될": 1806,
      "##락": 1807,
      "##엔": 1808,
      "##더": 1809,
      "##역": 1810,
      "##겠": 1811,
      "##얀": 1812,
      "##s": 1813,
      "##동": 1814,
      "##G": 1815,
      "##너": 1816,
      "##솔": 1817,
      "##과": 1818,
      "##입": 1819,
      "##등": 1820,
      "##헨": 1821,
      "##익": 1822,
      "##곳": 1823,
      "##핑": 1824,
      "##매": 1825,
      "##저": 1826,
      "##럽": 1827,
      "##핵": 1828,
      "##용": 1829,
      "##된": 1830,
      "##향": 1831,
      "##휴": 1832,
      "##처": 1833,
      "##냐": 1834,
      "##되": 1835,
      "##함": 1836,
      "##맘": 1837,
      "##내": 1838,
      "##린": 1839,
      "##명": 1840,
      "##참": 1841,
      "##양": 1842,
      "##웨": 1843,
      "##값": 1844,
      "##점": 1845,
      "##시": 1846,
      "##험": 1847,
      "##바": 1848,
      "##석": 1849,
      "##혁": 1850,
      "##선": 1851,
      "##반": 1852,
      "##A": 1853,
      "##안": 1854,
      "##람": 1855,
      "##뀝": 1856,
      "##녹": 1857,
      "##십": 1858,
      "##웰": 1859,
      "##빙": 1860,
      "##럭": 1861,
      "##탄": 1862,
      "##혼": 1863,
      "##렙": 1864,
      "##독": 1865,
      "##야": 1866,
      "##측": 1867,
      "##뢰": 1868,
      "##침": 1869,
      "##각": 1870,
      "##습": 1871,
      "##갈": 1872,
      "##히": 1873,
      "##왔": 1874,
      "##적": 1875,
      "##배": 1876,
      "##칠": 1877,
      "##포": 1878,
      "##근": 1879,
      "##딜": 1880,
      "##조": 1881,
      "##찬": 1882,
      "##교": 1883,
      "##같": 1884,
      "##롭": 1885,
      "##J": 1886,
      "##B": 1887,
      "##술": 1888,
      "##검": 1889,
      "##넷": 1890,
      "##래": 1891,
      "##춤": 1892,
      "##료": 1893,
      "##빌": 1894,
      "##름": 1895,
      "##깊": 1896,
      "##창": 1897,
      "##u": 1898,
      "##현": 1899,
      "##운": 1900,
      "##극": 1901,
      "##판": 1902,
      "##먼": 1903,
      "##닿": 1904,
      "##얼": 1905,
      "##괴": 1906,
      "##때": 1907,
      "##롯": 1908,
      "##재": 1909,
      "##앤": 1910,
      "##늠": 1911,
      "##넨": 1912,
      "##탈": 1913,
      "##있": 1914,
      "##핏": 1915,
      "##취": 1916,
      "##E": 1917,
      "##예": 1918,
      "##탁": 1919,
      "##태": 1920,
      "##피": 1921,
      "##털": 1922,
      "##막": 1923,
      "##템": 1924,
      "##틀": 1925,
      "##째": 1926,
      "##럼": 1927,
      "##언": 1928,
      "##콘": 1929,
      "##텐": 1930,
      "##츠": 1931,
      "##존": 1932,
      "##법": 1933,
      "##쿡": 1934,
      "##튜": 1935,
      "##축": 1936,
      "##혜": 1937,
      "##씨": 1938,
      "##열": 1939,
      "##접": 1940,
      "##F": 1941,
      "##셜": 1942,
      "##멘": 1943,
      "##족": 1944,
      "##변": 1945,
      "##베": 1946,
      "##엑": 1947,
      "##균": 1948,
      "##론": 1949,
      "##률": 1950,
      "##홍": 1951,
      "##죠": 1952,
      "##튿": 1953,
      "##날": 1954,
      "##논": 1955,
      "##삼": 1956,
      "##켰": 1957,
      "##생": 1958,
      "##났": 1959,
      "##네": 1960,
      "##룸": 1961,
      "##테": 1962,
      "##블": 1963,
      "##g": 1964,
      "##z": 1965,
      "##손": 1966,
      "##닥": 1967,
      "##쳤": 1968,
      "##념": 1969,
      "##똑": 1970,
      "##최": 1971,
      "##잡": 1972,
      "##빛": 1973,
      "##략": 1974,
      "##딥": 1975,
      "##색": 1976,
      "##남": 1977,
      "##란": 1978,
      "##농": 1979,
      "##완": 1980,
      "##았": 1981,
      "##골": 1982,
      "##살": 1983,
      "##복": 1984,
      "##철": 1985,
      "##압": 1986,
      "##져": 1987,
      "##군": 1988,
      "##팀": 1989,
      "##꺼": 1990,
      "##셋": 1991,
      "##끗": 1992,
      "##액": 1993,
      "##앱": 1994,
      "##후": 1995,
      "##필": 1996,
      "##몰": 1997,
      "##온": 1998,
      "##쇠": 1999,
      "##N": 2000,
      "##픈": 2001,
      "##쟁": 2002,
      "##범": 2003,
      "##말": 2004,
      "##K": 2005,
      "##눔": 2006,
      "##컬": 2007,
      "##k": 2008,
      "##쿨": 2009,
      "##h": 2010,
      "##견": 2011,
      "##렴": 2012,
      "##놈": 2013,
      "##노": 2014,
      "##줬": 2015,
      "##김": 2016,
      "##없": 2017,
      "##꾼": 2018,
      "##혔": 2019,
      "##틴": 2020,
      "##감": 2021,
      "##뛰": 2022,
      "##밴": 2023,
      "##d": 2024,
      "##페": 2025,
      "##번": 2026,
      "##희": 2027,
      "##놓": 2028,
      "##풍": 2029,
      "##쁠": 2030,
      "##궤": 2031,
      "##척": 2032,
      "##능": 2033,
      "##례": 2034,
      "##불": 2035,
      "##됨": 2036,
      "##느": 2037,
      "##써": 2038,
      "##둔": 2039,
      "##룬": 2040,
      "##곡": 2041,
      "##흥": 2042,
      "##길": 2043,
      "##싸": 2044,
      "##잖": 2045,
      "##푹": 2046,
      "##H": 2047,
      "##릿": 2048,
      "##착": 2049,
      "##퓨": 2050,
      "##악": 2051,
      "##뜰": 2052,
      "##폰": 2053,
      "##강": 2054,
      "##께": 2055,
      "##책": 2056,
      "##컴": 2057,
      "##뿐": 2058,
      "##맥": 2059,
      "##델": 2060,
      "##낫": 2061,
      "##콜": 2062,
      "##헬": 2063,
      "##둬": 2064,
      "##톤": 2065,
      "##닝": 2066,
      "##누": 2067,
      "##텔": 2068,
      "##겨": 2069,
      "##죄": 2070,
      "##컵": 2071,
      "##링": 2072,
      "##효": 2073,
      "##X": 2074,
      "##킨": 2075,
      "##칙": 2076,
      "##씩": 2077,
      "##픔": 2078,
      "##믹": 2079,
      "##음": 2080,
      "##올": 2081,
      "##댑": 2082,
      "##머": 2083,
      "##클": 2084,
      "##렬": 2085,
      "##탠": 2086,
      "##혹": 2087,
      "##촉": 2088,
      "##솟": 2089,
      "##풀": 2090,
      "##슬": 2091,
      "##헤": 2092,
      "##낌": 2093,
      "##랄": 2094,
      "##곤": 2095,
      "##궁": 2096,
      "##뱅": 2097,
      "##톨": 2098,
      "##릭": 2099,
      "##엘": 2100,
      "##릴": 2101,
      "##퇴": 2102,
      "##듬": 2103,
      "##깔": 2104,
      "##렸": 2105,
      "##슐": 2106,
      "##킹": 2107,
      "##숍": 2108,
      "##켓": 2109,
      "##편": 2110,
      "##낸": 2111,
      "##팎": 2112,
      "##백": 2113,
      "##친": 2114,
      "##귤": 2115,
      "##따": 2116,
      "##쓰": 2117,
      "##팜": 2118,
      "##커": 2119,
      "##텀": 2120,
      "##끼": 2121,
      "##련": 2122,
      "##멧": 2123,
      "##빗": 2124,
      "##팩": 2125,
      "##뻤": 2126,
      "##충": 2127,
      "##뉴": 2128,
      "##y": 2129,
      "##애": 2130,
      "##섰": 2131,
      "##득": 2132,
      "##퓰": 2133,
      "##폭": 2134,
      "##훈": 2135,
      "##박": 2136,
      "##룩": 2137,
      "##뜻": 2138,
      "##꿔": 2139,
      "##탱": 2140,
      "##덜": 2141,
      "##순": 2142,
      "##찌": 2143,
      "##뮤": 2144,
      "##팬": 2145,
      "##벌": 2146,
      "##밀": 2147,
      "##렌": 2148,
      "##섬": 2149,
      "##댄": 2150,
      "##봇": 2151,
      "##셀": 2152,
      "##팅": 2153,
      "##맹": 2154,
      "##새": 2155,
      "##닉": 2156,
      "##쇼": 2157,
      "##덴": 2158,
      "##덕": 2159,
      "##늄": 2160,
      "##밋": 2161,
      "##컨": 2162,
      "##썽": 2163,
      "##벤": 2164,
      "##랙": 2165,
      "##알": 2166,
      "##팹": 2167,
      "##렉": 2168,
      "##엄": 2169,
      "##틱": 2170,
      "##절": 2171,
      "##겐": 2172,
      "##닫": 2173,
      "##찰": 2174,
      "##맵": 2175,
      "##껴": 2176,
      "##댐": 2177,
      "##픽": 2178,
      "##윈": 2179,
      "##텍": 2180,
      "##핀": 2181,
      "##캡": 2182,
      "##밍": 2183,
      "##Q": 2184,
      "##황": 2185,
      "##빔": 2186,
      "##밥": 2187,
      "##렵": 2188,
      "##잿": 2189,
      "##컷": 2190,
      "##칭": 2191,
      "##넥": 2192,
      "##럴": 2193,
      "##헌": 2194,
      "##탰": 2195,
      "##쿄": 2196,
      "##납": 2197,
      "##펀": 2198,
      "##램": 2199,
      "##랐": 2200,
      "##글": 2201,
      "##륙": 2202,
      "##벽": 2203,
      "##촌": 2204,
      "##캔": 2205,
      "##확": 2206,
      "##Y": 2207,
      "##뤄": 2208,
      "##샘": 2209,
      "##퀴": 2210,
      "##슈": 2211,
      "##봉": 2212,
      "##콩": 2213,
      "##푸": 2214,
      "##욕": 2215,
      "##싱": 2216,
      "##갔": 2217,
      "##웍": 2218,
      "##셉": 2219,
      "##랍": 2220,
      "##긴": 2221,
      "##므": 2222,
      "##듯": 2223,
      "##숙": 2224,
      "##긋": 2225,
      "##벳": 2226,
      "##룻": 2227,
      "##빨": 2228,
      "##춘": 2229,
      "##총": 2230,
      "##큰": 2231,
      "##둥": 2232,
      "##졸": 2233,
      "##꼬": 2234,
      "##왈": 2235,
      "##쭉": 2236,
      "##맨": 2237,
      "##힌": 2238,
      "##웅": 2239,
      "##췄": 2240,
      "##찮": 2241,
      "##Z": 2242,
      "##젼": 2243,
      "##팡": 2244,
      "##퓌": 2245,
      "##른": 2246,
      "##펙": 2247,
      "##앓": 2248,
      "##닌": 2249,
      "##켜": 2250,
      "##닷": 2251,
      "##혀": 2252,
      "##랑": 2253,
      "##징": 2254,
      "##킬": 2255,
      "##욱": 2256,
      "##퀘": 2257,
      "##팍": 2258,
      "##껑": 2259,
      "##틸": 2260,
      "##몬": 2261,
      "##캐": 2262,
      "##멸": 2263,
      "##옴": 2264,
      "##쉬": 2265,
      "##넘": 2266,
      "##즘": 2267,
      "##뚜": 2268,
      "##빅": 2269,
      "##퉨": 2270,
      "##팔": 2271,
      "##쿼": 2272,
      "##읍": 2273,
      "##폴": 2274,
      "##옵": 2275,
      "##갤": 2276,
      "##녀": 2277,
      "##깃": 2278,
      "##셔": 2279,
      "##즌": 2280,
      "##튼": 2281,
      "##춰": 2282,
      "##꼼": 2283,
      "##븐": 2284,
      "##쑤": 2285,
      "##톡": 2286,
      "##얹": 2287,
      "##폐": 2288,
      "##맛": 2289,
      "##팽": 2290,
      "##쪽": 2291,
      "##f": 2292,
      "##늘": 2293,
      "##칩": 2294,
      "##덱": 2295,
      "##딩": 2296,
      "##썸": 2297,
      "##꿨": 2298,
      "##특": 2299,
      "##뭐": 2300,
      "##펜": 2301,
      "##딧": 2302,
      "##죽": 2303,
      "##눴": 2304,
      "##휘": 2305,
      "##짚": 2306,
      "##런": 2307,
      "##덟": 2308,
      "##츄": 2309,
      "##릉": 2310,
      "##숭": 2311,
      "##룽": 2312,
      "##줘": 2313,
      "##웠": 2314,
      "##첨": 2315,
      "##곱": 2316,
      "##걸": 2317,
      "##렁": 2318,
      "##홈": 2319,
      "##됩": 2320,
      "##볼": 2321,
      "##흐": 2322,
      "##맙": 2323,
      "##콤": 2324,
      "##쇄": 2325,
      "##답": 2326,
      "##곽": 2327,
      "##밭": 2328,
      "##님": 2329,
      "##씀": 2330,
      "##셨": 2331,
      "##섭": 2332,
      "##륭": 2333,
      "##뷰": 2334,
      "##촨": 2335,
      "##딕": 2336,
      "##놀": 2337,
      "##쿠": 2338,
      "##닛": 2339,
      "##룡": 2340,
      "##쿵": 2341,
      "##갑": 2342,
      "##좌": 2343,
      "##뷸": 2344,
      "##팟": 2345,
      "##앞": 2346,
      "##빈": 2347,
      "##꾸": 2348,
      "##찾": 2349,
      "##륨": 2350,
      "##흡": 2351,
      "##롄": 2352,
      "##깨": 2353,
      "##녘": 2354,
      "##낼": 2355,
      "##뭄": 2356,
      "##뻐": 2357,
      "##렘": 2358,
      "##딛": 2359,
      "##굴": 2360,
      "##q": 2361,
      "##돌": 2362,
      "##롱": 2363,
      "##잼": 2364,
      "##뒤": 2365,
      "##떤": 2366,
      "##뉜": 2367,
      "##낵": 2368,
      "##낀": 2369,
      "##덤": 2370,
      "##w": 2371,
      "##껏": 2372,
      "##캘": 2373,
      "##힐": 2374,
      "##돈": 2375,
      "##펴": 2376,
      "##봤": 2377,
      "##쾌": 2378,
      "##펄": 2379,
      "##렀": 2380,
      "##몄": 2381,
      "##즐": 2382,
      "##샵": 2383,
      "##벼": 2384,
      "##킷": 2385,
      "##젠": 2386,
      "##빠": 2387,
      "##펌": 2388,
      "##몽": 2389,
      "##숨": 2390,
      "##짜": 2391,
      "##돋": 2392,
      "##웹": 2393,
      "##딱": 2394,
      "##쯤": 2395,
      "##놉": 2396,
      "##.": 2397,
      "##엽": 2398,
      "##밖": 2399,
      "##떨": 2400,
      "##콥": 2401,
      "##튬": 2402,
      "##쓸": 2403,
      "##겼": 2404,
      "##겸": 2405,
      "##윙": 2406,
      "##뎠": 2407,
      "##쏘": 2408,
      "##붙": 2409,
      "##삭": 2410,
      "##젤": 2411,
      "##챤": 2412,
      "##멜": 2413,
      "##쩌": 2414,
      "##솝": 2415,
      "##셰": 2416,
      "##짓": 2417,
      "##묵": 2418,
      "##얇": 2419,
      "##둘": 2420,
      "##잉": 2421,
      "##봐": 2422,
      "##윗": 2423,
      "##쉼": 2424,
      "##젝": 2425,
      "##늪": 2426,
      "##힘": 2427,
      "##밤": 2428,
      "##엇": 2429,
      "##쌀": 2430,
      "##멍": 2431,
      "##릇": 2432,
      "##뀌": 2433,
      "##탕": 2434,
      "##먹": 2435,
      "##갱": 2436,
      "##톰": 2437,
      "##왑": 2438,
      "##몸": 2439,
      "##왕": 2440,
      "##땐": 2441,
      "##챠": 2442,
      "##헐": 2443,
      "##쉘": 2444,
      "##탑": 2445,
      "##넉": 2446,
      "##멤": 2447,
      "##끌": 2448,
      "##둑": 2449,
      "##큘": 2450,
      "##쁜": 2451,
      "##끄": 2452,
      "##뜨": 2453,
      "##롤": 2454,
      "##찍": 2455,
      "##맞": 2456,
      "##쥬": 2457,
      "##벡": 2458,
      "##앰": 2459,
      "##뒀": 2460,
      "##렇": 2461,
      "##땅": 2462,
      "##씬": 2463,
      "##햄": 2464,
      "##빵": 2465,
      "##줌": 2466,
      "##핍": 2467,
      "##짝": 2468,
      "##즙": 2469,
      "##낮": 2470,
      "##곰": 2471,
      "##첼": 2472,
      "##펫": 2473,
      "##녕": 2474,
      "##펠": 2475,
      "##벵": 2476,
      "##팝": 2477,
      "##팃": 2478,
      "##칼": 2479,
      "##눌": 2480,
      "##뿍": 2481,
      "##윳": 2482,
      "##낭": 2483,
      "##숲": 2484,
      "##닐": 2485,
      "##밸": 2486,
      "##갓": 2487,
      "##걀": 2488,
      "##딘": 2489,
      "##툴": 2490,
      "##녁": 2491,
      "##욜": 2492,
      "##굽": 2493,
      "##잠": 2494,
      "##듈": 2495,
      "##첩": 2496,
      "##뷔": 2497,
      "##갸": 2498,
      "##츰": 2499,
      "##샷": 2500,
      "##짱": 2501,
      "##랴": 2502,
      "##깎": 2503,
      "##볍": 2504,
      "##잇": 2505,
      "##앉": 2506,
      "##탐": 2507,
      "##섯": 2508,
      "##쌌": 2509,
      "##낙": 2510,
      "##쎄": 2511,
      "##햐": 2512,
      "##눅": 2513,
      "##닭": 2514,
      "##옷": 2515,
      "##룰": 2516,
      "##뵌": 2517,
      "##꽃": 2518,
      "##넬": 2519,
      "##뱀": 2520,
      "##꼽": 2521,
      "##흑": 2522,
      "##갭": 2523,
      "##냥": 2524,
      "##끽": 2525,
      "##넌": 2526,
      "##햇": 2527,
      "##랭": 2528,
      "##돗": 2529,
      "##빽": 2530,
      "##싼": 2531,
      "##챌": 2532,
      "##렷": 2533,
      "##떡": 2534,
      "##볶": 2535,
      "##륜": 2536,
      "##옹": 2537,
      "##찔": 2538,
      "##눠": 2539,
      "##팰": 2540,
      "##넸": 2541,
      "##j": 2542,
      "##땠": 2543,
      "##냄": 2544,
      "##겪": 2545,
      "##첸": 2546,
      "##뵈": 2547,
      "##꼈": 2548,
      "##꿀": 2549,
      "##즉": 2550,
      "##펩": 2551,
      "##훗": 2552,
      "##랏": 2553,
      "##빚": 2554,
      "##릅": 2555,
      "##닦": 2556,
      "##흘": 2557,
      "##몇": 2558,
      "##롬": 2559,
      "##핫": 2560,
      "##칫": 2561,
      "##렛": 2562,
      "##깅": 2563,
      "##꿉": 2564,
      "##괭": 2565,
      "##넓": 2566,
      "##꿈": 2567,
      "##냉": 2568,
      "##뉘": 2569,
      "##욘": 2570,
      "##뇌": 2571,
      "##죤": 2572,
      "##훙": 2573,
      "##잭": 2574,
      "##잔": 2575,
      "##뀐": 2576,
      "##끈": 2577,
      "##펭": 2578,
      "##귄": 2579,
      "##맷": 2580,
      "##좋": 2581,
      "##벅": 2582,
      "##쿤": 2583,
      "##켈": 2584,
      "##몫": 2585,
      "##높": 2586,
      "##슴": 2587,
      "##뤼": 2588,
      "##쁘": 2589,
      "##핸": 2590,
      "##떼": 2591,
      "##돔": 2592,
      "##쓴": 2593,
      "##덩": 2594,
      "##놨": 2595,
      "##퉁": 2596,
      "##띠": 2597,
      "##띵": 2598,
      "##겟": 2599,
      "##랗": 2600,
      "##곧": 2601,
      "##캉": 2602,
      "##챗": 2603,
      "##쉽": 2604,
      "##뜩": 2605,
      "##뚝": 2606,
      "##겁": 2607,
      "##꽁": 2608,
      "##묘": 2609,
      "##댔": 2610,
      "##빡": 2611,
      "##궈": 2612,
      "##앴": 2613,
      "##깝": 2614,
      "##넣": 2615,
      "##잎": 2616,
      "##깥": 2617,
      "##엿": 2618,
      "##붐": 2619,
      "##샌": 2620,
      "##딪": 2621,
      "##놔": 2622,
      "##앗": 2623,
      "##톱": 2624,
      "##얏": 2625,
      "##쥔": 2626,
      "##쌍": 2627,
      "##닙": 2628,
      "##슝": 2629,
      "##붕": 2630,
      "##뽑": 2631,
      "##읽": 2632,
      "##잘": 2633,
      "##컫": 2634,
      "##샴": 2635,
      "##삿": 2636,
      "##얌": 2637,
      "##뿔": 2638,
      "##뼈": 2639,
      "##럿": 2640,
      "##벗": 2641,
      "##뜸": 2642,
      "##붓": 2643,
      "##쉰": 2644,
      "##쏙": 2645,
      "##콰": 2646,
      "##큅": 2647,
      "##텁": 2648,
      "##냅": 2649,
      "##끔": 2650,
      "##삐": 2651,
      "##촬": 2652,
      "##묻": 2653,
      "##샤": 2654,
      "##찜": 2655,
      "##또": 2656,
      "##칸": 2657,
      "##밑": 2658,
      "##탬": 2659,
      "##뚱": 2660,
      "##듀": 2661,
      "##뿜": 2662,
      "##꽂": 2663,
      "##흔": 2664,
      "##뎌": 2665,
      "##헙": 2666,
      "##팸": 2667,
      "##쥐": 2668,
      "##녔": 2669,
      "##퀀": 2670,
      "##봅": 2671,
      "##릍": 2672,
      "##셈": 2673,
      "##겔": 2674,
      "##겹": 2675,
      "##떻": 2676,
      "##캅": 2677,
      "##듐": 2678,
      "##탤": 2679,
      "##돕": 2680,
      "##둡": 2681,
      "##딴": 2682,
      "##횟": 2683,
      "##셍": 2684,
      "##덧": 2685,
      "##멀": 2686,
      "##떠": 2687,
      "##곶": 2688,
      "##솥": 2689,
      "##윌": 2690,
      "##딤": 2691,
      "##촘": 2692,
      "##엉": 2693,
      "##펑": 2694,
      "##끝": 2695,
      "##넛": 2696,
      "##풋": 2697,
      "##뇽": 2698,
      "##쌤": 2699,
      "##튠": 2700,
      "##횡": 2701,
      "##짤": 2702,
      "##쉐": 2703,
      "##뮬": 2704,
      "##썩": 2705,
      "##봄": 2706,
      "##앨": 2707,
      "##퉈": 2708,
      "##똥": 2709,
      "##썼": 2710,
      "##뤘": 2711,
      "##엌": 2712,
      "##흠": 2713,
      "##툼": 2714,
      "##콕": 2715,
      "##셸": 2716,
      "##섞": 2717,
      "##뭇": 2718,
      "##쟝": 2719,
      "##땜": 2720,
      "##쏠": 2721,
      "##찼": 2722,
      "##긍": 2723,
      "##굿": 2724,
      "##좡": 2725,
      "##많": 2726,
      "##텨": 2727,
      "##숏": 2728,
      "##및": 2729,
      "##늦": 2730,
      "##폈": 2731,
      "##섹": 2732,
      "##늬": 2733,
      "##얄": 2734,
      "##슘": 2735,
      "##홉": 2736,
      "##낱": 2737,
      "##욤": 2738,
      "##젯": 2739,
      "##뀔": 2740,
      "##똘": 2741,
      "##팥": 2742,
      "##둠": 2743,
      "##깁": 2744,
      "##밌": 2745,
      "##탓": 2746,
      "##덮": 2747,
      "##갖": 2748,
      "##깐": 2749,
      "##킴": 2750,
      "##뉠": 2751,
      "##팠": 2752,
      "##쌈": 2753,
      "##훼": 2754,
      "##랬": 2755,
      "##젬": 2756,
      "##믈": 2757,
      "##틈": 2758,
      "##힙": 2759,
      "##흉": 2760,
      "##궐": 2761,
      "##끓": 2762,
      "##쩍": 2763,
      "##쏟": 2764,
      "##썰": 2765,
      "##쁨": 2766,
      "##쭐": 2767,
      "##싹": 2768,
      "##껍": 2769,
      "##눈": 2770,
      "##돤": 2771,
      "##뿌": 2772,
      "##쩔": 2773,
      "##맡": 2774,
      "##휠": 2775,
      "##꿋": 2776,
      "##줍": 2777,
      "##릎": 2778,
      "##춧": 2779,
      "##늉": 2780,
      "##땀": 2781,
      "##띤": 2782,
      "##땡": 2783,
      "##숩": 2784,
      "##퍈": 2785,
      "##웻": 2786,
      "##컥": 2787,
      "##젓": 2788,
      "##랠": 2789,
      "##듣": 2790,
      "##꼴": 2791,
      "##윔": 2792,
      "##쪼": 2793,
      "##쉴": 2794,
      "##낄": 2795,
      "##퇀": 2796,
      "##봬": 2797,
      "##캬": 2798,
      "##엎": 2799,
      "##킵": 2800,
      "##샨": 2801,
      "##왼": 2802,
      "##깡": 2803,
      "##샐": 2804,
      "##켄": 2805,
      "##띔": 2806,
      "##얘": 2807,
      "##킥": 2808,
      "##쭤": 2809,
      "##췼": 2810,
      "##샛": 2811,
      "##갚": 2812,
      "##촹": 2813,
      "##팁": 2814,
      "##룟": 2815,
      "##쨌": 2816,
      "##렐": 2817,
      "##걱": 2818,
      "##싯": 2819,
      "##텼": 2820,
      "##쩡": 2821,
      "##맑": 2822,
      "##겜": 2823,
      "##윱": 2824,
      "##댠": 2825,
      "##탭": 2826,
      "##찹": 2827,
      "##볐": 2828,
      "##콧": 2829,
      "##댈": 2830,
      "##으로": 2831,
      "##했다": 2832,
      "##에서": 2833,
      "있다": 2834,
      "##하는": 2835,
      "##이다": 2836,
      "##00": 2837,
      "##하고": 2838,
      "20": 2839,
      "지난": 2840,
      "##니다": 2841,
      "##한다": 2842,
      "있는": 2843,
      "##까지": 2844,
      "서울": 2845,
      "기업": 2846,
      "것으로": 2847,
      "##부터": 2848,
      "한국": 2849,
      "##습니다": 2850,
      "시장": 2851,
      "##적으로": 2852,
      "##면서": 2853,
      "##비스": 2854,
      "통해": 2855,
      "밝혔": 2856,
      "사업": 2857,
      "제공": 2858,
      "위해": 2859,
      "밝혔다": 2860,
      "202": 2861,
      "##적인": 2862,
      "이라": 2863,
      "대한": 2864,
      "기술": 2865,
      "##억원": 2866,
      "10": 2867,
      "국내": 2868,
      "투자": 2869,
      "##하기": 2870,
      "##지만": 2871,
      "##들이": 2872,
      "정부": 2873,
      "가격": 2874,
      "금융": 2875,
      "기자": 2876,
      "서비스": 2877,
      "올해": 2878,
      "말했다": 2879,
      "가능": 2880,
      "##된다": 2881,
      "미국": 2882,
      "이번": 2883,
      "진행": 2884,
      "상승": 2885,
      "개발": 2886,
      "고객": 2887,
      "##다는": 2888,
      "##기업": 2889,
      "##로벌": 2890,
      "지원": 2891,
      "##에는": 2892,
      "##자는": 2893,
      "위한": 2894,
      "##장은": 2895,
      "이어": 2896,
      "##됐다": 2897,
      "이후": 2898,
      "글로벌": 2899,
      "##반기": 2900,
      "이상": 2901,
      "##었다": 2902,
      "##이터": 2903,
      "##보다": 2904,
      "##000": 2905,
      "대표": 2906,
      "지난해": 2907,
      "연구": 2908,
      "등을": 2909,
      "최근": 2910,
      "공급": 2911,
      "기준": 2912,
      "##르면": 2913,
      "##레이": 2914,
      "##에게": 2915,
      "##되는": 2916,
      "사진": 2917,
      "관련": 2918,
      "##너지": 2919,
      "##도록": 2920,
      "이용": 2921,
      "이라고": 2922,
      "##하게": 2923,
      "따르면": 2924,
      "관계": 2925,
      "계획": 2926,
      "전망": 2927,
      "확대": 2928,
      "대비": 2929,
      "하락": 2930,
      "판매": 2931,
      "201": 2932,
      "30": 2933,
      "경제": 2934,
      "삼성": 2935,
      "LG": 2936,
      "다양": 2937,
      "예정": 2938,
      "함께": 2939,
      "상황": 2940,
      "증가": 2941,
      "경우": 2942,
      "제품": 2943,
      "##마트": 2944,
      "산업": 2945,
      "프로": 2946,
      "##에도": 2947,
      "최대": 2948,
      "##전자": 2949,
      "다양한": 2950,
      "우리": 2951,
      "경기": 2952,
      "##다고": 2953,
      "##사업": 2954,
      "거래": 2955,
      "##하며": 2956,
      "같은": 2957,
      "성장": 2958,
      "것이": 2959,
      "상품": 2960,
      "##들의": 2961,
      "1일": 2962,
      "사용": 2963,
      "기록": 2964,
      "수출": 2965,
      "소비": 2966,
      "활용": 2967,
      "##성이": 2968,
      "5일": 2969,
      "##성을": 2970,
      "했다": 2971,
      "지속": 2972,
      "##지털": 2973,
      "##만원": 2974,
      "중국": 2975,
      "지난달": 2976,
      "세계": 2977,
      "4일": 2978,
      "##분기": 2979,
      "설명": 2980,
      "6월": 2981,
      "가장": 2982,
      "따라": 2983,
      "SK": 2984,
      "##시스": 2985,
      "11": 2986,
      "때문": 2987,
      "##들은": 2988,
      "대상": 2989,
      "디지털": 2990,
      "운영": 2991,
      "##은행": 2992,
      "금리": 2993,
      "##기술": 2994,
      "##력을": 2995,
      "12": 2996,
      "##스트": 2997,
      "##라이": 2998,
      "##랜드": 2999,
      "대해": 3000,
      "전문": 3001,
      "##로나": 3002,
      "##0년": 3003,
      "생산": 3004,
      "##랫폼": 3005,
      "##도체": 3006,
      "##에서는": 3007,
      "19": 3008,
      "필요": 3009,
      "코로나": 3010,
      "##하다": 3011,
      "현재": 3012,
      "##시장": 3013,
      "지역": 3014,
      "수준": 3015,
      "주요": 3016,
      "규모": 3017,
      "이날": 3018,
      "플랫폼": 3019,
      "특히": 3020,
      "##으며": 3021,
      "현대": 3022,
      "데이터": 3023,
      "있도록": 3024,
      "출시": 3025,
      "##하겠": 3026,
      "##했다고": 3027,
      "분야": 3028,
      "##았다": 3029,
      "2022": 3030,
      "##졌다": 3031,
      "해외": 3032,
      "##위원": 3033,
      "##달러": 3034,
      "##뉴스": 3035,
      "15": 3036,
      "##시아": 3037,
      "규제": 3038,
      "##카오": 3039,
      "##하면": 3040,
      "13": 3041,
      "##정보": 3042,
      "관리": 3043,
      "물가": 3044,
      "발표": 3045,
      "게임": 3046,
      "매출": 3047,
      "시작": 3048,
      "최고": 3049,
      "##라는": 3050,
      "카카오": 3051,
      "##라인": 3052,
      "관계자는": 3053,
      "수요": 3054,
      "##19": 3055,
      "참여": 3056,
      "인상": 3057,
      "한다": 3058,
      "예상": 3059,
      "반도체": 3060,
      "기대": 3061,
      "경쟁": 3062,
      "추가": 3063,
      "소비자": 3064,
      "국제": 3065,
      "분석": 3066,
      "정보": 3067,
      "구축": 3068,
      "에너지": 3069,
      "##개월": 3070,
      "##되고": 3071,
      "환경": 3072,
      "##시간": 3073,
      "적용": 3074,
      "##지는": 3075,
      "##기를": 3076,
      "##리는": 3077,
      "상반기": 3078,
      "##사를": 3079,
      "5월": 3080,
      "##수는": 3081,
      "##러스": 3082,
      "전력": 3083,
      "강화": 3084,
      "추진": 3085,
      "##하면서": 3086,
      "##입니다": 3087,
      "우려": 3088,
      "100": 3089,
      "연합": 3090,
      "기존": 3091,
      "경영": 3092,
      "##그룹": 3093,
      "##투자": 3094,
      "높은": 3095,
      "개선": 3096,
      "뉴스": 3097,
      "스마트": 3098,
      "##증권": 3099,
      "예정이다": 3100,
      "일본": 3101,
      "##하지": 3102,
      "롯데": 3103,
      "개인": 3104,
      "전기": 3105,
      "안전": 3106,
      "중소": 3107,
      "##센터": 3108,
      "##연구": 3109,
      "코로나19": 3110,
      "나타": 3111,
      "정책": 3112,
      "하반기": 3113,
      "아이": 3114,
      "AI": 3115,
      "업계": 3116,
      "평가": 3117,
      "연합뉴스": 3118,
      "코스": 3119,
      "##장이": 3120,
      "##기관": 3121,
      "##였다": 3122,
      "오는": 3123,
      "##플레이": 3124,
      "##장을": 3125,
      "##해야": 3126,
      "기반": 3127,
      "##는데": 3128,
      "들어": 3129,
      "실적": 3130,
      "##금융": 3131,
      "7월": 3132,
      "##라고": 3133,
      "##치를": 3134,
      "##통신": 3135,
      "문제": 3136,
      "영향": 3137,
      "회사": 3138,
      "에서": 3139,
      "기간": 3140,
      "결과": 3141,
      "##지고": 3142,
      "##자가": 3143,
      "##경제": 3144,
      "##운데": 3145,
      "##거래": 3146,
      "아니": 3147,
      "가운데": 3148,
      "계획이다": 3149,
      "브랜드": 3150,
      "달러": 3151,
      "##원은": 3152,
      "감소": 3153,
      "##지를": 3154,
      "##상을": 3155,
      "뉴시스": 3156,
      "확보": 3157,
      "발생": 3158,
      "하나": 3159,
      "14": 3160,
      "마련": 3161,
      "국가": 3162,
      "##인트": 3163,
      "새로": 3164,
      "등의": 3165,
      "부담": 3166,
      "자동": 3167,
      "##대로": 3168,
      "##환경": 3169,
      "##화를": 3170,
      "있어": 3171,
      "##산업": 3172,
      "설명했다": 3173,
      "사회": 3174,
      "이를": 3175,
      "하고": 3176,
      "협력": 3177,
      "전략": 3178,
      "##스템": 3179,
      "##세대": 3180,
      "것이다": 3181,
      "선정": 3182,
      "시스템": 3183,
      "##벤트": 3184,
      "##개발": 3185,
      "적극": 3186,
      "주식": 3187,
      "##이오": 3188,
      "##했습니다": 3189,
      "##들을": 3190,
      "있다는": 3191,
      "이라며": 3192,
      "이벤트": 3193,
      "##이나": 3194,
      "등이": 3195,
      "##부는": 3196,
      "만에": 3197,
      "목표": 3198,
      "하는": 3199,
      "50": 3200,
      "6일": 3201,
      "모두": 3202,
      "##텐츠": 3203,
      "신규": 3204,
      "앞으로": 3205,
      "##세를": 3206,
      "보고": 3207,
      "부산": 3208,
      "뉴스1": 3209,
      "KT": 3210,
      "떨어": 3211,
      "확인": 3212,
      "장관": 3213,
      "##서는": 3214,
      "업무": 3215,
      "서비스를": 3216,
      "해당": 3217,
      "대출": 3218,
      "주택": 3219,
      "##이고": 3220,
      "선보": 3221,
      "##이트": 3222,
      "많은": 3223,
      "미래": 3224,
      "대응": 3225,
      "중심": 3226,
      "##그램": 3227,
      "40": 3228,
      "이미": 3229,
      "삼성전자": 3230,
      "200": 3231,
      "포함": 3232,
      "강조": 3233,
      "유지": 3234,
      "##위원회": 3235,
      "전환": 3236,
      "주가": 3237,
      "처음": 3238,
      "안정": 3239,
      "공동": 3240,
      "##우드": 3241,
      "##리를": 3242,
      "##도를": 3243,
      "##페이": 3244,
      "신한": 3245,
      "이에": 3246,
      "##파트": 3247,
      "영업": 3248,
      "콘텐츠": 3249,
      "새로운": 3250,
      "늘어": 3251,
      "시행": 3252,
      "##리아": 3253,
      "##물가": 3254,
      "##자산": 3255,
      "##에서도": 3256,
      "다른": 3257,
      "때문에": 3258,
      "##라우드": 3259,
      "2020년": 3260,
      "23": 3261,
      "것은": 3262,
      "메타": 3263,
      "따른": 3264,
      "만들": 3265,
      "##회의": 3266,
      "애플": 3267,
      "전국": 3268,
      "##사는": 3269,
      "##조원": 3270,
      "각각": 3271,
      "##기에": 3272,
      "##인다": 3273,
      "대상으로": 3274,
      "24": 3275,
      "성공": 3276,
      "오후": 3277,
      "전체": 3278,
      "한편": 3279,
      "혁신": 3280,
      "##자의": 3281,
      "수익": 3282,
      "구성": 3283,
      "방식": 3284,
      "##하겠다": 3285,
      "도입": 3286,
      "##일까지": 3287,
      "러시아": 3288,
      "어려": 3289,
      "업체": 3290,
      "결정": 3291,
      "##이버": 3292,
      "오전": 3293,
      "##루션": 3294,
      "22": 3295,
      "등에": 3296,
      "반영": 3297,
      "공공": 3298,
      "열린": 3299,
      "25": 3300,
      "2분기": 3301,
      "구매": 3302,
      "현지": 3303,
      "건설": 3304,
      "기관": 3305,
      "시간": 3306,
      "은행": 3307,
      "수입": 3308,
      "온라인": 3309,
      "평균": 3310,
      "가입": 3311,
      "신청": 3312,
      "##사의": 3313,
      "##한다고": 3314,
      "유럽": 3315,
      "전년": 3316,
      "##자를": 3317,
      "##8년": 3318,
      "##SG": 3319,
      "코스피": 3320,
      "3일": 3321,
      "개최": 3322,
      "아니라": 3323,
      "교육": 3324,
      "보다": 3325,
      "만큼": 3326,
      "##가를": 3327,
      "##도가": 3328,
      "가상": 3329,
      "##났다": 3330,
      "1년": 3331,
      "공개": 3332,
      "비중": 3333,
      "##주택": 3334,
      "비롯": 3335,
      "직접": 3336,
      "##기가": 3337,
      "있다고": 3338,
      "제작": 3339,
      "18": 3340,
      "아파트": 3341,
      "차량": 3342,
      "##리고": 3343,
      "##관리": 3344,
      "중소기업": 3345,
      "모델": 3346,
      "있습니다": 3347,
      "##이션": 3348,
      "관심": 3349,
      "##도로": 3350,
      "구글": 3351,
      "향후": 3352,
      "##금리": 3353,
      "##경영": 3354,
      "그러": 3355,
      "발전": 3356,
      "제조": 3357,
      "생각": 3358,
      "현장": 3359,
      "##플러스": 3360,
      "##이는": 3361,
      "##들과": 3362,
      "##9년": 3363,
      "결제": 3364,
      "네이버": 3365,
      "방안": 3366,
      "보유": 3367,
      "자산": 3368,
      "핵심": 3369,
      "여러": 3370,
      "중요": 3371,
      "##업계": 3372,
      "##플레이션": 3373,
      "기획": 3374,
      "무역": 3375,
      "부회": 3376,
      "실제": 3377,
      "##에너지": 3378,
      "8월": 3379,
      "과정": 3380,
      "내용": 3381,
      "더욱": 3382,
      "마이": 3383,
      "##들에게": 3384,
      "##일리": 3385,
      "16": 3386,
      "본격": 3387,
      "이는": 3388,
      "자체": 3389,
      "##동산": 3390,
      "##약을": 3391,
      "국민": 3392,
      "여름": 3393,
      "크게": 3394,
      "##세가": 3395,
      "클라우드": 3396,
      "##스는": 3397,
      "##00원": 3398,
      "증권": 3399,
      "활동": 3400,
      "등으로": 3401,
      "##스크": 3402,
      "##인을": 3403,
      "프로그램": 3404,
      "대형": 3405,
      "##금을": 3406,
      "스타": 3407,
      "##서비스": 3408,
      "##사가": 3409,
      "성과": 3410,
      "##가는": 3411,
      "##버스": 3412,
      "라이": 3413,
      "앞서": 3414,
      "참석": 3415,
      "교수": 3416,
      "체결": 3417,
      "판단": 3418,
      "##거나": 3419,
      "##대출": 3420,
      "##보험": 3421,
      "공급망": 3422,
      "사람": 3423,
      "##니스": 3424,
      "보험": 3425,
      "직원": 3426,
      "오른": 3427,
      "하지만": 3428,
      "4월": 3429,
      "수도": 3430,
      "효과": 3431,
      "외환": 3432,
      "일반": 3433,
      "##이드": 3434,
      "가능성이": 3435,
      "또한": 3436,
      "유통": 3437,
      "이동": 3438,
      "할인": 3439,
      "사업을": 3440,
      "된다": 3441,
      "수상": 3442,
      "##업체": 3443,
      "##했고": 3444,
      "21": 3445,
      "모습": 3446,
      "집중": 3447,
      "##항공": 3448,
      "1만": 3449,
      "계속": 3450,
      "원자": 3451,
      "이달": 3452,
      "이런": 3453,
      "항공": 3454,
      "##나라": 3455,
      "고려": 3456,
      "방문": 3457,
      "최초": 3458,
      "친환경": 3459,
      "공정": 3460,
      "비용": 3461,
      "29": 3462,
      "동안": 3463,
      "인하": 3464,
      "조정": 3465,
      "##er": 3466,
      "##회를": 3467,
      "전기차": 3468,
      "27": 3469,
      "역시": 3470,
      "##제품": 3471,
      "정부가": 3472,
      "현대차": 3473,
      "ESG": 3474,
      "##데이터": 3475,
      "노력": 3476,
      "진출": 3477,
      "##학교": 3478,
      "그는": 3479,
      "있을": 3480,
      "지금": 3481,
      "기능": 3482,
      "면서": 3483,
      "인수": 3484,
      "전시": 3485,
      "정부는": 3486,
      "당시": 3487,
      "역할": 3488,
      "일부": 3489,
      "침체": 3490,
      "통신": 3491,
      "##년간": 3492,
      "알려": 3493,
      "조사": 3494,
      "선택": 3495,
      "완화": 3496,
      "증시": 3497,
      "충전": 3498,
      "##30": 3499,
      "##비율": 3500,
      "모든": 3501,
      "부동산": 3502,
      "##지역": 3503,
      "##프트": 3504,
      "자동차": 3505,
      "그룹": 3506,
      "점검": 3507,
      "##스타": 3508,
      "##량을": 3509,
      "##겠다": 3510,
      "##점을": 3511,
      "17": 3512,
      "논의": 3513,
      "영상": 3514,
      "우크": 3515,
      "DB": 3516,
      "우주": 3517,
      "##1년": 3518,
      "##위를": 3519,
      "##가능": 3520,
      "기술을": 3521,
      "강조했다": 3522,
      "KB": 3523,
      "이유": 3524,
      "탄소": 3525,
      "##라이나": 3526,
      "됐다": 3527,
      "부문": 3528,
      "회장": 3529,
      "##정책": 3530,
      "##력이": 3531,
      "##유플러스": 3532,
      "가격이": 3533,
      "필요한": 3534,
      "우크라이나": 3535,
      "많이": 3536,
      "설립": 3537,
      "양자": 3538,
      "없는": 3539,
      "이뤄": 3540,
      "준비": 3541,
      "혜택": 3542,
      "##이익": 3543,
      "##바일": 3544,
      "##왔다": 3545,
      "##젝트": 3546,
      "것을": 3547,
      "나온": 3548,
      "##기는": 3549,
      "##액은": 3550,
      "28": 3551,
      "가치": 3552,
      "경험": 3553,
      "다만": 3554,
      "라고": 3555,
      "상태": 3556,
      "수주": 3557,
      "없다": 3558,
      "##ew": 3559,
      "##카드": 3560,
      "60": 3561,
      "기념": 3562,
      "변동": 3563,
      "대표는": 3564,
      "30일": 3565,
      "LG유플러스": 3566,
      "3월": 3567,
      "과학": 3568,
      "국토": 3569,
      "높아": 3570,
      "다시": 3571,
      "않는": 3572,
      "원전": 3573,
      "인플레이션": 3574,
      "지적": 3575,
      "대학": 3576,
      "특별": 3577,
      "##별로": 3578,
      "기록했다": 3579,
      "보인다": 3580,
      "외국": 3581,
      "작년": 3582,
      "주파": 3583,
      "중이다": 3584,
      "##본부": 3585,
      "우리나라": 3586,
      "때문이다": 3587,
      "사실": 3588,
      "연속": 3589,
      "으로": 3590,
      "##지원": 3591,
      "##르게": 3592,
      "##기로": 3593,
      "##제를": 3594,
      "##협회": 3595,
      "나타났다": 3596,
      "co": 3597,
      "올랐": 3598,
      "##하기로": 3599,
      "금지": 3600,
      "인터": 3601,
      "행사": 3602,
      "환율": 3603,
      "프로젝트": 3604,
      "건강": 3605,
      "##치는": 3606,
      "2019년": 3607,
      "주파수": 3608,
      "##연구원": 3609,
      "5G": 3610,
      "소재": 3611,
      "신용": 3612,
      "##한다는": 3613,
      "전문가": 3614,
      "메타버스": 3615,
      "한화": 3616,
      "장기": 3617,
      "의미": 3618,
      "제시": 3619,
      "##기도": 3620,
      "차지": 3621,
      "##처럼": 3622,
      "모바일": 3623,
      "이하": 3624,
      "##가지": 3625,
      "##인이": 3626,
      "대전": 3627,
      "사고": 3628,
      "최저": 3629,
      "포인트": 3630,
      "##이스": 3631,
      "##에선": 3632,
      "##is": 3633,
      "##료를": 3634,
      "중인": 3635,
      "수요가": 3636,
      "상장": 3637,
      "연결": 3638,
      "전했다": 3639,
      "##시에": 3640,
      "영국": 3641,
      "전용": 3642,
      "##7년": 3643,
      "NF": 3644,
      "배터": 3645,
      "수행": 3646,
      "##제로": 3647,
      "##억원으로": 3648,
      "영향을": 3649,
      "IT": 3650,
      "또는": 3651,
      "창업": 3652,
      "##웨어": 3653,
      "바이": 3654,
      "생활": 3655,
      "수학": 3656,
      "않고": 3657,
      "##수가": 3658,
      "##연금": 3659,
      "##시스템": 3660,
      "고용": 3661,
      "조치": 3662,
      "##성과": 3663,
      "##량이": 3664,
      "사이": 3665,
      "이전": 3666,
      "##체인": 3667,
      "##계를": 3668,
      "역대": 3669,
      "요구": 3670,
      "##50": 3671,
      "##드는": 3672,
      "NFT": 3673,
      "내년": 3674,
      "인천": 3675,
      "인정": 3676,
      "##원이": 3677,
      "연구원은": 3678,
      "2022년": 3679,
      "중심으로": 3680,
      "위치": 3681,
      "진단": 3682,
      "##5년": 3683,
      "##되면서": 3684,
      "솔루션": 3685,
      "확산": 3686,
      "##정부": 3687,
      "##on": 3688,
      "##바이오": 3689,
      "##텔레": 3690,
      "##렸다": 3691,
      "##ews": 3692,
      "26": 3693,
      "31": 3694,
      "공유": 3695,
      "인공": 3696,
      "##해서": 3697,
      "전자": 3698,
      "통한": 3699,
      "##지가": 3700,
      "##자인": 3701,
      "##으나": 3702,
      "##사와": 3703,
      "가능하다": 3704,
      "검토": 3705,
      "넘어": 3706,
      "운용": 3707,
      "##이며": 3708,
      "##통령": 3709,
      "##식품": 3710,
      "##텔레콤": 3711,
      "대통령": 3712,
      "사전": 3713,
      "##in": 3714,
      "##포인트": 3715,
      "가능한": 3716,
      "원자재": 3717,
      "비교": 3718,
      "없이": 3719,
      "오르": 3720,
      "오픈": 3721,
      "있게": 3722,
      "프리": 3723,
      "##원의": 3724,
      "##률이": 3725,
      "제공한다": 3726,
      "SK텔레콤": 3727,
      "교수는": 3728,
      "물론": 3729,
      "방침": 3730,
      "상담": 3731,
      "조직": 3732,
      "##회사": 3733,
      "##케팅": 3734,
      "##디어": 3735,
      "정부의": 3736,
      "이용자": 3737,
      "9월": 3738,
      "공식": 3739,
      "##프라": 3740,
      "##일부터": 3741,
      "##과학": 3742,
      "급등": 3743,
      "로봇": 3744,
      "방향": 3745,
      "의견": 3746,
      "##스를": 3747,
      "##데일리": 3748,
      "##즈니스": 3749,
      "##쳤다": 3750,
      "70": 3751,
      "CE": 3752,
      "물류": 3753,
      "블록": 3754,
      "제공하는": 3755,
      "공간": 3756,
      "전쟁": 3757,
      "##하여": 3758,
      "##건설": 3759,
      "##위기": 3760,
      "##판매": 3761,
      "반면": 3762,
      "있으며": 3763,
      "제한": 3764,
      "##대를": 3765,
      "##주는": 3766,
      "나온다": 3767,
      "민간": 3768,
      "##스코": 3769,
      "##업을": 3770,
      "##워크": 3771,
      "80": 3772,
      "확장": 3773,
      "##원을": 3774,
      "##가격": 3775,
      "실시": 3776,
      "있고": 3777,
      "지급": 3778,
      "##위성": 3779,
      "##화폐": 3780,
      "그래": 3781,
      "바탕": 3782,
      "번째": 3783,
      "자율": 3784,
      "##스토": 3785,
      "##성장": 3786,
      "##리가": 3787,
      "##했던": 3788,
      "##분의": 3789,
      "1분기": 3790,
      "원유": 3791,
      "품목": 3792,
      "##원에": 3793,
      "##세계": 3794,
      "##품을": 3795,
      "##화된": 3796,
      "근로": 3797,
      "마케팅": 3798,
      "여전": 3799,
      "오늘": 3800,
      "편의": 3801,
      "##자원": 3802,
      "##테크": 3803,
      "데이터를": 3804,
      "다음": 3805,
      "라며": 3806,
      "반대": 3807,
      "위험": 3808,
      "참가": 3809,
      "2021년": 3810,
      "조성": 3811,
      "줄어": 3812,
      "##정을": 3813,
      "##명이": 3814,
      "기업의": 3815,
      "스마트폰": 3816,
      "보면": 3817,
      "인사": 3818,
      "재생": 3819,
      "종목": 3820,
      "품질": 3821,
      "LG전자": 3822,
      "11월": 3823,
      "바탕으로": 3824,
      "변화": 3825,
      "설치": 3826,
      "정도": 3827,
      "##고를": 3828,
      "##억달러": 3829,
      "배터리": 3830,
      "과기": 3831,
      "바이오": 3832,
      "비즈니스": 3833,
      "우수": 3834,
      "##ST": 3835,
      "199": 3836,
      "설계": 3837,
      "청년": 3838,
      "통계": 3839,
      "##미콘": 3840,
      "##en": 3841,
      "사례": 3842,
      "치료": 3843,
      "##자로": 3844,
      "##결제": 3845,
      "스타트": 3846,
      "역할을": 3847,
      "기여": 3848,
      "입장": 3849,
      "##담회": 3850,
      "우려가": 3851,
      "com": 3852,
      "운송": 3853,
      "자리": 3854,
      "시장에서": 3855,
      "않은": 3856,
      "장비": 3857,
      "주목": 3858,
      "집계": 3859,
      "책임": 3860,
      "큐브": 3861,
      "통합": 3862,
      "피해": 3863,
      "##기간": 3864,
      "##통부": 3865,
      "시장에": 3866,
      "임직": 3867,
      "할당": 3868,
      "##디오": 3869,
      "##명을": 3870,
      "투자자": 3871,
      "##투자증권": 3872,
      "생태": 3873,
      "소개": 3874,
      "인증": 3875,
      "##의를": 3876,
      "##공사": 3877,
      "##식을": 3878,
      "##되며": 3879,
      "전망이다": 3880,
      "규모의": 3881,
      "레미콘": 3882,
      "분양": 3883,
      "재무": 3884,
      "취약": 3885,
      "##트너": 3886,
      "##트워크": 3887,
      "##원으로": 3888,
      "지분": 3889,
      "하이": 3890,
      "##운용": 3891,
      "1월": 3892,
      "받아": 3893,
      "종합": 3894,
      "##이어": 3895,
      "##이었다": 3896,
      "##평가": 3897,
      "##라도": 3898,
      "##안전": 3899,
      "상품을": 3900,
      "활용해": 3901,
      "CJ": 3902,
      "news": 3903,
      "암호": 3904,
      "전달": 3905,
      "파트너": 3906,
      "##3년": 3907,
      "##으면": 3908,
      "##보를": 3909,
      "과학기술": 3910,
      "스타트업": 3911,
      "출범": 3912,
      "측은": 3913,
      "영업이익": 3914,
      "newsis": 3915,
      "2년": 3916,
      "계약": 3917,
      "마감": 3918,
      "받을": 3919,
      "자금": 3920,
      "주거": 3921,
      "##이라고": 3922,
      "##원에서": 3923,
      "##위는": 3924,
      "기업이": 3925,
      "활성": 3926,
      "##서를": 3927,
      "##6년": 3928,
      "##움을": 3929,
      "##동안": 3930,
      "CEO": 3931,
      "GS": 3932,
      "유가": 3933,
      "있지만": 3934,
      "##규모": 3935,
      "##인은": 3936,
      "기준으로": 3937,
      "대부": 3938,
      "둔화": 3939,
      "부분": 3940,
      "올라": 3941,
      "인한": 3942,
      "임상": 3943,
      "회복": 3944,
      "##지면서": 3945,
      "##합니다": 3946,
      "##장의": 3947,
      "##수를": 3948,
      "##먼트": 3949,
      "##000억원": 3950,
      "정보를": 3951,
      "담당": 3952,
      "보호": 3953,
      "세종": 3954,
      "소통": 3955,
      "##지에": 3956,
      "##가구": 3957,
      "##률을": 3958,
      "##000만": 3959,
      "기반으로": 3960,
      "비롯해": 3961,
      "프리미": 3962,
      "35": 3963,
      "TV": 3964,
      "가까": 3965,
      "단계": 3966,
      "빠르게": 3967,
      "중구": 3968,
      "회장은": 3969,
      "##지능": 3970,
      "##는다": 3971,
      "##전략": 3972,
      "##선을": 3973,
      "진행한다": 3974,
      "구조": 3975,
      "만나": 3976,
      "먼저": 3977,
      "변경": 3978,
      "보안": 3979,
      "비상": 3980,
      "오프": 3981,
      "자료": 3982,
      "제도": 3983,
      "지정": 3984,
      "찾아": 3985,
      "##전을": 3986,
      "앞으로도": 3987,
      "만들어": 3988,
      "2만": 3989,
      "달성": 3990,
      "리스크": 3991,
      "석유": 3992,
      "아직": 3993,
      "##20": 3994,
      "##진다": 3995,
      "소비자물가": 3996,
      "내려": 3997,
      "동시에": 3998,
      "의료": 3999,
      "카드": 4000,
      "##리에": 4001,
      "##물을": 4002,
      "##at": 4003,
      "서울대": 4004,
      "제품을": 4005,
      "내부": 4006,
      "부품": 4007,
      "인재": 4008,
      "##전자는": 4009,
      "1조": 4010,
      "가계": 4011,
      "그런": 4012,
      "쌍용": 4013,
      "##하이": 4014,
      "##상공": 4015,
      "##량은": 4016,
      "##DI": 4017,
      "##보고": 4018,
      "##보호": 4019,
      "##뱅크": 4020,
      "가능성": 4021,
      "7일": 4022,
      "여부": 4023,
      "##통상": 4024,
      "##리오": 4025,
      "구체": 4026,
      "요청": 4027,
      "효율": 4028,
      "##이라는": 4029,
      "##리스": 4030,
      "##케어": 4031,
      "##ar": 4032,
      "##률은": 4033,
      "인공지능": 4034,
      "교통": 4035,
      "식품": 4036,
      "전반": 4037,
      "##리티": 4038,
      "##했으며": 4039,
      "##사에서": 4040,
      "##시설": 4041,
      "그러나": 4042,
      "3년": 4043,
      "300": 4044,
      "광고": 4045,
      "까지": 4046,
      "받은": 4047,
      "이데일리": 4048,
      "중단": 4049,
      "채널": 4050,
      "해결": 4051,
      "##10": 4052,
      "##마켓": 4053,
      "산업통상": 4054,
      "나선": 4055,
      "덧붙": 4056,
      "도시": 4057,
      "왼쪽": 4058,
      "정상": 4059,
      "##지수": 4060,
      "##주의": 4061,
      "##60": 4062,
      "##요금": 4063,
      "프리미엄": 4064,
      "강남": 4065,
      "단지": 4066,
      "이해": 4067,
      "있었": 4068,
      "획득": 4069,
      "##되지": 4070,
      "##정보통신": 4071,
      "블록체인": 4072,
      "##스토어": 4073,
      "산업통상자원": 4074,
      "42": 4075,
      "거쳐": 4076,
      "##주년": 4077,
      "##유율": 4078,
      "가격은": 4079,
      "상황이": 4080,
      "활용한": 4081,
      "ET": 4082,
      "매각": 4083,
      "유치": 4084,
      "이마트": 4085,
      "인해": 4086,
      "차별": 4087,
      "##트코": 4088,
      "##게임": 4089,
      "##소를": 4090,
      "##시키": 4091,
      "현지시간": 4092,
      "방안을": 4093,
      "과기정": 4094,
      "37": 4095,
      "500": 4096,
      "비해": 4097,
      "어렵": 4098,
      "최종": 4099,
      "##코리아": 4100,
      "상황을": 4101,
      "동기": 4102,
      "업종": 4103,
      "연간": 4104,
      "윤석": 4105,
      "전날": 4106,
      "하루": 4107,
      "홈페이": 4108,
      "##들도": 4109,
      "##리지": 4110,
      "##an": 4111,
      "##매매": 4112,
      "##테이": 4113,
      "##감을": 4114,
      "증가했다": 4115,
      "전력수": 4116,
      "최초로": 4117,
      "재생에너지": 4118,
      "매수": 4119,
      "방송": 4120,
      "쇼핑": 4121,
      "##차를": 4122,
      "##lo": 4123,
      "##섰다": 4124,
      "2월": 4125,
      "개정": 4126,
      "공모": 4127,
      "과제": 4128,
      "나오": 4129,
      "상당": 4130,
      "있었다": 4131,
      "포스코": 4132,
      "##스로": 4133,
      "##상품": 4134,
      "##자들이": 4135,
      "##al": 4136,
      "##ho": 4137,
      "가상자산": 4138,
      "수도권": 4139,
      "외국인": 4140,
      "올랐다": 4141,
      "덧붙였다": 4142,
      "기사": 4143,
      "인프라": 4144,
      "최소": 4145,
      "##4년": 4146,
      "10월": 4147,
      "투자를": 4148,
      "급증": 4149,
      "매장": 4150,
      "신설": 4151,
      "##이노": 4152,
      "##스의": 4153,
      "##상이": 4154,
      "##건을": 4155,
      "##움이": 4156,
      "##했지만": 4157,
      "##혁신": 4158,
      "있는데": 4159,
      "시장의": 4160,
      "방침이다": 4161,
      "대부분": 4162,
      "오프라인": 4163,
      "2차": 4164,
      "각종": 4165,
      "디자인": 4166,
      "우선": 4167,
      "청약": 4168,
      "형태": 4169,
      "##80": 4170,
      "##마다": 4171,
      "##액이": 4172,
      "지속가능": 4173,
      "사회적": 4174,
      "암호화폐": 4175,
      "가스": 4176,
      "누리": 4177,
      "위원": 4178,
      "제외": 4179,
      "##렇게": 4180,
      "증가한": 4181,
      "윤석열": 4182,
      "90": 4183,
      "나서": 4184,
      "누적": 4185,
      "되는": 4186,
      "발사": 4187,
      "비트코": 4188,
      "수급": 4189,
      "##자와": 4190,
      "##사회": 4191,
      "##to": 4192,
      "코스닥": 4193,
      "기획재": 4194,
      "뛰어": 4195,
      "방법": 4196,
      "##가가": 4197,
      "##약품": 4198,
      "##법인": 4199,
      "##총리": 4200,
      "이상의": 4201,
      "2018년": 4202,
      "늘어난": 4203,
      "33": 4204,
      "담보": 4205,
      "맞춤": 4206,
      "성능": 4207,
      "실시간": 4208,
      "이와": 4209,
      "재판매": 4210,
      "탑재": 4211,
      "##ic": 4212,
      "##되면": 4213,
      "##안을": 4214,
      "것이라는": 4215,
      "주가가": 4216,
      "네트워크": 4217,
      "악화": 4218,
      "##암호": 4219,
      "##름을": 4220,
      "고객이": 4221,
      "신한은행": 4222,
      "마이크": 4223,
      "그동안": 4224,
      "내린": 4225,
      "대체": 4226,
      "미만": 4227,
      "아시아": 4228,
      "주도": 4229,
      "협업": 4230,
      "##이기": 4231,
      "##스포": 4232,
      "##니터": 4233,
      "##부문": 4234,
      "##방향": 4235,
      "##롭게": 4236,
      "시장을": 4237,
      "##억원을": 4238,
      "임직원": 4239,
      "가동": 4240,
      "기본": 4241,
      "나갈": 4242,
      "낮은": 4243,
      "보내": 4244,
      "요금": 4245,
      "재고": 4246,
      "조합": 4247,
      "지하": 4248,
      "##40": 4249,
      "공공기관": 4250,
      "부회장은": 4251,
      "알려졌다": 4252,
      "반대매매": 4253,
      "2일": 4254,
      "IP": 4255,
      "감염": 4256,
      "노동": 4257,
      "유류": 4258,
      "이익": 4259,
      "재정": 4260,
      "##하다는": 4261,
      "##단계": 4262,
      "##자동": 4263,
      "국내외": 4264,
      "이벤트를": 4265,
      "과학기술정보통신": 4266,
      "32": 4267,
      "간담회": 4268,
      "관측": 4269,
      "낮아": 4270,
      "두고": 4271,
      "등록": 4272,
      "발굴": 4273,
      "홍보": 4274,
      "##지로": 4275,
      "##데믹": 4276,
      "##구조": 4277,
      "경쟁력을": 4278,
      "업무협": 4279,
      "혜택을": 4280,
      "큐브위성": 4281,
      "공장": 4282,
      "넘게": 4283,
      "대역": 4284,
      "대책": 4285,
      "등급": 4286,
      "수소": 4287,
      "여행": 4288,
      "인기": 4289,
      "지상": 4290,
      "퇴직": 4291,
      "##스가": 4292,
      "##당국": 4293,
      "##계획": 4294,
      "##권을": 4295,
      "##사에": 4296,
      "##명의": 4297,
      "##쇼핑": 4298,
      "가격을": 4299,
      "상황에서": 4300,
      "8일": 4301,
      "독자": 4302,
      "선도": 4303,
      "소프트": 4304,
      "수립": 4305,
      "시설": 4306,
      "에어": 4307,
      "주유": 4308,
      "중앙": 4309,
      "후보": 4310,
      "##상승": 4311,
      "##대상": 4312,
      "##연합": 4313,
      "##솔루션": 4314,
      "대표이": 4315,
      "12월": 4316,
      "발표한": 4317,
      "경쟁력": 4318,
      "개인정보": 4319,
      "고도": 4320,
      "그린": 4321,
      "급락": 4322,
      "매입": 4323,
      "보여": 4324,
      "사태": 4325,
      "설비": 4326,
      "수수": 4327,
      "완료": 4328,
      "좋은": 4329,
      "촬영": 4330,
      "케이": 4331,
      "##하우": 4332,
      "##공급": 4333,
      "##중앙": 4334,
      "##사로": 4335,
      "##활동": 4336,
      "하락한": 4337,
      "장관은": 4338,
      "매매": 4339,
      "모니터": 4340,
      "배송": 4341,
      "보장": 4342,
      "비율": 4343,
      "시대": 4344,
      "않을": 4345,
      "완성": 4346,
      "의무": 4347,
      "인앱": 4348,
      "점유율": 4349,
      "플레이": 4350,
      "##레드": 4351,
      "과정에서": 4352,
      "공시": 4353,
      "예측": 4354,
      "작가": 4355,
      "차세대": 4356,
      "##이었": 4357,
      "##리즈": 4358,
      "##르는": 4359,
      "##중립": 4360,
      "##진흥": 4361,
      "##없이": 4362,
      "예상된다": 4363,
      "처음으로": 4364,
      "비롯한": 4365,
      "기획재정부": 4366,
      "MZ": 4367,
      "것도": 4368,
      "대규모": 4369,
      "아울": 4370,
      "어떻": 4371,
      "추정": 4372,
      "##하려": 4373,
      "##스케어": 4374,
      "##25": 4375,
      "##자에게": 4376,
      "##발전": 4377,
      "##제도": 4378,
      "##화학": 4379,
      "##란드": 4380,
      "미국의": 4381,
      "인터넷": 4382,
      "산업통상자원부": 4383,
      "1위": 4384,
      "골프": 4385,
      "아닌": 4386,
      "울산": 4387,
      "유튜": 4388,
      "통화": 4389,
      "패키": 4390,
      "표준": 4391,
      "##지수는": 4392,
      "##2년": 4393,
      "##파이": 4394,
      "##IST": 4395,
      "##바이": 4396,
      "고객에게": 4397,
      "지속적으로": 4398,
      "탄소중립": 4399,
      "아울러": 4400,
      "3분기": 4401,
      "문화": 4402,
      "사장은": 4403,
      "살펴": 4404,
      "상대": 4405,
      "움직": 4406,
      "최적": 4407,
      "치솟": 4408,
      "하향": 4409,
      "##스와": 4410,
      "##기구": 4411,
      "##위가": 4412,
      "##전지": 4413,
      "##튜디오": 4414,
      "이번에": 4415,
      "설명이다": 4416,
      "내놓": 4417,
      "인력": 4418,
      "인도": 4419,
      "인근": 4420,
      "자신": 4421,
      "자본": 4422,
      "주문": 4423,
      "트렌": 4424,
      "특징": 4425,
      "해제": 4426,
      "회의": 4427,
      "##인으로": 4428,
      "##침체": 4429,
      "##밖에": 4430,
      "기업들이": 4431,
      "어려운": 4432,
      "##자동차": 4433,
      "77": 4434,
      "노조": 4435,
      "불안": 4436,
      "어떤": 4437,
      "있기": 4438,
      "점을": 4439,
      "##니까": 4440,
      "##DP": 4441,
      "##냈다": 4442,
      "##영상": 4443,
      "##펀드": 4444,
      "제공할": 4445,
      "개발한": 4446,
      "라이브": 4447,
      "생태계": 4448,
      "유튜브": 4449,
      "34": 4450,
      "38": 4451,
      "45": 4452,
      "57": 4453,
      "검증": 4454,
      "결국": 4455,
      "꾸준": 4456,
      "대기업": 4457,
      "맞춰": 4458,
      "매년": 4459,
      "상위": 4460,
      "전월": 4461,
      "##사이": 4462,
      "서울시": 4463,
      "시장이": 4464,
      "경기침체": 4465,
      "##하겠다는": 4466,
      "보유한": 4467,
      "성과를": 4468,
      "구현": 4469,
      "그리고": 4470,
      "수신": 4471,
      "않았": 4472,
      "인식": 4473,
      "총괄": 4474,
      "파악": 4475,
      "현실": 4476,
      "##지구": 4477,
      "##그룹은": 4478,
      "이미지": 4479,
      "어떻게": 4480,
      "반등": 4481,
      "복합": 4482,
      "부족": 4483,
      "제주": 4484,
      "행복": 4485,
      "##스플레이": 4486,
      "실적을": 4487,
      "활동을": 4488,
      "75": 4489,
      "농업": 4490,
      "부진": 4491,
      "빠른": 4492,
      "소득": 4493,
      "유니": 4494,
      "전경": 4495,
      "제기": 4496,
      "채권": 4497,
      "##하도록": 4498,
      "##성에": 4499,
      "##만큼": 4500,
      "##과의": 4501,
      "##00만": 4502,
      "2017년": 4503,
      "거래일": 4504,
      "적극적으로": 4505,
      "확인할": 4506,
      "인정받": 4507,
      "36": 4508,
      "52": 4509,
      "PC": 4510,
      "기회": 4511,
      "돌파": 4512,
      "바로": 4513,
      "요약": 4514,
      "이러": 4515,
      "정확": 4516,
      "진입": 4517,
      "캠페": 4518,
      "필수": 4519,
      "##단지": 4520,
      "##가스": 4521,
      "##인의": 4522,
      "##le": 4523,
      "##메라": 4524,
      "##겠다는": 4525,
      "수준으로": 4526,
      "발표했다": 4527,
      "증권사": 4528,
      "기다": 4529,
      "받았다": 4530,
      "부채": 4531,
      "불확": 4532,
      "사장": 4533,
      "영역": 4534,
      "위기": 4535,
      "위축": 4536,
      "제2": 4537,
      "##하거나": 4538,
      "##제공": 4539,
      "##데이": 4540,
      "##내용": 4541,
      "##점검": 4542,
      "##노동": 4543,
      "관련해": 4544,
      "것이라고": 4545,
      "##시장에서": 4546,
      "국토교": 4547,
      "누리호": 4548,
      "07": 4549,
      "과거": 4550,
      "대구": 4551,
      "배출": 4552,
      "소유": 4553,
      "순매": 4554,
      "언급": 4555,
      "일정": 4556,
      "자유": 4557,
      "제약": 4558,
      "주장": 4559,
      "플라": 4560,
      "##가고": 4561,
      "##도는": 4562,
      "지원을": 4563,
      "##000만원": 4564,
      "하락했다": 4565,
      "운영하는": 4566,
      "중요한": 4567,
      "소프트웨어": 4568,
      "주유소": 4569,
      "불확실": 4570,
      "가진": 4571,
      "받고": 4572,
      "올레드": 4573,
      "원장은": 4574,
      "이같": 4575,
      "이른": 4576,
      "##스터": 4577,
      "##인데": 4578,
      "##개의": 4579,
      "##산물": 4580,
      "##수의": 4581,
      "##ED": 4582,
      "203": 4583,
      "활성화": 4584,
      "유류세": 4585,
      "모니터링": 4586,
      "가족": 4587,
      "공감": 4588,
      "근무": 4589,
      "늘었다": 4590,
      "발행": 4591,
      "보도": 4592,
      "작업": 4593,
      "추경": 4594,
      "##로부터": 4595,
      "##주시": 4596,
      "##리어": 4597,
      "##TV": 4598,
      "##소재": 4599,
      "##차가": 4600,
      "##감독": 4601,
      "기업은": 4602,
      "10년": 4603,
      "##연구소": 4604,
      "부담을": 4605,
      "비중이": 4606,
      "집계됐다": 4607,
      "퇴직연금": 4608,
      "기아": 4609,
      "만든": 4610,
      "위반": 4611,
      "임대": 4612,
      "작품": 4613,
      "필즈": 4614,
      "한다는": 4615,
      "##14": 4616,
      "##국의": 4617,
      "##도시": 4618,
      "##처기업": 4619,
      "##점에서": 4620,
      "##운드": 4621,
      "추경호": 4622,
      "규정": 4623,
      "높다": 4624,
      "자사": 4625,
      "해양": 4626,
      "##주가": 4627,
      "##해보험": 4628,
      "##했는데": 4629,
      "##무원": 4630,
      "##하기도": 4631,
      "이용할": 4632,
      "분야의": 4633,
      "분야에서": 4634,
      "경험을": 4635,
      "기사내용": 4636,
      "이러한": 4637,
      "58": 4638,
      "기후": 4639,
      "소상공": 4640,
      "이제": 4641,
      "카메라": 4642,
      "태양": 4643,
      "##이가": 4644,
      "##와의": 4645,
      "##부에": 4646,
      "##보건": 4647,
      "##어요": 4648,
      "##하는데": 4649,
      "개발을": 4650,
      "경기도": 4651,
      "무역수": 4652,
      "맞춤형": 4653,
      "3개월": 4654,
      "가치를": 4655,
      "달리": 4656,
      "대신": 4657,
      "명품": 4658,
      "보였다": 4659,
      "않아": 4660,
      "열고": 4661,
      "예방": 4662,
      "제출": 4663,
      "주력": 4664,
      "지구": 4665,
      "지방": 4666,
      "체험": 4667,
      "학생": 4668,
      "##DA": 4669,
      "##회는": 4670,
      "##메이션": 4671,
      "##버그": 4672,
      "##됩니다": 4673,
      "##했다는": 4674,
      "제공하고": 4675,
      "##거래소": 4676,
      "고민": 4677,
      "비슷": 4678,
      "입주": 4679,
      "절반": 4680,
      "쿠팡": 4681,
      "협의": 4682,
      "확정": 4683,
      "희망": 4684,
      "##대면": 4685,
      "##서울": 4686,
      "##re": 4687,
      "##무리": 4688,
      "##케이션": 4689,
      "##학과": 4690,
      "##철도": 4691,
      "삼성전자는": 4692,
      "대해서는": 4693,
      "수준이다": 4694,
      "목표로": 4695,
      "장관이": 4696,
      "여전히": 4697,
      "48": 4698,
      "IS": 4699,
      "검색": 4700,
      "계좌": 4701,
      "등에서": 4702,
      "라는": 4703,
      "매우": 4704,
      "상용": 4705,
      "시리즈": 4706,
      "외식": 4707,
      "유동": 4708,
      "유명": 4709,
      "이끌": 4710,
      "##우주": 4711,
      "##테인": 4712,
      "고객을": 4713,
      "##000원": 4714,
      "시작으로": 4715,
      "기대한다": 4716,
      "떨어졌다": 4717,
      "##hoto": 4718,
      "6개월": 4719,
      "IC": 4720,
      "별도": 4721,
      "분기": 4722,
      "비대면": 4723,
      "손실": 4724,
      "영상을": 4725,
      "육성": 4726,
      "작용": 4727,
      "전장": 4728,
      "정비": 4729,
      "제고": 4730,
      "코리아": 4731,
      "##기준": 4732,
      "##대학교": 4733,
      "##협력": 4734,
      "##화로": 4735,
      "##더라도": 4736,
      "##점이": 4737,
      "##뮤니": 4738,
      "##00만원": 4739,
      "한국의": 4740,
      "금융감독": 4741,
      "상황이다": 4742,
      "보고서": 4743,
      "기능을": 4744,
      "쌍용차": 4745,
      "홈페이지": 4746,
      "2030년": 4747,
      "39": 4748,
      "65": 4749,
      "그간": 4750,
      "단순": 4751,
      "이들": 4752,
      "주관": 4753,
      "처리": 4754,
      "헬스케어": 4755,
      "현황": 4756,
      "##24": 4757,
      "##장비": 4758,
      "##장으로": 4759,
      "##장에서": 4760,
      "##사진": 4761,
      "##점에": 4762,
      "##재산": 4763,
      "위해서는": 4764,
      "고객의": 4765,
      "거래소": 4766,
      "2008년": 4767,
      "##페이스": 4768,
      "여러분의": 4769,
      "의견을": 4770,
      "49": 4771,
      "IB": 4772,
      "photo": 4773,
      "건물": 4774,
      "끌어": 4775,
      "돌아": 4776,
      "동일": 4777,
      "시기": 4778,
      "여기에": 4779,
      "연계": 4780,
      "연준": 4781,
      "접근": 4782,
      "제안": 4783,
      "체계": 4784,
      "취임": 4785,
      "측면": 4786,
      "커지고": 4787,
      "한다고": 4788,
      "##레일": 4789,
      "##서치": 4790,
      "##트리": 4791,
      "##장관": 4792,
      "##라면": 4793,
      "##드를": 4794,
      "##교육": 4795,
      "##빌리티": 4796,
      "수준을": 4797,
      "관심이": 4798,
      "양자암호": 4799,
      "사실상": 4800,
      "위치한": 4801,
      "ETF": 4802,
      "가구": 4803,
      "감사": 4804,
      "경유": 4805,
      "계약을": 4806,
      "마음": 4807,
      "미디어": 4808,
      "베트": 4809,
      "세대": 4810,
      "센터": 4811,
      "안내": 4812,
      "않았다": 4813,
      "여파": 4814,
      "일상": 4815,
      "전해": 4816,
      "중기": 4817,
      "차질": 4818,
      "창출": 4819,
      "토지": 4820,
      "특정": 4821,
      "호텔": 4822,
      "##이자": 4823,
      "##주로": 4824,
      "##주를": 4825,
      "##나는": 4826,
      "##프로": 4827,
      "##보유": 4828,
      "연구개발": 4829,
      "전략을": 4830,
      "방식으로": 4831,
      "비중은": 4832,
      "과학기술정보통신부": 4833,
      "##테인먼트": 4834,
      "베트남": 4835,
      "1천": 4836,
      "5만": 4837,
      "KA": 4838,
      "내다": 4839,
      "면제": 4840,
      "반려": 4841,
      "신속": 4842,
      "신제품": 4843,
      "애니": 4844,
      "앵커": 4845,
      "예비": 4846,
      "와이": 4847,
      "집값": 4848,
      "커뮤니": 4849,
      "테슬": 4850,
      "##거리": 4851,
      "##치료": 4852,
      "##만에": 4853,
      "##90": 4854,
      "##소비": 4855,
      "##두고": 4856,
      "##수록": 4857,
      "##반도체": 4858,
      "##피스": 4859,
      "대한민": 4860,
      "이어질": 4861,
      "전망했다": 4862,
      "기반의": 4863,
      "시스템을": 4864,
      "본격적인": 4865,
      "과기정통부": 4866,
      "MZ세대": 4867,
      "3만": 4868,
      "41": 4869,
      "GDP": 4870,
      "MO": 4871,
      "가지": 4872,
      "대외": 4873,
      "도움이": 4874,
      "디폴": 4875,
      "수치": 4876,
      "아래": 4877,
      "원하는": 4878,
      "유전자": 4879,
      "파업": 4880,
      "협력을": 4881,
      "회원": 4882,
      "##주행": 4883,
      "##경쟁": 4884,
      "##문화": 4885,
      "##생활": 4886,
      "##폭이": 4887,
      "필요하다": 4888,
      "부담이": 4889,
      "그러면서": 4890,
      "수수료": 4891,
      "디폴트": 4892,
      "44": 4893,
      "SN": 4894,
      "뉴욕": 4895,
      "모집": 4896,
      "빅데이터": 4897,
      "유일": 4898,
      "이렇게": 4899,
      "전보다": 4900,
      "조금": 4901,
      "즐길": 4902,
      "파이": 4903,
      "편리": 4904,
      "화면": 4905,
      "##it": 4906,
      "##장과": 4907,
      "##중한": 4908,
      "##부가": 4909,
      "이라는": 4910,
      "추가로": 4911,
      "인앱결제": 4912,
      "5년": 4913,
      "가전": 4914,
      "고정": 4915,
      "고물가": 4916,
      "국산": 4917,
      "단독": 4918,
      "신선": 4919,
      "심사": 4920,
      "지배": 4921,
      "채용": 4922,
      "크다": 4923,
      "해소": 4924,
      "향상": 4925,
      "##하다고": 4926,
      "##치고": 4927,
      "##대회": 4928,
      "##트를": 4929,
      "##트폴": 4930,
      "##설팅": 4931,
      "##데이트": 4932,
      "##전력": 4933,
      "##관은": 4934,
      "##재단": 4935,
      "시장은": 4936,
      "밝혔습니다": 4937,
      "사업에": 4938,
      "것이란": 4939,
      "콘텐츠를": 4940,
      "##ent": 4941,
      "결합": 4942,
      "기조": 4943,
      "맞아": 4944,
      "보이고": 4945,
      "상환": 4946,
      "시민": 4947,
      "않다": 4948,
      "전세계": 4949,
      "증정": 4950,
      "특허": 4951,
      "한일": 4952,
      "합의": 4953,
      "홍콩": 4954,
      "##레스": 4955,
      "##에만": 4956,
      "##고리": 4957,
      "##단체": 4958,
      "##금은": 4959,
      "##전문": 4960,
      "전망이": 4961,
      "거래를": 4962,
      "하나은행": 4963,
      "줄어들": 4964,
      "##트폴리오": 4965,
      "급격": 4966,
      "나가": 4967,
      "등은": 4968,
      "리더": 4969,
      "법인": 4970,
      "없어": 4971,
      "회장이": 4972,
      "휘발": 4973,
      "##로는": 4974,
      "##대비": 4975,
      "##계약": 4976,
      "##진단": 4977,
      "##활용": 4978,
      "##시는": 4979,
      "##머스": 4980,
      "사업자": 4981,
      "2016년": 4982,
      "증가율": 4983,
      "기록한": 4984,
      "활용할": 4985,
      "시작한": 4986,
      "지적했다": 4987,
      "소상공인": 4988,
      "55": 4989,
      "5개": 4990,
      "감안": 4991,
      "경매": 4992,
      "메뉴": 4993,
      "발언": 4994,
      "비전": 4995,
      "쉽게": 4996,
      "저렴": 4997,
      "중견": 4998,
      "지수": 4999,
      "코레일": 5000,
      "화물": 5001,
      "##이지": 5002,
      "##하던": 5003,
      "##나다": 5004,
      "##모델": 5005,
      "##사항": 5006,
      "##격을": 5007,
      "##부채": 5008,
      "##보는": 5009,
      "##립니다": 5010,
      "##조합": 5011,
      "##글로벌": 5012,
      "2025년": 5013,
      "상승했다": 5014,
      "지원한다": 5015,
      "감소했다": 5016,
      "효과를": 5017,
      "가까이": 5018,
      "##게임즈": 5019,
      "43": 5020,
      "72": 5021,
      "그렇": 5022,
      "금액": 5023,
      "불과": 5024,
      "상무": 5025,
      "양성": 5026,
      "양방향": 5027,
      "유망": 5028,
      "적립": 5029,
      "제3": 5030,
      "조선": 5031,
      "##호텔": 5032,
      "##자리": 5033,
      "##100": 5034,
      "##소득": 5035,
      "##티브": 5036,
      "##사고": 5037,
      "##재인": 5038,
      "삼성S": 5039,
      "금리가": 5040,
      "영향으로": 5041,
      "프로그램을": 5042,
      "상대적으로": 5043,
      "휘발유": 5044,
      "가량": 5045,
      "갖고": 5046,
      "검사": 5047,
      "게이": 5048,
      "공략": 5049,
      "나노": 5050,
      "당첨": 5051,
      "독일": 5052,
      "상생": 5053,
      "스토": 5054,
      "실현": 5055,
      "연말": 5056,
      "외부": 5057,
      "지나": 5058,
      "초기": 5059,
      "코인": 5060,
      "테스트": 5061,
      "포트폴리오": 5062,
      "허용": 5063,
      "##공단": 5064,
      "##장에": 5065,
      "##되어": 5066,
      "##조정": 5067,
      "계획을": 5068,
      "사용자": 5069,
      "아이폰": 5070,
      "포함한": 5071,
      "내용을": 5072,
      "통계청": 5073,
      "마감했다": 5074,
      "꾸준히": 5075,
      "긍정": 5076,
      "더불": 5077,
      "마쳤다": 5078,
      "속도": 5079,
      "스튜디오": 5080,
      "실행": 5081,
      "실질": 5082,
      "역량을": 5083,
      "위성": 5084,
      "이사": 5085,
      "이슈": 5086,
      "정기": 5087,
      "지수는": 5088,
      "##기의": 5089,
      "##주식": 5090,
      "##리스트": 5091,
      "##개국": 5092,
      "##뿐만": 5093,
      "전망치": 5094,
      "##라이브": 5095,
      "시작했다": 5096,
      "문제가": 5097,
      "결과를": 5098,
      "업무를": 5099,
      "더불어": 5100,
      "구입": 5101,
      "기초": 5102,
      "대중": 5103,
      "셈이다": 5104,
      "실천": 5105,
      "앞두고": 5106,
      "연방": 5107,
      "이야": 5108,
      "장중": 5109,
      "주변": 5110,
      "##들에": 5111,
      "##미칼": 5112,
      "##건이": 5113,
      "##했으나": 5114,
      "##무를": 5115,
      "##보증": 5116,
      "##or": 5117,
      "##st": 5118,
      "##점으로": 5119,
      "서울경제": 5120,
      "성장을": 5121,
      "금리를": 5122,
      "KT는": 5123,
      "떨어진": 5124,
      "29일": 5125,
      "차지하는": 5126,
      "태양광": 5127,
      "..": 5128,
      "3개": 5129,
      "Io": 5130,
      "같이": 5131,
      "교신": 5132,
      "누구": 5133,
      "데일리": 5134,
      "맞는": 5135,
      "목적": 5136,
      "문재인": 5137,
      "설정": 5138,
      "수밖에": 5139,
      "신뢰": 5140,
      "응답": 5141,
      "이재": 5142,
      "자연": 5143,
      "자회사": 5144,
      "적자": 5145,
      "전면": 5146,
      "젊은": 5147,
      "제휴": 5148,
      "조달": 5149,
      "추첨": 5150,
      "출발": 5151,
      "##션을": 5152,
      "##로드": 5153,
      "##상의": 5154,
      "##상황": 5155,
      "##됐습니다": 5156,
      "##해도": 5157,
      "##가치": 5158,
      "##소프트": 5159,
      "##세다": 5160,
      "##GW": 5161,
      "##되기": 5162,
      "2023년": 5163,
      "금융당국": 5164,
      "진행하고": 5165,
      "사진은": 5166,
      "문제를": 5167,
      "신한금융": 5168,
      "##ing": 5169,
      "자율주행": 5170,
      "그런데": 5171,
      "국토교통부": 5172,
      "IoT": 5173,
      "데일리안": 5174,
      "51": 5175,
      "95": 5176,
      "NH": 5177,
      "가속": 5178,
      "가맹": 5179,
      "갖춘": 5180,
      "긴축": 5181,
      "나섰다": 5182,
      "대로": 5183,
      "배경": 5184,
      "불가": 5185,
      "수집": 5186,
      "시범": 5187,
      "양국": 5188,
      "이자": 5189,
      "접수": 5190,
      "팬데믹": 5191,
      "폴란드": 5192,
      "환자": 5193,
      "##지도": 5194,
      "##체계": 5195,
      "##자금": 5196,
      "##니아": 5197,
      "##으면서": 5198,
      "##위로": 5199,
      "##화할": 5200,
      "##린다": 5201,
      "##NG": 5202,
      "##으로부터": 5203,
      "기업들의": 5204,
      "확대를": 5205,
      "선정된": 5206,
      "선정됐다": 5207,
      "보유하고": 5208,
      "이동통신": 5209,
      "나선다": 5210,
      "전력수급": 5211,
      "테슬라": 5212,
      "46": 5213,
      "감축": 5214,
      "동물": 5215,
      "반응": 5216,
      "스포": 5217,
      "자세": 5218,
      "재개": 5219,
      "최신": 5220,
      "취득": 5221,
      "커피": 5222,
      "코오": 5223,
      "투입": 5224,
      "후속": 5225,
      "##르고": 5226,
      "##제가": 5227,
      "##담보": 5228,
      "##해진": 5229,
      "##해왔다": 5230,
      "##평균": 5231,
      "##MW": 5232,
      "##사인": 5233,
      "##화점": 5234,
      "##감이": 5235,
      "##닉스": 5236,
      "##하고자": 5237,
      "경제부": 5238,
      "SK하이": 5239,
      "198": 5240,
      "규모는": 5241,
      "##하겠다고": 5242,
      "카카오뱅크": 5243,
      "기대된다": 5244,
      "선보인다": 5245,
      "##경영자": 5246,
      "부회장": 5247,
      "그래픽": 5248,
      "SNS": 5249,
      "코오롱": 5250,
      "개별": 5251,
      "개편": 5252,
      "관한": 5253,
      "농협": 5254,
      "대폭": 5255,
      "되고": 5256,
      "등과": 5257,
      "목소": 5258,
      "북한": 5259,
      "사무": 5260,
      "신고": 5261,
      "이다": 5262,
      "잇따": 5263,
      "제보": 5264,
      "제어": 5265,
      "중고": 5266,
      "캐나다": 5267,
      "컨설팅": 5268,
      "합리": 5269,
      "##스틱": 5270,
      "##원과": 5271,
      "##ion": 5272,
      "##비용": 5273,
      "##관계": 5274,
      "##료로": 5275,
      "##봤다": 5276,
      "한국은행": 5277,
      "정부와": 5278,
      "규제를": 5279,
      "매출은": 5280,
      "매출액": 5281,
      "정책을": 5282,
      "비중을": 5283,
      "대한민국": 5284,
      "가정": 5285,
      "기회를": 5286,
      "넘는": 5287,
      "동향": 5288,
      "디스플레이": 5289,
      "석탄": 5290,
      "스스로": 5291,
      "양산": 5292,
      "업데이트": 5293,
      "완전": 5294,
      "유출": 5295,
      "유기": 5296,
      "이내": 5297,
      "임금": 5298,
      "출하": 5299,
      "##이지만": 5300,
      "##나고": 5301,
      "##분간": 5302,
      "##보다는": 5303,
      "##재해": 5304,
      "##00억원": 5305,
      "진행된다": 5306,
      "##그룹의": 5307,
      "업계에": 5308,
      "선보일": 5309,
      "처음이다": 5310,
      "관심을": 5311,
      "무역적": 5312,
      "대형마트": 5313,
      "전시회": 5314,
      "특징이다": 5315,
      "1억": 5316,
      "47": 5317,
      "근거": 5318,
      "마무리": 5319,
      "만족": 5320,
      "사항": 5321,
      "수는": 5322,
      "아마": 5323,
      "역량": 5324,
      "음식": 5325,
      "이행": 5326,
      "이차": 5327,
      "적정": 5328,
      "제보를": 5329,
      "종료": 5330,
      "주는": 5331,
      "중장": 5332,
      "첨단": 5333,
      "현금": 5334,
      "##DC": 5335,
      "##타워": 5336,
      "##분을": 5337,
      "##낸셜": 5338,
      "가능성을": 5339,
      "상승률이": 5340,
      "금리인": 5341,
      "시간이": 5342,
      "체결했다": 5343,
      "업무협약": 5344,
      "기다립니다": 5345,
      "01": 5346,
      "84": 5347,
      "9시": 5348,
      "EU": 5349,
      "KDI": 5350,
      "강제": 5351,
      "거주": 5352,
      "금감": 5353,
      "늘고": 5354,
      "세븐": 5355,
      "시세": 5356,
      "장을": 5357,
      "조치를": 5358,
      "총리": 5359,
      "충돌": 5360,
      "폭염": 5361,
      "풀이": 5362,
      "##지며": 5363,
      "##서도": 5364,
      "##위에": 5365,
      "##요일": 5366,
      "##표준": 5367,
      "##유가": 5368,
      "##부를": 5369,
      "##화가": 5370,
      "##선이": 5371,
      "##있는": 5372,
      "##번째": 5373,
      "##링크": 5374,
      "지원할": 5375,
      "지원하는": 5376,
      "##거래일": 5377,
      "러시아의": 5378,
      "실제로": 5379,
      "효과가": 5380,
      "고려해": 5381,
      "28일": 5382,
      "고도화": 5383,
      "RE": 5384,
      "계열": 5385,
      "내고": 5386,
      "등도": 5387,
      "선물": 5388,
      "소중한": 5389,
      "시가": 5390,
      "시각": 5391,
      "안에": 5392,
      "운동": 5393,
      "원격": 5394,
      "유사": 5395,
      "유입": 5396,
      "장소": 5397,
      "장마": 5398,
      "주행": 5399,
      "통상": 5400,
      "표성": 5401,
      "프랑": 5402,
      "##스턴": 5403,
      "##로를": 5404,
      "##대표": 5405,
      "##통부는": 5406,
      "##위의": 5407,
      "##권에": 5408,
      "##문을": 5409,
      "##룸버그": 5410,
      "##팀은": 5411,
      "##믹스": 5412,
      "##릭터": 5413,
      "##박스": 5414,
      "##순환": 5415,
      "진행할": 5416,
      "LG이노": 5417,
      "사용할": 5418,
      "선보인": 5419,
      "구성된": 5420,
      "어려움을": 5421,
      "코스피가": 5422,
      "상태다": 5423,
      "그래서": 5424,
      "여부를": 5425,
      "##바이러스": 5426,
      "MOU": 5427,
      "파이낸셜": 5428,
      "이차전지": 5429,
      "표성미": 5430,
      "LG이노텍": 5431,
      "05": 5432,
      "1차": 5433,
      "1000": 5434,
      "강력": 5435,
      "거리": 5436,
      "그대로": 5437,
      "블룸버그": 5438,
      "승인": 5439,
      "운전자": 5440,
      "유예": 5441,
      "자원": 5442,
      "전개": 5443,
      "전세": 5444,
      "정도로": 5445,
      "주민": 5446,
      "지도": 5447,
      "지표": 5448,
      "최우": 5449,
      "##RI": 5450,
      "##스티": 5451,
      "##트는": 5452,
      "##공간": 5453,
      "##ed": 5454,
      "##었고": 5455,
      "##케미칼": 5456,
      "##홀딩": 5457,
      "##진을": 5458,
      "##너스": 5459,
      "##등학교": 5460,
      "##적이고": 5461,
      "##언스": 5462,
      "##책임": 5463,
      "##갔다": 5464,
      "##으로는": 5465,
      "금융위원회": 5466,
      "기준금리": 5467,
      "##0년대": 5468,
      "수준의": 5469,
      "카카오톡": 5470,
      "분석했다": 5471,
      "여름철": 5472,
      "이유로": 5473,
      "바이러스": 5474,
      "비트코인": 5475,
      "움직임": 5476,
      "김방": 5477,
      "담은": 5478,
      "마켓": 5479,
      "무신": 5480,
      "배달": 5481,
      "보증": 5482,
      "부총": 5483,
      "산하": 5484,
      "신호": 5485,
      "심의": 5486,
      "요소": 5487,
      "유형": 5488,
      "제1": 5489,
      "직후": 5490,
      "펀드": 5491,
      "##기기": 5492,
      "##만5": 5493,
      "##70": 5494,
      "##일을": 5495,
      "##마블": 5496,
      "##퍼런": 5497,
      "##함을": 5498,
      "##명으로": 5499,
      "##조사": 5500,
      "##힌다": 5501,
      "기업으로": 5502,
      "사업은": 5503,
      "이용해": 5504,
      "전망된다": 5505,
      "우리은행": 5506,
      "130": 5507,
      "물가상승": 5508,
      "게임을": 5509,
      "제시했다": 5510,
      "##주년을": 5511,
      "차별화된": 5512,
      "대표이사": 5513,
      "...": 5514,
      "김방희": 5515,
      "강원": 5516,
      "경찰": 5517,
      "고수": 5518,
      "넷마블": 5519,
      "달하는": 5520,
      "많다": 5521,
      "많아": 5522,
      "매일": 5523,
      "매도": 5524,
      "방어": 5525,
      "봉쇄": 5526,
      "상한": 5527,
      "시험": 5528,
      "애널": 5529,
      "원을": 5530,
      "종로": 5531,
      "준법": 5532,
      "줄었다": 5533,
      "측정": 5534,
      "하지": 5535,
      "한은": 5536,
      "##하지만": 5537,
      "##21": 5538,
      "##워드": 5539,
      "##비를": 5540,
      "##웨이": 5541,
      "##베이션": 5542,
      "##폭을": 5543,
      "##으로써": 5544,
      "관계자": 5545,
      "##위원장": 5546,
      "150": 5547,
      "최고경영자": 5548,
      "발생하는": 5549,
      "27일": 5550,
      "지금까지": 5551,
      "인터뷰": 5552,
      "형태로": 5553,
      "담보비율": 5554,
      "트렌드": 5555,
      "LH": 5556,
      "SM": 5557,
      "거의": 5558,
      "노하우": 5559,
      "당분간": 5560,
      "드러": 5561,
      "라인": 5562,
      "못한": 5563,
      "보상": 5564,
      "북미": 5565,
      "빗썸": 5566,
      "쉽지": 5567,
      "어느": 5568,
      "오름": 5569,
      "의사": 5570,
      "재건": 5571,
      "절감": 5572,
      "주제로": 5573,
      "충남": 5574,
      "티빙": 5575,
      "해석": 5576,
      "해운": 5577,
      "협약을": 5578,
      "##지노": 5579,
      "##대학": 5580,
      "##만8": 5581,
      "##et": 5582,
      "##었습니다": 5583,
      "##세로": 5584,
      "##파크": 5585,
      "##테일": 5586,
      "##손해보험": 5587,
      "개발에": 5588,
      "##사업을": 5589,
      "본격화": 5590,
      "진출을": 5591,
      "마이크로": 5592,
      "끌어올": 5593,
      "중견기업": 5594,
      "중장기": 5595,
      "61": 5596,
      "DS": 5597,
      "고양": 5598,
      "국채": 5599,
      "국무": 5600,
      "나왔다": 5601,
      "더해": 5602,
      "만기": 5603,
      "민감": 5604,
      "바다": 5605,
      "비판": 5606,
      "사우": 5607,
      "상호": 5608,
      "선호": 5609,
      "아트": 5610,
      "이외": 5611,
      "이름": 5612,
      "저장": 5613,
      "정유": 5614,
      "지식": 5615,
      "치킨": 5616,
      "크래": 5617,
      "키우": 5618,
      "통과": 5619,
      "폐기": 5620,
      "피부": 5621,
      "한전": 5622,
      "행사를": 5623,
      "##대가": 5624,
      "##만의": 5625,
      "##의약품": 5626,
      "##공항": 5627,
      "##드경제": 5628,
      "##디아": 5629,
      "##km": 5630,
      "가격에": 5631,
      "금융시장": 5632,
      "이용하는": 5633,
      "120": 5634,
      "필요가": 5635,
      "물가가": 5636,
      "확보를": 5637,
      "솔루션을": 5638,
      "치료제": 5639,
      "이같이": 5640,
      "KAIST": 5641,
      "1회": 5642,
      "85": 5643,
      "88": 5644,
      "LS": 5645,
      "OT": 5646,
      "교류": 5647,
      "나아": 5648,
      "너무": 5649,
      "대기": 5650,
      "동남": 5651,
      "등이다": 5652,
      "메모": 5653,
      "미치는": 5654,
      "배럴": 5655,
      "백신": 5656,
      "소속": 5657,
      "신혼": 5658,
      "심화": 5659,
      "연료": 5660,
      "인스타": 5661,
      "자녀": 5662,
      "저희": 5663,
      "전담": 5664,
      "제재": 5665,
      "추천": 5666,
      "충분": 5667,
      "행정": 5668,
      "허브": 5669,
      "헤럴": 5670,
      "형성": 5671,
      "##로운": 5672,
      "##기자": 5673,
      "##제약": 5674,
      "##받고": 5675,
      "##어나": 5676,
      "##명은": 5677,
      "##BS": 5678,
      "대한항공": 5679,
      "기술로": 5680,
      "경우가": 5681,
      "4일부터": 5682,
      "최고의": 5683,
      "아이디어": 5684,
      "평가를": 5685,
      "적극적인": 5686,
      "코스피는": 5687,
      "국민의": 5688,
      "국민연금": 5689,
      "라이프": 5690,
      "체결했다고": 5691,
      "외환보유": 5692,
      "KBS": 5693,
      "##별로는": 5694,
      "필즈상": 5695,
      "커뮤니티": 5696,
      "헤럴드경제": 5697,
      "04": 5698,
      "2천": 5699,
      "94": 5700,
      "LNG": 5701,
      "가공": 5702,
      "같다": 5703,
      "것과": 5704,
      "경남": 5705,
      "나라": 5706,
      "낮추": 5707,
      "달라": 5708,
      "당초": 5709,
      "도로": 5710,
      "등장": 5711,
      "새롭게": 5712,
      "선제": 5713,
      "세부": 5714,
      "아니다": 5715,
      "압박": 5716,
      "약속": 5717,
      "용산": 5718,
      "인플": 5719,
      "입장을": 5720,
      "전통": 5721,
      "점도": 5722,
      "직전": 5723,
      "초과": 5724,
      "크리스": 5725,
      "화제": 5726,
      "휴대": 5727,
      "흐름": 5728,
      "##RT": 5729,
      "##LED": 5730,
      "##임대": 5731,
      "##센서": 5732,
      "##부처": 5733,
      "##구역": 5734,
      "##메이드": 5735,
      "##시켜": 5736,
      "##적이다": 5737,
      "##운송": 5738,
      "진행하는": 5739,
      "상승한": 5740,
      "수출이": 5741,
      "197": 5742,
      "규모로": 5743,
      "매출이": 5744,
      "문제는": 5745,
      "있어서": 5746,
      "중심의": 5747,
      "주가는": 5748,
      "##업계에": 5749,
      "우수한": 5750,
      "가능성도": 5751,
      "##시키는": 5752,
      "금융감독원": 5753,
      "반려동": 5754,
      "경제부총리": 5755,
      "종로구": 5756,
      "6개": 5757,
      "73": 5758,
      "91": 5759,
      "kr": 5760,
      "건축": 5761,
      "걸쳐": 5762,
      "계기로": 5763,
      "광주": 5764,
      "단체": 5765,
      "단기": 5766,
      "동월": 5767,
      "받았": 5768,
      "부과": 5769,
      "연동": 5770,
      "오랜": 5771,
      "왔다": 5772,
      "유도": 5773,
      "이탈": 5774,
      "입찰": 5775,
      "적자를": 5776,
      "착용": 5777,
      "해야": 5778,
      "##오프": 5779,
      "##리금": 5780,
      "##니어": 5781,
      "##99": 5782,
      "##ro": 5783,
      "##가포": 5784,
      "##준이": 5785,
      "##화와": 5786,
      "##실적": 5787,
      "##극재": 5788,
      "##NM": 5789,
      "##NA": 5790,
      "##벤처기업": 5791,
      "##웠다": 5792,
      "기업에": 5793,
      "관련한": 5794,
      "프로모": 5795,
      "1일부터": 5796,
      "데이터센터": 5797,
      "출시했다": 5798,
      "##하겠습니다": 5799,
      "과정을": 5800,
      "참석한": 5801,
      "교수가": 5802,
      "환율은": 5803,
      "전력수요": 5804,
      "내다봤다": 5805,
      "스포츠": 5806,
      "풀이된다": 5807,
      "시가총": 5808,
      "강력한": 5809,
      "애널리스트": 5810,
      "D램": 5811,
      "경신": 5812,
      "국회": 5813,
      "당부": 5814,
      "독립": 5815,
      "디자": 5816,
      "론칭": 5817,
      "맥주": 5818,
      "명확": 5819,
      "받는": 5820,
      "발급": 5821,
      "방역": 5822,
      "보는": 5823,
      "보이는": 5824,
      "소식": 5825,
      "싱가포": 5826,
      "없다는": 5827,
      "에스": 5828,
      "연장": 5829,
      "오히": 5830,
      "원화": 5831,
      "웹툰": 5832,
      "작품을": 5833,
      "조건": 5834,
      "철저": 5835,
      "카테": 5836,
      "캐릭터": 5837,
      "테라": 5838,
      "패션": 5839,
      "허준이": 5840,
      "##하자": 5841,
      "##기능": 5842,
      "##35": 5843,
      "##bp": 5844,
      "##가와": 5845,
      "##받은": 5846,
      "##국제": 5847,
      "##인력": 5848,
      "##영업": 5849,
      "##관에서": 5850,
      "##노조": 5851,
      "사업이": 5852,
      "카카오페이": 5853,
      "판단되는": 5854,
      "노력하겠다": 5855,
      "대학생": 5856,
      "피해를": 5857,
      "가계대출": 5858,
      "양자암호통신": 5859,
      "와이파이": 5860,
      "파이낸셜뉴스": 5861,
      "인스타그램": 5862,
      "오히려": 5863,
      "2개": 5864,
      "3천": 5865,
      "87": 5866,
      "GC": 5867,
      "관광": 5868,
      "도전": 5869,
      "둘러": 5870,
      "마지": 5871,
      "무더": 5872,
      "바뀌": 5873,
      "발주": 5874,
      "밸류": 5875,
      "법률": 5876,
      "시상": 5877,
      "시즌": 5878,
      "어린": 5879,
      "외에도": 5880,
      "유리": 5881,
      "이루": 5882,
      "일환": 5883,
      "중간": 5884,
      "직장": 5885,
      "차단": 5886,
      "차례": 5887,
      "창립": 5888,
      "철도": 5889,
      "콜라": 5890,
      "해도": 5891,
      "힘을": 5892,
      "##스에서": 5893,
      "##기와": 5894,
      "##37": 5895,
      "##15": 5896,
      "##리카": 5897,
      "##리콘": 5898,
      "##리케이션": 5899,
      "##아이": 5900,
      "##장치": 5901,
      "##었던": 5902,
      "##준비": 5903,
      "##보면": 5904,
      "##ce": 5905,
      "##ck": 5906,
      "##언론": 5907,
      "기업들은": 5908,
      "진행된": 5909,
      "진행했다": 5910,
      "중국의": 5911,
      "방식을": 5912,
      "구글의": 5913,
      "외환위기": 5914,
      "모습을": 5915,
      "방문해": 5916,
      "LG유플러스는": 5917,
      "##000만달러": 5918,
      "어렵다": 5919,
      "마이크론": 5920,
      "##중앙회": 5921,
      "플라스틱": 5922,
      "비슷한": 5923,
      "지배구조": 5924,
      "누구나": 5925,
      "2000": 5926,
      "4년": 5927,
      "67": 5928,
      "66": 5929,
      "DT": 5930,
      "IM": 5931,
      "가파": 5932,
      "간편": 5933,
      "공매": 5934,
      "기부": 5935,
      "납품": 5936,
      "노력을": 5937,
      "대만": 5938,
      "동반": 5939,
      "부처": 5940,
      "선임": 5941,
      "시너지": 5942,
      "신세계": 5943,
      "않도록": 5944,
      "없다고": 5945,
      "의약품": 5946,
      "잠재": 5947,
      "재활용": 5948,
      "전송": 5949,
      "접목": 5950,
      "정치": 5951,
      "카페": 5952,
      "택시": 5953,
      "협약": 5954,
      "##이라": 5955,
      "##이스트": 5956,
      "##그라": 5957,
      "##션은": 5958,
      "##종의": 5959,
      "##대는": 5960,
      "##2억원": 5961,
      "##트로": 5962,
      "##자들의": 5963,
      "##인터": 5964,
      "##도에": 5965,
      "##부담": 5966,
      "##청사에서": 5967,
      "##시킬": 5968,
      "##조5": 5969,
      "##생산": 5970,
      "##란다": 5971,
      "정부서울": 5972,
      "사진영상": 5973,
      "관련된": 5974,
      "규모가": 5975,
      "회사는": 5976,
      "회사의": 5977,
      "혁신을": 5978,
      "가치나": 5979,
      "영업이익은": 5980,
      "보내주시": 5981,
      "순매수": 5982,
      "애니메이션": 5983,
      "디폴트옵": 5984,
      "삼성SDI": 5985,
      "프랑스": 5986,
      "메모리": 5987,
      "싱가포르": 5988,
      "마지막": 5989,
      "00": 5990,
      "96": 5991,
      "갈등": 5992,
      "거듭": 5993,
      "과도": 5994,
      "도쿄": 5995,
      "되면": 5996,
      "드림": 5997,
      "레벨": 5998,
      "리서치": 5999,
      "무엇": 6000,
      "바란다": 6001,
      "밝힌": 6002,
      "부실": 6003,
      "분리": 6004,
      "상하이": 6005,
      "오를": 6006,
      "오피스": 6007,
      "이종": 6008,
      "이름을": 6009,
      "주재": 6010,
      "지연": 6011,
      "질문": 6012,
      "충족": 6013,
      "테마": 6014,
      "특수": 6015,
      "학습": 6016,
      "한정": 6017,
      "활발": 6018,
      "##이던": 6019,
      "##지주": 6020,
      "##지와": 6021,
      "##였던": 6022,
      "##상으로": 6023,
      "##대의": 6024,
      "##만명": 6025,
      "##단을": 6026,
      "##계의": 6027,
      "##다면": 6028,
      "##자재": 6029,
      "##자들은": 6030,
      "##금이": 6031,
      "##융자": 6032,
      "##받습니다": 6033,
      "##율이": 6034,
      "##율을": 6035,
      "##방안": 6036,
      "##시험": 6037,
      "##커머스": 6038,
      "##푸드": 6039,
      "지속적인": 6040,
      "##라이트": 6041,
      "규모다": 6042,
      "참여한": 6043,
      "포함해": 6044,
      "참석했다": 6045,
      "이유는": 6046,
      "전문가들은": 6047,
      "##과학기술": 6048,
      "구체적인": 6049,
      "지상국": 6050,
      "##하려는": 6051,
      "불가피": 6052,
      "4분기": 6053,
      "64": 6054,
      "SW": 6055,
      "가이드": 6056,
      "넷플": 6057,
      "다소": 6058,
      "당국": 6059,
      "동참": 6060,
      "만드는": 6061,
      "메시": 6062,
      "스페이스": 6063,
      "예고": 6064,
      "운행": 6065,
      "이들은": 6066,
      "절차를": 6067,
      "주차": 6068,
      "중대": 6069,
      "최악": 6070,
      "커질": 6071,
      "합병": 6072,
      "휴가": 6073,
      "힘들": 6074,
      "##당은": 6075,
      "##계층": 6076,
      "##량의": 6077,
      "##리면서": 6078,
      "##권의": 6079,
      "##라마": 6080,
      "##개선": 6081,
      "##SC": 6082,
      "##수학": 6083,
      "##전환": 6084,
      "##율은": 6085,
      "##관광": 6086,
      "##엔터": 6087,
      "##과정": 6088,
      "##안정": 6089,
      "##포트": 6090,
      "##촬영": 6091,
      "진행됐다": 6092,
      "이어지고": 6093,
      "공급하는": 6094,
      "상황에": 6095,
      "예상되는": 6096,
      "환경을": 6097,
      "추진할": 6098,
      "중소벤처기업": 6099,
      "뉴시스가": 6100,
      "주식을": 6101,
      "##회의에서": 6102,
      "반영하겠습니다": 6103,
      "마이데이터": 6104,
      "변동성이": 6105,
      "국토부": 6106,
      "완성차": 6107,
      "공감언론": 6108,
      "##담보대출": 6109,
      "제보받습니다": 6110,
      "아마존": 6111,
      "부총리는": 6112,
      "##퍼런스": 6113,
      "화제성이": 6114,
      "사진영상부": 6115,
      "보내주시면": 6116,
      "넷플릭": 6117,
      "1위를": 6118,
      "2배": 6119,
      "53": 6120,
      "KI": 6121,
      "SSG": 6122,
      "TF": 6123,
      "가져": 6124,
      "게시": 6125,
      "극대": 6126,
      "꼽힌다": 6127,
      "노벨": 6128,
      "높여": 6129,
      "돌입": 6130,
      "본사": 6131,
      "사상": 6132,
      "선언": 6133,
      "속도를": 6134,
      "에이": 6135,
      "에보": 6136,
      "여신": 6137,
      "열리는": 6138,
      "온실": 6139,
      "원가": 6140,
      "의결": 6141,
      "인기를": 6142,
      "점차": 6143,
      "점포": 6144,
      "접속": 6145,
      "제대로": 6146,
      "조회": 6147,
      "주로": 6148,
      "쿠폰": 6149,
      "##대에": 6150,
      "##만달러": 6151,
      "##프랜드": 6152,
      "##졌습니다": 6153,
      "##여개": 6154,
      "##ve": 6155,
      "##MC": 6156,
      "##금리를": 6157,
      "##SA": 6158,
      "##분야": 6159,
      "##화에": 6160,
      "##전선": 6161,
      "##역을": 6162,
      "##un": 6163,
      "##운영": 6164,
      "##베스트": 6165,
      "상승을": 6166,
      "확대해": 6167,
      "2015년": 6168,
      "업계의": 6169,
      "실적이": 6170,
      "발생한": 6171,
      "140": 6172,
      "목표를": 6173,
      "##회의를": 6174,
      "1998년": 6175,
      "강남구": 6176,
      "##이노베이션": 6177,
      "자신의": 6178,
      "이른바": 6179,
      "무신사": 6180,
      "2주": 6181,
      "3대": 6182,
      "ENM": 6183,
      "가지고": 6184,
      "걱정": 6185,
      "곡물": 6186,
      "공격": 6187,
      "공항": 6188,
      "단행": 6189,
      "배우": 6190,
      "벌어": 6191,
      "보급": 6192,
      "보니": 6193,
      "분위": 6194,
      "불편": 6195,
      "상점": 6196,
      "소폭": 6197,
      "스탠": 6198,
      "신차": 6199,
      "아웃": 6200,
      "열어": 6201,
      "예약": 6202,
      "위메이드": 6203,
      "이란": 6204,
      "전주": 6205,
      "점에서": 6206,
      "질병": 6207,
      "커넥": 6208,
      "투명": 6209,
      "폭을": 6210,
      "표현": 6211,
      "##지면": 6212,
      "##로서": 6213,
      "##규제": 6214,
      "##기획": 6215,
      "##만1": 6216,
      "##22": 6217,
      "##다가": 6218,
      "##리기": 6219,
      "##96": 6220,
      "##위험": 6221,
      "##력과": 6222,
      "##세는": 6223,
      "##준다": 6224,
      "##부부": 6225,
      "##어로": 6226,
      "##조4": 6227,
      "##조7": 6228,
      "##교통": 6229,
      "##피탈": 6230,
      "##퓨터": 6231,
      "2030": 6232,
      "기업을": 6233,
      "##부터는": 6234,
      "기술이": 6235,
      "기술력을": 6236,
      "고객들이": 6237,
      "사진제공": 6238,
      "확대할": 6239,
      "LG에너지": 6240,
      "우리금융": 6241,
      "##사업자": 6242,
      "현대모": 6243,
      "카카오게임즈": 6244,
      "환경부": 6245,
      "##센터에서": 6246,
      "감소한": 6247,
      "하나로": 6248,
      "안정적인": 6249,
      "시간을": 6250,
      "공정거래": 6251,
      "##연합회": 6252,
      "최적의": 6253,
      "여파로": 6254,
      "동남아": 6255,
      "LG에너지솔루션": 6256,
      "5대": 6257,
      "56": 6258,
      "5년간": 6259,
      "68": 6260,
      "76": 6261,
      "CP": 6262,
      "개설": 6263,
      "개방": 6264,
      "공기": 6265,
      "귀농": 6266,
      "기금": 6267,
      "내에": 6268,
      "다수": 6269,
      "발견": 6270,
      "불구": 6271,
      "사망": 6272,
      "실리콘": 6273,
      "여성": 6274,
      "이스타": 6275,
      "재미": 6276,
      "재해": 6277,
      "적은": 6278,
      "적절": 6279,
      "전일": 6280,
      "최선을": 6281,
      "취업": 6282,
      "테크": 6283,
      "팝업": 6284,
      "한층": 6285,
      "##스러": 6286,
      "##종을": 6287,
      "##의도": 6288,
      "##주일": 6289,
      "##3억": 6290,
      "##인지": 6291,
      "##식에서": 6292,
      "##PS": 6293,
      "##코프": 6294,
      "##든요": 6295,
      "##겠다고": 6296,
      "##등급": 6297,
      "##점은": 6298,
      "##람회": 6299,
      "##조3": 6300,
      "##EC": 6301,
      "##테리어": 6302,
      "##클라우드": 6303,
      "##에서의": 6304,
      "2024년": 6305,
      "##억원에서": 6306,
      "미국과": 6307,
      "이상을": 6308,
      "2012년": 6309,
      "지속될": 6310,
      "196": 6311,
      "출시한": 6312,
      "롯데마트": 6313,
      "성공했다": 6314,
      "가상인": 6315,
      "직원들이": 6316,
      "증시가": 6317,
      "비교해": 6318,
      "거래일보다": 6319,
      "연방준비": 6320,
      "63": 6321,
      "74": 6322,
      "감지": 6323,
      "갤럭": 6324,
      "거부": 6325,
      "공기업": 6326,
      "구독": 6327,
      "그만큼": 6328,
      "높이": 6329,
      "데다": 6330,
      "동시": 6331,
      "루닛": 6332,
      "마찬": 6333,
      "말씀": 6334,
      "못하고": 6335,
      "발간": 6336,
      "부총리": 6337,
      "시공": 6338,
      "시도": 6339,
      "시절": 6340,
      "신기술": 6341,
      "실험": 6342,
      "심사를": 6343,
      "쏘카": 6344,
      "없을": 6345,
      "올린": 6346,
      "외교": 6347,
      "유연": 6348,
      "인지": 6349,
      "인간": 6350,
      "작은": 6351,
      "전에": 6352,
      "제정": 6353,
      "주말": 6354,
      "천연": 6355,
      "포기": 6356,
      "폭이": 6357,
      "해상": 6358,
      "화질": 6359,
      "##거든요": 6360,
      "##였습니다": 6361,
      "##대에서": 6362,
      "##주도": 6363,
      "##미나": 6364,
      "##리베": 6365,
      "##가로": 6366,
      "##티지": 6367,
      "##받을": 6368,
      "##UV": 6369,
      "##ll": 6370,
      "##IC": 6371,
      "##수산": 6372,
      "##병원": 6373,
      "##질환": 6374,
      "##과제": 6375,
      "##판에": 6376,
      "##변화": 6377,
      "##닷컴": 6378,
      "위해서": 6379,
      "금융위": 6380,
      "가능해": 6381,
      "진행한": 6382,
      "운영하고": 6383,
      "최고치를": 6384,
      "추진하고": 6385,
      "하나의": 6386,
      "애플리케이션": 6387,
      "수익률": 6388,
      "어려워": 6389,
      "공개했다": 6390,
      "고용노동": 6391,
      "줄어든": 6392,
      "비상경제": 6393,
      "RE100": 6394,
      "신혼부부": 6395,
      "정부서울청사에서": 6396,
      "가상인간": 6397,
      "4개": 6398,
      "59": 6399,
      "교체": 6400,
      "구분": 6401,
      "나설": 6402,
      "노출": 6403,
      "다하겠다": 6404,
      "당장": 6405,
      "동의": 6406,
      "리포트": 6407,
      "멤버": 6408,
      "보건": 6409,
      "부가": 6410,
      "부사": 6411,
      "불리는": 6412,
      "세포": 6413,
      "속에서": 6414,
      "스트": 6415,
      "시내": 6416,
      "앱을": 6417,
      "유전": 6418,
      "의존": 6419,
      "이로": 6420,
      "이창": 6421,
      "전남": 6422,
      "제도를": 6423,
      "좋아": 6424,
      "철강": 6425,
      "현상이": 6426,
      "회의를": 6427,
      "##지에서": 6428,
      "##브리": 6429,
      "##모듈": 6430,
      "##83": 6431,
      "##ec": 6432,
      "##정비": 6433,
      "##PG": 6434,
      "##분에": 6435,
      "##플라": 6436,
      "##복합": 6437,
      "기술과": 6438,
      "판매하는": 6439,
      "프로세": 6440,
      "주요국": 6441,
      "예상했다": 6442,
      "정보통신": 6443,
      "##증권은": 6444,
      "시행령": 6445,
      "성공적으로": 6446,
      "참석해": 6447,
      "기념촬영": 6448,
      "프로젝트를": 6449,
      "편의점": 6450,
      "활성화를": 6451,
      "GS25": 6452,
      "전반에": 6453,
      "과기정통부는": 6454,
      "최소화": 6455,
      "업무협약을": 6456,
      "전경련": 6457,
      "##호텔에서": 6458,
      "아이폰14": 6459,
      "SK하이닉스": 6460,
      "잇따라": 6461,
      "해운대": 6462,
      "OTT": 6463,
      "이스타항공": 6464,
      "갤럭시": 6465,
      "마찬가지": 6466,
      "##리베이터": 6467,
      "1명": 6468,
      "PM": 6469,
      "고급": 6470,
      "구간": 6471,
      "긴밀": 6472,
      "남아": 6473,
      "내수": 6474,
      "내에서": 6475,
      "도착": 6476,
      "매주": 6477,
      "박사": 6478,
      "분류": 6479,
      "분위기": 6480,
      "블랙": 6481,
      "소형": 6482,
      "시청": 6483,
      "신종": 6484,
      "신약": 6485,
      "약세": 6486,
      "어디": 6487,
      "예금": 6488,
      "원료": 6489,
      "이정": 6490,
      "인테리어": 6491,
      "임원": 6492,
      "정리": 6493,
      "존재": 6494,
      "주주": 6495,
      "즉시": 6496,
      "진정": 6497,
      "초반": 6498,
      "카이스트": 6499,
      "포항": 6500,
      "폴드": 6501,
      "한미": 6502,
      "한번": 6503,
      "해수": 6504,
      "협업을": 6505,
      "##고객": 6506,
      "##단렌": 6507,
      "##자체": 6508,
      "##8억원": 6509,
      "##건강": 6510,
      "##공개": 6511,
      "##받는": 6512,
      "##사들은": 6513,
      "##부장": 6514,
      "##방송": 6515,
      "##용품": 6516,
      "##내는": 6517,
      "##조달": 6518,
      "##음을": 6519,
      "##머니": 6520,
      "##췄다": 6521,
      "가격으로": 6522,
      "상승세를": 6523,
      "대표가": 6524,
      "대표적인": 6525,
      "연구를": 6526,
      "확대하고": 6527,
      "제품은": 6528,
      "SK이노베이션": 6529,
      "##은행은": 6530,
      "지역의": 6531,
      "구축해": 6532,
      "적용한": 6533,
      "강화해": 6534,
      "안전보건": 6535,
      "평가했다": 6536,
      "2300": 6537,
      "24시간": 6538,
      "반영해": 6539,
      "구글과": 6540,
      "수상한": 6541,
      "그룹의": 6542,
      "LG유플러스가": 6543,
      "않는다": 6544,
      "환율이": 6545,
      "최저임": 6546,
      "기여할": 6547,
      "지하철": 6548,
      "보도했다": 6549,
      "게이단렌": 6550,
      "추첨을": 6551,
      "CO": 6552,
      "In": 6553,
      "간호": 6554,
      "건전": 6555,
      "고성": 6556,
      "고속": 6557,
      "공고": 6558,
      "기름": 6559,
      "됩니다": 6560,
      "많았": 6561,
      "못했다": 6562,
      "미니": 6563,
      "베이": 6564,
      "보이": 6565,
      "보행": 6566,
      "보일": 6567,
      "생명": 6568,
      "서초": 6569,
      "속도가": 6570,
      "수단": 6571,
      "스테이": 6572,
      "식용": 6573,
      "실무": 6574,
      "얼마": 6575,
      "인포": 6576,
      "있던": 6577,
      "정식": 6578,
      "중순": 6579,
      "지자체": 6580,
      "창구": 6581,
      "치열": 6582,
      "컬러": 6583,
      "특화": 6584,
      "폭으로": 6585,
      "했습니다": 6586,
      "현상": 6587,
      "##27": 6588,
      "##단은": 6589,
      "##주주": 6590,
      "##bi": 6591,
      "##85": 6592,
      "##아요": 6593,
      "##했을": 6594,
      "##인증": 6595,
      "##사들이": 6596,
      "##회에서": 6597,
      "##력은": 6598,
      "##PC": 6599,
      "##임을": 6600,
      "##물이": 6601,
      "##유의": 6602,
      "##퍼스": 6603,
      "##허가를": 6604,
      "##어야": 6605,
      "##관을": 6606,
      "##함으로써": 6607,
      "##값이": 6608,
      "##재료": 6609,
      "##생명": 6610,
      "##복현": 6611,
      "##틱스": 6612,
      "공급예": 6613,
      "이용한": 6614,
      "판매를": 6615,
      "2014년": 6616,
      "30대": 6617,
      "LG전자는": 6618,
      "제품의": 6619,
      "산업의": 6620,
      "최대한": 6621,
      "규제가": 6622,
      "13일": 6623,
      "구축을": 6624,
      "일본의": 6625,
      "##는데요": 6626,
      "마련했다": 6627,
      "주택담보대출": 6628,
      "전환을": 6629,
      "늘어날": 6630,
      "23일": 6631,
      "애플은": 6632,
      "수익성": 6633,
      "신청을": 6634,
      "본격적으로": 6635,
      "대통령이": 6636,
      "SK텔레콤은": 6637,
      "자료사진": 6638,
      "등급을": 6639,
      "패키징": 6640,
      "캠페인": 6641,
      "상용화": 6642,
      "IBK": 6643,
      "03": 6644,
      "4만": 6645,
      "강한": 6646,
      "겁니다": 6647,
      "교환": 6648,
      "국정": 6649,
      "다누": 6650,
      "로이터": 6651,
      "멘토": 6652,
      "면역": 6653,
      "면적": 6654,
      "모색": 6655,
      "모빌리티": 6656,
      "무선": 6657,
      "배제": 6658,
      "부정": 6659,
      "사출": 6660,
      "사건": 6661,
      "사이트": 6662,
      "수원": 6663,
      "수혜": 6664,
      "여의도": 6665,
      "요인으로": 6666,
      "이복현": 6667,
      "자이": 6668,
      "장착": 6669,
      "절차": 6670,
      "조기": 6671,
      "중립": 6672,
      "지니": 6673,
      "친구": 6674,
      "투기": 6675,
      "현행": 6676,
      "흐름을": 6677,
      "##이를": 6678,
      "##레인": 6679,
      "##로우": 6680,
      "##치지": 6681,
      "##상환": 6682,
      "##대책": 6683,
      "##23": 6684,
      "##주에": 6685,
      "##주고": 6686,
      "##1억원": 6687,
      "##리의": 6688,
      "##공업": 6689,
      "##비아": 6690,
      "##비전": 6691,
      "##CC": 6692,
      "##부의": 6693,
      "##어는": 6694,
      "##어도": 6695,
      "##관이": 6696,
      "##am": 6697,
      "##ss": 6698,
      "##법을": 6699,
      "제공해": 6700,
      "10일": 6701,
      "금융위기": 6702,
      "이어가고": 6703,
      "이상이": 6704,
      "산업부": 6705,
      "세계적인": 6706,
      "분석이": 6707,
      "하반기에": 6708,
      "하반기에도": 6709,
      "전략적": 6710,
      "해당하는": 6711,
      "미래에": 6712,
      "##조원을": 6713,
      "가상화폐": 6714,
      "가치가": 6715,
      "차지했다": 6716,
      "사전에": 6717,
      "오르는": 6718,
      "구체적으로": 6719,
      "제외한": 6720,
      "간담회에서": 6721,
      "이끌어": 6722,
      "ICT": 6723,
      "재건축": 6724,
      "DSR": 6725,
      "배럴당": 6726,
      "국민의힘": 6727,
      "반려동물": 6728,
      "공매도": 6729,
      "3배": 6730,
      "4시": 6731,
      "54": 6732,
      "82": 6733,
      "AP": 6734,
      "경북": 6735,
      "광역": 6736,
      "국책": 6737,
      "방지": 6738,
      "배틀": 6739,
      "버추": 6740,
      "변화를": 6741,
      "봤다": 6742,
      "불법": 6743,
      "브라": 6744,
      "블로": 6745,
      "서로": 6746,
      "수여": 6747,
      "수가": 6748,
      "스위": 6749,
      "시그": 6750,
      "역전": 6751,
      "원리금": 6752,
      "융합": 6753,
      "일시": 6754,
      "재개발": 6755,
      "줄일": 6756,
      "즐거": 6757,
      "초청": 6758,
      "축소": 6759,
      "축적": 6760,
      "토레스": 6761,
      "프라이": 6762,
      "합니다": 6763,
      "확충": 6764,
      "##지지": 6765,
      "##기금": 6766,
      "##자에": 6767,
      "##할당": 6768,
      "##여명이": 6769,
      "##목을": 6770,
      "##실을": 6771,
      "##BC": 6772,
      "##블록": 6773,
      "##렉션": 6774,
      "##으로도": 6775,
      "서울의": 6776,
      "기업과": 6777,
      "사업의": 6778,
      "가격도": 6779,
      "진행되는": 6780,
      "하락세를": 6781,
      "세계에서": 6782,
      "관리를": 6783,
      "아이템": 6784,
      "영향이": 6785,
      "브랜드를": 6786,
      "삼성전자가": 6787,
      "수익을": 6788,
      "결정했다": 6789,
      "부회장이": 6790,
      "내용의": 6791,
      "신용융자": 6792,
      "비교하면": 6793,
      "가까운": 6794,
      "가계부채": 6795,
      "발사체": 6796,
      "행복주택": 6797,
      "불확실성이": 6798,
      "동일한": 6799,
      "합리적인": 6800,
      "노하우를": 6801,
      "버추얼": 6802,
      "06": 6803,
      "1인": 6804,
      "2년간": 6805,
      "78": 6806,
      "Mo": 6807,
      "가게": 6808,
      "갖춰": 6809,
      "고등": 6810,
      "공무원": 6811,
      "꼽았다": 6812,
      "높이는": 6813,
      "담아": 6814,
      "돼지고": 6815,
      "명예": 6816,
      "바라": 6817,
      "방통": 6818,
      "배당": 6819,
      "보조": 6820,
      "사퇴": 6821,
      "선박": 6822,
      "설문": 6823,
      "성적": 6824,
      "순으로": 6825,
      "스페": 6826,
      "시점": 6827,
      "실증": 6828,
      "아우": 6829,
      "양호": 6830,
      "엔데믹": 6831,
      "원장": 6832,
      "이은": 6833,
      "임시": 6834,
      "작동": 6835,
      "종가": 6836,
      "주의": 6837,
      "차원의": 6838,
      "차이가": 6839,
      "착공": 6840,
      "체감": 6841,
      "추세": 6842,
      "취재": 6843,
      "침공": 6844,
      "클래": 6845,
      "타이": 6846,
      "트레이": 6847,
      "프린": 6848,
      "하다": 6849,
      "한때": 6850,
      "##상증": 6851,
      "##기고": 6852,
      "##2억": 6853,
      "##4억원": 6854,
      "##트의": 6855,
      "##오닉": 6856,
      "##제일": 6857,
      "##면적": 6858,
      "##금액": 6859,
      "##었지만": 6860,
      "##ON": 6861,
      "##격이": 6862,
      "##드로": 6863,
      "##즈를": 6864,
      "##수당": 6865,
      "##수도": 6866,
      "##시켰": 6867,
      "##얼리": 6868,
      "##ER": 6869,
      "##씨는": 6870,
      "20일": 6871,
      "올해는": 6872,
      "개발해": 6873,
      "개발하고": 6874,
      "고객들에게": 6875,
      "하락할": 6876,
      "판매가": 6877,
      "경제의": 6878,
      "거래되고": 6879,
      "따라서": 6880,
      "현대자동차": 6881,
      "분석해": 6882,
      "전기요금": 6883,
      "아이오닉": 6884,
      "##위원회를": 6885,
      "결정을": 6886,
      "##경영시스템": 6887,
      "생각한다": 6888,
      "사람들이": 6889,
      "보험료": 6890,
      "원자력": 6891,
      "##스타일": 6892,
      "KB금융": 6893,
      "변동성": 6894,
      "##과학원": 6895,
      "유니폼": 6896,
      "무역수지": 6897,
      "전해졌다": 6898,
      "##스티벌": 6899,
      "당부했다": 6900,
      "연방준비제도": 6901,
      "DX": 6902,
      "SUV": 6903,
      "개혁": 6904,
      "공사": 6905,
      "굉장": 6906,
      "극복": 6907,
      "높이고": 6908,
      "달간": 6909,
      "때는": 6910,
      "레이": 6911,
      "메이": 6912,
      "모양": 6913,
      "모듈": 6914,
      "못하는": 6915,
      "밖에": 6916,
      "반발": 6917,
      "불가능": 6918,
      "뷰티": 6919,
      "샌드": 6920,
      "선발": 6921,
      "신재": 6922,
      "역사": 6923,
      "열었다": 6924,
      "영화": 6925,
      "유로": 6926,
      "이래": 6927,
      "인접": 6928,
      "작업을": 6929,
      "재계": 6930,
      "재료": 6931,
      "조언": 6932,
      "조절": 6933,
      "차주": 6934,
      "차원에서": 6935,
      "체크": 6936,
      "최휘": 6937,
      "취소": 6938,
      "커졌다": 6939,
      "하기": 6940,
      "하면": 6941,
      "학교": 6942,
      "화학": 6943,
      "##들로": 6944,
      "##대한": 6945,
      "##프레": 6946,
      "##워치": 6947,
      "##공정": 6948,
      "##제는": 6949,
      "##ig": 6950,
      "##산을": 6951,
      "##분이": 6952,
      "##실에서": 6953,
      "##달라": 6954,
      "##동향": 6955,
      "##측은": 6956,
      "##조8": 6957,
      "##까지는": 6958,
      "10만": 6959,
      "금융기관": 6960,
      "진행한다고": 6961,
      "지원하기": 6962,
      "##000억": 6963,
      "최근에는": 6964,
      "상품으로": 6965,
      "수출은": 6966,
      "##만원을": 6967,
      "운영한다": 6968,
      "규모를": 6969,
      "이날부터": 6970,
      "플랫폼을": 6971,
      "분석이다": 6972,
      "삼성전자의": 6973,
      "전년동": 6974,
      "1년간": 6975,
      "오른쪽": 6976,
      "##가격은": 6977,
      "##보고서": 6978,
      "감염증": 6979,
      "2030년까지": 6980,
      "수치다": 6981,
      "나가겠다": 6982,
      "가맹점": 6983,
      "최악의": 6984,
      "현대모비스": 6985,
      "불구하고": 6986,
      "비상경제장관": 6987,
      "000": 6988,
      "HR": 6989,
      "IDC": 6990,
      "감독": 6991,
      "개장": 6992,
      "경고": 6993,
      "그렇게": 6994,
      "급감": 6995,
      "내세": 6996,
      "논란": 6997,
      "다르": 6998,
      "로고": 6999,
      "리오프": 7000,
      "많았다": 7001,
      "메인": 7002,
      "모아": 7003,
      "목적으로": 7004,
      "바꾸": 7005,
      "부여": 7006,
      "상업": 7007,
      "소셜": 7008,
      "승진": 7009,
      "시연": 7010,
      "신임": 7011,
      "신경": 7012,
      "신동": 7013,
      "실패": 7014,
      "심각": 7015,
      "연세대": 7016,
      "열차": 7017,
      "올렸다": 7018,
      "요인": 7019,
      "원칙": 7020,
      "위주로": 7021,
      "임명": 7022,
      "주최": 7023,
      "지수가": 7024,
      "채택": 7025,
      "충청": 7026,
      "토론": 7027,
      "특성": 7028,
      "페스티벌": 7029,
      "폭등": 7030,
      "플러스": 7031,
      "한계": 7032,
      "환불": 7033,
      "##스테": 7034,
      "##스테이": 7035,
      "##종합": 7036,
      "##단가": 7037,
      "##주당": 7038,
      "##다운": 7039,
      "##원한": 7040,
      "##리트": 7041,
      "##려는": 7042,
      "##결과": 7043,
      "##97": 7044,
      "##력으로": 7045,
      "##표를": 7046,
      "##유행": 7047,
      "##수수": 7048,
      "##운전": 7049,
      "##복지": 7050,
      "##음료": 7051,
      "##백화점": 7052,
      "##캐피탈": 7053,
      "##에서만": 7054,
      "한국전력": 7055,
      "가격의": 7056,
      "상승으로": 7057,
      "연구소": 7058,
      "판매한다": 7059,
      "거래가": 7060,
      "디지털데일리": 7061,
      "금리는": 7062,
      "코로나바이러스": 7063,
      "##시장에": 7064,
      "지역에": 7065,
      "플랫폼으로": 7066,
      "출시했다고": 7067,
      "인상에": 7068,
      "정보보호": 7069,
      "달러를": 7070,
      "미래를": 7071,
      "방식이다": 7072,
      "차량을": 7073,
      "특별공급": 7074,
      "근로자": 7075,
      "사례가": 7076,
      "##ation": 7077,
      "나서고": 7078,
      "패키지": 7079,
      "캠페인을": 7080,
      "ISO": 7081,
      "증정한다": 7082,
      "저렴한": 7083,
      "긍정적인": 7084,
      "나아가": 7085,
      "카테고리": 7086,
      "디폴트옵션": 7087,
      "온실가스": 7088,
      "기념촬영을": 7089,
      "인포테인먼트": 7090,
      "리오프닝": 7091,
      "4호": 7092,
      "97": 7093,
      "CI": 7094,
      "FDA": 7095,
      "NA": 7096,
      "각국": 7097,
      "갖추": 7098,
      "개념": 7099,
      "건의": 7100,
      "겪고": 7101,
      "고금리": 7102,
      "곳은": 7103,
      "그때": 7104,
      "그쳤다": 7105,
      "김치": 7106,
      "도움을": 7107,
      "돈을": 7108,
      "런던": 7109,
      "멀티": 7110,
      "미세": 7111,
      "민생": 7112,
      "반복": 7113,
      "보완": 7114,
      "부서": 7115,
      "산정": 7116,
      "성수": 7117,
      "세제": 7118,
      "악재": 7119,
      "애로": 7120,
      "얘기": 7121,
      "엘리베이터": 7122,
      "와인": 7123,
      "웹소": 7124,
      "이르": 7125,
      "일각": 7126,
      "입증": 7127,
      "자리를": 7128,
      "자영업": 7129,
      "지출": 7130,
      "지켜": 7131,
      "트랜": 7132,
      "페이스": 7133,
      "폭발": 7134,
      "한도": 7135,
      "합동": 7136,
      "했지만": 7137,
      "환전": 7138,
      "##이에": 7139,
      "##지오": 7140,
      "##만이": 7141,
      "##나갈": 7142,
      "##리츠": 7143,
      "##리테일": 7144,
      "##64": 7145,
      "##프톤": 7146,
      "##건으로": 7147,
      "##94": 7148,
      "##개사": 7149,
      "##협의": 7150,
      "##PA": 7151,
      "##SP": 7152,
      "##학생": 7153,
      "##내고": 7154,
      "##탄소": 7155,
      "##포럼": 7156,
      "##ud": 7157,
      "##현황": 7158,
      "##효율": 7159,
      "##덕수": 7160,
      "##퀘어": 7161,
      "##겼다": 7162,
      "지난주": 7163,
      "투자가": 7164,
      "서비스다": 7165,
      "상승에": 7166,
      "##기업의": 7167,
      "공급을": 7168,
      "2010년": 7169,
      "##사업체": 7170,
      "성장할": 7171,
      "기록할": 7172,
      "세계적으로": 7173,
      "분야에": 7174,
      "##정보를": 7175,
      "인상이": 7176,
      "기대하고": 7177,
      "소비자들이": 7178,
      "환경이": 7179,
      "적용할": 7180,
      "적용해": 7181,
      "경영진": 7182,
      "발생할": 7183,
      "확인됐다": 7184,
      "선보였다": 7185,
      "유지할": 7186,
      "##위원회는": 7187,
      "제조업": 7188,
      "##들과의": 7189,
      "마이너스": 7190,
      "항공기": 7191,
      "##본부장": 7192,
      "바이든": 7193,
      "##lock": 7194,
      "##이었던": 7195,
      "정확한": 7196,
      "아래로": 7197,
      "제3자": 7198,
      "이재용": 7199,
      "자세한": 7200,
      "##홀딩스": 7201,
      "크래프톤": 7202,
      "일환으로": 7203,
      "DTx": 7204,
      "##인터넷": 7205,
      "굉장히": 7206,
      "신재생": 7207,
      "웹소설": 7208,
      "4개월": 7209,
      "71": 7210,
      "81": 7211,
      "99": 7212,
      "BT": 7213,
      "CF": 7214,
      "KIST": 7215,
      "OLED": 7216,
      "가산": 7217,
      "경계": 7218,
      "기지": 7219,
      "기재": 7220,
      "나누": 7221,
      "달했다": 7222,
      "도심": 7223,
      "동결": 7224,
      "드라마": 7225,
      "뛰었다": 7226,
      "만이다": 7227,
      "맞이": 7228,
      "명의": 7229,
      "바디": 7230,
      "바람": 7231,
      "별도로": 7232,
      "병원": 7233,
      "보수": 7234,
      "보관": 7235,
      "선사": 7236,
      "세미나": 7237,
      "센서": 7238,
      "손해": 7239,
      "수산": 7240,
      "신사업": 7241,
      "실내": 7242,
      "실태": 7243,
      "아무": 7244,
      "엔터": 7245,
      "연령": 7246,
      "예술": 7247,
      "유료": 7248,
      "의지를": 7249,
      "인구": 7250,
      "줄여": 7251,
      "지시": 7252,
      "촉진": 7253,
      "출신": 7254,
      "취급": 7255,
      "카지노": 7256,
      "티몬": 7257,
      "##스텝": 7258,
      "##고요": 7259,
      "##망을": 7260,
      "##45": 7261,
      "##제한": 7262,
      "##95": 7263,
      "##아야": 7264,
      "##천5": 7265,
      "##사체": 7266,
      "##드시": 7267,
      "##부동산": 7268,
      "##간담회": 7269,
      "##심을": 7270,
      "##보장": 7271,
      "##화해": 7272,
      "##달아": 7273,
      "##디션": 7274,
      "##안이": 7275,
      "##법에": 7276,
      "##온이": 7277,
      "##능력": 7278,
      "##억원에": 7279,
      "금융자산": 7280,
      "개발했다": 7281,
      "##000억원으로": 7282,
      "연구팀은": 7283,
      "##레이션": 7284,
      "30년": 7285,
      "사용하는": 7286,
      "활용하는": 7287,
      "##라이프": 7288,
      "구축하고": 7289,
      "강화하고": 7290,
      "추진한다": 7291,
      "우려를": 7292,
      "코로나19로": 7293,
      "나타냈다": 7294,
      "달러로": 7295,
      "협력해": 7296,
      "보고서를": 7297,
      "2009년": 7298,
      "도입을": 7299,
      "기관은": 7300,
      "사람이": 7301,
      "21일": 7302,
      "##비율이": 7303,
      "기념해": 7304,
      "방향을": 7305,
      "편의성을": 7306,
      "사례를": 7307,
      "나오고": 7308,
      "대책을": 7309,
      "자유롭게": 7310,
      "인플루": 7311,
      "시가총액": 7312,
      "어린이": 7313,
      "직장인": 7314,
      "극대화": 7315,
      "08": 7316,
      "1호": 7317,
      "83": 7318,
      "Fed": 7319,
      "Re": 7320,
      "것에": 7321,
      "고가": 7322,
      "국립": 7323,
      "근본": 7324,
      "기타": 7325,
      "낙찰": 7326,
      "내는": 7327,
      "농산물": 7328,
      "높았다": 7329,
      "놓고": 7330,
      "눈에": 7331,
      "달한다": 7332,
      "답변": 7333,
      "대우": 7334,
      "대회": 7335,
      "명령": 7336,
      "물리": 7337,
      "미리": 7338,
      "반드시": 7339,
      "벤처": 7340,
      "벤처기업": 7341,
      "본점": 7342,
      "블루": 7343,
      "사랑": 7344,
      "수리": 7345,
      "안마": 7346,
      "에코": 7347,
      "온도": 7348,
      "올리": 7349,
      "원으로": 7350,
      "월드": 7351,
      "위니": 7352,
      "위협": 7353,
      "위믹스": 7354,
      "음극재": 7355,
      "의류": 7356,
      "이더": 7357,
      "일이": 7358,
      "일으": 7359,
      "일자리": 7360,
      "입법": 7361,
      "자주": 7362,
      "잠정": 7363,
      "적합": 7364,
      "제가": 7365,
      "주고": 7366,
      "채무": 7367,
      "추구": 7368,
      "하며": 7369,
      "한덕수": 7370,
      "##에스": 7371,
      "##지정": 7372,
      "##스럽": 7373,
      "##종목": 7374,
      "##기까지": 7375,
      "##통화": 7376,
      "##됐던": 7377,
      "##키로": 7378,
      "##7억": 7379,
      "##위안": 7380,
      "##여행": 7381,
      "##ri": 7382,
      "##TO": 7383,
      "##개를": 7384,
      "##터를": 7385,
      "##드러": 7386,
      "##퍼니": 7387,
      "##수익": 7388,
      "##ay": 7389,
      "##ou": 7390,
      "##곳에": 7391,
      "##함에": 7392,
      "##명에게": 7393,
      "##시킨": 7394,
      "##조사업체": 7395,
      "##태원": 7396,
      "##베이": 7397,
      "##잡고": 7398,
      "##았던": 7399,
      "##박람회": 7400,
      "##렉스": 7401,
      "##놀로": 7402,
      "기업인": 7403,
      "한국투자증권": 7404,
      "시장조사업체": 7405,
      "##억원의": 7406,
      "금융투자": 7407,
      "지원하고": 7408,
      "이어갈": 7409,
      "연구진": 7410,
      "이용자가": 7411,
      "판매량은": 7412,
      "증가할": 7413,
      "##만원으로": 7414,
      "SKT": 7415,
      "시작된": 7416,
      "카카오엔터": 7417,
      "참여할": 7418,
      "정보기술": 7419,
      "강화를": 7420,
      "기존에": 7421,
      "개선을": 7422,
      "회사가": 7423,
      "대출을": 7424,
      "##자산운용": 7425,
      "##회의소": 7426,
      "반영한": 7427,
      "모델을": 7428,
      "발전을": 7429,
      "중요하다": 7430,
      "무역금융": 7431,
      "면서도": 7432,
      "설립된": 7433,
      "특별한": 7434,
      "우리나라의": 7435,
      "의미가": 7436,
      "제시한": 7437,
      "인증을": 7438,
      "파트너십": 7439,
      "이해관계": 7440,
      "##테이너": 7441,
      "유동성": 7442,
      "감안하면": 7443,
      "거리두": 7444,
      "선제적으로": 7445,
      "휴대폰": 7446,
      "##임대주택": 7447,
      "가이드라인": 7448,
      "2위": 7449,
      "3년간": 7450,
      "4대": 7451,
      "SRT": 7452,
      "US": 7453,
      "격려": 7454,
      "과실": 7455,
      "권고": 7456,
      "기울": 7457,
      "김영": 7458,
      "나머": 7459,
      "높일": 7460,
      "단일": 7461,
      "담긴": 7462,
      "대거": 7463,
      "들여": 7464,
      "말한다": 7465,
      "무기": 7466,
      "무료": 7467,
      "본인": 7468,
      "본부": 7469,
      "붕괴": 7470,
      "상향": 7471,
      "생성": 7472,
      "서류": 7473,
      "서민": 7474,
      "싶은": 7475,
      "알뜰": 7476,
      "언제": 7477,
      "언론": 7478,
      "엑스포": 7479,
      "외에": 7480,
      "외화": 7481,
      "유력": 7482,
      "이사회": 7483,
      "일주일": 7484,
      "적격": 7485,
      "전무": 7486,
      "전파": 7487,
      "점이": 7488,
      "종류": 7489,
      "중에": 7490,
      "지목": 7491,
      "집행": 7492,
      "착수": 7493,
      "찾은": 7494,
      "출처": 7495,
      "컨테이너": 7496,
      "포장": 7497,
      "핀테크": 7498,
      "했다고": 7499,
      "협상": 7500,
      "호주": 7501,
      "회계": 7502,
      "후원": 7503,
      "##고속": 7504,
      "##성도": 7505,
      "##상담": 7506,
      "##대응": 7507,
      "##계좌": 7508,
      "##주간": 7509,
      "##형을": 7510,
      "##됐지만": 7511,
      "##리며": 7512,
      "##모빌리티": 7513,
      "##63": 7514,
      "##프라이": 7515,
      "##건의": 7516,
      "##공장": 7517,
      "##했기": 7518,
      "##사들의": 7519,
      "##화한": 7520,
      "##구를": 7521,
      "##겠습니다": 7522,
      "##동에": 7523,
      "##동을": 7524,
      "##등록": 7525,
      "##히는": 7526,
      "##검증": 7527,
      "##있다": 7528,
      "##ET": 7529,
      "##EF": 7530,
      "##농협": 7531,
      "##액을": 7532,
      "##한다면": 7533,
      "한국철도": 7534,
      "금융소비": 7535,
      "개발사": 7536,
      "확대하는": 7537,
      "삼성증권": 7538,
      "우리가": 7539,
      "수출입": 7540,
      "대해서도": 7541,
      "전문기업": 7542,
      "수준에": 7543,
      "적용된다": 7544,
      "우려로": 7545,
      "기존의": 7546,
      "##그룹이": 7547,
      "##연구기관": 7548,
      "자동화": 7549,
      "사회공": 7550,
      "40대": 7551,
      "포함된": 7552,
      "만들고": 7553,
      "애플이": 7554,
      "업체의": 7555,
      "내용이": 7556,
      "클라우드팜": 7557,
      "모습이다": 7558,
      "비용이": 7559,
      "의미다": 7560,
      "31일까지": 7561,
      "##건설은": 7562,
      "책임을": 7563,
      "##loud": 7564,
      "나오는": 7565,
      "실시간으로": 7566,
      "케이뱅크": 7567,
      "순매도": 7568,
      "이같은": 7569,
      "유일하게": 7570,
      "편리하게": 7571,
      "유사한": 7572,
      "고수온": 7573,
      "충분히": 7574,
      "아웃링크": 7575,
      "86": 7576,
      "CA": 7577,
      "가중": 7578,
      "간의": 7579,
      "감면": 7580,
      "검은": 7581,
      "권역": 7582,
      "그랜드": 7583,
      "기넥": 7584,
      "김성": 7585,
      "내외": 7586,
      "냉장": 7587,
      "냉동": 7588,
      "네오": 7589,
      "노후": 7590,
      "농림": 7591,
      "높이기": 7592,
      "대량": 7593,
      "대를": 7594,
      "리튬": 7595,
      "무인": 7596,
      "무관": 7597,
      "발령": 7598,
      "방한": 7599,
      "서버": 7600,
      "손을": 7601,
      "승객": 7602,
      "쏟아": 7603,
      "어제": 7604,
      "연내": 7605,
      "였다": 7606,
      "원활": 7607,
      "음성": 7608,
      "인건": 7609,
      "자금을": 7610,
      "작성": 7611,
      "전력을": 7612,
      "접어": 7613,
      "제로": 7614,
      "주류": 7615,
      "지지": 7616,
      "채소": 7617,
      "챌린": 7618,
      "촉구": 7619,
      "추측": 7620,
      "팩트": 7621,
      "펼쳐": 7622,
      "표시": 7623,
      "한시": 7624,
      "헤드": 7625,
      "흔들": 7626,
      "##지표": 7627,
      "##호를": 7628,
      "##됐으며": 7629,
      "##11": 7630,
      "##오는": 7631,
      "##리움": 7632,
      "##합병": 7633,
      "##니저": 7634,
      "##제과": 7635,
      "##98": 7636,
      "##여름": 7637,
      "##천만달러": 7638,
      "##비는": 7639,
      "##해양": 7640,
      "##해온": 7641,
      "##가에": 7642,
      "##사이트": 7643,
      "##OS": 7644,
      "##물은": 7645,
      "##카이": 7646,
      "##보가": 7647,
      "##어링": 7648,
      "##향을": 7649,
      "##언트": 7650,
      "##네트워크": 7651,
      "##혔다": 7652,
      "##됨에": 7653,
      "##으로서": 7654,
      "한국에서": 7655,
      "한국거래소": 7656,
      "한국과학기술": 7657,
      "시장에서는": 7658,
      "기술은": 7659,
      "10개": 7660,
      "국내에서": 7661,
      "서비스는": 7662,
      "상승률": 7663,
      "상승률은": 7664,
      "지원이": 7665,
      "지난해부터": 7666,
      "판매량이": 7667,
      "예정인": 7668,
      "프로토": 7669,
      "대상이": 7670,
      "##시장의": 7671,
      "규제혁신": 7672,
      "관리할": 7673,
      "최고치": 7674,
      "인상을": 7675,
      "소비자가": 7676,
      "강화할": 7677,
      "기간보다": 7678,
      "자동으로": 7679,
      "##산업의": 7680,
      "주식재산": 7681,
      "차량용": 7682,
      "현장에서": 7683,
      "16일": 7684,
      "##00원에": 7685,
      "##00원으로": 7686,
      "논의를": 7687,
      "준비하고": 7688,
      "지적이": 7689,
      "사고가": 7690,
      "큐브위": 7691,
      "취약차": 7692,
      "유가증권": 7693,
      "##상공회의소": 7694,
      "가스요금": 7695,
      "개인정보보호": 7696,
      "케이블": 7697,
      "프로모션": 7698,
      "콜라겐": 7699,
      "오피스텔": 7700,
      "고용노동부": 7701,
      "기지국": 7702,
      "기넥신": 7703,
      "1개": 7704,
      "2회": 7705,
      "3가지": 7706,
      "4천": 7707,
      "400": 7708,
      "7만": 7709,
      "CN": 7710,
      "News": 7711,
      "yn": 7712,
      "개척": 7713,
      "견인": 7714,
      "경진": 7715,
      "긴급": 7716,
      "녹색": 7717,
      "늘려": 7718,
      "단축": 7719,
      "단말": 7720,
      "도약": 7721,
      "때마다": 7722,
      "뚜렷": 7723,
      "메디": 7724,
      "멕시": 7725,
      "면담": 7726,
      "배치": 7727,
      "버전": 7728,
      "범위": 7729,
      "뿐만": 7730,
      "세트": 7731,
      "스텝": 7732,
      "스크": 7733,
      "시중": 7734,
      "예를": 7735,
      "예매": 7736,
      "의혹": 7737,
      "이틀": 7738,
      "이프랜드": 7739,
      "일단": 7740,
      "자릿": 7741,
      "저가": 7742,
      "직면": 7743,
      "찾는": 7744,
      "청정": 7745,
      "추산": 7746,
      "커지면서": 7747,
      "토대로": 7748,
      "퍼블": 7749,
      "페이": 7750,
      "포털": 7751,
      "합작": 7752,
      "혹은": 7753,
      "확실": 7754,
      "힘입": 7755,
      "##그플레이션": 7756,
      "##지수가": 7757,
      "##통계": 7758,
      "##다른": 7759,
      "##트니스": 7760,
      "##됐고": 7761,
      "##75": 7762,
      "##미디어": 7763,
      "##나가": 7764,
      "##16": 7765,
      "##채널": 7766,
      "##공학": 7767,
      "##제철": 7768,
      "##담회를": 7769,
      "##ra": 7770,
      "##융합": 7771,
      "##국민": 7772,
      "##월드": 7773,
      "##차는": 7774,
      "##심의": 7775,
      "##보안": 7776,
      "##연대": 7777,
      "##처는": 7778,
      "##냐는": 7779,
      "##명에": 7780,
      "##시티": 7781,
      "##히고": 7782,
      "##조차": 7783,
      "##현실": 7784,
      "##았습니다": 7785,
      "##팀장은": 7786,
      "##므로": 7787,
      "2021": 7788,
      "10만원": 7789,
      "투자에": 7790,
      "투자하는": 7791,
      "금융권": 7792,
      "서비스에": 7793,
      "미국에서": 7794,
      "이상으로": 7795,
      "##에게는": 7796,
      "대비해": 7797,
      "2013년": 7798,
      "증가하는": 7799,
      "경우에는": 7800,
      "제품이다": 7801,
      "상품은": 7802,
      "기록해": 7803,
      "경쟁이": 7804,
      "100만": 7805,
      "##센터를": 7806,
      "이벤트도": 7807,
      "구성해": 7808,
      "러시아산": 7809,
      "기관이": 7810,
      "모델이": 7811,
      "현장의": 7812,
      "내용은": 7813,
      "점검하고": 7814,
      "회장의": 7815,
      "##본부장은": 7816,
      "한화솔루션": 7817,
      "장기화": 7818,
      "##바이오사이": 7819,
      "오르고": 7820,
      "소개했다": 7821,
      "취약계층": 7822,
      "GS리테일": 7823,
      "세종시": 7824,
      "왼쪽부터": 7825,
      "성능을": 7826,
      "##대상지역": 7827,
      "##하우스": 7828,
      "주장했다": 7829,
      "카메라모듈": 7830,
      "금감원": 7831,
      "마이크로소프트": 7832,
      "전력수요가": 7833,
      "##그라운드": 7834,
      "과도한": 7835,
      "돼지고기": 7836,
      "yna": 7837,
      "멕시코": 7838,
      "힘입어": 7839,
      "4배": 7840,
      "7개": 7841,
      "7개월": 7842,
      "8만": 7843,
      "93": 7844,
      "Bo": 7845,
      "VS": 7846,
      "block": 7847,
      "간접": 7848,
      "고환": 7849,
      "나섰": 7850,
      "나눠": 7851,
      "당일": 7852,
      "동국제": 7853,
      "딜라이브": 7854,
      "만난": 7855,
      "맞게": 7856,
      "물량이": 7857,
      "복잡": 7858,
      "불러": 7859,
      "빨라": 7860,
      "상속": 7861,
      "순간": 7862,
      "실장은": 7863,
      "아름": 7864,
      "엔진": 7865,
      "여건": 7866,
      "올려": 7867,
      "원스": 7868,
      "월간": 7869,
      "웨이": 7870,
      "유성": 7871,
      "인류": 7872,
      "일괄": 7873,
      "장애": 7874,
      "점점": 7875,
      "제고를": 7876,
      "종사": 7877,
      "주간": 7878,
      "즐기는": 7879,
      "지향": 7880,
      "창원": 7881,
      "천안": 7882,
      "체계를": 7883,
      "초격": 7884,
      "추후": 7885,
      "컴퓨터": 7886,
      "타격을": 7887,
      "폐지": 7888,
      "하회": 7889,
      "혐의": 7890,
      "훨씬": 7891,
      "##에이": 7892,
      "##지하": 7893,
      "##상한": 7894,
      "##기반": 7895,
      "##대와": 7896,
      "##29": 7897,
      "##광역": 7898,
      "##리얼": 7899,
      "##채무": 7900,
      "##제에": 7901,
      "##담당": 7902,
      "##MO": 7903,
      "##소유": 7904,
      "##우고": 7905,
      "##인더": 7906,
      "##사용": 7907,
      "##회장": 7908,
      "##설비": 7909,
      "##었는데": 7910,
      "##드의": 7911,
      "##유지": 7912,
      "##즈는": 7913,
      "##분석": 7914,
      "##보드": 7915,
      "##실장": 7916,
      "##플랫폼": 7917,
      "##녹십": 7918,
      "##근무": 7919,
      "##조치": 7920,
      "##조한": 7921,
      "##교수": 7922,
      "##열지구": 7923,
      "##네시아": 7924,
      "##없는": 7925,
      "##클링": 7926,
      "##웹툰": 7927,
      "##적으로는": 7928,
      "정부에서": 7929,
      "가능하며": 7930,
      "상승이": 7931,
      "고객은": 7932,
      "##됐다고": 7933,
      "경제가": 7934,
      "LG화학": 7935,
      "예정된": 7936,
      "상품의": 7937,
      "사용되는": 7938,
      "생산하는": 7939,
      "현재까지": 7940,
      "매출을": 7941,
      "수요를": 7942,
      "참여를": 7943,
      "참여하는": 7944,
      "국제표준": 7945,
      "정책에": 7946,
      "있어야": 7947,
      "유지하고": 7948,
      "안정적": 7949,
      "관심과": 7950,
      "자체가": 7951,
      "비용을": 7952,
      "조정대상지역": 7953,
      "노력할": 7954,
      "건강한": 7955,
      "사이에서": 7956,
      "번째로": 7957,
      "생태계를": 7958,
      "##안전보건": 7959,
      "출범한": 7960,
      "아시아나": 7961,
      "관측이": 7962,
      "##계획을": 7963,
      "통화정책": 7964,
      "부족한": 7965,
      "기회가": 7966,
      "중기부": 7967,
      "목소리를": 7968,
      "이외에도": 7969,
      "GC녹십": 7970,
      "IMF": 7971,
      "휴가철": 7972,
      "넷플릭스": 7973,
      "얼마나": 7974,
      "배틀그라운드": 7975,
      "인플루언": 7976,
      "사회공헌": 7977,
      "News1": 7978,
      "동국제강": 7979,
      "1대": 7980,
      "1등": 7981,
      "1개월": 7982,
      "9개": 7983,
      "강릉": 7984,
      "계산": 7985,
      "고위": 7986,
      "교보": 7987,
      "나왔": 7988,
      "나올": 7989,
      "높게": 7990,
      "높였다": 7991,
      "눈높": 7992,
      "다운": 7993,
      "당근": 7994,
      "데이": 7995,
      "독점": 7996,
      "뒤를": 7997,
      "등락": 7998,
      "딜링": 7999
    }
  }
}