{
  "version": "1.0",
  "truncation": null,
  "padding": null,
  "added_tokens": [
    {
      "id": 0,
      "content": "[UNK]",
      "single_word": false,
      "lstrip": false,
      "rstrip": false,
      "normalized": false,
      "special": true
    },
    {
      "id": 1,
      "content": "[PAD]",
      "single_word": false,
      "lstrip": false,
      "rstrip": false,
      "normalized": false,
      "special": true
    },
    {
      "id": 2,
      "content": "[CLS]",
      "single_word": false,
      "lstrip": false,
      "rstrip": false,
      "normalized": false,
      "special": true
    },
    {
      "id": 3,
      "content": "[SEP]",
      "single_word": false,
      "lstrip": false,
      "rstrip": false,
      "normalized": false,
      "special": true
    },
    {
      "id": 4,
      "content": "[MASK]",
      "single_word": false,
      "lstrip": false,
      "rstrip": false,
      "normalized": false,
      "special": true
    }
  ],
  "normalizer": null,
  "pre_tokenizer": {
    "type": "Whitespace"
  },
  "post_processor": null,
  "decoder": null,
  "model": {
    "type": "WordPiece",
    "unk_token": "[UNK]",
    "continuing_subword_prefix": "##",
    "max_input_chars_per_word": 100,
    "vocab": {
      "[UNK]": 0,
      "[PAD]": 1,
      "[CLS]": 2,
      "[SEP]": 3,
      "[MASK]": 4,
      ".": 5,
      "0": 6,
      "1": 7,
      "2": 8,
      "3": 9,
      "4": 10,
      "5": 11,
      "6": 12,
      "7": 13,
      "8": 14,
      "9": 15,
      "A": 16,
      "B": 17,
      "C": 18,
      "D": 19,
      "E": 20,
      "F": 21,
      "G": 22,
      "H": 23,
      "I": 24,
      "J": 25,
      "K": 26,
      "L": 27,
      "M": 28,
      "N": 29,
      "O": 30,
      "P": 31,
      "Q": 32,
      "R": 33,
      "S": 34,
      "T": 35,
      "U": 36,
      "V": 37,
      "W": 38,
      "X": 39,
      "Y": 40,
      "Z": 41,
      "a": 42,
      "b": 43,
      "c": 44,
      "d": 45,
      "e": 46,
      "f": 47,
      "g": 48,
      "h": 49,
      "i": 50,
      "j": 51,
      "k": 52,
      "l": 53,
      "m": 54,
      "n": 55,
      "o": 56,
      "p": 57,
      "q": 58,
      "r": 59,
      "s": 60,
      "t": 61,
      "u": 62,
      "v": 63,
      "w": 64,
      "x": 65,
      "y": 66,
      "z": 67,
      "가": 68,
      "각": 69,
      "간": 70,
      "갇": 71,
      "갈": 72,
      "갉": 73,
      "감": 74,
      "갑": 75,
      "값": 76,
      "갓": 77,
      "갔": 78,
      "강": 79,
      "갖": 80,
      "같": 81,
      "갚": 82,
      "갛": 83,
      "개": 84,
      "객": 85,
      "갠": 86,
      "갤": 87,
      "갬": 88,
      "갭": 89,
      "갯": 90,
      "갰": 91,
      "갱": 92,
      "갸": 93,
      "갹": 94,
      "걀": 95,
      "걍": 96,
      "걔": 97,
      "거": 98,
      "걱": 99,
      "건": 100,
      "걷": 101,
      "걸": 102,
      "검": 103,
      "겁": 104,
      "것": 105,
      "겅": 106,
      "겆": 107,
      "겉": 108,
      "게": 109,
      "겐": 110,
      "겔": 111,
      "겜": 112,
      "겟": 113,
      "겠": 114,
      "겨": 115,
      "격": 116,
      "겪": 117,
      "견": 118,
      "겯": 119,
      "결": 120,
      "겸": 121,
      "겹": 122,
      "겻": 123,
      "겼": 124,
      "경": 125,
      "곁": 126,
      "계": 127,
      "고": 128,
      "곡": 129,
      "곤": 130,
      "곧": 131,
      "골": 132,
      "곪": 133,
      "곰": 134,
      "곱": 135,
      "곳": 136,
      "공": 137,
      "곶": 138,
      "과": 139,
      "곽": 140,
      "관": 141,
      "괄": 142,
      "괌": 143,
      "괍": 144,
      "괏": 145,
      "광": 146,
      "괘": 147,
      "괜": 148,
      "괭": 149,
      "괴": 150,
      "괵": 151,
      "괸": 152,
      "굉": 153,
      "교": 154,
      "굣": 155,
      "구": 156,
      "국": 157,
      "군": 158,
      "굳": 159,
      "굴": 160,
      "굵": 161,
      "굶": 162,
      "굼": 163,
      "굽": 164,
      "굿": 165,
      "궁": 166,
      "궂": 167,
      "궈": 168,
      "권": 169,
      "궐": 170,
      "궜": 171,
      "궤": 172,
      "귀": 173,
      "귄": 174,
      "규": 175,
      "균": 176,
      "귤": 177,
      "귬": 178,
      "그": 179,
      "극": 180,
      "근": 181,
      "글": 182,
      "긁": 183,
      "금": 184,
      "급": 185,
      "긋": 186,
      "긍": 187,
      "기": 188,
      "긱": 189,
      "긴": 190,
      "길": 191,
      "김": 192,
      "깁": 193,
      "깃": 194,
      "깅": 195,
      "깊": 196,
      "까": 197,
      "깍": 198,
      "깎": 199,
      "깐": 200,
      "깔": 201,
      "깜": 202,
      "깝": 203,
      "깡": 204,
      "깥": 205,
      "깨": 206,
      "깬": 207,
      "깰": 208,
      "깻": 209,
      "깼": 210,
      "꺼": 211,
      "꺽": 212,
      "꺾": 213,
      "껀": 214,
      "껄": 215,
      "껌": 216,
      "껍": 217,
      "껏": 218,
      "껐": 219,
      "껑": 220,
      "께": 221,
      "껫": 222,
      "껴": 223,
      "꼈": 224,
      "꼐": 225,
      "꼬": 226,
      "꼭": 227,
      "꼰": 228,
      "꼴": 229,
      "꼼": 230,
      "꼽": 231,
      "꽁": 232,
      "꽂": 233,
      "꽃": 234,
      "꽈": 235,
      "꽉": 236,
      "꽝": 237,
      "꽤": 238,
      "꾀": 239,
      "꾐": 240,
      "꾸": 241,
      "꾹": 242,
      "꾼": 243,
      "꿀": 244,
      "꿇": 245,
      "꿈": 246,
      "꿉": 247,
      "꿋": 248,
      "꿍": 249,
      "꿎": 250,
      "꿔": 251,
      "꿨": 252,
      "꿩": 253,
      "꿰": 254,
      "뀌": 255,
      "뀐": 256,
      "뀔": 257,
      "뀜": 258,
      "뀝": 259,
      "끄": 260,
      "끈": 261,
      "끊": 262,
      "끌": 263,
      "끓": 264,
      "끔": 265,
      "끕": 266,
      "끗": 267,
      "끙": 268,
      "끝": 269,
      "끼": 270,
      "끽": 271,
      "낀": 272,
      "낄": 273,
      "낌": 274,
      "낍": 275,
      "나": 276,
      "낙": 277,
      "낚": 278,
      "난": 279,
      "날": 280,
      "낡": 281,
      "남": 282,
      "납": 283,
      "낫": 284,
      "났": 285,
      "낭": 286,
      "낮": 287,
      "낯": 288,
      "낱": 289,
      "낳": 290,
      "내": 291,
      "낵": 292,
      "낸": 293,
      "낼": 294,
      "냄": 295,
      "냅": 296,
      "냇": 297,
      "냈": 298,
      "냉": 299,
      "냐": 300,
      "냑": 301,
      "냔": 302,
      "냠": 303,
      "냥": 304,
      "너": 305,
      "넉": 306,
      "넌": 307,
      "널": 308,
      "넒": 309,
      "넓": 310,
      "넘": 311,
      "넙": 312,
      "넛": 313,
      "넜": 314,
      "넝": 315,
      "넣": 316,
      "네": 317,
      "넥": 318,
      "넨": 319,
      "넬": 320,
      "넵": 321,
      "넷": 322,
      "넸": 323,
      "녀": 324,
      "녁": 325,
      "년": 326,
      "념": 327,
      "녔": 328,
      "녕": 329,
      "녘": 330,
      "노": 331,
      "녹": 332,
      "논": 333,
      "놀": 334,
      "놈": 335,
      "놉": 336,
      "농": 337,
      "높": 338,
      "놓": 339,
      "놔": 340,
      "놨": 341,
      "뇌": 342,
      "뇨": 343,
      "뇽": 344,
      "누": 345,
      "눅": 346,
      "눈": 347,
      "눌": 348,
      "눔": 349,
      "눕": 350,
      "눗": 351,
      "눠": 352,
      "눴": 353,
      "뉘": 354,
      "뉜": 355,
      "뉠": 356,
      "뉩": 357,
      "뉴": 358,
      "늄": 359,
      "늇": 360,
      "늉": 361,
      "느": 362,
      "늑": 363,
      "는": 364,
      "늘": 365,
      "늙": 366,
      "늠": 367,
      "늡": 368,
      "능": 369,
      "늦": 370,
      "늪": 371,
      "늬": 372,
      "니": 373,
      "닉": 374,
      "닌": 375,
      "닐": 376,
      "님": 377,
      "닙": 378,
      "닛": 379,
      "닝": 380,
      "다": 381,
      "닥": 382,
      "닦": 383,
      "단": 384,
      "닫": 385,
      "달": 386,
      "닭": 387,
      "닮": 388,
      "닳": 389,
      "담": 390,
      "답": 391,
      "닷": 392,
      "당": 393,
      "닻": 394,
      "닿": 395,
      "대": 396,
      "댁": 397,
      "댄": 398,
      "댈": 399,
      "댐": 400,
      "댑": 401,
      "댓": 402,
      "댔": 403,
      "댕": 404,
      "댜": 405,
      "댠": 406,
      "더": 407,
      "덕": 408,
      "던": 409,
      "덜": 410,
      "덟": 411,
      "덤": 412,
      "덥": 413,
      "덧": 414,
      "덩": 415,
      "덫": 416,
      "덮": 417,
      "데": 418,
      "덱": 419,
      "덴": 420,
      "델": 421,
      "뎀": 422,
      "뎁": 423,
      "뎃": 424,
      "뎅": 425,
      "뎌": 426,
      "뎠": 427,
      "뎬": 428,
      "도": 429,
      "독": 430,
      "돈": 431,
      "돋": 432,
      "돌": 433,
      "돔": 434,
      "돕": 435,
      "돗": 436,
      "동": 437,
      "돛": 438,
      "돤": 439,
      "돼": 440,
      "됏": 441,
      "됐": 442,
      "되": 443,
      "된": 444,
      "될": 445,
      "됨": 446,
      "됩": 447,
      "두": 448,
      "둑": 449,
      "둔": 450,
      "둘": 451,
      "둠": 452,
      "둡": 453,
      "둣": 454,
      "둥": 455,
      "둬": 456,
      "뒀": 457,
      "뒤": 458,
      "뒷": 459,
      "뒹": 460,
      "듀": 461,
      "듈": 462,
      "듐": 463,
      "드": 464,
      "득": 465,
      "든": 466,
      "듣": 467,
      "들": 468,
      "듦": 469,
      "듬": 470,
      "듭": 471,
      "듯": 472,
      "등": 473,
      "디": 474,
      "딕": 475,
      "딘": 476,
      "딛": 477,
      "딜": 478,
      "딤": 479,
      "딥": 480,
      "딧": 481,
      "딩": 482,
      "딪": 483,
      "따": 484,
      "딱": 485,
      "딴": 486,
      "딸": 487,
      "땀": 488,
      "땄": 489,
      "땅": 490,
      "때": 491,
      "땐": 492,
      "땔": 493,
      "땜": 494,
      "땠": 495,
      "땡": 496,
      "떄": 497,
      "떠": 498,
      "떡": 499,
      "떤": 500,
      "떨": 501,
      "떴": 502,
      "떻": 503,
      "떼": 504,
      "뗀": 505,
      "뗄": 506,
      "뗍": 507,
      "뗏": 508,
      "뗐": 509,
      "뗴": 510,
      "뗼": 511,
      "또": 512,
      "똑": 513,
      "똘": 514,
      "똠": 515,
      "똥": 516,
      "똬": 517,
      "뙤": 518,
      "뚜": 519,
      "뚝": 520,
      "뚫": 521,
      "뚱": 522,
      "뛰": 523,
      "뛴": 524,
      "뛸": 525,
      "뜀": 526,
      "뜁": 527,
      "뜨": 528,
      "뜩": 529,
      "뜬": 530,
      "뜯": 531,
      "뜰": 532,
      "뜸": 533,
      "뜹": 534,
      "뜻": 535,
      "띄": 536,
      "띈": 537,
      "띌": 538,
      "띔": 539,
      "띕": 540,
      "띠": 541,
      "띤": 542,
      "띨": 543,
      "띱": 544,
      "띵": 545,
      "라": 546,
      "락": 547,
      "란": 548,
      "랄": 549,
      "람": 550,
      "랍": 551,
      "랏": 552,
      "랐": 553,
      "랑": 554,
      "랗": 555,
      "래": 556,
      "랙": 557,
      "랜": 558,
      "랠": 559,
      "램": 560,
      "랩": 561,
      "랫": 562,
      "랬": 563,
      "랭": 564,
      "랲": 565,
      "랴": 566,
      "략": 567,
      "랸": 568,
      "럈": 569,
      "량": 570,
      "러": 571,
      "럭": 572,
      "런": 573,
      "럴": 574,
      "럼": 575,
      "럽": 576,
      "럿": 577,
      "렀": 578,
      "렁": 579,
      "렇": 580,
      "레": 581,
      "렉": 582,
      "렌": 583,
      "렐": 584,
      "렘": 585,
      "렙": 586,
      "렛": 587,
      "렝": 588,
      "려": 589,
      "력": 590,
      "련": 591,
      "렬": 592,
      "렴": 593,
      "렵": 594,
      "렷": 595,
      "렸": 596,
      "령": 597,
      "례": 598,
      "롄": 599,
      "롑": 600,
      "로": 601,
      "록": 602,
      "론": 603,
      "롤": 604,
      "롬": 605,
      "롭": 606,
      "롯": 607,
      "롱": 608,
      "롸": 609,
      "뢰": 610,
      "룀": 611,
      "료": 612,
      "룟": 613,
      "룡": 614,
      "루": 615,
      "룩": 616,
      "룬": 617,
      "룰": 618,
      "룸": 619,
      "룹": 620,
      "룻": 621,
      "룽": 622,
      "뤄": 623,
      "뤈": 624,
      "뤘": 625,
      "뤼": 626,
      "륀": 627,
      "류": 628,
      "륙": 629,
      "륜": 630,
      "률": 631,
      "륨": 632,
      "륭": 633,
      "르": 634,
      "륵": 635,
      "른": 636,
      "를": 637,
      "름": 638,
      "릅": 639,
      "릇": 640,
      "릉": 641,
      "릍": 642,
      "릎": 643,
      "릐": 644,
      "리": 645,
      "릭": 646,
      "린": 647,
      "릴": 648,
      "림": 649,
      "립": 650,
      "릿": 651,
      "링": 652,
      "마": 653,
      "막": 654,
      "만": 655,
      "많": 656,
      "맏": 657,
      "말": 658,
      "맑": 659,
      "맘": 660,
      "맙": 661,
      "맛": 662,
      "망": 663,
      "맞": 664,
      "맡": 665,
      "맣": 666,
      "매": 667,
      "맥": 668,
      "맨": 669,
      "맬": 670,
      "맴": 671,
      "맵": 672,
      "맷": 673,
      "맸": 674,
      "맹": 675,
      "맺": 676,
      "먀": 677,
      "머": 678,
      "먹": 679,
      "먼": 680,
      "멀": 681,
      "멈": 682,
      "멉": 683,
      "멋": 684,
      "멍": 685,
      "멎": 686,
      "메": 687,
      "멕": 688,
      "멘": 689,
      "멜": 690,
      "멤": 691,
      "멥": 692,
      "멧": 693,
      "멩": 694,
      "며": 695,
      "면": 696,
      "멸": 697,
      "몄": 698,
      "명": 699,
      "몇": 700,
      "모": 701,
      "목": 702,
      "몫": 703,
      "몬": 704,
      "몰": 705,
      "몸": 706,
      "몹": 707,
      "못": 708,
      "몽": 709,
      "뫼": 710,
      "묘": 711,
      "묠": 712,
      "무": 713,
      "묵": 714,
      "묶": 715,
      "문": 716,
      "묻": 717,
      "물": 718,
      "묽": 719,
      "뭄": 720,
      "뭅": 721,
      "뭇": 722,
      "뭉": 723,
      "뭐": 724,
      "뭔": 725,
      "뭘": 726,
      "뭡": 727,
      "뮌": 728,
      "뮐": 729,
      "뮤": 730,
      "뮨": 731,
      "뮬": 732,
      "뮴": 733,
      "므": 734,
      "믈": 735,
      "믐": 736,
      "미": 737,
      "믹": 738,
      "민": 739,
      "믿": 740,
      "밀": 741,
      "밈": 742,
      "밉": 743,
      "밋": 744,
      "밌": 745,
      "밍": 746,
      "밎": 747,
      "및": 748,
      "밑": 749,
      "바": 750,
      "박": 751,
      "밖": 752,
      "반": 753,
      "받": 754,
      "발": 755,
      "밝": 756,
      "밞": 757,
      "밟": 758,
      "밤": 759,
      "밥": 760,
      "밧": 761,
      "방": 762,
      "밭": 763,
      "배": 764,
      "백": 765,
      "밴": 766,
      "밸": 767,
      "뱀": 768,
      "뱁": 769,
      "뱃": 770,
      "뱄": 771,
      "뱅": 772,
      "뱉": 773,
      "뱍": 774,
      "뱐": 775,
      "뱡": 776,
      "버": 777,
      "벅": 778,
      "번": 779,
      "벌": 780,
      "범": 781,
      "법": 782,
      "벗": 783,
      "벙": 784,
      "벚": 785,
      "베": 786,
      "벡": 787,
      "벤": 788,
      "벨": 789,
      "벳": 790,
      "벵": 791,
      "벼": 792,
      "벽": 793,
      "변": 794,
      "별": 795,
      "볍": 796,
      "볏": 797,
      "볐": 798,
      "병": 799,
      "볕": 800,
      "보": 801,
      "복": 802,
      "볶": 803,
      "본": 804,
      "볼": 805,
      "봄": 806,
      "봅": 807,
      "봇": 808,
      "봉": 809,
      "봐": 810,
      "봤": 811,
      "봬": 812,
      "뵀": 813,
      "뵈": 814,
      "뵌": 815,
      "뵐": 816,
      "뵙": 817,
      "부": 818,
      "북": 819,
      "분": 820,
      "붇": 821,
      "불": 822,
      "붉": 823,
      "붐": 824,
      "붑": 825,
      "붓": 826,
      "붕": 827,
      "붖": 828,
      "붙": 829,
      "붜": 830,
      "뷔": 831,
      "뷜": 832,
      "뷰": 833,
      "뷸": 834,
      "브": 835,
      "븐": 836,
      "블": 837,
      "비": 838,
      "빅": 839,
      "빈": 840,
      "빌": 841,
      "빔": 842,
      "빕": 843,
      "빗": 844,
      "빙": 845,
      "빚": 846,
      "빛": 847,
      "빠": 848,
      "빡": 849,
      "빤": 850,
      "빨": 851,
      "빱": 852,
      "빴": 853,
      "빵": 854,
      "빼": 855,
      "빽": 856,
      "뺀": 857,
      "뺄": 858,
      "뺏": 859,
      "뺐": 860,
      "뺨": 861,
      "뻐": 862,
      "뻑": 863,
      "뻔": 864,
      "뻗": 865,
      "뻘": 866,
      "뻤": 867,
      "뻥": 868,
      "뻬": 869,
      "뼈": 870,
      "뼉": 871,
      "뼛": 872,
      "뽀": 873,
      "뽁": 874,
      "뽐": 875,
      "뽑": 876,
      "뽕": 877,
      "뾰": 878,
      "뿅": 879,
      "뿌": 880,
      "뿍": 881,
      "뿐": 882,
      "뿔": 883,
      "뿜": 884,
      "쁘": 885,
      "쁜": 886,
      "쁠": 887,
      "쁨": 888,
      "쁩": 889,
      "삐": 890,
      "사": 891,
      "삭": 892,
      "산": 893,
      "살": 894,
      "삶": 895,
      "삼": 896,
      "삽": 897,
      "삿": 898,
      "샀": 899,
      "상": 900,
      "새": 901,
      "색": 902,
      "샌": 903,
      "샐": 904,
      "샘": 905,
      "샙": 906,
      "샛": 907,
      "샜": 908,
      "생": 909,
      "샤": 910,
      "샨": 911,
      "샬": 912,
      "샴": 913,
      "샵": 914,
      "샷": 915,
      "샹": 916,
      "섀": 917,
      "섐": 918,
      "서": 919,
      "석": 920,
      "섞": 921,
      "선": 922,
      "섣": 923,
      "설": 924,
      "섬": 925,
      "섭": 926,
      "섯": 927,
      "섰": 928,
      "성": 929,
      "세": 930,
      "섹": 931,
      "센": 932,
      "셀": 933,
      "셈": 934,
      "셉": 935,
      "셋": 936,
      "셌": 937,
      "셍": 938,
      "셔": 939,
      "션": 940,
      "셜": 941,
      "셤": 942,
      "셧": 943,
      "셨": 944,
      "셰": 945,
      "셸": 946,
      "소": 947,
      "속": 948,
      "솎": 949,
      "손": 950,
      "솔": 951,
      "솜": 952,
      "솝": 953,
      "솟": 954,
      "송": 955,
      "솥": 956,
      "솦": 957,
      "솽": 958,
      "쇄": 959,
      "쇠": 960,
      "쇤": 961,
      "쇳": 962,
      "쇼": 963,
      "숄": 964,
      "숍": 965,
      "숏": 966,
      "숑": 967,
      "수": 968,
      "숙": 969,
      "순": 970,
      "숟": 971,
      "술": 972,
      "숨": 973,
      "숩": 974,
      "숫": 975,
      "숭": 976,
      "숯": 977,
      "숱": 978,
      "숲": 979,
      "숴": 980,
      "쉐": 981,
      "쉑": 982,
      "쉔": 983,
      "쉘": 984,
      "쉥": 985,
      "쉬": 986,
      "쉰": 987,
      "쉴": 988,
      "쉼": 989,
      "쉽": 990,
      "슈": 991,
      "슌": 992,
      "슐": 993,
      "슘": 994,
      "슝": 995,
      "스": 996,
      "슨": 997,
      "슬": 998,
      "슭": 999,
      "슴": 1000,
      "습": 1001,
      "슷": 1002,
      "승": 1003,
      "시": 1004,
      "식": 1005,
      "신": 1006,
      "싣": 1007,
      "실": 1008,
      "싫": 1009,
      "심": 1010,
      "십": 1011,
      "싯": 1012,
      "싱": 1013,
      "싶": 1014,
      "싸": 1015,
      "싹": 1016,
      "싼": 1017,
      "쌀": 1018,
      "쌈": 1019,
      "쌉": 1020,
      "쌌": 1021,
      "쌍": 1022,
      "쌓": 1023,
      "쌔": 1024,
      "쌘": 1025,
      "쌤": 1026,
      "쌩": 1027,
      "써": 1028,
      "썩": 1029,
      "썬": 1030,
      "썰": 1031,
      "썸": 1032,
      "썹": 1033,
      "썼": 1034,
      "썽": 1035,
      "쎄": 1036,
      "쎈": 1037,
      "쎌": 1038,
      "쏘": 1039,
      "쏙": 1040,
      "쏜": 1041,
      "쏟": 1042,
      "쏠": 1043,
      "쏭": 1044,
      "쏴": 1045,
      "쐈": 1046,
      "쐐": 1047,
      "쐬": 1048,
      "쑤": 1049,
      "쑥": 1050,
      "쑨": 1051,
      "쓰": 1052,
      "쓱": 1053,
      "쓴": 1054,
      "쓸": 1055,
      "씀": 1056,
      "씁": 1057,
      "씌": 1058,
      "씨": 1059,
      "씩": 1060,
      "씬": 1061,
      "씰": 1062,
      "씸": 1063,
      "씹": 1064,
      "씻": 1065,
      "씽": 1066,
      "아": 1067,
      "악": 1068,
      "안": 1069,
      "앉": 1070,
      "않": 1071,
      "알": 1072,
      "앓": 1073,
      "암": 1074,
      "압": 1075,
      "앗": 1076,
      "았": 1077,
      "앙": 1078,
      "앞": 1079,
      "애": 1080,
      "액": 1081,
      "앤": 1082,
      "앨": 1083,
      "앰": 1084,
      "앱": 1085,
      "앳": 1086,
      "앴": 1087,
      "앵": 1088,
      "야": 1089,
      "약": 1090,
      "얀": 1091,
      "얄": 1092,
      "얆": 1093,
      "얇": 1094,
      "얌": 1095,
      "얍": 1096,
      "얏": 1097,
      "양": 1098,
      "얕": 1099,
      "얗": 1100,
      "얘": 1101,
      "어": 1102,
      "억": 1103,
      "언": 1104,
      "얹": 1105,
      "얻": 1106,
      "얼": 1107,
      "얽": 1108,
      "엄": 1109,
      "업": 1110,
      "없": 1111,
      "엇": 1112,
      "었": 1113,
      "엉": 1114,
      "엊": 1115,
      "엌": 1116,
      "엎": 1117,
      "에": 1118,
      "엑": 1119,
      "엔": 1120,
      "엘": 1121,
      "엠": 1122,
      "엡": 1123,
      "엣": 1124,
      "엥": 1125,
      "여": 1126,
      "역": 1127,
      "엮": 1128,
      "연": 1129,
      "열": 1130,
      "엷": 1131,
      "염": 1132,
      "엽": 1133,
      "엿": 1134,
      "였": 1135,
      "영": 1136,
      "옅": 1137,
      "옆": 1138,
      "옇": 1139,
      "예": 1140,
      "옌": 1141,
      "옐": 1142,
      "옛": 1143,
      "오": 1144,
      "옥": 1145,
      "온": 1146,
      "올": 1147,
      "옭": 1148,
      "옮": 1149,
      "옳": 1150,
      "옴": 1151,
      "옵": 1152,
      "옷": 1153,
      "옹": 1154,
      "와": 1155,
      "왁": 1156,
      "완": 1157,
      "왈": 1158,
      "왑": 1159,
      "왓": 1160,
      "왔": 1161,
      "왕": 1162,
      "왜": 1163,
      "왠": 1164,
      "외": 1165,
      "왹": 1166,
      "왼": 1167,
      "요": 1168,
      "욕": 1169,
      "욘": 1170,
      "욜": 1171,
      "욤": 1172,
      "욥": 1173,
      "용": 1174,
      "우": 1175,
      "욱": 1176,
      "운": 1177,
      "욷": 1178,
      "울": 1179,
      "움": 1180,
      "웁": 1181,
      "웃": 1182,
      "웅": 1183,
      "워": 1184,
      "웍": 1185,
      "원": 1186,
      "월": 1187,
      "웜": 1188,
      "웠": 1189,
      "웡": 1190,
      "웨": 1191,
      "웬": 1192,
      "웰": 1193,
      "웸": 1194,
      "웹": 1195,
      "웻": 1196,
      "위": 1197,
      "윅": 1198,
      "윈": 1199,
      "윌": 1200,
      "윔": 1201,
      "윕": 1202,
      "윗": 1203,
      "윙": 1204,
      "유": 1205,
      "육": 1206,
      "윤": 1207,
      "율": 1208,
      "윱": 1209,
      "윳": 1210,
      "융": 1211,
      "으": 1212,
      "윽": 1213,
      "은": 1214,
      "을": 1215,
      "음": 1216,
      "읍": 1217,
      "읏": 1218,
      "응": 1219,
      "의": 1220,
      "읠": 1221,
      "이": 1222,
      "익": 1223,
      "인": 1224,
      "일": 1225,
      "읽": 1226,
      "잃": 1227,
      "임": 1228,
      "입": 1229,
      "잇": 1230,
      "있": 1231,
      "잉": 1232,
      "잊": 1233,
      "잎": 1234,
      "자": 1235,
      "작": 1236,
      "잔": 1237,
      "잖": 1238,
      "잘": 1239,
      "잠": 1240,
      "잡": 1241,
      "잣": 1242,
      "잤": 1243,
      "장": 1244,
      "잦": 1245,
      "재": 1246,
      "잭": 1247,
      "잰": 1248,
      "잼": 1249,
      "잽": 1250,
      "잿": 1251,
      "쟁": 1252,
      "쟈": 1253,
      "쟝": 1254,
      "쟤": 1255,
      "저": 1256,
      "적": 1257,
      "전": 1258,
      "절": 1259,
      "젊": 1260,
      "젋": 1261,
      "점": 1262,
      "접": 1263,
      "젓": 1264,
      "정": 1265,
      "젖": 1266,
      "제": 1267,
      "젝": 1268,
      "젠": 1269,
      "젤": 1270,
      "젬": 1271,
      "젭": 1272,
      "젯": 1273,
      "져": 1274,
      "젼": 1275,
      "졌": 1276,
      "조": 1277,
      "족": 1278,
      "존": 1279,
      "졸": 1280,
      "좀": 1281,
      "좁": 1282,
      "종": 1283,
      "좇": 1284,
      "좋": 1285,
      "좌": 1286,
      "좡": 1287,
      "좨": 1288,
      "죄": 1289,
      "죈": 1290,
      "죌": 1291,
      "죘": 1292,
      "죠": 1293,
      "죤": 1294,
      "주": 1295,
      "죽": 1296,
      "준": 1297,
      "줄": 1298,
      "줌": 1299,
      "줍": 1300,
      "줏": 1301,
      "중": 1302,
      "줘": 1303,
      "줬": 1304,
      "쥐": 1305,
      "쥔": 1306,
      "쥘": 1307,
      "쥬": 1308,
      "쥴": 1309,
      "즈": 1310,
      "즉": 1311,
      "즌": 1312,
      "즐": 1313,
      "즘": 1314,
      "즙": 1315,
      "증": 1316,
      "지": 1317,
      "직": 1318,
      "진": 1319,
      "질": 1320,
      "짊": 1321,
      "짐": 1322,
      "집": 1323,
      "짓": 1324,
      "징": 1325,
      "짖": 1326,
      "짙": 1327,
      "짚": 1328,
      "짜": 1329,
      "짝": 1330,
      "짠": 1331,
      "짤": 1332,
      "짦": 1333,
      "짧": 1334,
      "짬": 1335,
      "짭": 1336,
      "짰": 1337,
      "짱": 1338,
      "째": 1339,
      "쨉": 1340,
      "쨌": 1341,
      "쨍": 1342,
      "쨰": 1343,
      "쩌": 1344,
      "쩍": 1345,
      "쩐": 1346,
      "쩔": 1347,
      "쩜": 1348,
      "쩡": 1349,
      "쪄": 1350,
      "쪼": 1351,
      "쪽": 1352,
      "쫀": 1353,
      "쫄": 1354,
      "쫒": 1355,
      "쫓": 1356,
      "쫙": 1357,
      "쬐": 1358,
      "쭈": 1359,
      "쭉": 1360,
      "쭐": 1361,
      "쭙": 1362,
      "쭤": 1363,
      "쯔": 1364,
      "쯤": 1365,
      "쯧": 1366,
      "쯩": 1367,
      "찌": 1368,
      "찍": 1369,
      "찐": 1370,
      "찔": 1371,
      "찜": 1372,
      "찝": 1373,
      "찡": 1374,
      "찢": 1375,
      "차": 1376,
      "착": 1377,
      "찬": 1378,
      "찮": 1379,
      "찰": 1380,
      "참": 1381,
      "찹": 1382,
      "찻": 1383,
      "찼": 1384,
      "창": 1385,
      "찾": 1386,
      "챁": 1387,
      "채": 1388,
      "책": 1389,
      "챈": 1390,
      "챌": 1391,
      "챔": 1392,
      "챕": 1393,
      "챗": 1394,
      "챘": 1395,
      "챙": 1396,
      "챠": 1397,
      "챤": 1398,
      "처": 1399,
      "척": 1400,
      "천": 1401,
      "철": 1402,
      "첨": 1403,
      "첩": 1404,
      "첫": 1405,
      "첬": 1406,
      "청": 1407,
      "체": 1408,
      "첵": 1409,
      "첸": 1410,
      "첼": 1411,
      "쳇": 1412,
      "쳌": 1413,
      "쳐": 1414,
      "쳔": 1415,
      "쳤": 1416,
      "초": 1417,
      "촉": 1418,
      "촌": 1419,
      "촐": 1420,
      "촘": 1421,
      "촛": 1422,
      "총": 1423,
      "촣": 1424,
      "촨": 1425,
      "촬": 1426,
      "촹": 1427,
      "최": 1428,
      "쵸": 1429,
      "추": 1430,
      "축": 1431,
      "춘": 1432,
      "출": 1433,
      "춤": 1434,
      "춥": 1435,
      "춧": 1436,
      "충": 1437,
      "춰": 1438,
      "췄": 1439,
      "췌": 1440,
      "취": 1441,
      "췬": 1442,
      "췼": 1443,
      "츄": 1444,
      "츈": 1445,
      "츠": 1446,
      "측": 1447,
      "츰": 1448,
      "층": 1449,
      "치": 1450,
      "칙": 1451,
      "친": 1452,
      "칠": 1453,
      "칡": 1454,
      "침": 1455,
      "칩": 1456,
      "칫": 1457,
      "칭": 1458,
      "카": 1459,
      "칵": 1460,
      "칸": 1461,
      "칼": 1462,
      "캄": 1463,
      "캅": 1464,
      "캇": 1465,
      "캉": 1466,
      "캐": 1467,
      "캔": 1468,
      "캘": 1469,
      "캠": 1470,
      "캡": 1471,
      "캣": 1472,
      "캥": 1473,
      "캬": 1474,
      "커": 1475,
      "컥": 1476,
      "컨": 1477,
      "컫": 1478,
      "컬": 1479,
      "컴": 1480,
      "컵": 1481,
      "컷": 1482,
      "컸": 1483,
      "컽": 1484,
      "케": 1485,
      "켁": 1486,
      "켄": 1487,
      "켈": 1488,
      "켐": 1489,
      "켓": 1490,
      "켜": 1491,
      "켠": 1492,
      "켤": 1493,
      "켰": 1494,
      "코": 1495,
      "콕": 1496,
      "콘": 1497,
      "콜": 1498,
      "콤": 1499,
      "콥": 1500,
      "콧": 1501,
      "콩": 1502,
      "콬": 1503,
      "콰": 1504,
      "콴": 1505,
      "쾅": 1506,
      "쾌": 1507,
      "쾨": 1508,
      "쾰": 1509,
      "쿄": 1510,
      "쿠": 1511,
      "쿡": 1512,
      "쿤": 1513,
      "쿨": 1514,
      "쿰": 1515,
      "쿱": 1516,
      "쿵": 1517,
      "쿼": 1518,
      "퀀": 1519,
      "퀄": 1520,
      "퀘": 1521,
      "퀜": 1522,
      "퀴": 1523,
      "퀵": 1524,
      "퀸": 1525,
      "퀼": 1526,
      "큅": 1527,
      "큐": 1528,
      "큘": 1529,
      "큠": 1530,
      "크": 1531,
      "큰": 1532,
      "클": 1533,
      "큼": 1534,
      "큽": 1535,
      "킁": 1536,
      "키": 1537,
      "킥": 1538,
      "킨": 1539,
      "킬": 1540,
      "킴": 1541,
      "킵": 1542,
      "킷": 1543,
      "킹": 1544,
      "타": 1545,
      "탁": 1546,
      "탄": 1547,
      "탈": 1548,
      "탐": 1549,
      "탑": 1550,
      "탓": 1551,
      "탔": 1552,
      "탕": 1553,
      "태": 1554,
      "택": 1555,
      "탠": 1556,
      "탤": 1557,
      "탬": 1558,
      "탭": 1559,
      "탯": 1560,
      "탰": 1561,
      "탱": 1562,
      "탸": 1563,
      "터": 1564,
      "턱": 1565,
      "턴": 1566,
      "털": 1567,
      "텀": 1568,
      "텁": 1569,
      "텃": 1570,
      "텄": 1571,
      "텅": 1572,
      "테": 1573,
      "텍": 1574,
      "텐": 1575,
      "텔": 1576,
      "템": 1577,
      "텝": 1578,
      "텟": 1579,
      "텡": 1580,
      "텨": 1581,
      "텼": 1582,
      "톈": 1583,
      "토": 1584,
      "톡": 1585,
      "톤": 1586,
      "톨": 1587,
      "톰": 1588,
      "톱": 1589,
      "통": 1590,
      "톺": 1591,
      "퇀": 1592,
      "퇴": 1593,
      "투": 1594,
      "툭": 1595,
      "툰": 1596,
      "툴": 1597,
      "툼": 1598,
      "퉁": 1599,
      "퉈": 1600,
      "퉨": 1601,
      "튀": 1602,
      "튄": 1603,
      "튈": 1604,
      "튕": 1605,
      "튜": 1606,
      "튠": 1607,
      "튤": 1608,
      "튬": 1609,
      "트": 1610,
      "특": 1611,
      "튼": 1612,
      "튿": 1613,
      "틀": 1614,
      "틈": 1615,
      "틉": 1616,
      "틋": 1617,
      "틍": 1618,
      "틔": 1619,
      "틜": 1620,
      "티": 1621,
      "틱": 1622,
      "틴": 1623,
      "틸": 1624,
      "팀": 1625,
      "팁": 1626,
      "팃": 1627,
      "팅": 1628,
      "파": 1629,
      "팍": 1630,
      "팎": 1631,
      "판": 1632,
      "팔": 1633,
      "팜": 1634,
      "팝": 1635,
      "팟": 1636,
      "팠": 1637,
      "팡": 1638,
      "팥": 1639,
      "패": 1640,
      "팩": 1641,
      "팫": 1642,
      "팬": 1643,
      "팰": 1644,
      "팸": 1645,
      "팹": 1646,
      "팻": 1647,
      "팽": 1648,
      "퍈": 1649,
      "퍼": 1650,
      "펀": 1651,
      "펄": 1652,
      "펌": 1653,
      "펍": 1654,
      "펑": 1655,
      "페": 1656,
      "펙": 1657,
      "펜": 1658,
      "펠": 1659,
      "펨": 1660,
      "펩": 1661,
      "펫": 1662,
      "펭": 1663,
      "펴": 1664,
      "편": 1665,
      "펼": 1666,
      "폄": 1667,
      "폈": 1668,
      "평": 1669,
      "폐": 1670,
      "포": 1671,
      "폭": 1672,
      "폰": 1673,
      "폴": 1674,
      "폼": 1675,
      "폿": 1676,
      "퐁": 1677,
      "퐅": 1678,
      "표": 1679,
      "푯": 1680,
      "푸": 1681,
      "푹": 1682,
      "푼": 1683,
      "풀": 1684,
      "품": 1685,
      "풋": 1686,
      "풍": 1687,
      "퓌": 1688,
      "퓨": 1689,
      "퓰": 1690,
      "퓸": 1691,
      "프": 1692,
      "픅": 1693,
      "픈": 1694,
      "플": 1695,
      "픔": 1696,
      "픕": 1697,
      "피": 1698,
      "픽": 1699,
      "핀": 1700,
      "필": 1701,
      "핌": 1702,
      "핍": 1703,
      "핏": 1704,
      "핑": 1705,
      "하": 1706,
      "학": 1707,
      "한": 1708,
      "할": 1709,
      "핥": 1710,
      "함": 1711,
      "합": 1712,
      "핫": 1713,
      "항": 1714,
      "해": 1715,
      "핵": 1716,
      "핸": 1717,
      "핼": 1718,
      "햄": 1719,
      "햅": 1720,
      "햇": 1721,
      "했": 1722,
      "행": 1723,
      "햐": 1724,
      "햡": 1725,
      "향": 1726,
      "햬": 1727,
      "헀": 1728,
      "허": 1729,
      "헌": 1730,
      "헐": 1731,
      "험": 1732,
      "헙": 1733,
      "헛": 1734,
      "헝": 1735,
      "헤": 1736,
      "헥": 1737,
      "헨": 1738,
      "헬": 1739,
      "헷": 1740,
      "헹": 1741,
      "혀": 1742,
      "혁": 1743,
      "현": 1744,
      "혈": 1745,
      "혐": 1746,
      "협": 1747,
      "혓": 1748,
      "혔": 1749,
      "형": 1750,
      "혖": 1751,
      "혜": 1752,
      "호": 1753,
      "혹": 1754,
      "혼": 1755,
      "홀": 1756,
      "홈": 1757,
      "홉": 1758,
      "홋": 1759,
      "홍": 1760,
      "홑": 1761,
      "화": 1762,
      "확": 1763,
      "환": 1764,
      "홛": 1765,
      "활": 1766,
      "홧": 1767,
      "황": 1768,
      "회": 1769,
      "획": 1770,
      "횐": 1771,
      "횟": 1772,
      "횡": 1773,
      "효": 1774,
      "후": 1775,
      "훅": 1776,
      "훈": 1777,
      "훌": 1778,
      "훑": 1779,
      "훔": 1780,
      "훕": 1781,
      "훗": 1782,
      "훙": 1783,
      "훠": 1784,
      "훤": 1785,
      "훨": 1786,
      "훼": 1787,
      "휘": 1788,
      "휙": 1789,
      "휜": 1790,
      "휠": 1791,
      "휨": 1792,
      "휩": 1793,
      "휴": 1794,
      "휼": 1795,
      "흄": 1796,
      "흉": 1797,
      "흐": 1798,
      "흑": 1799,
      "흔": 1800,
      "흘": 1801,
      "흙": 1802,
      "흠": 1803,
      "흡": 1804,
      "흥": 1805,
      "흩": 1806,
      "희": 1807,
      "흰": 1808,
      "흽": 1809,
      "히": 1810,
      "힉": 1811,
      "힌": 1812,
      "힐": 1813,
      "힘": 1814,
      "힙": 1815,
      "힛": 1816,
      "힝": 1817,
      "##처": 1818,
      "##하": 1819,
      "##기": 1820,
      "##위": 1821,
      "##해": 1822,
      "##각": 1823,
      "##되": 1824,
      "##고": 1825,
      "##는": 1826,
      "##험": 1827,
      "##요": 1828,
      "##율": 1829,
      "##국": 1830,
      "##채": 1831,
      "##권": 1832,
      "##까": 1833,
      "##지": 1834,
      "##도": 1835,
      "##세": 1836,
      "##계": 1837,
      "##인": 1838,
      "##터": 1839,
      "##내": 1840,
      "##셔": 1841,
      "##날": 1842,
      "##맞": 1843,
      "##은": 1844,
      "##네": 1845,
      "##오": 1846,
      "##스": 1847,
      "##가": 1848,
      "##리": 1849,
      "##과": 1850,
      "##학": 1851,
      "##부": 1852,
      "##전": 1853,
      "##항": 1854,
      "##에": 1855,
      "##거": 1856,
      "##나": 1857,
      "##제": 1858,
      "##한": 1859,
      "##다": 1860,
      "##급": 1861,
      "##정": 1862,
      "##책": 1863,
      "##M": 1864,
      "##R": 1865,
      "##별": 1866,
      "##적": 1867,
      "##였": 1868,
      "##D": 1869,
      "##A": 1870,
      "##랑": 1871,
      "##데": 1872,
      "##뮬": 1873,
      "##레": 1874,
      "##이": 1875,
      "##션": 1876,
      "##을": 1877,
      "##겠": 1878,
      "##죠": 1879,
      "##통": 1880,
      "##편": 1881,
      "##의": 1882,
      "##성": 1883,
      "##것": 1884,
      "##3": 1885,
      "##1": 1886,
      "##4": 1887,
      "##건": 1888,
      "##트": 1889,
      "##를": 1890,
      "##아": 1891,
      "##타": 1892,
      "##업": 1893,
      "##포": 1894,
      "##럼": 1895,
      "##목": 1896,
      "##찬": 1897,
      "##욕": 1898,
      "##래": 1899,
      "##소": 1900,
      "##시": 1901,
      "##즌": 1902,
      "##대": 1903,
      "##로": 1904,
      "##록": 1905,
      "##품": 1906,
      "##격": 1907,
      "##조": 1908,
      "##술": 1909,
      "##i": 1910,
      "##g": 1911,
      "##t": 1912,
      "##a": 1913,
      "##l": 1914,
      "##비": 1915,
      "##자": 1916,
      "##분": 1917,
      "##들": 1918,
      "##께": 1919,
      "##I": 1920,
      "##음": 1921,
      "##봇": 1922,
      "##수": 1923,
      "##츠": 1924,
      "##약": 1925,
      "##와": 1926,
      "##S": 1927,
      "##블": 1928,
      "##어": 1929,
      "##0": 1930,
      "##차": 1931,
      "##례": 1932,
      "##혜": 1933,
      "##만": 1934,
      "##토": 1935,
      "##른": 1936,
      "##8": 1937,
      "##2": 1938,
      "##7": 1939,
      "##구": 1940,
      "##미": 1941,
      "##없": 1942,
      "##질": 1943,
      "##니": 1944,
      "##바": 1945,
      "##첨": 1946,
      "##탁": 1947,
      "##며": 1948,
      "##일": 1949,
      "##즈": 1950,
      "##원": 1951,
      "##서": 1952,
      "##졸": 1953,
      "##식": 1954,
      "##사": 1955,
      "##상": 1956,
      "##씨": 1957,
      "##게": 1958,
      "##V": 1959,
      "##e": 1960,
      "##담": 1961,
      "##화": 1962,
      "##절": 1963,
      "##력": 1964,
      "##여": 1965,
      "##야": 1966,
      "##획": 1967,
      "##올": 1968,
      "##광": 1969,
      "##산": 1970,
      "##간": 1971,
      "##P": 1972,
      "##B": 1973,
      "##캐": 1974,
      "##릭": 1975,
      "##협": 1976,
      "##회": 1977,
      "##웨": 1978,
      "##덴": 1979,
      "##않": 1980,
      "##노": 1981,
      "##공": 1982,
      "##릉": 1983,
      "##링": 1984,
      "##턴": 1985,
      "##플": 1986,
      "##딩": 1987,
      "##던": 1988,
      "##설": 1989,
      "##박": 1990,
      "##감": 1991,
      "##류": 1992,
      "##라": 1993,
      "##종": 1994,
      "##5": 1995,
      "##6": 1996,
      "##외": 1997,
      "##투": 1998,
      "##프": 1999,
      "##귀": 2000,
      "##체": 2001,
      "##무": 2002,
      "##앤": 2003,
      "##그": 2004,
      "##코": 2005,
      "##양": 2006,
      "##너": 2007,
      "##C": 2008,
      "##장": 2009,
      "##o": 2010,
      "##c": 2011,
      "##청": 2012,
      "##억": 2013,
      "##으": 2014,
      "##렷": 2015,
      "##졌": 2016,
      "##습": 2017,
      "##행": 2018,
      "##보": 2019,
      "##호": 2020,
      "##후": 2021,
      "##현": 2022,
      "##젯": 2023,
      "##매": 2024,
      "##했": 2025,
      "##글": 2026,
      "##열": 2027,
      "##G": 2028,
      "##선": 2029,
      "##디": 2030,
      "##손": 2031,
      "##주": 2032,
      "##컨": 2033,
      "##벤": 2034,
      "##센": 2035,
      "##신": 2036,
      "##경": 2037,
      "##배": 2038,
      "##천": 2039,
      "##벌": 2040,
      "##콘": 2041,
      "##텐": 2042,
      "##표": 2043,
      "##안": 2044,
      "##웅": 2045,
      "##련": 2046,
      "##영": 2047,
      "##극": 2048,
      "##휴": 2049,
      "##물": 2050,
      "##켜": 2051,
      "##퍼": 2052,
      "##드": 2053,
      "##면": 2054,
      "##9": 2055,
      "##H": 2056,
      "##농": 2057,
      "##금": 2058,
      "##융": 2059,
      "##개": 2060,
      "##혁": 2061,
      "##법": 2062,
      "##준": 2063,
      "##작": 2064,
      "##돼": 2065,
      "##족": 2066,
      "##째": 2067,
      "##입": 2068,
      "##동": 2069,
      "##루": 2070,
      "##클": 2071,
      "##린": 2072,
      "##넷": 2073,
      "##렉": 2074,
      "##임": 2075,
      "##피": 2076,
      "##널": 2077,
      "##모": 2078,
      "##빌": 2079,
      "##티": 2080,
      "##우": 2081,
      "##파": 2082,
      "##러": 2083,
      "##맨": 2084,
      "##집": 2085,
      "##럭": 2086,
      "##워": 2087,
      "##치": 2088,
      "##교": 2089,
      "##운": 2090,
      "##점": 2091,
      "##발": 2092,
      "##념": 2093,
      "##테": 2094,
      "##결": 2095,
      "##됐": 2096,
      "##았": 2097,
      "##년": 2098,
      "##흡": 2099,
      "##풍": 2100,
      "##좌": 2101,
      "##합": 2102,
      "##T": 2103,
      "##울": 2104,
      "##석": 2105,
      "##송": 2106,
      "##능": 2107,
      "##온": 2108,
      "##탄": 2109,
      "##군": 2110,
      "##냈": 2111,
      "##출": 2112,
      "##겐": 2113,
      "##콰": 2114,
      "##엇": 2115,
      "##벨": 2116,
      "##마": 2117,
      "##곤": 2118,
      "##켓": 2119,
      "##달": 2120,
      "##명": 2121,
      "##르": 2122,
      "##관": 2123,
      "##재": 2124,
      "##잠": 2125,
      "##퀴": 2126,
      "##반": 2127,
      "##중": 2128,
      "##축": 2129,
      "##m": 2130,
      "##n": 2131,
      "##백": 2132,
      "##베": 2133,
      "##쓴": 2134,
      "##연": 2135,
      "##숍": 2136,
      "##실": 2137,
      "##납": 2138,
      "##막": 2139,
      "##쏙": 2140,
      "##용": 2141,
      "##액": 2142,
      "##란": 2143,
      "##욘": 2144,
      "##받": 2145,
      "##초": 2146,
      "##속": 2147,
      "##폭": 2148,
      "##었": 2149,
      "##꼽": 2150,
      "##등": 2151,
      "##카": 2152,
      "##론": 2153,
      "##방": 2154,
      "##슨": 2155,
      "##b": 2156,
      "##r": 2157,
      "##될": 2158,
      "##완": 2159,
      "##증": 2160,
      "##락": 2161,
      "##쳐": 2162,
      "##왔": 2163,
      "##두": 2164,
      "##히": 2165,
      "##진": 2166,
      "##때": 2167,
      "##응": 2168,
      "##랐": 2169,
      "##최": 2170,
      "##형": 2171,
      "##민": 2172,
      "##님": 2173,
      "##랭": 2174,
      "##횡": 2175,
      "##유": 2176,
      "##악": 2177,
      "##크": 2178,
      "##큼": 2179,
      "##승": 2180,
      "##률": 2181,
      "##언": 2182,
      "##져": 2183,
      "##릴": 2184,
      "##벵": 2185,
      "##균": 2186,
      "##값": 2187,
      "##낵": 2188,
      "##황": 2189,
      "##료": 2190,
      "##텔": 2191,
      "##량": 2192,
      "##듯": 2193,
      "##O": 2194,
      "##끼": 2195,
      "##단": 2196,
      "##L": 2197,
      "##근": 2198,
      "##당": 2199,
      "##저": 2200,
      "##죄": 2201,
      "##델": 2202,
      "##규": 2203,
      "##쟁": 2204,
      "##추": 2205,
      "##객": 2206,
      "##컵": 2207,
      "##망": 2208,
      "##닥": 2209,
      "##강": 2210,
      "##넘": 2211,
      "##길": 2212,
      "##착": 2213,
      "##륙": 2214,
      "##월": 2215,
      "##닌": 2216,
      "##k": 2217,
      "##할": 2218,
      "##활": 2219,
      "##퓨": 2220,
      "##칠": 2221,
      "##검": 2222,
      "##찰": 2223,
      "##려": 2224,
      "##E": 2225,
      "##번": 2226,
      "##밀": 2227,
      "##순": 2228,
      "##털": 2229,
      "##택": 2230,
      "##문": 2231,
      "##복": 2232,
      "##갔": 2233,
      "##립": 2234,
      "##득": 2235,
      "##역": 2236,
      "##페": 2237,
      "##꺼": 2238,
      "##젝": 2239,
      "##확": 2240,
      "##웠": 2241,
      "##h": 2242,
      "##렬": 2243,
      "##붕": 2244,
      "##딜": 2245,
      "##템": 2246,
      "##병": 2247,
      "##희": 2248,
      "##넌": 2249,
      "##견": 2250,
      "##패": 2251,
      "##친": 2252,
      "##본": 2253,
      "##X": 2254,
      "##렸": 2255,
      "##겼": 2256,
      "##든": 2257,
      "##염": 2258,
      "##압": 2259,
      "##팩": 2260,
      "##뢰": 2261,
      "##d": 2262,
      "##틴": 2263,
      "##엘": 2264,
      "##창": 2265,
      "##놓": 2266,
      "##접": 2267,
      "##퓸": 2268,
      "##층": 2269,
      "##된": 2270,
      "##측": 2271,
      "##직": 2272,
      "##촌": 2273,
      "##있": 2274,
      "##꾸": 2275,
      "##팅": 2276,
      "##빙": 2277,
      "##팟": 2278,
      "##향": 2279,
      "##육": 2280,
      "##함": 2281,
      "##댄": 2282,
      "##략": 2283,
      "##더": 2284,
      "##예": 2285,
      "##빠": 2286,
      "##K": 2287,
      "##덕": 2288,
      "##럿": 2289,
      "##탈": 2290,
      "##밥": 2291,
      "##딕": 2292,
      "##특": 2293,
      "##굵": 2294,
      "##슬": 2295,
      "##깨": 2296,
      "##엔": 2297,
      "##뿐": 2298,
      "##늘": 2299,
      "##메": 2300,
      "##앉": 2301,
      "##익": 2302,
      "##휘": 2303,
      "##놀": 2304,
      "##척": 2305,
      "##쁜": 2306,
      "##괴": 2307,
      "##봉": 2308,
      "##킹": 2309,
      "##났": 2310,
      "##심": 2311,
      "##답": 2312,
      "##허": 2313,
      "##암": 2314,
      "##줘": 2315,
      "##불": 2316,
      "##섭": 2317,
      "##령": 2318,
      "##앴": 2319,
      "##혈": 2320,
      "##변": 2321,
      "##켰": 2322,
      "##므": 2323,
      "##팀": 2324,
      "##생": 2325,
      "##캠": 2326,
      "##혀": 2327,
      "##잡": 2328,
      "##힌": 2329,
      "##버": 2330,
      "##폐": 2331,
      "##룹": 2332,
      "##브": 2333,
      "##철": 2334,
      "##룩": 2335,
      "##텍": 2336,
      "##범": 2337,
      "##킷": 2338,
      "##뱅": 2339,
      "##s": 2340,
      "##누": 2341,
      "##펀": 2342,
      "##y": 2343,
      "##U": 2344,
      "##존": 2345,
      "##환": 2346,
      "##효": 2347,
      "##눅": 2348,
      "##u": 2349,
      "##멘": 2350,
      "##밖": 2351,
      "##w": 2352,
      "##평": 2353,
      "##칭": 2354,
      "##싸": 2355,
      "##뀌": 2356,
      "##뎌": 2357,
      "##뇌": 2358,
      "##벽": 2359,
      "##곳": 2360,
      "##난": 2361,
      "##F": 2362,
      "##둠": 2363,
      "##뜨": 2364,
      "##컴": 2365,
      "##필": 2366,
      "##북": 2367,
      "##짐": 2368,
      "##씩": 2369,
      "##총": 2370,
      "##앱": 2371,
      "##냉": 2372,
      "##밍": 2373,
      "##흥": 2374,
      "##팬": 2375,
      "##독": 2376,
      "##핑": 2377,
      "##팰": 2378,
      "##q": 2379,
      "##키": 2380,
      "##슈": 2381,
      "##컬": 2382,
      "##됨": 2383,
      "##띔": 2384,
      "##랜": 2385,
      "##름": 2386,
      "##돈": 2387,
      "##텀": 2388,
      "##먼": 2389,
      "##판": 2390,
      "##촉": 2391,
      "##윤": 2392,
      "##침": 2393,
      "##젠": 2394,
      "##셜": 2395,
      "##J": 2396,
      "##왓": 2397,
      "##롤": 2398,
      "##런": 2399,
      "##따": 2400,
      "##N": 2401,
      "##홍": 2402,
      "##쉐": 2403,
      "##듀": 2404,
      "##f": 2405,
      "##Q": 2406,
      "##롯": 2407,
      "##살": 2408,
      "##쓰": 2409,
      "##힐": 2410,
      "##걸": 2411,
      "##곶": 2412,
      "##줄": 2413,
      "##림": 2414,
      "##릿": 2415,
      "##람": 2416,
      "##즙": 2417,
      "##탐": 2418,
      "##렵": 2419,
      "##말": 2420,
      "##톡": 2421,
      "##퇴": 2422,
      "##뒤": 2423,
      "##밴": 2424,
      "##칙": 2425,
      "##밸": 2426,
      "##W": 2427,
      "##맘": 2428,
      "##끈": 2429,
      "##십": 2430,
      "##맥": 2431,
      "##숲": 2432,
      "##닝": 2433,
      "##잎": 2434,
      "##겨": 2435,
      "##킨": 2436,
      "##램": 2437,
      "##태": 2438,
      "##펙": 2439,
      "##홀": 2440,
      "##움": 2441,
      "##애": 2442,
      "##웃": 2443,
      "##낸": 2444,
      "##쌔": 2445,
      "##색": 2446,
      "##빛": 2447,
      "##섬": 2448,
      "##쥬": 2449,
      "##켄": 2450,
      "##써": 2451,
      "##곡": 2452,
      "##뷰": 2453,
      "##랫": 2454,
      "##폼": 2455,
      "##케": 2456,
      "##쿄": 2457,
      "##쇼": 2458,
      "##알": 2459,
      "##뜰": 2460,
      "##톤": 2461,
      "##넣": 2462,
      "##봤": 2463,
      "##읍": 2464,
      "##몬": 2465,
      "##궁": 2466,
      "##렌": 2467,
      "##긴": 2468,
      "##튬": 2469,
      "##넥": 2470,
      "##닷": 2471,
      "##샤": 2472,
      "##벗": 2473,
      "##머": 2474,
      "##섯": 2475,
      "##x": 2476,
      "##참": 2477,
      "##낫": 2478,
      "##둔": 2479,
      "##늄": 2480,
      "##짜": 2481,
      "##슷": 2482,
      "##롬": 2483,
      "##얏": 2484,
      "##몰": 2485,
      "##큐": 2486,
      "##럴": 2487,
      "##믹": 2488,
      "##딤": 2489,
      "##돌": 2490,
      "##떠": 2491,
      "##얼": 2492,
      "##엠": 2493,
      "##탠": 2494,
      "##빵": 2495,
      "##갑": 2496,
      "##넨": 2497,
      "##충": 2498,
      "##느": 2499,
      "##냐": 2500,
      "##핏": 2501,
      "##쪽": 2502,
      "##p": 2503,
      "##킬": 2504,
      "##맑": 2505,
      "##골": 2506,
      "##팔": 2507,
      "##남": 2508,
      "##몽": 2509,
      "##듬": 2510,
      "##틱": 2511,
      "##커": 2512,
      "##춘": 2513,
      "##닛": 2514,
      "##잖": 2515,
      "##j": 2516,
      "##폴": 2517,
      "##훈": 2518,
      "##헌": 2519,
      "##옵": 2520,
      "##갈": 2521,
      "##맙": 2522,
      "##멜": 2523,
      "##섰": 2524,
      "##싱": 2525,
      "##엑": 2526,
      "##롭": 2527,
      "##깥": 2528,
      "##풀": 2529,
      "##팍": 2530,
      "##럽": 2531,
      "##Z": 2532,
      "##잔": 2533,
      "##취": 2534,
      "##멍": 2535,
      "##뉴": 2536,
      "##틀": 2537,
      "##굴": 2538,
      "##솔": 2539,
      "##칼": 2540,
      "##렇": 2541,
      "##픈": 2542,
      "##쯤": 2543,
      "##밑": 2544,
      "##혔": 2545,
      "##팎": 2546,
      "##괄": 2547,
      "##v": 2548,
      "##못": 2549,
      "##펫": 2550,
      "##몸": 2551,
      "##곽": 2552,
      "##탕": 2553,
      "##숙": 2554,
      "##옥": 2555,
      "##깍": 2556,
      "##딸": 2557,
      "##춧": 2558,
      "##같": 2559,
      "##셨": 2560,
      "##벡": 2561,
      "##찌": 2562,
      "##묘": 2563,
      "##빔": 2564,
      "##퓰": 2565,
      "##즘": 2566,
      "##쇄": 2567,
      "##땐": 2568,
      "##랙": 2569,
      "##웍": 2570,
      "##맺": 2571,
      "##렛": 2572,
      "##픔": 2573,
      "##렴": 2574,
      "##첵": 2575,
      "##푸": 2576,
      "##탑": 2577,
      "##튜": 2578,
      "##룻": 2579,
      "##잇": 2580,
      "##샨": 2581,
      "##픽": 2582,
      "##렘": 2583,
      "##궐": 2584,
      "##탱": 2585,
      "##솟": 2586,
      "##깜": 2587,
      "##룸": 2588,
      "##먹": 2589,
      "##롱": 2590,
      "##녀": 2591,
      "##쳤": 2592,
      "##쿠": 2593,
      "##녕": 2594,
      "##쉽": 2595,
      "##녔": 2596,
      "##춤": 2597,
      "##빈": 2598,
      "##묵": 2599,
      "##볼": 2600,
      "##덩": 2601,
      "##붙": 2602,
      "##젓": 2603,
      "##뎅": 2604,
      "##폰": 2605,
      "##팁": 2606,
      "##낭": 2607,
      "##첩": 2608,
      "##똥": 2609,
      "##쑥": 2610,
      "##둡": 2611,
      "##캔": 2612,
      "##끔": 2613,
      "##퀘": 2614,
      "##맛": 2615,
      "##z": 2616,
      "##엄": 2617,
      "##핀": 2618,
      "##껏": 2619,
      "##킴": 2620,
      "##홈": 2621,
      "##뇨": 2622,
      "##논": 2623,
      "##헬": 2624,
      "##겟": 2625,
      "##옆": 2626,
      "##숫": 2627,
      "##봐": 2628,
      "##랄": 2629,
      "##닉": 2630,
      "##헨": 2631,
      "##윌": 2632,
      "##잘": 2633,
      "##잉": 2634,
      "##핵": 2635,
      "##툼": 2636,
      "##콜": 2637,
      "##쭤": 2638,
      "##셋": 2639,
      "##닐": 2640,
      "##뿔": 2641,
      "##흉": 2642,
      "##찾": 2643,
      "##랩": 2644,
      "##끌": 2645,
      "##낼": 2646,
      "##됩": 2647,
      "##높": 2648,
      "##둬": 2649,
      "##쁩": 2650,
      "##찮": 2651,
      "##혼": 2652,
      "##넛": 2653,
      "##옹": 2654,
      "##뷔": 2655,
      "##삼": 2656,
      "##웹": 2657,
      "##툰": 2658,
      "##앙": 2659,
      "##김": 2660,
      "##떼": 2661,
      "##겁": 2662,
      "##뻔": 2663,
      "##툭": 2664,
      "##팜": 2665,
      "##덜": 2666,
      "##섹": 2667,
      "##삭": 2668,
      "##끄": 2669,
      "##븐": 2670,
      "##씀": 2671,
      "##줬": 2672,
      "##똑": 2673,
      "##넓": 2674,
      "##흐": 2675,
      "##맹": 2676,
      "##틉": 2677,
      "##셀": 2678,
      "##쿨": 2679,
      "##콩": 2680,
      "##짓": 2681,
      "##켈": 2682,
      "##뤘": 2683,
      "##셉": 2684,
      "##묻": 2685,
      "##깐": 2686,
      "##왕": 2687,
      "##꿉": 2688,
      "##뽑": 2689,
      "##펌": 2690,
      "##훼": 2691,
      "##췄": 2692,
      "##잭": 2693,
      "##늬": 2694,
      "##징": 2695,
      "##쉬": 2696,
      "##콕": 2697,
      "##뤄": 2698,
      "##튼": 2699,
      "##떨": 2700,
      "##칫": 2701,
      "##춰": 2702,
      "##듈": 2703,
      "##꼬": 2704,
      "##딱": 2705,
      "##새": 2706,
      "##곰": 2707,
      "##큰": 2708,
      "##딘": 2709,
      "##캘": 2710,
      "##줍": 2711,
      "##슐": 2712,
      "##헷": 2713,
      "##핫": 2714,
      "##욱": 2715,
      "##벅": 2716,
      "##녹": 2717,
      "##텨": 2718,
      "##쿼": 2719,
      "##껴": 2720,
      "##냅": 2721,
      "##샷": 2722,
      "##겸": 2723,
      "##톱": 2724,
      "##봅": 2725,
      "##펜": 2726,
      "##씽": 2727,
      "##덤": 2728,
      "##봄": 2729,
      "##룰": 2730,
      "##뮤": 2731,
      "##넉": 2732,
      "##륜": 2733,
      "##촹": 2734,
      "##놨": 2735,
      "##쥐": 2736,
      "##샘": 2737,
      "##볶": 2738,
      "##샴": 2739,
      "##쓸": 2740,
      "##뛰": 2741,
      "##끽": 2742,
      "##뭄": 2743,
      "##쉼": 2744,
      "##숯": 2745,
      "##깃": 2746,
      "##칩": 2747,
      "##홉": 2748,
      "##꼴": 2749,
      "##휼": 2750,
      "##랏": 2751,
      "##빚": 2752,
      "##짝": 2753,
      "##텼": 2754,
      "##썸": 2755,
      "##옴": 2756,
      "##볕": 2757,
      "##헤": 2758,
      "##텝": 2759,
      "##Y": 2760,
      "##틸": 2761,
      "##얀": 2762,
      "##펠": 2763,
      "##캡": 2764,
      "##뒀": 2765,
      "##밭": 2766,
      "##쎄": 2767,
      "##흔": 2768,
      "##쿤": 2769,
      "##겔": 2770,
      "##켠": 2771,
      "##팽": 2772,
      "##컷": 2773,
      "##랍": 2774,
      "##멧": 2775,
      "##윗": 2776,
      "##젤": 2777,
      "##좁": 2778,
      "##옷": 2779,
      "##톰": 2780,
      "##윈": 2781,
      "##띠": 2782,
      "##팡": 2783,
      "##팫": 2784,
      "##룽": 2785,
      "##떡": 2786,
      "##꿔": 2787,
      "##딧": 2788,
      "##닙": 2789,
      "##홋": 2790,
      "##렙": 2791,
      "##낌": 2792,
      "##끓": 2793,
      "##뵙": 2794,
      "##캉": 2795,
      "##딪": 2796,
      "##밤": 2797,
      "##쌍": 2798,
      "##퐁": 2799,
      "##펑": 2800,
      "##짚": 2801,
      "##벼": 2802,
      "##갱": 2803,
      "##몫": 2804,
      "##놈": 2805,
      "##혹": 2806,
      "##헙": 2807,
      "##긋": 2808,
      "##탬": 2809,
      "##궤": 2810,
      "##랬": 2811,
      "##댐": 2812,
      "##눔": 2813,
      "##쌀": 2814,
      "##츄": 2815,
      "##릇": 2816,
      "##땠": 2817,
      "##좋": 2818,
      "##흘": 2819,
      "##탭": 2820,
      "##뱀": 2821,
      "##깅": 2822,
      "##켐": 2823,
      "##촬": 2824,
      "##빅": 2825,
      "##늠": 2826,
      "##팸": 2827,
      "##멤": 2828,
      "##낙": 2829,
      "##걱": 2830,
      "##옇": 2831,
      "##쉴": 2832,
      "##뮨": 2833,
      "##챗": 2834,
      "##닭": 2835,
      "##퀀": 2836,
      "##햅": 2837,
      "##콤": 2838,
      "##펴": 2839,
      "##닿": 2840,
      "##슘": 2841,
      "##쩜": 2842,
      "##넬": 2843,
      "##킁": 2844,
      "##껍": 2845,
      "##둘": 2846,
      "##왜": 2847,
      "##댓": 2848,
      "##엣": 2849,
      "##꽃": 2850,
      "##눴": 2851,
      "##찍": 2852,
      "##멀": 2853,
      "##맵": 2854,
      "##힘": 2855,
      "##챌": 2856,
      "##쾌": 2857,
      "##콥": 2858,
      "##렁": 2859,
      "##듭": 2860,
      "##솝": 2861,
      "##긍": 2862,
      "##냥": 2863,
      "##꼈": 2864,
      "##눠": 2865,
      "##갖": 2866,
      "##캬": 2867,
      "##셰": 2868,
      "##뉘": 2869,
      "##쨍": 2870,
      "##얘": 2871,
      "##팻": 2872,
      "##윙": 2873,
      "##닫": 2874,
      "##듐": 2875,
      "##룬": 2876,
      "##죽": 2877,
      "##잼": 2878,
      "##칸": 2879,
      "##젼": 2880,
      "##풋": 2881,
      "##덮": 2882,
      "##앗": 2883,
      "##샵": 2884,
      "##큘": 2885,
      "##뷸": 2886,
      "##겹": 2887,
      "##솥": 2888,
      "##꿨": 2889,
      "##돕": 2890,
      "##펩": 2891,
      "##깊": 2892,
      "##엽": 2893,
      "##쩌": 2894,
      "##놔": 2895,
      "##팃": 2896,
      "##걀": 2897,
      "##똘": 2898,
      "##갤": 2899,
      "##촘": 2900,
      "##꿈": 2901,
      "##톨": 2902,
      "##줌": 2903,
      "##휠": 2904,
      "##폿": 2905,
      "##쉘": 2906,
      "##꿀": 2907,
      "##룡": 2908,
      "##갯": 2909,
      "##숭": 2910,
      "##쌤": 2911,
      "##궈": 2912,
      "##햇": 2913,
      "##핸": 2914,
      "##눌": 2915,
      "##슴": 2916,
      "##좀": 2917,
      "##샌": 2918,
      "##맷": 2919,
      "##볍": 2920,
      "##챙": 2921,
      "##큅": 2922,
      "##쑤": 2923,
      "##툴": 2924,
      "##둥": 2925,
      "##팝": 2926,
      "##엎": 2927,
      "##숴": 2928,
      "##튀": 2929,
      "##푹": 2930,
      "##멸": 2931,
      "##덱": 2932,
      "##텁": 2933,
      "##빨": 2934,
      "##뜻": 2935,
      "##셈": 2936,
      "##앰": 2937,
      "##숨": 2938,
      "##낄": 2939,
      "##헥": 2940,
      "##떻": 2941,
      "##궜": 2942,
      "##첸": 2943,
      "##윳": 2944,
      "##짬": 2945,
      "##뽕": 2946,
      "##곧": 2947,
      "##깔": 2948,
      "##떤": 2949,
      "##녁": 2950,
      "##랗": 2951,
      "##렀": 2952,
      "##퉁": 2953,
      "##끗": 2954,
      "##뎠": 2955,
      "##흑": 2956,
      "##쁘": 2957,
      "##굿": 2958,
      "##빗": 2959,
      "##뤼": 2960,
      "##돗": 2961,
      "##팥": 2962,
      "##뿜": 2963,
      "##찔": 2964,
      "##꿋": 2965,
      "##쏘": 2966,
      "##쿵": 2967,
      "##숏": 2968,
      "##쇠": 2969,
      "##팠": 2970,
      "##웰": 2971,
      "##렐": 2972,
      "##꾼": 2973,
      "##곱": 2974,
      "##얄": 2975,
      "##깝": 2976,
      "##쁨": 2977,
      "##왼": 2978,
      "##롄": 2979,
      "##낮": 2980,
      "##쌌": 2981,
      "##뀔": 2982,
      "##땀": 2983,
      "##챠": 2984,
      "##돔": 2985,
      "##즐": 2986,
      "##췌": 2987,
      "##뻐": 2988,
      "##햄": 2989,
      "##륀": 2990,
      "##뭉": 2991,
      "##빡": 2992,
      "##웸": 2993,
      "##맡": 2994,
      "##첬": 2995,
      "##뚱": 2996,
      "##푼": 2997,
      "##샛": 2998,
      "##딛": 2999,
      "##벳": 3000,
      "##밋": 3001,
      "##퀸": 3002,
      "##듦": 3003,
      "##껑": 3004,
      "##밧": 3005,
      "##짱": 3006,
      "##킥": 3007,
      "##넒": 3008,
      "##뿌": 3009,
      "##핍": 3010,
      "##얹": 3011,
      "##뽀": 3012,
      "##쥘": 3013,
      "##댑": 3014,
      "##릎": 3015,
      "##귤": 3016,
      "##뀜": 3017,
      "##탤": 3018,
      "##깁": 3019,
      "##및": 3020,
      "##꼭": 3021,
      "##돋": 3022,
      "##앨": 3023,
      "##썬": 3024,
      "##엥": 3025,
      "##랸": 3026,
      "##챈": 3027,
      "##찼": 3028,
      "##또": 3029,
      "##셍": 3030,
      "##혐": 3031,
      "##뼈": 3032,
      "##훗": 3033,
      "##쏟": 3034,
      "##썩": 3035,
      "##껫": 3036,
      "##둑": 3037,
      "##냄": 3038,
      "##뿅": 3039,
      "##륨": 3040,
      "##꼐": 3041,
      "##뭇": 3042,
      "##눈": 3043,
      "##횐": 3044,
      "##쿱": 3045,
      "##뚜": 3046,
      "##왈": 3047,
      "##잣": 3048,
      "##빽": 3049,
      "##밌": 3050,
      "##땅": 3051,
      "##갭": 3052,
      "##.": 3053,
      "##츰": 3054,
      "##뜬": 3055,
      "##붐": 3056,
      "##캅": 3057,
      "##뎬": 3058,
      "##뗏": 3059,
      "##흙": 3060,
      "##쏠": 3061,
      "##쌈": 3062,
      "##훙": 3063,
      "##슝": 3064,
      "##덟": 3065,
      "##띵": 3066,
      "##댔": 3067,
      "##흰": 3068,
      "##붓": 3069,
      "##앞": 3070,
      "##퀵": 3071,
      "##쫓": 3072,
      "##쭉": 3073,
      "##릅": 3074,
      "##늪": 3075,
      "##쳌": 3076,
      "##샹": 3077,
      "##뉜": 3078,
      "##읽": 3079,
      "##쪼": 3080,
      "##갹": 3081,
      "##쩔": 3082,
      "##힉": 3083,
      "##짠": 3084,
      "##줏": 3085,
      "##싶": 3086,
      "##챔": 3087,
      "##쉰": 3088,
      "##찹": 3089,
      "##릐": 3090,
      "##셸": 3091,
      "##늦": 3092,
      "##옌": 3093,
      "##갓": 3094,
      "##왑": 3095,
      "##턱": 3096,
      "##힙": 3097,
      "##맣": 3098,
      "##겆": 3099,
      "##텟": 3100,
      "##즉": 3101,
      "##핥": 3102,
      "##젬": 3103,
      "##흠": 3104,
      "##튠": 3105,
      "##띤": 3106,
      "##씰": 3107,
      "##탯": 3108,
      "##캣": 3109,
      "##딥": 3110,
      "##빱": 3111,
      "##싯": 3112,
      "##샐": 3113,
      "##팹": 3114,
      "##뻤": 3115,
      "##깎": 3116,
      "##묶": 3117,
      "##싼": 3118,
      "##싣": 3119,
      "##멕": 3120,
      "##낀": 3121,
      "##뀐": 3122,
      "##뱡": 3123,
      "##띄": 3124,
      "##빼": 3125,
      "##잿": 3126,
      "##읏": 3127,
      "##쩍": 3128,
      "##젖": 3129,
      "##껌": 3130,
      "##삐": 3131,
      "##끝": 3132,
      "##믈": 3133,
      "##앳": 3134,
      "##겜": 3135,
      "##꽂": 3136,
      "##몇": 3137,
      "##훤": 3138,
      "##캄": 3139,
      "##눗": 3140,
      "##솜": 3141,
      "##썼": 3142,
      "##랴": 3143,
      "##욜": 3144,
      "##뵈": 3145,
      "##씬": 3146,
      "##쥔": 3147,
      "##찜": 3148,
      "##튿": 3149,
      "##뇽": 3150,
      "##듣": 3151,
      "##괭": 3152,
      "##썹": 3153,
      "##붇": 3154,
      "##딴": 3155,
      "##탓": 3156,
      "##뵐": 3157,
      "##겪": 3158,
      "##퀼": 3159,
      "##뻑": 3160,
      "##뵀": 3161,
      "##펄": 3162,
      "##흄": 3163,
      "##많": 3164,
      "##윅": 3165,
      "##굣": 3166,
      "##걷": 3167,
      "##쯩": 3168,
      "##뤈": 3169,
      "##탰": 3170,
      "##웬": 3171,
      "##퓌": 3172,
      "##엡": 3173,
      "##펍": 3174,
      "##쬐": 3175,
      "##죤": 3176,
      "##섞": 3177,
      "##챘": 3178,
      "##댕": 3179,
      "##쫀": 3180,
      "##댈": 3181,
      "##큠": 3182,
      "##뎀": 3183,
      "##뜩": 3184,
      "##틈": 3185,
      "##귄": 3186,
      "##횟": 3187,
      "##퉈": 3188,
      "##컫": 3189,
      "##뮴": 3190,
      "##탔": 3191,
      "##쁠": 3192,
      "##싹": 3193,
      "##웁": 3194,
      "##쨰": 3195,
      "##낱": 3196,
      "##썽": 3197,
      "##뚝": 3198,
      "##뚫": 3199,
      "##얌": 3200,
      "##꾹": 3201,
      "##뀝": 3202,
      "##쯔": 3203,
      "##깡": 3204,
      "##쩡": 3205,
      "##짧": 3206,
      "##쎈": 3207,
      "##꼼": 3208,
      "##땡": 3209,
      "##윱": 3210,
      "##넸": 3211,
      "##갠": 3212,
      "##컥": 3213,
      "##쿡": 3214,
      "##엿": 3215,
      "##뜸": 3216,
      "##훅": 3217,
      "##뎁": 3218,
      "##랠": 3219,
      "##씹": 3220,
      "##렝": 3221,
      "##삽": 3222,
      "##갰": 3223,
      "##훨": 3224,
      "##짤": 3225,
      "##몹": 3226,
      "##쟝": 3227,
      "##챤": 3228,
      "##삶": 3229,
      "##텡": 3230,
      "##갚": 3231,
      "##맬": 3232,
      "##봬": 3233,
      "##앵": 3234,
      "##삿": 3235,
      "##첼": 3236,
      "##쌓": 3237,
      "##돛": 3238,
      "##킵": 3239,
      "##펨": 3240,
      "##웜": 3241,
      "##멥": 3242,
      "##쌘": 3243,
      "##덥": 3244,
      "##낯": 3245,
      "##쿰": 3246,
      "##웻": 3247,
      "##쥴": 3248,
      "##폈": 3249,
      "##윽": 3250,
      "##뵌": 3251,
      "##녘": 3252,
      "##찐": 3253,
      "##밈": 3254,
      "##륭": 3255,
      "##맸": 3256,
      "##빴": 3257,
      "##췼": 3258,
      "##욤": 3259,
      "##셌": 3260,
      "##낍": 3261,
      "##컽": 3262,
      "##룟": 3263,
      "##꽝": 3264,
      "##헐": 3265,
      "##퍈": 3266,
      "##떄": 3267,
      "##밟": 3268,
      "##씸": 3269,
      "##륵": 3270,
      "##섐": 3271,
      "##윔": 3272,
      "##왁": 3273,
      "##겅": 3274,
      "##엌": 3275,
      "##숄": 3276,
      "##뫼": 3277,
      "##괸": 3278,
      "##씌": 3279,
      "##낚": 3280,
      "##엉": 3281,
      "##뱉": 3282,
      "##쯧": 3283,
      "##갛": 3284,
      "##퐅": 3285,
      "##휙": 3286,
      "##늑": 3287,
      "##뎃": 3288,
      "##챕": 3289,
      "##햐": 3290,
      "##쨌": 3291,
      "##콧": 3292,
      "##뽁": 3293,
      "##뿍": 3294,
      "##쟈": 3295,
      "##혓": 3296,
      "##뻘": 3297,
      "##찝": 3298,
      "##얇": 3299,
      "##픕": 3300,
      "##뉩": 3301,
      "##릍": 3302,
      "##헀": 3303,
      "##좡": 3304,
      "##끙": 3305,
      "##쭐": 3306,
      "##캇": 3307,
      "##퉨": 3308,
      "##닦": 3309,
      "##괏": 3310,
      "##퀄": 3311,
      "##얻": 3312,
      "##짖": 3313,
      "##좨": 3314,
      "##텄": 3315,
      "##뱃": 3316,
      "##꽁": 3317,
      "##샬": 3318,
      "##붑": 3319,
      "##롑": 3320,
      "##텃": 3321,
      "##텅": 3322,
      "##넝": 3323,
      "##앓": 3324,
      "##얗": 3325,
      "##퇀": 3326,
      "##꿎": 3327,
      "##쩐": 3328,
      "##쭙": 3329,
      "##꿩": 3330,
      "##썰": 3331,
      "##촐": 3332,
      "##욷": 3333,
      "##햬": 3334,
      "##죈": 3335,
      "##몄": 3336,
      "##밝": 3337,
      "##숩": 3338,
      "##굽": 3339,
      "##젭": 3340,
      "##닮": 3341,
      "##뒷": 3342,
      "##궂": 3343,
      "##슭": 3344,
      "##챁": 3345,
      "##댠": 3346,
      "##췬": 3347,
      "##쭈": 3348,
      "##펭": 3349,
      "##틋": 3350,
      "##꿍": 3351,
      "##뱐": 3352,
      "##벙": 3353,
      "##쉑": 3354,
      "##쨉": 3355,
      "##믐": 3356,
      "##갸": 3357,
      "##쌩": 3358,
      "##돤": 3359,
      "##촨": 3360,
      "##댜": 3361,
      "##숑": 3362,
      "##뉠": 3363,
      "##쏭": 3364,
      "##흽": 3365,
      "##괍": 3366,
      "##밉": 3367,
      "##늉": 3368,
      "##픅": 3369,
      "##뛴": 3370,
      "##핌": 3371,
      "##볐": 3372,
      "##씻": 3373,
      "##땜": 3374,
      "##쌉": 3375,
      "##냔": 3376,
      "##칵": 3377,
      "##넜": 3378,
      "##옮": 3379,
      "##럈": 3380,
      "##룀": 3381,
      "##틔": 3382,
      "##쓱": 3383,
      "##뒹": 3384,
      "##엊": 3385,
      "##놉": 3386,
      "##뻥": 3387,
      "##햡": 3388,
      "##츈": 3389,
      "##촣": 3390,
      "##뭐": 3391,
      "##뼛": 3392,
      "##훌": 3393,
      "##빕": 3394,
      "##덧": 3395,
      "##됏": 3396,
      "##읠": 3397,
      "##넵": 3398,
      "##퀜": 3399,
      "##눕": 3400,
      "##훕": 3401,
      "##쳇": 3402,
      "##탸": 3403,
      "##붜": 3404,
      "##랲": 3405,
      "##멩": 3406,
      "##쫄": 3407,
      "##뼉": 3408,
      "##둣": 3409,
      "##샙": 3410,
      "##갬": 3411,
      "##으로": 3412,
      "##했다": 3413,
      "##에서": 3414,
      "있다": 3415,
      "##하는": 3416,
      "##이다": 3417,
      "##00": 3418,
      "##하고": 3419,
      "20": 3420,
      "##니다": 3421,
      "지난": 3422,
      "##한다": 3423,
      "있는": 3424,
      "##까지": 3425,
      "서울": 3426,
      "##부터": 3427,
      "기업": 3428,
      "한국": 3429,
      "##습니다": 3430,
      "것으로": 3431,
      "##비스": 3432,
      "##면서": 3433,
      "##적으로": 3434,
      "통해": 3435,
      "밝혔": 3436,
      "시장": 3437,
      "제공": 3438,
      "202": 3439,
      "투자": 3440,
      "위해": 3441,
      "이라": 3442,
      "사업": 3443,
      "##억원": 3444,
      "밝혔다": 3445,
      "대한": 3446,
      "##적인": 3447,
      "##들이": 3448,
      "국내": 3449,
      "##지만": 3450,
      "10": 3451,
      "서비스": 3452,
      "##하기": 3453,
      "기자": 3454,
      "##다는": 3455,
      "금융": 3456,
      "말했다": 3457,
      "상승": 3458,
      "올해": 3459,
      "##된다": 3460,
      "가격": 3461,
      "기술": 3462,
      "가능": 3463,
      "이번": 3464,
      "##에는": 3465,
      "정부": 3466,
      "고객": 3467,
      "##자는": 3468,
      "진행": 3469,
      "대표": 3470,
      "미국": 3471,
      "##000": 3472,
      "위한": 3473,
      "개발": 3474,
      "지원": 3475,
      "##됐다": 3476,
      "이어": 3477,
      "이후": 3478,
      "##로벌": 3479,
      "##반기": 3480,
      "##기업": 3481,
      "이상": 3482,
      "##었다": 3483,
      "지난해": 3484,
      "##에게": 3485,
      "##장은": 3486,
      "##보다": 3487,
      "기준": 3488,
      "연구": 3489,
      "사진": 3490,
      "글로벌": 3491,
      "확대": 3492,
      "##레이": 3493,
      "이라고": 3494,
      "##너지": 3495,
      "최근": 3496,
      "삼성": 3497,
      "##하게": 3498,
      "##르면": 3499,
      "##도록": 3500,
      "관련": 3501,
      "예정": 3502,
      "30": 3503,
      "관계": 3504,
      "계획": 3505,
      "##이터": 3506,
      "등을": 3507,
      "다양": 3508,
      "이용": 3509,
      "전망": 3510,
      "##에도": 3511,
      "201": 3512,
      "##되는": 3513,
      "따르면": 3514,
      "함께": 3515,
      "경제": 3516,
      "##은행": 3517,
      "최대": 3518,
      "대비": 3519,
      "소비": 3520,
      "증가": 3521,
      "거래": 3522,
      "하락": 3523,
      "산업": 3524,
      "다양한": 3525,
      "금리": 3526,
      "했다": 3527,
      "LG": 3528,
      "프로": 3529,
      "상품": 3530,
      "##마트": 3531,
      "##들의": 3532,
      "것이": 3533,
      "상황": 3534,
      "경우": 3535,
      "1일": 3536,
      "기록": 3537,
      "판매": 3538,
      "경기": 3539,
      "##하다": 3540,
      "성장": 3541,
      "##카오": 3542,
      "카카오": 3543,
      "공급": 3544,
      "사용": 3545,
      "##하며": 3546,
      "운영": 3547,
      "5일": 3548,
      "지난달": 3549,
      "6월": 3550,
      "##시스": 3551,
      "제품": 3552,
      "전문": 3553,
      "지역": 3554,
      "우리": 3555,
      "4일": 3556,
      "때문": 3557,
      "##사업": 3558,
      "##분기": 3559,
      "필요": 3560,
      "활용": 3561,
      "##성을": 3562,
      "세계": 3563,
      "##만원": 3564,
      "따라": 3565,
      "##전자": 3566,
      "지속": 3567,
      "11": 3568,
      "##성이": 3569,
      "##들은": 3570,
      "##랜드": 3571,
      "##랫폼": 3572,
      "##스트": 3573,
      "대상": 3574,
      "##겠다": 3575,
      "##았다": 3576,
      "설명": 3577,
      "수출": 3578,
      "같은": 3579,
      "가장": 3580,
      "##지털": 3581,
      "게임": 3582,
      "대해": 3583,
      "##로나": 3584,
      "2022": 3585,
      "##에서는": 3586,
      "이날": 3587,
      "##력을": 3588,
      "물가": 3589,
      "한다": 3590,
      "12": 3591,
      "현재": 3592,
      "플랫폼": 3593,
      "디지털": 3594,
      "코로나": 3595,
      "수준": 3596,
      "##0년": 3597,
      "주요": 3598,
      "##도체": 3599,
      "소비자": 3600,
      "규모": 3601,
      "인상": 3602,
      "##위원": 3603,
      "현대": 3604,
      "##하면": 3605,
      "생산": 3606,
      "##라인": 3607,
      "##이나": 3608,
      "##했다고": 3609,
      "19": 3610,
      "SK": 3611,
      "##졌다": 3612,
      "관계자는": 3613,
      "중국": 3614,
      "##시장": 3615,
      "##수는": 3616,
      "시작": 3617,
      "발표": 3618,
      "출시": 3619,
      "있도록": 3620,
      "AI": 3621,
      "##라는": 3622,
      "##리는": 3623,
      "##시간": 3624,
      "##으며": 3625,
      "##입니다": 3626,
      "참여": 3627,
      "데이터": 3628,
      "추가": 3629,
      "##뉴스": 3630,
      "예정이다": 3631,
      "적용": 3632,
      "전기": 3633,
      "특히": 3634,
      "분석": 3635,
      "기대": 3636,
      "최고": 3637,
      "##기술": 3638,
      "에너지": 3639,
      "수요": 3640,
      "추진": 3641,
      "반도체": 3642,
      "분야": 3643,
      "5월": 3644,
      "##되고": 3645,
      "규제": 3646,
      "##인트": 3647,
      "정보": 3648,
      "매출": 3649,
      "뉴스": 3650,
      "##달러": 3651,
      "강화": 3652,
      "해외": 3653,
      "환경": 3654,
      "##19": 3655,
      "높은": 3656,
      "정책": 3657,
      "##개월": 3658,
      "##러스": 3659,
      "##기관": 3660,
      "##하면서": 3661,
      "예상": 3662,
      "국제": 3663,
      "15": 3664,
      "우려": 3665,
      "기존": 3666,
      "하반기": 3667,
      "##사를": 3668,
      "관리": 3669,
      "경쟁": 3670,
      "개선": 3671,
      "코스": 3672,
      "##해야": 3673,
      "기반": 3674,
      "##센터": 3675,
      "##증권": 3676,
      "##지는": 3677,
      "스마트": 3678,
      "##기를": 3679,
      "아이": 3680,
      "하는": 3681,
      "##라고": 3682,
      "13": 3683,
      "구축": 3684,
      "##였다": 3685,
      "나타": 3686,
      "계획이다": 3687,
      "업계": 3688,
      "##플레이": 3689,
      "상반기": 3690,
      "##하지": 3691,
      "대출": 3692,
      "연합": 3693,
      "##그룹": 3694,
      "KT": 3695,
      "100": 3696,
      "회사": 3697,
      "개인": 3698,
      "##시아": 3699,
      "##거래": 3700,
      "##연구": 3701,
      "문제": 3702,
      "평가": 3703,
      "##투자": 3704,
      "##텐츠": 3705,
      "코로나19": 3706,
      "들어": 3707,
      "영향": 3708,
      "7월": 3709,
      "##지고": 3710,
      "아니": 3711,
      "##치를": 3712,
      "##경제": 3713,
      "경영": 3714,
      "브랜드": 3715,
      "에서": 3716,
      "감소": 3717,
      "오는": 3718,
      "##금리": 3719,
      "발생": 3720,
      "하나": 3721,
      "##운데": 3722,
      "안전": 3723,
      "연합뉴스": 3724,
      "##정보": 3725,
      "##자가": 3726,
      "##산업": 3727,
      "가운데": 3728,
      "결과": 3729,
      "달러": 3730,
      "기간": 3731,
      "##상을": 3732,
      "##원은": 3733,
      "##파트": 3734,
      "##로운": 3735,
      "뉴시스": 3736,
      "##는데": 3737,
      "마련": 3738,
      "##장이": 3739,
      "##들을": 3740,
      "부담": 3741,
      "확보": 3742,
      "콘텐츠": 3743,
      "##했습니다": 3744,
      "사회": 3745,
      "##장을": 3746,
      "##금융": 3747,
      "모두": 3748,
      "##지를": 3749,
      "만에": 3750,
      "있어": 3751,
      "미래": 3752,
      "일본": 3753,
      "업무": 3754,
      "##세대": 3755,
      "23": 3756,
      "신규": 3757,
      "적극": 3758,
      "협력": 3759,
      "##회의": 3760,
      "것이다": 3761,
      "실적": 3762,
      "등의": 3763,
      "14": 3764,
      "뉴스1": 3765,
      "삼성전자": 3766,
      "확인": 3767,
      "서비스를": 3768,
      "이를": 3769,
      "50": 3770,
      "이라며": 3771,
      "중소": 3772,
      "##이고": 3773,
      "있다는": 3774,
      "##스템": 3775,
      "목표": 3776,
      "전국": 3777,
      "설명했다": 3778,
      "하고": 3779,
      "##그램": 3780,
      "##통신": 3781,
      "##대로": 3782,
      "롯데": 3783,
      "##이오": 3784,
      "선보": 3785,
      "##세를": 3786,
      "##화를": 3787,
      "##이트": 3788,
      "보고": 3789,
      "##루션": 3790,
      "등이": 3791,
      "포함": 3792,
      "앞으로": 3793,
      "국가": 3794,
      "시스템": 3795,
      "6일": 3796,
      "해당": 3797,
      "따른": 3798,
      "##하겠다": 3799,
      "주택": 3800,
      "##사는": 3801,
      "열린": 3802,
      "부산": 3803,
      "은행": 3804,
      "수익": 3805,
      "이에": 3806,
      "##이스": 3807,
      "전략": 3808,
      "##다고": 3809,
      "주가": 3810,
      "##물가": 3811,
      "대응": 3812,
      "자동": 3813,
      "##도를": 3814,
      "영업": 3815,
      "아파트": 3816,
      "40": 3817,
      "중심": 3818,
      "##기에": 3819,
      "공공": 3820,
      "많은": 3821,
      "22": 3822,
      "구성": 3823,
      "장관": 3824,
      "공동": 3825,
      "##위원회": 3826,
      "반영": 3827,
      "새로운": 3828,
      "늘어": 3829,
      "200": 3830,
      "전력": 3831,
      "##정을": 3832,
      "온라인": 3833,
      "##부는": 3834,
      "국민": 3835,
      "##에서도": 3836,
      "만들": 3837,
      "도입": 3838,
      "기관": 3839,
      "##한다고": 3840,
      "유지": 3841,
      "교수": 3842,
      "때문에": 3843,
      "다른": 3844,
      "이미": 3845,
      "주식": 3846,
      "##SG": 3847,
      "어려": 3848,
      "전체": 3849,
      "##개발": 3850,
      "구매": 3851,
      "##이버": 3852,
      "교육": 3853,
      "만큼": 3854,
      "오후": 3855,
      "강조": 3856,
      "전환": 3857,
      "25": 3858,
      "각각": 3859,
      "##환경": 3860,
      "##관리": 3861,
      "##자를": 3862,
      "2020년": 3863,
      "혁신": 3864,
      "것은": 3865,
      "##동산": 3866,
      "떨어": 3867,
      "공개": 3868,
      "현지": 3869,
      "##자산": 3870,
      "24": 3871,
      "업체": 3872,
      "##서는": 3873,
      "선정": 3874,
      "스타": 3875,
      "신한": 3876,
      "한편": 3877,
      "전년": 3878,
      "##일까지": 3879,
      "##벤트": 3880,
      "있습니다": 3881,
      "##8년": 3882,
      "대상으로": 3883,
      "##인다": 3884,
      "##리고": 3885,
      "##리를": 3886,
      "##스크": 3887,
      "있다고": 3888,
      "이벤트": 3889,
      "처음": 3890,
      "오전": 3891,
      "성공": 3892,
      "평균": 3893,
      "활동": 3894,
      "방식": 3895,
      "그러": 3896,
      "21": 3897,
      "가상": 3898,
      "유럽": 3899,
      "##사가": 3900,
      "##스는": 3901,
      "##플러스": 3902,
      "안정": 3903,
      "1년": 3904,
      "##금을": 3905,
      "보유": 3906,
      "아니라": 3907,
      "시행": 3908,
      "코스피": 3909,
      "##일리": 3910,
      "##플레이션": 3911,
      "할인": 3912,
      "모델": 3913,
      "개최": 3914,
      "시간": 3915,
      "##자의": 3916,
      "비중": 3917,
      "##거나": 3918,
      "수학": 3919,
      "자산": 3920,
      "보다": 3921,
      "향후": 3922,
      "인하": 3923,
      "등에": 3924,
      "##이는": 3925,
      "##기가": 3926,
      "실제": 3927,
      "제조": 3928,
      "수입": 3929,
      "참석": 3930,
      "현장": 3931,
      "프로그램": 3932,
      "여러": 3933,
      "포인트": 3934,
      "3일": 3935,
      "##리아": 3936,
      "가입": 3937,
      "하지만": 3938,
      "##들에게": 3939,
      "비롯": 3940,
      "구글": 3941,
      "##에너지": 3942,
      "발전": 3943,
      "사람": 3944,
      "방안": 3945,
      "##들과": 3946,
      "지금": 3947,
      "##도가": 3948,
      "계약": 3949,
      "##드는": 3950,
      "##이션": 3951,
      "17": 3952,
      "관심": 3953,
      "자체": 3954,
      "2분기": 3955,
      "##사의": 3956,
      "또한": 3957,
      "##원이": 3958,
      "##업계": 3959,
      "18": 3960,
      "된다": 3961,
      "핵심": 3962,
      "##세가": 3963,
      "##점을": 3964,
      "##항공": 3965,
      "수도": 3966,
      "8월": 3967,
      "16": 3968,
      "##원을": 3969,
      "ESG": 3970,
      "이는": 3971,
      "##났다": 3972,
      "기능": 3973,
      "등으로": 3974,
      "직접": 3975,
      "있을": 3976,
      "##량을": 3977,
      "항공": 3978,
      "효과": 3979,
      "이달": 3980,
      "부동산": 3981,
      "중요": 3982,
      "1만": 3983,
      "앞서": 3984,
      "보험": 3985,
      "##도로": 3986,
      "생각": 3987,
      "##원에": 3988,
      "경험": 3989,
      "KB": 3990,
      "메타": 3991,
      "공정": 3992,
      "신청": 3993,
      "##스타": 3994,
      "논의": 3995,
      "내용": 3996,
      "##대출": 3997,
      "오른": 3998,
      "제작": 3999,
      "##버스": 4000,
      "##서비스": 4001,
      "혜택": 4002,
      "##9년": 4003,
      "##가는": 4004,
      "크게": 4005,
      "대표는": 4006,
      "결정": 4007,
      "모든": 4008,
      "##액은": 4009,
      "##회를": 4010,
      "건설": 4011,
      "성과": 4012,
      "대형": 4013,
      "많이": 4014,
      "여름": 4015,
      "기록했다": 4016,
      "##인을": 4017,
      "원자": 4018,
      "일부": 4019,
      "28": 4020,
      "##1년": 4021,
      "비용": 4022,
      "전문가": 4023,
      "침체": 4024,
      "더욱": 4025,
      "##라이": 4026,
      "모습": 4027,
      "다시": 4028,
      "기획": 4029,
      "최초": 4030,
      "##라우": 4031,
      "역시": 4032,
      "네이버": 4033,
      "외국": 4034,
      "##ew": 4035,
      "다만": 4036,
      "본격": 4037,
      "29": 4038,
      "##바일": 4039,
      "그는": 4040,
      "##보험": 4041,
      "회장": 4042,
      "동안": 4043,
      "##30": 4044,
      "##했고": 4045,
      "##력이": 4046,
      "27": 4047,
      "상장": 4048,
      "조정": 4049,
      "이런": 4050,
      "30일": 4051,
      "준비": 4052,
      "과정": 4053,
      "##가를": 4054,
      "계속": 4055,
      "방문": 4056,
      "고려": 4057,
      "##이지": 4058,
      "##업체": 4059,
      "가치": 4060,
      "체결": 4061,
      "판단": 4062,
      "##위를": 4063,
      "일반": 4064,
      "4월": 4065,
      "마이": 4066,
      "##이익": 4067,
      "기념": 4068,
      "##는다": 4069,
      "##수가": 4070,
      "##왔다": 4071,
      "높아": 4072,
      "중이다": 4073,
      "집중": 4074,
      "애플": 4075,
      "대학": 4076,
      "co": 4077,
      "라고": 4078,
      "##주택": 4079,
      "이유": 4080,
      "결제": 4081,
      "##통령": 4082,
      "중소기업": 4083,
      "가능성이": 4084,
      "##경영": 4085,
      "##50": 4086,
      "영상": 4087,
      "러시아": 4088,
      "장기": 4089,
      "상태": 4090,
      "증권": 4091,
      "##지역": 4092,
      "대통령": 4093,
      "것을": 4094,
      "모바일": 4095,
      "수상": 4096,
      "증시": 4097,
      "60": 4098,
      "최저": 4099,
      "사실": 4100,
      "됐다": 4101,
      "##한다는": 4102,
      "##협회": 4103,
      "##라우드": 4104,
      "##하기로": 4105,
      "신용": 4106,
      "지적": 4107,
      "이뤄": 4108,
      "부문": 4109,
      "조사": 4110,
      "국토": 4111,
      "무역": 4112,
      "없다": 4113,
      "##프트": 4114,
      "##주는": 4115,
      "행사": 4116,
      "인플레이션": 4117,
      "없는": 4118,
      "전기차": 4119,
      "알려": 4120,
      "인천": 4121,
      "##계를": 4122,
      "##기로": 4123,
      "##er": 4124,
      "인수": 4125,
      "인터": 4126,
      "##인이": 4127,
      "##처럼": 4128,
      "직원": 4129,
      "정부는": 4130,
      "과학": 4131,
      "##별로": 4132,
      "점검": 4133,
      "##제품": 4134,
      "나온": 4135,
      "우주": 4136,
      "전시": 4137,
      "통신": 4138,
      "##정책": 4139,
      "건강": 4140,
      "##겠다는": 4141,
      "지급": 4142,
      "##이드": 4143,
      "차량": 4144,
      "유통": 4145,
      "때문이다": 4146,
      "##리티": 4147,
      "##트업": 4148,
      "강조했다": 4149,
      "원전": 4150,
      "##포인트": 4151,
      "##ews": 4152,
      "외환": 4153,
      "##리가": 4154,
      "연속": 4155,
      "##렸다": 4156,
      "##디어": 4157,
      "부회": 4158,
      "##학교": 4159,
      "올랐": 4160,
      "으로": 4161,
      "현대차": 4162,
      "##률이": 4163,
      "스타트업": 4164,
      "요구": 4165,
      "제시": 4166,
      "이동": 4167,
      "필요한": 4168,
      "##원으로": 4169,
      "##했던": 4170,
      "##000억원": 4171,
      "비교": 4172,
      "##회사": 4173,
      "IT": 4174,
      "##is": 4175,
      "가격이": 4176,
      "넘어": 4177,
      "역할": 4178,
      "##니스": 4179,
      "노력": 4180,
      "##르게": 4181,
      "##년간": 4182,
      "##젝트": 4183,
      "보인다": 4184,
      "##유플러스": 4185,
      "분양": 4186,
      "중인": 4187,
      "정부가": 4188,
      "배터": 4189,
      "생활": 4190,
      "자동차": 4191,
      "LG유플러스": 4192,
      "##기는": 4193,
      "##제를": 4194,
      "3월": 4195,
      "##시에": 4196,
      "##프라": 4197,
      "기술을": 4198,
      "##기도": 4199,
      "사업을": 4200,
      "면서": 4201,
      "우수": 4202,
      "##식품": 4203,
      "이하": 4204,
      "##가구": 4205,
      "또는": 4206,
      "협업": 4207,
      "##율이": 4208,
      "전했다": 4209,
      "2022년": 4210,
      "의미": 4211,
      "##료를": 4212,
      "프로젝트": 4213,
      "완화": 4214,
      "##데이터": 4215,
      "##되면서": 4216,
      "중심으로": 4217,
      "라이": 4218,
      "선택": 4219,
      "의료": 4220,
      "전용": 4221,
      "확장": 4222,
      "26": 4223,
      "##카드": 4224,
      "솔루션": 4225,
      "있고": 4226,
      "당시": 4227,
      "차지": 4228,
      "##자인": 4229,
      "공간": 4230,
      "특별": 4231,
      "없이": 4232,
      "민간": 4233,
      "우리나": 4234,
      "내년": 4235,
      "나타났다": 4236,
      "##테크": 4237,
      "교수는": 4238,
      "해결": 4239,
      "탄소": 4240,
      "31": 4241,
      "친환경": 4242,
      "##과학": 4243,
      "##데일리": 4244,
      "##본부": 4245,
      "인공": 4246,
      "##크라": 4247,
      "##요금": 4248,
      "소재": 4249,
      "##가능": 4250,
      "통한": 4251,
      "제공한다": 4252,
      "##제로": 4253,
      "DB": 4254,
      "##화된": 4255,
      "##으나": 4256,
      "사이": 4257,
      "다음": 4258,
      "방침": 4259,
      "우크라": 4260,
      "구조": 4261,
      "2019년": 4262,
      "##약을": 4263,
      "진출": 4264,
      "투자자": 4265,
      "9월": 4266,
      "통합": 4267,
      "##대를": 4268,
      "##세계": 4269,
      "##이며": 4270,
      "프리": 4271,
      "##율은": 4272,
      "메타버스": 4273,
      "##원의": 4274,
      "##에선": 4275,
      "##건설": 4276,
      "우크라이나": 4277,
      "##분의": 4278,
      "급등": 4279,
      "##스를": 4280,
      "가능하다": 4281,
      "영향을": 4282,
      "물론": 4283,
      "1분기": 4284,
      "설립": 4285,
      "가능한": 4286,
      "창업": 4287,
      "편의": 4288,
      "금지": 4289,
      "클라우드": 4290,
      "이전": 4291,
      "확산": 4292,
      "com": 4293,
      "##체인": 4294,
      "##20": 4295,
      "작년": 4296,
      "IP": 4297,
      "##정부": 4298,
      "방향": 4299,
      "##워크": 4300,
      "##시스템": 4301,
      "##on": 4302,
      "수요가": 4303,
      "##5년": 4304,
      "##성과": 4305,
      "사전": 4306,
      "여행": 4307,
      "##가지": 4308,
      "##원에서": 4309,
      "공급망": 4310,
      "받을": 4311,
      "않은": 4312,
      "##7년": 4313,
      "##치는": 4314,
      "여전": 4315,
      "##위기": 4316,
      "실시": 4317,
      "##일부터": 4318,
      "오픈": 4319,
      "##량이": 4320,
      "있으며": 4321,
      "##웨어": 4322,
      "않고": 4323,
      "바이오": 4324,
      "줄어": 4325,
      "고용": 4326,
      "##수를": 4327,
      "진단": 4328,
      "##자로": 4329,
      "##해서": 4330,
      "우리나라": 4331,
      "배터리": 4332,
      "그룹": 4333,
      "의견": 4334,
      "연결": 4335,
      "검토": 4336,
      "역대": 4337,
      "위험": 4338,
      "##명이": 4339,
      "소비자물가": 4340,
      "이용자": 4341,
      "스마트폰": 4342,
      "원자재": 4343,
      "제공하는": 4344,
      "##식을": 4345,
      "##지능": 4346,
      "##지원": 4347,
      "##스코": 4348,
      "##담회": 4349,
      "상품을": 4350,
      "##명을": 4351,
      "##뱅크": 4352,
      "그래": 4353,
      "회의": 4354,
      "있게": 4355,
      "##으면": 4356,
      "##자원": 4357,
      "나온다": 4358,
      "199": 4359,
      "1조": 4360,
      "주목": 4361,
      "피해": 4362,
      "조성": 4363,
      "2021년": 4364,
      "회복": 4365,
      "5G": 4366,
      "운용": 4367,
      "news": 4368,
      "인정": 4369,
      "라며": 4370,
      "상당": 4371,
      "외국인": 4372,
      "마감": 4373,
      "활성": 4374,
      "##바이오": 4375,
      "##선을": 4376,
      "보호": 4377,
      "소개": 4378,
      "카드": 4379,
      "위치": 4380,
      "반면": 4381,
      "공식": 4382,
      "##지수": 4383,
      "수행": 4384,
      "오늘": 4385,
      "참가": 4386,
      "newsis": 4387,
      "##시설": 4388,
      "CE": 4389,
      "##in": 4390,
      "연구원은": 4391,
      "나오": 4392,
      "##사와": 4393,
      "사례": 4394,
      "정도": 4395,
      "올라": 4396,
      "물류": 4397,
      "바탕": 4398,
      "##판매": 4399,
      "##트너": 4400,
      "블록": 4401,
      "내부": 4402,
      "임직": 4403,
      "인증": 4404,
      "매수": 4405,
      "11월": 4406,
      "조치": 4407,
      "조직": 4408,
      "##스토": 4409,
      "자리": 4410,
      "##쳤다": 4411,
      "치료": 4412,
      "##IS": 4413,
      "오르": 4414,
      "##억원으로": 4415,
      "앞으로도": 4416,
      "그런": 4417,
      "통계": 4418,
      "70": 4419,
      "근로": 4420,
      "서울대": 4421,
      "영업이익": 4422,
      "만들어": 4423,
      "인공지능": 4424,
      "보면": 4425,
      "##고를": 4426,
      "부분": 4427,
      "전달": 4428,
      "##하여": 4429,
      "수주": 4430,
      "제한": 4431,
      "변동": 4432,
      "##빌리티": 4433,
      "##이라고": 4434,
      "제보": 4435,
      "받아": 4436,
      "종합": 4437,
      "##되지": 4438,
      "##상품": 4439,
      "활용해": 4440,
      "NF": 4441,
      "3년": 4442,
      "집계": 4443,
      "##합니다": 4444,
      "전자": 4445,
      "매각": 4446,
      "##라도": 4447,
      "바탕으로": 4448,
      "품목": 4449,
      "대전": 4450,
      "우려가": 4451,
      "대부": 4452,
      "ET": 4453,
      "공유": 4454,
      "대구": 4455,
      "효율": 4456,
      "##가가": 4457,
      "인재": 4458,
      "##화폐": 4459,
      "##운용": 4460,
      "##되며": 4461,
      "##케팅": 4462,
      "##률을": 4463,
      "유치": 4464,
      "품질": 4465,
      "생태": 4466,
      "지정": 4467,
      "기준으로": 4468,
      "파트너": 4469,
      "##규모": 4470,
      "가능성": 4471,
      "하이": 4472,
      "문화": 4473,
      "변화": 4474,
      "##트워크": 4475,
      "##서를": 4476,
      "기반으로": 4477,
      "1월": 4478,
      "2년": 4479,
      "설계": 4480,
      "##지가": 4481,
      "NFT": 4482,
      "있지만": 4483,
      "기업의": 4484,
      "##억원을": 4485,
      "아직": 4486,
      "CJ": 4487,
      "정부의": 4488,
      "7일": 4489,
      "설치": 4490,
      "중구": 4491,
      "보안": 4492,
      "제도": 4493,
      "변경": 4494,
      "노조": 4495,
      "##하이": 4496,
      "##000만": 4497,
      "규모의": 4498,
      "##10": 4499,
      "공공기관": 4500,
      "##3년": 4501,
      "발사": 4502,
      "##진다": 4503,
      "자금": 4504,
      "정상": 4505,
      "기본": 4506,
      "한화": 4507,
      "##게임": 4508,
      "80": 4509,
      "##들도": 4510,
      "중단": 4511,
      "##움을": 4512,
      "##케어": 4513,
      "37": 4514,
      "##이노": 4515,
      "양자": 4516,
      "##동안": 4517,
      "취약": 4518,
      "공모": 4519,
      "영국": 4520,
      "종목": 4521,
      "지분": 4522,
      "강남": 4523,
      "성능": 4524,
      "제외": 4525,
      "기여": 4526,
      "시장에서": 4527,
      "##솔루션": 4528,
      "빠르게": 4529,
      "않는": 4530,
      "##지면서": 4531,
      "##보호": 4532,
      "##했지만": 4533,
      "##결제": 4534,
      "##연구원": 4535,
      "전망이다": 4536,
      "##률은": 4537,
      "유류": 4538,
      "##시키": 4539,
      "2만": 4540,
      "찾아": 4541,
      "##상공": 4542,
      "35": 4543,
      "##공사": 4544,
      "우선": 4545,
      "##었던": 4546,
      "##지수는": 4547,
      "재무": 4548,
      "##리에": 4549,
      "입장": 4550,
      "번째": 4551,
      "후보": 4552,
      "##디오": 4553,
      "가까": 4554,
      "만나": 4555,
      "##먼트": 4556,
      "데이터를": 4557,
      "수도권": 4558,
      "단계": 4559,
      "주거": 4560,
      "방법": 4561,
      "##an": 4562,
      "비즈": 4563,
      "사고": 4564,
      "##가격": 4565,
      "소통": 4566,
      "덧붙": 4567,
      "방송": 4568,
      "채널": 4569,
      "혜택을": 4570,
      "달성": 4571,
      "##교통": 4572,
      "사회적": 4573,
      "##텔레": 4574,
      "##기간": 4575,
      "##조원": 4576,
      "에어": 4577,
      "제주": 4578,
      "상황이": 4579,
      "자율": 4580,
      "##al": 4581,
      "CEO": 4582,
      "윤석": 4583,
      "##en": 4584,
      "TV": 4585,
      "제품을": 4586,
      "조합": 4587,
      "##상이": 4588,
      "마케팅": 4589,
      "500": 4590,
      "가스": 4591,
      "비롯해": 4592,
      "이데일리": 4593,
      "방침이다": 4594,
      "바이": 4595,
      "##자들이": 4596,
      "##텔레콤": 4597,
      "##전을": 4598,
      "##사에서": 4599,
      "##60": 4600,
      "도시": 4601,
      "앵커": 4602,
      "동시에": 4603,
      "인프라": 4604,
      "전반": 4605,
      "##전자는": 4606,
      "코스닥": 4607,
      "##4년": 4608,
      "##프라인": 4609,
      "장비": 4610,
      "##안전": 4611,
      "공시": 4612,
      "캠페": 4613,
      "##억달러": 4614,
      "300": 4615,
      "인사": 4616,
      "##성장": 4617,
      "##to": 4618,
      "왼쪽": 4619,
      "이해": 4620,
      "현지시간": 4621,
      "##유소": 4622,
      "시장에": 4623,
      "##차를": 4624,
      "단지": 4625,
      "##액이": 4626,
      "인력": 4627,
      "노동": 4628,
      "홈페": 4629,
      "##감을": 4630,
      "윤석열": 4631,
      "가계": 4632,
      "##80": 4633,
      "##연금": 4634,
      "투자를": 4635,
      "##보고": 4636,
      "공장": 4637,
      "##권을": 4638,
      "좋은": 4639,
      "##롭게": 4640,
      "운송": 4641,
      "이마트": 4642,
      "##평가": 4643,
      "상담": 4644,
      "##이라는": 4645,
      "역할을": 4646,
      "리스크": 4647,
      "그러나": 4648,
      "동기": 4649,
      "하루": 4650,
      "##6년": 4651,
      "진행한다": 4652,
      "프리미": 4653,
      "부족": 4654,
      "식품": 4655,
      "형태": 4656,
      "최초로": 4657,
      "책임": 4658,
      "##ho": 4659,
      "##마켓": 4660,
      "최소": 4661,
      "##은행은": 4662,
      "큐브": 4663,
      "##했으며": 4664,
      "1위": 4665,
      "나선": 4666,
      "전쟁": 4667,
      "방안을": 4668,
      "먼저": 4669,
      "사태": 4670,
      "##통상": 4671,
      "##리지": 4672,
      "##500": 4673,
      "세종": 4674,
      "33": 4675,
      "##과의": 4676,
      "까지": 4677,
      "발행": 4678,
      "필즈": 4679,
      "##이었다": 4680,
      "##위성": 4681,
      "비상": 4682,
      "인한": 4683,
      "전날": 4684,
      "과학기술": 4685,
      "암호": 4686,
      "##안을": 4687,
      "정보를": 4688,
      "덧붙였다": 4689,
      "작품": 4690,
      "맞춤": 4691,
      "인해": 4692,
      "중앙": 4693,
      "각종": 4694,
      "자료": 4695,
      "어렵": 4696,
      "포스코": 4697,
      "가격은": 4698,
      "거쳐": 4699,
      "##ar": 4700,
      "2차": 4701,
      "석유": 4702,
      "있었다": 4703,
      "SK텔레콤": 4704,
      "여부": 4705,
      "2018년": 4706,
      "##가스": 4707,
      "재정": 4708,
      "개정": 4709,
      "##투자증권": 4710,
      "이와": 4711,
      "자신": 4712,
      "가상자산": 4713,
      "##니까": 4714,
      "##펀드": 4715,
      "매장": 4716,
      "네트워크": 4717,
      "아울": 4718,
      "##마다": 4719,
      "아닌": 4720,
      "업종": 4721,
      "올랐다": 4722,
      "##하도록": 4723,
      "기업이": 4724,
      "차별": 4725,
      "어떤": 4726,
      "나서": 4727,
      "##영상": 4728,
      "##로부터": 4729,
      "##주의": 4730,
      "둔화": 4731,
      "산업통상": 4732,
      "프리미엄": 4733,
      "측은": 4734,
      "필요하다": 4735,
      "대부분": 4736,
      "담당": 4737,
      "##주가": 4738,
      "##이어": 4739,
      "10월": 4740,
      "업무협": 4741,
      "비해": 4742,
      "이상의": 4743,
      "비즈니스": 4744,
      "수급": 4745,
      "##인의": 4746,
      "부품": 4747,
      "증가했다": 4748,
      "받은": 4749,
      "##율을": 4750,
      "않을": 4751,
      "아울러": 4752,
      "PC": 4753,
      "작업": 4754,
      "##자에게": 4755,
      "산업통상자원": 4756,
      "실시간": 4757,
      "전경": 4758,
      "GS": 4759,
      "매매": 4760,
      "거래일": 4761,
      "구현": 4762,
      "인도": 4763,
      "청년": 4764,
      "케이": 4765,
      "LG전자": 4766,
      "##제도": 4767,
      "##인은": 4768,
      "##침체": 4769,
      "특징": 4770,
      "##운드": 4771,
      "제출": 4772,
      "대체": 4773,
      "자본": 4774,
      "증가한": 4775,
      "금리를": 4776,
      "독일": 4777,
      "대표이": 4778,
      "되는": 4779,
      "과정에서": 4780,
      "구체": 4781,
      "ETF": 4782,
      "##인데": 4783,
      "것이라는": 4784,
      "받았다": 4785,
      "지방": 4786,
      "##스포": 4787,
      "보내": 4788,
      "이사": 4789,
      "최종": 4790,
      "보여": 4791,
      "##자동": 4792,
      "##미콘": 4793,
      "##스의": 4794,
      "##트리": 4795,
      "임직원": 4796,
      "재생": 4797,
      "##상승": 4798,
      "수소": 4799,
      "##스가": 4800,
      "##코리아": 4801,
      "##진흥": 4802,
      "경기침체": 4803,
      "##발전": 4804,
      "기다": 4805,
      "쇼핑": 4806,
      "오프라인": 4807,
      "테슬": 4808,
      "상황에서": 4809,
      "내려": 4810,
      "##주년": 4811,
      "출범": 4812,
      "활용한": 4813,
      "내린": 4814,
      "쌍용": 4815,
      "꾸준": 4816,
      "비롯한": 4817,
      "##섰다": 4818,
      "완료": 4819,
      "##연합": 4820,
      "##위는": 4821,
      "주파": 4822,
      "보유한": 4823,
      "한일": 4824,
      "34": 4825,
      "##되면": 4826,
      "요청": 4827,
      "##부문": 4828,
      "12월": 4829,
      "발굴": 4830,
      "##하려": 4831,
      "위원": 4832,
      "추정": 4833,
      "홍보": 4834,
      "뛰어": 4835,
      "자유": 4836,
      "##하다는": 4837,
      "##렇게": 4838,
      "42": 4839,
      "##량은": 4840,
      "인기": 4841,
      "##전략": 4842,
      "발표한": 4843,
      "광고": 4844,
      "플레이": 4845,
      "##대상": 4846,
      "임상": 4847,
      "##하거나": 4848,
      "##TV": 4849,
      "근무": 4850,
      "##감독": 4851,
      "블록체인": 4852,
      "간담회": 4853,
      "예상된다": 4854,
      "활성화": 4855,
      "##자와": 4856,
      "##동을": 4857,
      "##부가": 4858,
      "##니터": 4859,
      "국내외": 4860,
      "##트코": 4861,
      "유류세": 4862,
      "기사": 4863,
      "디자인": 4864,
      "반대": 4865,
      "재판매": 4866,
      "##주시": 4867,
      "75": 4868,
      "주문": 4869,
      "장관은": 4870,
      "##겠습니다": 4871,
      "##000만원": 4872,
      "여전히": 4873,
      "감염": 4874,
      "##전지": 4875,
      "##산물": 4876,
      "##명의": 4877,
      "38": 4878,
      "##준이": 4879,
      "전월": 4880,
      "기준금리": 4881,
      "2월": 4882,
      "악화": 4883,
      "여성": 4884,
      "회장은": 4885,
      "##나는": 4886,
      "지속적으로": 4887,
      "##스와": 4888,
      "##구조": 4889,
      "생태계": 4890,
      "복합": 4891,
      "두고": 4892,
      "##장의": 4893,
      "52": 4894,
      "##계획": 4895,
      "있는데": 4896,
      "39": 4897,
      "늘어난": 4898,
      "대신": 4899,
      "급증": 4900,
      "한다는": 4901,
      "모니터": 4902,
      "##혁신": 4903,
      "시장이": 4904,
      "영역": 4905,
      "임금": 4906,
      "누리": 4907,
      "주유소": 4908,
      "유튜": 4909,
      "##약품": 4910,
      "어려운": 4911,
      "낮은": 4912,
      "내놓": 4913,
      "누적": 4914,
      "협의": 4915,
      "##이기": 4916,
      "손실": 4917,
      "현실": 4918,
      "신설": 4919,
      "인식": 4920,
      "체험": 4921,
      "탑재": 4922,
      "##하겠다는": 4923,
      "##점에서": 4924,
      "##자동차": 4925,
      "과기": 4926,
      "연계": 4927,
      "##ED": 4928,
      "##건을": 4929,
      "대책": 4930,
      "##밖에": 4931,
      "것도": 4932,
      "기회": 4933,
      "레미콘": 4934,
      "모집": 4935,
      "순매": 4936,
      "##벤처": 4937,
      "소득": 4938,
      "청약": 4939,
      "##at": 4940,
      "그동안": 4941,
      "##하우": 4942,
      "일정": 4943,
      "##데이트": 4944,
      "##정보통신": 4945,
      "표준": 4946,
      "2일": 4947,
      "임대": 4948,
      "##리즈": 4949,
      "##40": 4950,
      "활동을": 4951,
      "90": 4952,
      "차세대": 4953,
      "홈페이지": 4954,
      "연간": 4955,
      "##지에": 4956,
      "##공항": 4957,
      "예측": 4958,
      "해제": 4959,
      "수수": 4960,
      "##드를": 4961,
      "##당국": 4962,
      "처음으로": 4963,
      "요금": 4964,
      "유가": 4965,
      "지상": 4966,
      "07": 4967,
      "32": 4968,
      "급락": 4969,
      "가격을": 4970,
      "개발한": 4971,
      "알려졌다": 4972,
      "미디어": 4973,
      "시장을": 4974,
      "##하기도": 4975,
      "비트코": 4976,
      "것이라고": 4977,
      "대규모": 4978,
      "주도": 4979,
      "주가가": 4980,
      "##스토어": 4981,
      "3분기": 4982,
      "나갈": 4983,
      "##소를": 4984,
      "인터넷": 4985,
      "채용": 4986,
      "통화": 4987,
      "공감": 4988,
      "선도": 4989,
      "##총리": 4990,
      "점유": 4991,
      "##성에": 4992,
      "발표했다": 4993,
      "기능을": 4994,
      "울산": 4995,
      "할당": 4996,
      "하락했다": 4997,
      "학생": 4998,
      "나가": 4999,
      "바로": 5000,
      "파악": 5001,
      "고객에게": 5002,
      "트렌": 5003,
      "##데믹": 5004,
      "시장의": 5005,
      "안내": 5006,
      "##학과": 5007,
      "기획재": 5008,
      "사장": 5009,
      "소프트": 5010,
      "금융감독": 5011,
      "파이": 5012,
      "업데이트": 5013,
      "##없이": 5014,
      "교통": 5015,
      "독자": 5016,
      "##lo": 5017,
      "가구": 5018,
      "파업": 5019,
      "##움이": 5020,
      "유튜브": 5021,
      "아시아": 5022,
      "외부": 5023,
      "흐름": 5024,
      "않았다": 5025,
      "부담을": 5026,
      "시대": 5027,
      "조선": 5028,
      "살펴": 5029,
      "완성": 5030,
      "이익": 5031,
      "하락한": 5032,
      "맞춤형": 5033,
      "이러": 5034,
      "검증": 5035,
      "##사로": 5036,
      "##립니다": 5037,
      "맞춰": 5038,
      "미만": 5039,
      "위기": 5040,
      "경쟁력": 5041,
      "받고": 5042,
      "입주": 5043,
      "불안": 5044,
      "이제": 5045,
      "##물을": 5046,
      "##관은": 5047,
      "배출": 5048,
      "퇴직": 5049,
      "경쟁력을": 5050,
      "##점이": 5051,
      "경유": 5052,
      "그리고": 5053,
      "채권": 5054,
      "8일": 5055,
      "지속가능": 5056,
      "과거": 5057,
      "관측": 5058,
      "않아": 5059,
      "이미지": 5060,
      "##거래소": 5061,
      "의무": 5062,
      "##개의": 5063,
      "##메라": 5064,
      "##튜디오": 5065,
      "고객의": 5066,
      "결국": 5067,
      "서울시": 5068,
      "수준으로": 5069,
      "대기업": 5070,
      "##쇼핑": 5071,
      "##란드": 5072,
      "라는": 5073,
      "비대": 5074,
      "어떻": 5075,
      "제2": 5076,
      "그린": 5077,
      "적극적으로": 5078,
      "##전문": 5079,
      "지수": 5080,
      "관련해": 5081,
      "결합": 5082,
      "만든": 5083,
      "부진": 5084,
      "##사에": 5085,
      "이같": 5086,
      "##스터": 5087,
      "##레스": 5088,
      "##페이스": 5089,
      "6개월": 5090,
      "소상공": 5091,
      "##인으로": 5092,
      "제공할": 5093,
      "상위": 5094,
      "열고": 5095,
      "##민국": 5096,
      "203": 5097,
      "경험을": 5098,
      "정기": 5099,
      "##수록": 5100,
      "여러분의": 5101,
      "##뮤니": 5102,
      "##IST": 5103,
      "암호화폐": 5104,
      "상황을": 5105,
      "##DI": 5106,
      "##냈다": 5107,
      "진입": 5108,
      "휘발": 5109,
      "있기": 5110,
      "게이": 5111,
      "시민": 5112,
      "##이가": 5113,
      "##르는": 5114,
      "대한민국": 5115,
      "목소": 5116,
      "##협력": 5117,
      "재개": 5118,
      "##00원": 5119,
      "보장": 5120,
      "충전": 5121,
      "##바이": 5122,
      "KT는": 5123,
      "창출": 5124,
      "미국의": 5125,
      "비중이": 5126,
      "늘었다": 5127,
      "점을": 5128,
      "이번에": 5129,
      "지하": 5130,
      "테슬라": 5131,
      "2017년": 5132,
      "뉴욕": 5133,
      "방식으로": 5134,
      "##문화": 5135,
      "돌파": 5136,
      "##와의": 5137,
      "기획재정부": 5138,
      "자사": 5139,
      "##했다는": 5140,
      "중요한": 5141,
      "성과를": 5142,
      "패키": 5143,
      "##소득": 5144,
      "영상을": 5145,
      "최적": 5146,
      "카메라": 5147,
      "##리오": 5148,
      "있었": 5149,
      "45": 5150,
      "고도": 5151,
      "신뢰": 5152,
      "않았": 5153,
      "위축": 5154,
      "주장": 5155,
      "##000원": 5156,
      "36": 5157,
      "##스케어": 5158,
      "어떻게": 5159,
      "##2년": 5160,
      "움직": 5161,
      "##00만": 5162,
      "매년": 5163,
      "제기": 5164,
      "과학기술정보통신": 5165,
      "비대면": 5166,
      "휘발유": 5167,
      "##정통": 5168,
      "##비를": 5169,
      "##단계": 5170,
      "국토교통": 5171,
      "골프": 5172,
      "차질": 5173,
      "설명이다": 5174,
      "콘텐츠를": 5175,
      "고객이": 5176,
      "촬영": 5177,
      "##의를": 5178,
      "금감": 5179,
      "예방": 5180,
      "##24": 5181,
      "##우주": 5182,
      "낮아": 5183,
      "##더라도": 5184,
      "카카오톡": 5185,
      "주파수": 5186,
      "57": 5187,
      "스토": 5188,
      "지원을": 5189,
      "거래를": 5190,
      "확인할": 5191,
      "과기정통": 5192,
      "고민": 5193,
      "분기": 5194,
      "쉽게": 5195,
      "정책을": 5196,
      "##에너지솔루션": 5197,
      "이끌": 5198,
      "정확": 5199,
      "##리스": 5200,
      "##ic": 5201,
      "이러한": 5202,
      "담보": 5203,
      "##티브": 5204,
      "필수": 5205,
      "##hoto": 5206,
      "돌아": 5207,
      "커뮤니": 5208,
      "##피스": 5209,
      "삼성전자는": 5210,
      "전세": 5211,
      "즐길": 5212,
      "것이란": 5213,
      "치솟": 5214,
      "##이자": 5215,
      "LG에너지솔루션": 5216,
      "소프트웨어": 5217,
      "접근": 5218,
      "##교육": 5219,
      "##테이": 5220,
      "포함한": 5221,
      "시설": 5222,
      "상용": 5223,
      "확정": 5224,
      "현황": 5225,
      "##부에": 5226,
      "##중립": 5227,
      "##대학교": 5228,
      "장중": 5229,
      "##금은": 5230,
      "경기도": 5231,
      "NH": 5232,
      "반등": 5233,
      "보도": 5234,
      "여기에": 5235,
      "##로드": 5236,
      "##방향": 5237,
      "##회는": 5238,
      "목표로": 5239,
      "가동": 5240,
      "로봇": 5241,
      "원유": 5242,
      "유니": 5243,
      "인근": 5244,
      "OT": 5245,
      "마이크": 5246,
      "언급": 5247,
      "상승했다": 5248,
      "수치": 5249,
      "##국제": 5250,
      "##화점": 5251,
      "분야에서": 5252,
      "인정받": 5253,
      "과제": 5254,
      "시리즈": 5255,
      "##노동": 5256,
      "기후": 5257,
      "##가고": 5258,
      "필요가": 5259,
      "##상의": 5260,
      "##두고": 5261,
      "탄소중립": 5262,
      "주관": 5263,
      "##만에": 5264,
      "관심이": 5265,
      "재생에너지": 5266,
      "위성": 5267,
      "육성": 5268,
      "##테인": 5269,
      "##도시": 5270,
      "가지": 5271,
      "획득": 5272,
      "##70": 5273,
      "##화학": 5274,
      "한국의": 5275,
      "3만": 5276,
      "기아": 5277,
      "달리": 5278,
      "자연": 5279,
      "특정": 5280,
      "##머스": 5281,
      "전망했다": 5282,
      "불확": 5283,
      "아래": 5284,
      "계열": 5285,
      "소유": 5286,
      "수립": 5287,
      "##25": 5288,
      "10년": 5289,
      "부담이": 5290,
      "끌어": 5291,
      "보였다": 5292,
      "백신": 5293,
      "신속": 5294,
      "이자": 5295,
      "##14": 5296,
      "##릭터": 5297,
      "##위가": 5298,
      "시작으로": 5299,
      "꾸준히": 5300,
      "매우": 5301,
      "제약": 5302,
      "법인": 5303,
      "상대": 5304,
      "해소": 5305,
      "##법인": 5306,
      "이벤트를": 5307,
      "불확실": 5308,
      "##재단": 5309,
      "별도": 5310,
      "이용할": 5311,
      "48": 5312,
      "photo": 5313,
      "##린다": 5314,
      "MZ": 5315,
      "보이고": 5316,
      "정비": 5317,
      "더불": 5318,
      "##보건": 5319,
      "##시장에서": 5320,
      "발언": 5321,
      "##파이": 5322,
      "제공하고": 5323,
      "더불어": 5324,
      "##그룹은": 5325,
      "이야": 5326,
      "성장을": 5327,
      "감사": 5328,
      "처리": 5329,
      "희망": 5330,
      "##중앙": 5331,
      "상호": 5332,
      "##만큼": 5333,
      "제휴": 5334,
      "조달": 5335,
      "하향": 5336,
      "인앱": 5337,
      "맞아": 5338,
      "##테인먼트": 5339,
      "장애": 5340,
      "##대비": 5341,
      "내다": 5342,
      "##프로": 5343,
      "작용": 5344,
      "##조합": 5345,
      "KA": 5346,
      "최신": 5347,
      "##장과": 5348,
      "##re": 5349,
      "##병원": 5350,
      "집계됐다": 5351,
      "신고": 5352,
      "위반": 5353,
      "캐릭터": 5354,
      "##리어": 5355,
      "##소비": 5356,
      "##서울": 5357,
      "##90": 5358,
      "금리가": 5359,
      "공연": 5360,
      "2030년": 5361,
      "역량을": 5362,
      "이슈": 5363,
      "주력": 5364,
      "##주로": 5365,
      "##내용": 5366,
      "##스로": 5367,
      "##서치": 5368,
      "##생활": 5369,
      "기록한": 5370,
      "전력수": 5371,
      "사무": 5372,
      "해양": 5373,
      "##에셋": 5374,
      "IC": 5375,
      "라인": 5376,
      "##주를": 5377,
      "갖고": 5378,
      "##라스": 5379,
      "총괄": 5380,
      "##도는": 5381,
      "##케이션": 5382,
      "##금이": 5383,
      "추가로": 5384,
      "제안": 5385,
      "필즈상": 5386,
      "고물가": 5387,
      "넘게": 5388,
      "증정": 5389,
      "협력을": 5390,
      "예비": 5391,
      "금액": 5392,
      "매입": 5393,
      "상환": 5394,
      "적립": 5395,
      "측면": 5396,
      "##수의": 5397,
      "연구개발": 5398,
      "수준이다": 5399,
      "문제가": 5400,
      "44": 5401,
      "상생": 5402,
      "새롭게": 5403,
      "펀드": 5404,
      "지수는": 5405,
      "##대가": 5406,
      "##평균": 5407,
      "3개월": 5408,
      "체계": 5409,
      "##장에": 5410,
      "##연구소": 5411,
      "84": 5412,
      "유동": 5413,
      "##단체": 5414,
      "##중한": 5415,
      "누리호": 5416,
      "없어": 5417,
      "태양": 5418,
      "시스템을": 5419,
      "긍정": 5420,
      "이름": 5421,
      "커지고": 5422,
      "##라면": 5423,
      "##했는데": 5424,
      "##번째": 5425,
      "등록": 5426,
      "원하는": 5427,
      "5년": 5428,
      "요약": 5429,
      "실적을": 5430,
      "제보를": 5431,
      "유명": 5432,
      "출발": 5433,
      "반응": 5434,
      "##사항": 5435,
      "기다립니다": 5436,
      "##ed": 5437,
      "##데이": 5438,
      "5만": 5439,
      "##부와": 5440,
      "기업들이": 5441,
      "##암호": 5442,
      "금리인": 5443,
      "기초": 5444,
      "단순": 5445,
      "스포": 5446,
      "##사이": 5447,
      "시장은": 5448,
      "운영하는": 5449,
      "높다": 5450,
      "긴축": 5451,
      "취득": 5452,
      "한은": 5453,
      "허준이": 5454,
      "회원": 5455,
      "등도": 5456,
      "이렇게": 5457,
      "##지로": 5458,
      "지배": 5459,
      "##관계": 5460,
      "마쳤다": 5461,
      "전해": 5462,
      "##개국": 5463,
      "가치를": 5464,
      "의견을": 5465,
      "수수료": 5466,
      "초기": 5467,
      "##제약": 5468,
      "##설팅": 5469,
      "국민의": 5470,
      "광주": 5471,
      "코인": 5472,
      "##테일": 5473,
      "마감했다": 5474,
      "전경련": 5475,
      "OTT": 5476,
      "가량": 5477,
      "환율": 5478,
      "##리츠": 5479,
      "##소프트": 5480,
      "장관이": 5481,
      "##낸셜": 5482,
      "개편": 5483,
      "등에서": 5484,
      "양성": 5485,
      "충분": 5486,
      "전망이": 5487,
      "그러면서": 5488,
      "77": 5489,
      "불가": 5490,
      "##하던": 5491,
      "##에만": 5492,
      "##나고": 5493,
      "##it": 5494,
      "화물": 5495,
      "지적했다": 5496,
      "등급": 5497,
      "면제": 5498,
      "한다고": 5499,
      "수준의": 5500,
      "분석했다": 5501,
      "##거리": 5502,
      "##22": 5503,
      "##비율": 5504,
      "##자들의": 5505,
      "실질": 5506,
      "절반": 5507,
      "가전": 5508,
      "센터": 5509,
      "관광": 5510,
      "호텔": 5511,
      "한국은행": 5512,
      "사업에": 5513,
      "##le": 5514,
      "부회장은": 5515,
      "이른": 5516,
      "##스플레이": 5517,
      "##었습니다": 5518,
      "상황이다": 5519,
      "줄어들": 5520,
      "동일": 5521,
      "##사인": 5522,
      "저렴": 5523,
      "##장에서": 5524,
      "마켓": 5525,
      "커피": 5526,
      "같이": 5527,
      "마음": 5528,
      "##니아": 5529,
      "##관에서": 5530,
      "접수": 5531,
      "추경": 5532,
      "##되어": 5533,
      "무역수": 5534,
      "그런데": 5535,
      "##모빌리티": 5536,
      "실제로": 5537,
      "모니터링": 5538,
      "##치고": 5539,
      "신제품": 5540,
      "연준": 5541,
      "자회사": 5542,
      "##활동": 5543,
      "영향으로": 5544,
      "투입": 5545,
      "##진을": 5546,
      "서울경제": 5547,
      "누구": 5548,
      "설정": 5549,
      "1억": 5550,
      "여파": 5551,
      "##션을": 5552,
      "##회에서": 5553,
      "금융당국": 5554,
      "49": 5555,
      "검색": 5556,
      "수신": 5557,
      "심사": 5558,
      "##조정": 5559,
      "##유가": 5560,
      "결과를": 5561,
      "수는": 5562,
      "##무리": 5563,
      "갖춘": 5564,
      "비슷": 5565,
      "이들": 5566,
      "편리": 5567,
      "##지구": 5568,
      "관심을": 5569,
      "##명으로": 5570,
      "가까이": 5571,
      "2300": 5572,
      "지표": 5573,
      "합의": 5574,
      "빅데이터": 5575,
      "이내": 5576,
      "재고": 5577,
      "대해서는": 5578,
      "##자리": 5579,
      "##공단": 5580,
      "..": 5581,
      "비판": 5582,
      "앞두고": 5583,
      "##자에": 5584,
      "##으로써": 5585,
      "지원하는": 5586,
      "소상공인": 5587,
      "##호텔": 5588,
      "##위로": 5589,
      "##도에": 5590,
      "기사내용": 5591,
      "##란다": 5592,
      "고객을": 5593,
      "진행하고": 5594,
      "계약을": 5595,
      "협약": 5596,
      "신한은행": 5597,
      "비중은": 5598,
      "규정": 5599,
      "선언": 5600,
      "시작했다": 5601,
      "보고서": 5602,
      "연방": 5603,
      "주행": 5604,
      "취임": 5605,
      "대형마트": 5606,
      "##기구": 5607,
      "2008년": 5608,
      "않다": 5609,
      "##하는데": 5610,
      "##00만원": 5611,
      "##위원장": 5612,
      "01": 5613,
      "무료": 5614,
      "원장은": 5615,
      "추천": 5616,
      "프로모": 5617,
      "29일": 5618,
      "집값": 5619,
      "##차가": 5620,
      "업계에": 5621,
      "문제를": 5622,
      "등은": 5623,
      "빠른": 5624,
      "연료": 5625,
      "연말": 5626,
      "물가상승": 5627,
      "##트를": 5628,
      "큐브위성": 5629,
      "수준을": 5630,
      "프로그램을": 5631,
      "##트남": 5632,
      "커뮤니티": 5633,
      "나왔다": 5634,
      "합리": 5635,
      "힘을": 5636,
      "##서도": 5637,
      "코리아": 5638,
      "##매매": 5639,
      "2030": 5640,
      "밝혔습니다": 5641,
      "동물": 5642,
      "정유": 5643,
      "MO": 5644,
      "##기의": 5645,
      "떨어졌다": 5646,
      "내용을": 5647,
      "위치한": 5648,
      "가진": 5649,
      "관한": 5650,
      "##해왔다": 5651,
      "##감이": 5652,
      "바란다": 5653,
      "베트남": 5654,
      "지구": 5655,
      "##게임즈": 5656,
      "급격": 5657,
      "##세로": 5658,
      "##람회": 5659,
      "고려해": 5660,
      "대외": 5661,
      "웹툰": 5662,
      "넘는": 5663,
      "실천": 5664,
      "1일부터": 5665,
      "##하이닉": 5666,
      "추경호": 5667,
      "화제": 5668,
      "이라는": 5669,
      "SK하이닉": 5670,
      "데일리": 5671,
      "##ent": 5672,
      "상승률이": 5673,
      "파이낸셜": 5674,
      "허용": 5675,
      "##기준": 5676,
      "##하겠다고": 5677,
      "더해": 5678,
      "##됩니다": 5679,
      "편의점": 5680,
      "가족": 5681,
      "개발을": 5682,
      "감소했다": 5683,
      "세대": 5684,
      "장을": 5685,
      "##조사": 5686,
      "기반의": 5687,
      "개인정보": 5688,
      "배송": 5689,
      "완전": 5690,
      "##비용": 5691,
      "##화가": 5692,
      "##단지": 5693,
      "##스턴": 5694,
      "##로를": 5695,
      "패션": 5696,
      "##고리": 5697,
      "감축": 5698,
      "##위에": 5699,
      "##해보험": 5700,
      "##페이": 5701,
      "2025년": 5702,
      "아이폰": 5703,
      "그렇": 5704,
      "##화할": 5705,
      "##체계": 5706,
      "배경": 5707,
      "오름": 5708,
      "##사회": 5709,
      "##뿐만": 5710,
      "2023년": 5711,
      "정보보호": 5712,
      "##기자": 5713,
      "미래에셋": 5714,
      "효과를": 5715,
      "기조": 5716,
      "초과": 5717,
      "크다": 5718,
      "시즌": 5719,
      "##봤다": 5720,
      "SW": 5721,
      "감안": 5722,
      "신세계": 5723,
      "특허": 5724,
      "##만의": 5725,
      "마지": 5726,
      "수밖에": 5727,
      "제3": 5728,
      "##DC": 5729,
      "##점검": 5730,
      "##경영자": 5731,
      "단체": 5732,
      "기대된다": 5733,
      "MZ세대": 5734,
      "비전": 5735,
      "시각": 5736,
      "위메": 5737,
      "하나은행": 5738,
      "목적": 5739,
      "##였던": 5740,
      "기업으로": 5741,
      "금융감독원": 5742,
      "퇴직연금": 5743,
      "41": 5744,
      "전장": 5745,
      "풀이": 5746,
      "최저임": 5747,
      "동반": 5748,
      "행복": 5749,
      "##수학": 5750,
      "오피스": 5751,
      "기업은": 5752,
      "매일": 5753,
      "##기기": 5754,
      "##의도": 5755,
      "##자들은": 5756,
      "##상으로": 5757,
      "##ck": 5758,
      "양국": 5759,
      "##세다": 5760,
      "##ion": 5761,
      "산업통상자원부": 5762,
      "특징이다": 5763,
      "인앱결제": 5764,
      "43": 5765,
      "##트는": 5766,
      "##담보": 5767,
      "시작한": 5768,
      "기대한다": 5769,
      "넷플": 5770,
      "제고": 5771,
      "지나": 5772,
      "데일리안": 5773,
      "유일": 5774,
      "행정": 5775,
      "화면": 5776,
      "##UV": 5777,
      "1차": 5778,
      "불과": 5779,
      "어느": 5780,
      "분야의": 5781,
      "이유로": 5782,
      "##소재": 5783,
      "##등급": 5784,
      "이어질": 5785,
      "##시는": 5786,
      "28일": 5787,
      "넷플릭": 5788,
      "58": 5789,
      "절감": 5790,
      "공략": 5791,
      "대중": 5792,
      "방역": 5793,
      "상무": 5794,
      "쿠팡": 5795,
      "차별화된": 5796,
      "공격": 5797,
      "외식": 5798,
      "##PG": 5799,
      "통계청": 5800,
      "역량": 5801,
      "음식": 5802,
      "##재산": 5803,
      "나섰다": 5804,
      "소중한": 5805,
      "지니": 5806,
      "##자금": 5807,
      "##공급": 5808,
      "우수한": 5809,
      "라이브": 5810,
      "가정": 5811,
      "시범": 5812,
      "##보는": 5813,
      "사실상": 5814,
      "DS": 5815,
      "##되기": 5816,
      "##점에": 5817,
      "72": 5818,
      "##화에": 5819,
      "지원한다": 5820,
      "선호": 5821,
      "시험": 5822,
      "전면": 5823,
      "청소": 5824,
      "##모델": 5825,
      "신한금융": 5826,
      "##LED": 5827,
      "##문을": 5828,
      "업무를": 5829,
      "상대적으로": 5830,
      "IM": 5831,
      "너무": 5832,
      "실행": 5833,
      "실현": 5834,
      "##니어": 5835,
      "##생산": 5836,
      "캠페인": 5837,
      "예금": 5838,
      "##MC": 5839,
      "##부터는": 5840,
      "사진은": 5841,
      "1천": 5842,
      "받는": 5843,
      "조건": 5844,
      "현금": 5845,
      "##공간": 5846,
      "개발에": 5847,
      "2016년": 5848,
      "노하우": 5849,
      "도움이": 5850,
      "##하자": 5851,
      "##리스트": 5852,
      "##업을": 5853,
      "##대학": 5854,
      "기업들의": 5855,
      "배달": 5856,
      "소식": 5857,
      "이다": 5858,
      "조금": 5859,
      "##대금리": 5860,
      "##장비": 5861,
      "아니다": 5862,
      "투명": 5863,
      "향상": 5864,
      "##어나": 5865,
      "본격적인": 5866,
      "##글로벌": 5867,
      "##주식": 5868,
      "##파크": 5869,
      "기회를": 5870,
      "규모로": 5871,
      "컨설팅": 5872,
      "##하지만": 5873,
      "##보다는": 5874,
      "##홀딩": 5875,
      "활용할": 5876,
      "증권사": 5877,
      "##웨이": 5878,
      "65": 5879,
      "부과": 5880,
      "##인터": 5881,
      "##으면서": 5882,
      "##센서": 5883,
      "비교해": 5884,
      "##이노텍": 5885,
      "마지막": 5886,
      "계좌": 5887,
      "모빌리티": 5888,
      "##es": 5889,
      "LG이노텍": 5890,
      "단독": 5891,
      "달라": 5892,
      "맞는": 5893,
      "주제로": 5894,
      "지식": 5895,
      "##전력": 5896,
      "##치료": 5897,
      "##르고": 5898,
      "상승한": 5899,
      "전기요금": 5900,
      "평가를": 5901,
      "나아": 5902,
      "종료": 5903,
      "팬데믹": 5904,
      "##상황": 5905,
      "##화로": 5906,
      "강남구": 5907,
      "단기": 5908,
      "재건": 5909,
      "프랑": 5910,
      "한전": 5911,
      "확진": 5912,
      "과정을": 5913,
      "대로": 5914,
      "동향": 5915,
      "가능성을": 5916,
      "계획을": 5917,
      "치료제": 5918,
      "쌍용차": 5919,
      "IB": 5920,
      "시상": 5921,
      "않는다": 5922,
      "제1": 5923,
      "##었고": 5924,
      "위해서는": 5925,
      "업무협약": 5926,
      "5개": 5927,
      "간편": 5928,
      "만족": 5929,
      "매도": 5930,
      "일상": 5931,
      "##디아": 5932,
      "어려움을": 5933,
      "건물": 5934,
      "당부": 5935,
      "특수": 5936,
      "보유하고": 5937,
      "부채": 5938,
      "유입": 5939,
      "응답": 5940,
      "##너스": 5941,
      "##NG": 5942,
      "##점으로": 5943,
      "회사는": 5944,
      "가속": 5945,
      "강원": 5946,
      "논란": 5947,
      "설비": 5948,
      "##로는": 5949,
      "선보인다": 5950,
      "##이지만": 5951,
      "아마": 5952,
      "전보다": 5953,
      "헬스케어": 5954,
      "KAIST": 5955,
      "##or": 5956,
      "체결했다고": 5957,
      "##제공": 5958,
      "트렌드": 5959,
      "드라": 5960,
      "##부를": 5961,
      "##하고자": 5962,
      "95": 5963,
      "진행된다": 5964,
      "떨어진": 5965,
      "사장은": 5966,
      "정도로": 5967,
      "##보증": 5968,
      "확대를": 5969,
      "거리": 5970,
      "스튜디오": 5971,
      "회장이": 5972,
      "##버그": 5973,
      "나선다": 5974,
      "연장": 5975,
      "##계약": 5976,
      "##가치": 5977,
      "단행": 5978,
      "티빙": 5979,
      "##무를": 5980,
      "명품": 5981,
      "통상": 5982,
      "대학생": 5983,
      "개별": 5984,
      "부사": 5985,
      "스탠": 5986,
      "시청": 5987,
      "정치": 5988,
      "##권에": 5989,
      "##들에": 5990,
      "##NS": 5991,
      "##회의를": 5992,
      "선보인": 5993,
      "이행": 5994,
      "##하겠습니다": 5995,
      "##PS": 5996,
      "##있는": 5997,
      "##00억원": 5998,
      "낮추": 5999,
      "도전": 6000,
      "셈이다": 6001,
      "폭염": 6002,
      "##대에": 6003,
      "##폭이": 6004,
      "많아": 6005,
      "메뉴": 6006,
      "사용할": 6007,
      "코스피가": 6008,
      "3개": 6009,
      "나노": 6010,
      "주변": 6011,
      "줄었다": 6012,
      "##요일": 6013,
      "##MW": 6014,
      "##DP": 6015,
      "##베이션": 6016,
      "진행할": 6017,
      "국산": 6018,
      "얼마": 6019,
      "주민": 6020,
      "##장으로": 6021,
      "##규제": 6022,
      "파이낸셜뉴스": 6023,
      "담은": 6024,
      "메모": 6025,
      "무엇": 6026,
      "##분을": 6027,
      "여름철": 6028,
      "91": 6029,
      "존재": 6030,
      "##관광": 6031,
      "##NA": 6032,
      "당국": 6033,
      "##주행": 6034,
      "게임을": 6035,
      "선보일": 6036,
      "그간": 6037,
      "여의도": 6038,
      "이재": 6039,
      "##지도": 6040,
      "이용해": 6041,
      "59": 6042,
      "SM": 6043,
      "많다": 6044,
      "##GW": 6045,
      "4분기": 6046,
      "경남": 6047,
      "농협": 6048,
      "젊은": 6049,
      "테스트": 6050,
      "당첨": 6051,
      "##12": 6052,
      "##영업": 6053,
      "삼성S": 6054,
      "카카오모빌리티": 6055,
      "실내": 6056,
      "##분간": 6057,
      "##임을": 6058,
      "비중을": 6059,
      "대우": 6060,
      "수집": 6061,
      "시가": 6062,
      "##과정": 6063,
      "첨단": 6064,
      "허브": 6065,
      "##했으나": 6066,
      "사용자": 6067,
      "대표이사": 6068,
      "1000": 6069,
      "디자": 6070,
      "보증": 6071,
      "사항": 6072,
      "쉽지": 6073,
      "융합": 6074,
      "테라": 6075,
      "##활용": 6076,
      "열리는": 6077,
      "주주": 6078,
      "1998년": 6079,
      "##분양": 6080,
      "##사업을": 6081,
      "중견": 6082,
      "##갔다": 6083,
      "아이디어": 6084,
      "MOU": 6085,
      "적자를": 6086,
      "중장": 6087,
      "##만5": 6088,
      "국무": 6089,
      "선물": 6090,
      "시너지": 6091,
      "##실적": 6092,
      "IS": 6093,
      "달하는": 6094,
      "소속": 6095,
      "승인": 6096,
      "지연": 6097,
      "해도": 6098,
      "전망된다": 6099,
      "효과가": 6100,
      "태양광": 6101,
      "측정": 6102,
      "가계대출": 6103,
      "경고": 6104,
      "신선": 6105,
      "플랫폼을": 6106,
      "교수가": 6107,
      "63": 6108,
      "벤처": 6109,
      "산하": 6110,
      "##시켜": 6111,
      "##대한": 6112,
      "다누": 6113,
      "중고": 6114,
      "공정거래": 6115,
      "늘고": 6116,
      "점에서": 6117,
      "##장관": 6118,
      "등과": 6119,
      "자세": 6120,
      "##터테인먼트": 6121,
      "방문해": 6122,
      "안정적인": 6123,
      "고등": 6124,
      "부정": 6125,
      "##AM": 6126,
      "전략을": 6127,
      "트위": 6128,
      "##선이": 6129,
      "디폴": 6130,
      "어린": 6131,
      "##지지": 6132,
      "##식에서": 6133,
      "상태다": 6134,
      "만기": 6135,
      "했습니다": 6136,
      "##거래일": 6137,
      "구간": 6138,
      "발급": 6139,
      "신호": 6140,
      "##대표": 6141,
      "중심의": 6142,
      "...": 6143,
      "64": 6144,
      "대만": 6145,
      "주는": 6146,
      "중간": 6147,
      "포함해": 6148,
      "바이러스": 6149,
      "2배": 6150,
      "이외": 6151,
      "##레드": 6152,
      "거래소": 6153,
      "표현": 6154,
      "##법을": 6155,
      "##됐습니다": 6156,
      "##폴리오": 6157,
      "사진영상": 6158,
      "스포츠": 6159,
      "풀이된다": 6160,
      "46": 6161,
      "적자": 6162,
      "한정": 6163,
      "##리드": 6164,
      "##닷컴": 6165,
      "##그룹의": 6166,
      "경북": 6167,
      "전통": 6168,
      "##EC": 6169,
      "내다봤다": 6170,
      "작가": 6171,
      "처음이다": 6172,
      "4년": 6173,
      "강력": 6174,
      "해야": 6175,
      "##레일": 6176,
      "연구팀": 6177,
      "규제를": 6178,
      "2개": 6179,
      "겁니다": 6180,
      "선발": 6181,
      "해석": 6182,
      "##15": 6183,
      "매출은": 6184,
      "시간이": 6185,
      "부회장": 6186,
      "##연합회": 6187,
      "##라스틱": 6188,
      "드러": 6189,
      "예약": 6190,
      "##대회": 6191,
      "##수기": 6192,
      "참석했다": 6193,
      "그래서": 6194,
      "되고": 6195,
      "하면": 6196,
      "##했을": 6197,
      "##언론": 6198,
      "세부": 6199,
      "##나다": 6200,
      "##준비": 6201,
      "##마블": 6202,
      "주가는": 6203,
      "그래픽": 6204,
      "에스": 6205,
      "주로": 6206,
      "휴가": 6207,
      "##기획": 6208,
      "##메이션": 6209,
      "물가가": 6210,
      "디폴트": 6211,
      "구독": 6212,
      "외에도": 6213,
      "하지": 6214,
      "68": 6215,
      "일환": 6216,
      "##여행": 6217,
      "##면적": 6218,
      "##받을": 6219,
      "출하": 6220,
      "포트": 6221,
      "##원과": 6222,
      "##화하고": 6223,
      "최고경영자": 6224,
      "판단되는": 6225,
      "등이다": 6226,
      "반려": 6227,
      "선박": 6228,
      "속도를": 6229,
      "##계층": 6230,
      "##아이": 6231,
      "##받는": 6232,
      "경제부": 6233,
      "발견": 6234,
      "##타워": 6235,
      "##복지": 6236,
      "지금까지": 6237,
      "등장": 6238,
      "##격을": 6239,
      "##함으로써": 6240,
      "거주": 6241,
      "시중": 6242,
      "양산": 6243,
      "##경쟁": 6244,
      "지속적인": 6245,
      "규모는": 6246,
      "감소한": 6247,
      "발생한": 6248,
      "그대로": 6249,
      "대폭": 6250,
      "왔다": 6251,
      "이스타": 6252,
      "전세계": 6253,
      "합니다": 6254,
      "##오롱": 6255,
      "##일을": 6256,
      "##언스": 6257,
      "##으로는": 6258,
      "연동": 6259,
      "충족": 6260,
      "코오롱": 6261,
      "##100": 6262,
      "##럭시": 6263,
      "인터뷰": 6264,
      "##000만달러": 6265,
      "거의": 6266,
      "북미": 6267,
      "테마": 6268,
      "##적이다": 6269,
      "##받습니다": 6270,
      "##런스": 6271,
      "전문가들은": 6272,
      "보내주시": 6273,
      "55": 6274,
      "고정": 6275,
      "메인": 6276,
      "##사들이": 6277,
      "##준다": 6278,
      "##km": 6279,
      "국토부": 6280,
      "##ing": 6281,
      "불가피": 6282,
      "보건": 6283,
      "##지며": 6284,
      "##히려": 6285,
      "확대해": 6286,
      "27일": 6287,
      "반대매매": 6288,
      "2천": 6289,
      "취업": 6290,
      "##보유": 6291,
      "2024년": 6292,
      "##증권은": 6293,
      "가치나": 6294,
      "나오고": 6295,
      "오히려": 6296,
      "유사": 6297,
      "의존": 6298,
      "제어": 6299,
      "##단을": 6300,
      "순매수": 6301,
      "주재": 6302,
      "##ro": 6303,
      "198": 6304,
      "학습": 6305,
      "##계의": 6306,
      "카카오는": 6307,
      "00": 6308,
      "것과": 6309,
      "예고": 6310,
      "##자산운용": 6311,
      "공감언론": 6312,
      "화제성이": 6313,
      "걸쳐": 6314,
      "국립": 6315,
      "차례": 6316,
      "매출액": 6317,
      "환경을": 6318,
      "뉴시스가": 6319,
      "반영하겠습니다": 6320,
      "제보받습니다": 6321,
      "형태로": 6322,
      "사진영상부": 6323,
      "보내주시면": 6324,
      "53": 6325,
      "공기": 6326,
      "넷마블": 6327,
      "않도록": 6328,
      "절차": 6329,
      "추첨": 6330,
      "##전환": 6331,
      "##웠다": 6332,
      "금융위원회": 6333,
      "기름": 6334,
      "론칭": 6335,
      "봉쇄": 6336,
      "신약": 6337,
      "전남": 6338,
      "##만명": 6339,
      "오른쪽": 6340,
      "당분간": 6341,
      "행사를": 6342,
      "연구진": 6343,
      "솔루션을": 6344,
      "BG": 6345,
      "다소": 6346,
      "상한": 6347,
      "철강": 6348,
      "##극재": 6349,
      "매출이": 6350,
      "못한": 6351,
      "환자": 6352,
      "진행한": 6353,
      "줄어든": 6354,
      "SSG": 6355,
      "무선": 6356,
      "요소": 6357,
      "누구나": 6358,
      "6개": 6359,
      "##포르": 6360,
      "##BC": 6361,
      "비트코인": 6362,
      "가맹": 6363,
      "사업자": 6364,
      "발생하는": 6365,
      "여부를": 6366,
      "포트폴리오": 6367,
      "자원": 6368,
      "목표를": 6369,
      "이스타항공": 6370,
      "구입": 6371,
      "리더": 6372,
      "만드는": 6373,
      "시기": 6374,
      "##다가": 6375,
      "##반도체": 6376,
      "금융시장": 6377,
      "차지하는": 6378,
      "갤럭시": 6379,
      "실무": 6380,
      "카페": 6381,
      "개방": 6382,
      "농업": 6383,
      "선제": 6384,
      "##화와": 6385,
      "##재인": 6386,
      "##방안": 6387,
      "카카오뱅크": 6388,
      "적극적인": 6389,
      "1회": 6390,
      "홍콩": 6391,
      "##서다": 6392,
      "##받고": 6393,
      "2015년": 6394,
      "트위터": 6395,
      "##ER": 6396,
      "##에서의": 6397,
      "자율주행": 6398,
      "1위를": 6399,
      "사랑": 6400,
      "알뜰": 6401,
      "##13": 6402,
      "##안정": 6403,
      "전망치": 6404,
      "##별로는": 6405,
      "54": 6406,
      "배당": 6407,
      "새로": 6408,
      "##력과": 6409,
      "##든요": 6410,
      "74": 6411,
      "폴란드": 6412,
      "프린": 6413,
      "##AC": 6414,
      "##시코": 6415,
      "코스피는": 6416,
      "96": 6417,
      "속도": 6418,
      "운행": 6419,
      "최우": 6420,
      "##기능": 6421,
      "##99": 6422,
      "같다": 6423,
      "저장": 6424,
      "##거든요": 6425,
      "##제일": 6426,
      "##이를": 6427,
      "##사진": 6428,
      "지배구조": 6429,
      "추측": 6430,
      "##믹스": 6431,
      "검사": 6432,
      "기부": 6433,
      "##화해": 6434,
      "##드로": 6435,
      "기업에": 6436,
      "국민의힘": 6437,
      "나라": 6438,
      "최악": 6439,
      "##사고": 6440,
      "30대": 6441,
      "##시키는": 6442,
      "94": 6443,
      "제대로": 6444,
      "##센터에서": 6445,
      "##받은": 6446,
      "문제는": 6447,
      "불편": 6448,
      "토지": 6449,
      "가공": 6450,
      "축소": 6451,
      "형성": 6452,
      "##구역": 6453,
      "가격에": 6454,
      "평가했다": 6455,
      "47": 6456,
      "싱가": 6457,
      "통과": 6458,
      "##건이": 6459,
      "##품을": 6460,
      "교신": 6461,
      "##리케이션": 6462,
      "##AS": 6463,
      "##백화점": 6464,
      "업무협약을": 6465,
      "##주년을": 6466,
      "DX": 6467,
      "SUV": 6468,
      "전개": 6469,
      "##손해보험": 6470,
      "##폭을": 6471,
      "경우가": 6472,
      "올리": 6473,
      "##트로": 6474,
      "##종의": 6475,
      "##량의": 6476,
      "##함을": 6477,
      "4개": 6478,
      "리서치": 6479,
      "예산": 6480,
      "##음을": 6481,
      "##공개": 6482,
      "##드경제": 6483,
      "##촬영": 6484,
      "##됐다고": 6485,
      "시가총": 6486,
      "복지": 6487,
      "아웃": 6488,
      "##지면": 6489,
      "##점은": 6490,
      "##푸드": 6491,
      "시간을": 6492,
      "가능성도": 6493,
      "시도": 6494,
      "안에": 6495,
      "재건축": 6496,
      "최고의": 6497,
      "동월": 6498,
      "중대": 6499,
      "##협의": 6500,
      "##보면": 6501,
      "LH": 6502,
      "벌어": 6503,
      "잠재": 6504,
      "조치를": 6505,
      "헤럴": 6506,
      "##이라": 6507,
      "##관을": 6508,
      "양자암호": 6509,
      "67": 6510,
      "kr": 6511,
      "노력을": 6512,
      "지도": 6513,
      "##적이고": 6514,
      "##조선": 6515,
      "##진단": 6516,
      "중국의": 6517,
      "150": 6518,
      "##담보대출": 6519,
      "2000": 6520,
      "되면": 6521,
      "말씀": 6522,
      "블랙": 6523,
      "스페": 6524,
      "심각": 6525,
      "##MO": 6526,
      "가능해": 6527,
      "사상": 6528,
      "압박": 6529,
      "인기를": 6530,
      "##해양": 6531,
      "##복현": 6532,
      "24시간": 6533,
      "헤럴드경제": 6534,
      "04": 6535,
      "이창": 6536,
      "이복현": 6537,
      "질병": 6538,
      "##IC": 6539,
      "##박람회": 6540,
      "##회의에서": 6541,
      "중기": 6542,
      "직장": 6543,
      "테크": 6544,
      "환율은": 6545,
      "##자체": 6546,
      "외환위기": 6547,
      "51": 6548,
      "부총": 6549,
      "원을": 6550,
      "캐나다": 6551,
      "##스티": 6552,
      "##생명": 6553,
      "##이노베이션": 6554,
      "세포": 6555,
      "##순환": 6556,
      "##췄다": 6557,
      "이같이": 6558,
      "87": 6559,
      "공사": 6560,
      "못하고": 6561,
      "진료": 6562,
      "활발": 6563,
      "진행했다": 6564,
      "메모리": 6565,
      "대역": 6566,
      "사이버": 6567,
      "유형": 6568,
      "##BS": 6569,
      "지원할": 6570,
      "삼성전자가": 6571,
      "모습을": 6572,
      "제외한": 6573,
      "끌어올": 6574,
      "05": 6575,
      "인구": 6576,
      "##시킬": 6577,
      "##구하고": 6578,
      "확대할": 6579,
      "발생할": 6580,
      "전시회": 6581,
      "62": 6582,
      "85": 6583,
      "국회": 6584,
      "원숭": 6585,
      "유출": 6586,
      "규모가": 6587,
      "아이오": 6588,
      "참석해": 6589,
      "나설": 6590,
      "특화": 6591,
      "##35": 6592,
      "##까지는": 6593,
      "기업을": 6594,
      "참여한": 6595,
      "회사의": 6596,
      "참석한": 6597,
      "이동통신": 6598,
      "어렵다": 6599,
      "싱가포르": 6600,
      "56": 6601,
      "문재인": 6602,
      "입장을": 6603,
      "크래": 6604,
      "##재해": 6605,
      "독립": 6606,
      "##기금": 6607,
      "##지주": 6608,
      "##스텝": 6609,
      "##스에서": 6610,
      "##et": 6611,
      "영업이익은": 6612,
      "애널": 6613,
      "입찰": 6614,
      "##청사에서": 6615,
      "##졌습니다": 6616,
      "본격적으로": 6617,
      "자신의": 6618,
      "2조": 6619,
      "경신": 6620,
      "잇따": 6621,
      "최선을": 6622,
      "##리카": 6623,
      "기술이": 6624,
      "협업을": 6625,
      "과도": 6626,
      "마무리": 6627,
      "이루": 6628,
      "회계": 6629,
      "##테리어": 6630,
      "출시한": 6631,
      "DSR": 6632,
      "대회": 6633,
      "모색": 6634,
      "##박스": 6635,
      "##월드": 6636,
      "##으로부터": 6637,
      "운영하고": 6638,
      "추진할": 6639,
      "가지고": 6640,
      "돌입": 6641,
      "스트": 6642,
      "##바이러스": 6643,
      "높일": 6644,
      "미니": 6645,
      "화학": 6646,
      "이용하는": 6647,
      "78": 6648,
      "심의": 6649,
      "없다는": 6650,
      "##위의": 6651,
      "##DA": 6652,
      "##금액": 6653,
      "확보를": 6654,
      "1인": 6655,
      "가파": 6656,
      "##공정": 6657,
      "소폭": 6658,
      "실증": 6659,
      "##국민": 6660,
      "##세는": 6661,
      "##분야": 6662,
      "출시했다": 6663,
      "##lock": 6664,
      "외교": 6665,
      "직후": 6666,
      "철저": 6667,
      "사용하는": 6668,
      "수익성": 6669,
      "원숭이": 6670,
      "게시": 6671,
      "병원": 6672,
      "이정": 6673,
      "인지": 6674,
      "장마": 6675,
      "##링크": 6676,
      "##표준": 6677,
      "##커머스": 6678,
      "06": 6679,
      "76": 6680,
      "CP": 6681,
      "데다": 6682,
      "멤버": 6683,
      "불법": 6684,
      "##씨는": 6685,
      "심화": 6686,
      "약속": 6687,
      "원칙": 6688,
      "지수가": 6689,
      "협약을": 6690,
      "##복합": 6691,
      "10일": 6692,
      "우리은행": 6693,
      "가상화폐": 6694,
      "SNS": 6695,
      "유연": 6696,
      "제재": 6697,
      "##여개": 6698,
      "##주당": 6699,
      "하나로": 6700,
      "고속": 6701,
      "뿐만": 6702,
      "작은": 6703,
      "폭락": 6704,
      "구체적인": 6705,
      "높이": 6706,
      "멕시코": 6707,
      "##97": 6708,
      "아이템": 6709,
      "노력하겠다": 6710,
      "때는": 6711,
      "미치는": 6712,
      "방통": 6713,
      "보이": 6714,
      "이탈": 6715,
      "##내는": 6716,
      "##하려는": 6717,
      "61": 6718,
      "가져": 6719,
      "거듭": 6720,
      "교류": 6721,
      "불리는": 6722,
      "원가": 6723,
      "유도": 6724,
      "조기": 6725,
      "##책임": 6726,
      "지역의": 6727,
      "23일": 6728,
      "국토교통부": 6729,
      "73": 6730,
      "근거": 6731,
      "본부": 6732,
      "##건으로": 6733,
      "사람이": 6734,
      "수가": 6735,
      "앱을": 6736,
      "##미칼": 6737,
      "##기업의": 6738,
      "마이크로": 6739,
      "9시": 6740,
      "경찰": 6741,
      "##종을": 6742,
      "##물이": 6743,
      "차지했다": 6744,
      "프랑스": 6745,
      "극대": 6746,
      "전일": 6747,
      "##부동산": 6748,
      "##토리": 6749,
      "확대하고": 6750,
      "##겠다고": 6751,
      "최고치를": 6752,
      "대통령이": 6753,
      "컴퓨": 6754,
      "##질을": 6755,
      "##힌다": 6756,
      "참여할": 6757,
      "디스플레이": 6758,
      "방어": 6759,
      "열어": 6760,
      "접목": 6761,
      "체결했다": 6762,
      "3배": 6763,
      "당초": 6764,
      "동참": 6765,
      "온실": 6766,
      "##대의": 6767,
      "2014년": 6768,
      "과학기술정보통신부": 6769,
      "머스크": 6770,
      "##의약품": 6771,
      "##석유": 6772,
      "이어지고": 6773,
      "정보통신": 6774,
      "높여": 6775,
      "에이": 6776,
      "한층": 6777,
      "##지수가": 6778,
      "##호텔에서": 6779,
      "개설": 6780,
      "국채": 6781,
      "내에": 6782,
      "무더": 6783,
      "방지": 6784,
      "유로": 6785,
      "점도": 6786,
      "대표적인": 6787,
      "아이오닉": 6788,
      "이종": 6789,
      "##러운": 6790,
      "디지털데일리": 6791,
      "강화를": 6792,
      "수익을": 6793,
      "GDP": 6794,
      "극복": 6795,
      "베이": 6796,
      "의사": 6797,
      "지자체": 6798,
      "##리기": 6799,
      "오를": 6800,
      "재미": 6801,
      "체감": 6802,
      "##nd": 6803,
      "2012년": 6804,
      "적용해": 6805,
      "구성된": 6806,
      "LG유플러스는": 6807,
      "발사체": 6808,
      "보는": 6809,
      "절차를": 6810,
      "후속": 6811,
      "##로서": 6812,
      "##만8": 6813,
      "제조업": 6814,
      "드라마": 6815,
      "EU": 6816,
      "내고": 6817,
      "바뀌": 6818,
      "종로": 6819,
      "##부채": 6820,
      "##간의": 6821,
      "곡물": 6822,
      "부여": 6823,
      "원격": 6824,
      "##계가": 6825,
      "##질환": 6826,
      "선정된": 6827,
      "block": 6828,
      "계기로": 6829,
      "반복": 6830,
      "밸류": 6831,
      "법률": 6832,
      "##캐피": 6833,
      "전력수급": 6834,
      "최저임금": 6835,
      "언제": 6836,
      "이들은": 6837,
      "상황에": 6838,
      "애플리케이션": 6839,
      "제시했다": 6840,
      "애로": 6841,
      "운동": 6842,
      "초반": 6843,
      "##수익": 6844,
      "프로모션": 6845,
      "나머": 6846,
      "버전": 6847,
      "이래": 6848,
      "##주일": 6849,
      "재활용": 6850,
      "현상": 6851,
      "##운송": 6852,
      "올해는": 6853,
      "ICT": 6854,
      "여파로": 6855,
      "연방준비": 6856,
      "긴급": 6857,
      "요인": 6858,
      "집행": 6859,
      "폐지": 6860,
      "##천만": 6861,
      "##검증": 6862,
      "대표가": 6863,
      "3대": 6864,
      "구미": 6865,
      "상속": 6866,
      "월드": 6867,
      "전담": 6868,
      "천연": 6869,
      "라이프": 6870,
      "과기정통부": 6871,
      "AP": 6872,
      "본사": 6873,
      "##퍼런스": 6874,
      "스스로": 6875,
      "푸드": 6876,
      "##농협": 6877,
      "진행하는": 6878,
      "방식을": 6879,
      "건전": 6880,
      "경매": 6881,
      "인스타": 6882,
      "##부처": 6883,
      "##어로": 6884,
      "##값이": 6885,
      "분리": 6886,
      "선임": 6887,
      "음악": 6888,
      "적정": 6889,
      "##리의": 6890,
      "##베스트": 6891,
      "기업과": 6892,
      "##레이션": 6893,
      "프로젝트를": 6894,
      "위메이드": 6895,
      "블루": 6896,
      "차이가": 6897,
      "플라스틱": 6898,
      "##수산": 6899,
      "##구를": 6900,
      "개선을": 6901,
      "이유는": 6902,
      "독점": 6903,
      "##세포": 6904,
      "##리콘": 6905,
      "##대책": 6906,
      "구축을": 6907,
      "실적이": 6908,
      "출신": 6909,
      "한번": 6910,
      "기업들은": 6911,
      "본격화": 6912,
      "강력한": 6913,
      "애널리스트": 6914,
      "TS": 6915,
      "건축": 6916,
      "고양": 6917,
      "넥슨": 6918,
      "세븐": 6919,
      "인테리어": 6920,
      "일시": 6921,
      "주택담보대출": 6922,
      "IPO": 6923,
      "직전": 6924,
      "질문": 6925,
      "폭이": 6926,
      "##인지": 6927,
      "##우고": 6928,
      "원자력": 6929,
      "충분히": 6930,
      "주의": 6931,
      "##16": 6932,
      "##1억원": 6933,
      "10개": 6934,
      "어린이": 6935,
      "기념촬영": 6936,
      "EN": 6937,
      "굉장": 6938,
      "돈을": 6939,
      "모아": 6940,
      "애니": 6941,
      "주최": 6942,
      "후원": 6943,
      "##었지만": 6944,
      "우리가": 6945,
      "늘어나": 6946,
      "비율": 6947,
      "해운": 6948,
      "##기와": 6949,
      "SKT": 6950,
      "공개했다": 6951,
      "하이브": 6952,
      "불가능": 6953,
      "자기": 6954,
      "코레일": 6955,
      "화장": 6956,
      "##국의": 6957,
      "##실을": 6958,
      "##유의": 6959,
      "##겼다": 6960,
      "삼성전자의": 6961,
      "서민": 6962,
      "제정": 6963,
      "##포트": 6964,
      "##el": 6965,
      "진행된": 6966,
      "명예": 6967,
      "박사": 6968,
      "서초": 6969,
      "##처리": 6970,
      "##의료": 6971,
      "##어요": 6972,
      "##bp": 6973,
      "국내에서": 6974,
      "정부서울": 6975,
      "규제가": 6976,
      "##는데요": 6977,
      "받았": 6978,
      "사내": 6979,
      "##리트": 6980,
      "##시험": 6981,
      "어려워": 6982,
      "66": 6983,
      "다운": 6984,
      "서로": 6985,
      "의결": 6986,
      "인플": 6987,
      "일자리": 6988,
      "창립": 6989,
      "##가와": 6990,
      "##리테일": 6991,
      "##나갈": 6992,
      "##공업": 6993,
      "##워드": 6994,
      "197": 6995,
      "##달러로": 6996,
      "비슷한": 6997,
      "많았다": 6998,
      "못했다": 6999,
      "양방향": 7000,
      "얘기": 7001,
      "연령": 7002,
      "치킨": 7003,
      "##고객": 7004,
      "사업은": 7005,
      "추진하고": 7006,
      "KBS": 7007,
      "##라이브": 7008,
      "중앙은행": 7009,
      "케이뱅크": 7010,
      "나눠": 7011,
      "달한다": 7012,
      "동남": 7013,
      "##포럼": 7014,
      "##주주": 7015,
      "##효과": 7016,
      "비용을": 7017,
      "##과학기술": 7018,
      "82": 7019,
      "네오": 7020,
      "분위": 7021,
      "상업": 7022,
      "에코": 7023,
      "##담회를": 7024,
      "##잡고": 7025,
      "금융기관": 7026,
      "기대하고": 7027,
      "##벤처기업": 7028,
      "유동성": 7029,
      "바람": 7030,
      "불구하고": 7031,
      "유리": 7032,
      "음성": 7033,
      "착수": 7034,
      "현상이": 7035,
      "##해진": 7036,
      "##노조": 7037,
      "관련된": 7038,
      "장애인": 7039,
      "상하이": 7040,
      "시내": 7041,
      "임원": 7042,
      "##관이": 7043,
      "##케미칼": 7044,
      "서울의": 7045,
      "사회공": 7046,
      "중장기": 7047,
      "상향": 7048,
      "##대에서": 7049,
      "주식을": 7050,
      "파트너십": 7051,
      "##다면": 7052,
      "##공원": 7053,
      "사업의": 7054,
      "상승에": 7055,
      "기술로": 7056,
      "관계자": 7057,
      "금리는": 7058,
      "##업계에": 7059,
      "오피스텔": 7060,
      "내에서": 7061,
      "노벨": 7062,
      "차주": 7063,
      "사진제공": 7064,
      "이같은": 7065,
      "강제": 7066,
      "##세에": 7067,
      "##탄소": 7068,
      "##철도": 7069,
      "4일부터": 7070,
      "하나의": 7071,
      "중요하다": 7072,
      "가스요금": 7073,
      "1명": 7074,
      "83": 7075,
      "명의": 7076,
      "사출": 7077,
      "실패": 7078,
      "표시": 7079,
      "##린지": 7080,
      "예상했다": 7081,
      "회사가": 7082,
      "에어컨": 7083,
      "프린스턴": 7084,
      "BA": 7085,
      "CU": 7086,
      "SR": 7087,
      "##스테": 7088,
      "##건강": 7089,
      "##시티": 7090,
      "인스타그램": 7091,
      "굉장히": 7092,
      "99": 7093,
      "고급": 7094,
      "부실": 7095,
      "신작": 7096,
      "웨이": 7097,
      "이차": 7098,
      "좋아": 7099,
      "상승률": 7100,
      "이상을": 7101,
      "아마존": 7102,
      "88": 7103,
      "연내": 7104,
      "##상증": 7105,
      "##임대": 7106,
      "수출이": 7107,
      "분야에": 7108,
      "대출금리": 7109,
      "최저가": 7110,
      "가중": 7111,
      "보조": 7112,
      "분류": 7113,
      "사망": 7114,
      "악재": 7115,
      "연세대": 7116,
      "의약품": 7117,
      "작성": 7118,
      "##그라": 7119,
      "##재생": 7120,
      "##두창": 7121,
      "생명": 7122,
      "##에이": 7123,
      "##OS": 7124,
      "정부와": 7125,
      "고객들이": 7126,
      "패키지": 7127,
      "높이고": 7128,
      "멘토": 7129,
      "물량": 7130,
      "신종": 7131,
      "원으로": 7132,
      "조언": 7133,
      "채무": 7134,
      "##리금": 7135,
      "##공장": 7136,
      "##됐던": 7137,
      "금융권": 7138,
      "성장할": 7139,
      "혁신을": 7140,
      "움직임": 7141,
      "바닥": 7142,
      "진정": 7143,
      "인상을": 7144,
      "무역적": 7145,
      "사회공헌": 7146,
      "둘러": 7147,
      "보급": 7148,
      "보이는": 7149,
      "점차": 7150,
      "##리움": 7151,
      "##질의": 7152,
      "##담당": 7153,
      "관리를": 7154,
      "ENM": 7155,
      "이로": 7156,
      "찾는": 7157,
      "페이": 7158,
      "120": 7159,
      "경제부총리": 7160,
      "원숭이두창": 7161,
      "점포": 7162,
      "쿠폰": 7163,
      "호주": 7164,
      "##IP": 7165,
      "##억원의": 7166,
      "##에게는": 7167,
      "지속될": 7168,
      "기념해": 7169,
      "피해를": 7170,
      "근로자": 7171,
      "노조는": 7172,
      "최악의": 7173,
      "4만": 7174,
      "강한": 7175,
      "고위": 7176,
      "배럴": 7177,
      "여신": 7178,
      "##내고": 7179,
      "##화하는": 7180,
      "##st": 7181,
      "거래가": 7182,
      "증시가": 7183,
      "작품을": 7184,
      "속에서": 7185,
      "분할": 7186,
      "슈퍼": 7187,
      "힘들": 7188,
      "##나노": 7189,
      "##보안": 7190,
      "성공했다": 7191,
      "비교하면": 7192,
      "것에": 7193,
      "자금을": 7194,
      "정리": 7195,
      "##인력": 7196,
      "##상환": 7197,
      "##판에": 7198,
      "제품은": 7199,
      "관람": 7200,
      "민감": 7201,
      "밝힌": 7202,
      "배우": 7203,
      "전에": 7204,
      "##200": 7205,
      "##태그": 7206,
      "규모를": 7207,
      "##항공우주": 7208,
      "높이는": 7209,
      "커질": 7210,
      "프로세": 7211,
      "마이데이터": 7212,
      "완성차": 7213,
      "명확": 7214,
      "##프레": 7215,
      "##장애": 7216,
      "기업인": 7217,
      "규모다": 7218,
      "강화하고": 7219,
      "거래일보다": 7220,
      "고금리": 7221,
      "받는다": 7222,
      "변화를": 7223,
      "##분이": 7224,
      "##옵션": 7225,
      "반영해": 7226,
      "거부": 7227,
      "수여": 7228,
      "시절": 7229,
      "원화": 7230,
      "유기": 7231,
      "차단": 7232,
      "##지니어": 7233,
      "##CC": 7234,
      "최대한": 7235,
      "참여해": 7236,
      "13일": 7237,
      "이야기": 7238,
      "BT": 7239,
      "담아": 7240,
      "주간": 7241,
      "##제는": 7242,
      "산업부": 7243,
      "생각한다": 7244,
      "79": 7245,
      "와이": 7246,
      "체계를": 7247,
      "폐기": 7248,
      "현대자동차": 7249,
      "간담회에서": 7250,
      "공항": 7251,
      "권고": 7252,
      "기울": 7253,
      "메시": 7254,
      "물리": 7255,
      "미리": 7256,
      "환불": 7257,
      "##사용": 7258,
      "##신청": 7259,
      "##과학원": 7260,
      "##트리온": 7261,
      "엔진": 7262,
      "한도": 7263,
      "##인증": 7264,
      "##보를": 7265,
      "점유율": 7266,
      "넷플릭스": 7267,
      "건의": 7268,
      "셀트리온": 7269,
      "오랜": 7270,
      "##소시": 7271,
      "성공적으로": 7272,
      "어디": 7273,
      "체크": 7274,
      "##고요": 7275,
      "##역을": 7276,
      "제공해": 7277,
      "사례가": 7278,
      "분위기": 7279,
      "##화한": 7280,
      "관련한": 7281,
      "산업의": 7282,
      "나가겠다": 7283,
      "5대": 7284,
      "바다": 7285,
      "##스럽": 7286,
      "##광역": 7287,
      "협력해": 7288,
      "당부했다": 7289,
      "종로구": 7290,
      "미세": 7291,
      "보완": 7292,
      "연금": 7293,
      "##즈를": 7294,
      "##상에": 7295,
      "마련했다": 7296,
      "나오는": 7297,
      "게이밍": 7298,
      "LNG": 7299,
      "TF": 7300,
      "갈등": 7301,
      "여기": 7302,
      "타이": 7303,
      "상승으로": 7304,
      "카카오게임즈": 7305,
      "순매도": 7306,
      "삼성SDI": 7307,
      "일환으로": 7308,
      "AS": 7309,
      "도착": 7310,
      "맥주": 7311,
      "점이": 7312,
      "토레스": 7313,
      "##학생": 7314,
      "##분에": 7315,
      "##장치": 7316,
      "기술력을": 7317,
      "##진흥원": 7318,
      "수치다": 7319,
      "늘려": 7320,
      "당장": 7321,
      "발간": 7322,
      "스페이스": 7323,
      "원료": 7324,
      "확충": 7325,
      "##18": 7326,
      "##동향": 7327,
      "대출을": 7328,
      "흐름을": 7329,
      "News": 7330,
      "보니": 7331,
      "실리콘": 7332,
      "올레드": 7333,
      "##부담": 7334,
      "##MI": 7335,
      "##ri": 7336,
      "##착륙": 7337,
      "130": 7338,
      "수익률": 7339,
      "비상경제": 7340,
      "김영": 7341,
      "부총리": 7342,
      "서버": 7343,
      "파운드": 7344,
      "##개선": 7345,
      "##됐고": 7346,
      "##히는": 7347,
      "진행한다고": 7348,
      "상품은": 7349,
      "캠페인을": 7350,
      "운전자": 7351,
      "유예": 7352,
      "카테": 7353,
      "##플랫폼": 7354,
      "##안이": 7355,
      "SK하이닉스": 7356,
      "노하우를": 7357,
      "온실가스": 7358,
      "마찬": 7359,
      "10만": 7360,
      "이날부터": 7361,
      "기관은": 7362,
      "석탄": 7363,
      "폭으로": 7364,
      "##회관에서": 7365,
      "외환보유": 7366,
      "이차전지": 7367,
      "용산": 7368,
      "접속": 7369,
      "차원에서": 7370,
      "##나가": 7371,
      "##억3": 7372,
      "##표를": 7373,
      "##액을": 7374,
      "지원하고": 7375,
      "연구를": 7376,
      "LG전자는": 7377,
      "미래를": 7378,
      "전년동": 7379,
      "직원들이": 7380,
      "7만": 7381,
      "김치": 7382,
      "민생": 7383,
      "빅스텝": 7384,
      "스위": 7385,
      "아우": 7386,
      "##지와": 7387,
      "##제에": 7388,
      "##였습니다": 7389,
      "##단렌": 7390,
      "##예금": 7391,
      "이상이": 7392,
      "시중은행": 7393,
      "일단": 7394,
      "제로": 7395,
      "조절": 7396,
      "##해도": 7397,
      "##아요": 7398,
      "##시켰": 7399,
      "##치지": 7400,
      "이용한": 7401,
      "##만원을": 7402,
      "하는데": 7403,
      "3조": 7404,
      "소셜": 7405,
      "하기": 7406,
      "##대는": 7407,
      "##려는": 7408,
      "게이단렌": 7409,
      "뷰티": 7410,
      "시공": 7411,
      "운항": 7412,
      "이중": 7413,
      "##17": 7414,
      "##있다": 7415,
      "강화해": 7416,
      "##소시엄": 7417,
      "News1": 7418,
      "고령": 7419,
      "남아": 7420,
      "쏘카": 7421,
      "주고": 7422,
      "토론": 7423,
      "##격이": 7424,
      "##비가": 7425,
      "2010년": 7426,
      "중소벤처기업": 7427,
      "해서": 7428,
      "##제당": 7429,
      "개발해": 7430,
      "참여하는": 7431,
      "영향이": 7432,
      "정부서울청사에서": 7433,
      "많았": 7434,
      "블룸": 7435,
      "쏟아": 7436,
      "있던": 7437,
      "취소": 7438,
      "##37": 7439,
      "제조사": 7440,
      "후보자는": 7441,
      "얼마나": 7442,
      "나머지": 7443,
      "열차": 7444,
      "##종합": 7445,
      "##프톤": 7446,
      "##ch": 7447,
      "미국과": 7448,
      "업계의": 7449,
      "모델을": 7450,
      "크래프톤": 7451,
      "전파": 7452,
      "##간담회": 7453,
      "##주고": 7454,
      "서비스는": 7455,
      "롯데마트": 7456,
      "활성화를": 7457,
      "3천": 7458,
      "RE": 7459,
      "다르": 7460,
      "없을": 7461,
      "자영업": 7462,
      "출연": 7463,
      "충남": 7464,
      "한국항공우주": 7465,
      "금융위기": 7466,
      "현장에서": 7467,
      "아래로": 7468,
      "##홀딩스": 7469,
      "마찬가지": 7470,
      "블룸버그": 7471,
      "부처": 7472,
      "산정": 7473,
      "신혼": 7474,
      "##제한": 7475,
      "##체를": 7476,
      "투자가": 7477,
      "최근에는": 7478,
      "전반에": 7479,
      "증정한다": 7480,
      "##고리즘": 7481,
      "기념촬영을": 7482,
      "000": 7483,
      "구분": 7484,
      "사우": 7485,
      "세미": 7486,
      "항목": 7487,
      "##했기": 7488,
      "##신문": 7489,
      "##LS": 7490,
      "사업이": 7491,
      "현재까지": 7492,
      "경영진": 7493,
      "나스": 7494,
      "다이": 7495,
      "제가": 7496,
      "줄여": 7497,
      "확실": 7498,
      "##회가": 7499,
      "상승세를": 7500,
      "안전보건": 7501,
      "##회의소": 7502,
      "CJ제일": 7503,
      "필즈상을": 7504,
      "CJ제일제당": 7505,
      "CA": 7506,
      "공포": 7507,
      "신경": 7508,
      "추구": 7509,
      "카카오가": 7510,
      "늘어날": 7511,
      "2030년까지": 7512,
      "저렴한": 7513,
      "7개": 7514,
      "92": 7515,
      "D램": 7516,
      "바꾸": 7517,
      "클래": 7518,
      "휴대": 7519,
      "##기고": 7520,
      "##95": 7521,
      "##용품": 7522,
      "##브로드": 7523,
      "##억원에": 7524,
      "상승률은": 7525,
      "분석이다": 7526,
      "스트리": 7527,
      "아트": 7528,
      "적금": 7529,
      "주담": 7530,
      "초대": 7531,
      "##제가": 7532,
      "##ation": 7533,
      "이름을": 7534,
      "대를": 7535,
      "양사는": 7536,
      "포럼": 7537,
      "해상": 7538,
      "교육을": 7539,
      "장기화": 7540,
      "가까운": 7541,
      "뛰어난": 7542,
      "꼽힌다": 7543,
      "자녀": 7544,
      "지켜": 7545,
      "지출": 7546,
      "##38": 7547,
      "##방송": 7548,
      "선보였다": 7549,
      "4시": 7550,
      "꼽았다": 7551,
      "도로": 7552,
      "선진": 7553,
      "##수요": 7554,
      "##한다면": 7555,
      "기준금리를": 7556,
      "이끌어": 7557,
      "8K": 7558,
      "도심": 7559,
      "못하는": 7560,
      "설문": 7561,
      "월세": 7562,
      "이처럼": 7563,
      "파산": 7564,
      "##원전": 7565,
      "20일": 7566,
      "구축하고": 7567,
      "KB국민": 7568,
      "금감원": 7569,
      "국정": 7570,
      "보일": 7571,
      "신사업": 7572,
      "올렸다": 7573,
      "##연맹": 7574,
      "기관이": 7575,
      "동남아": 7576,
      "CI": 7577,
      "눈에": 7578,
      "유망": 7579,
      "##유행": 7580,
      "##려면": 7581,
      "상승을": 7582,
      "기술과": 7583,
      "운영한다": 7584,
      "지역에": 7585,
      "달러를": 7586,
      "21일": 7587,
      "##건설은": 7588,
      "방향을": 7589,
      "나올": 7590,
      "실업": 7591,
      "심사를": 7592,
      "일각": 7593,
      "지능": 7594,
      "##이던": 7595,
      "##융합": 7596,
      "##동에": 7597,
      "##적으로는": 7598,
      "거래되고": 7599,
      "보도했다": 7600,
      "전해졌다": 7601,
      "바라": 7602,
      "적은": 7603,
      "전송": 7604,
      "특성": 7605,
      "현행": 7606,
      "##리면서": 7607,
      "자동으로": 7608,
      "시가총액": 7609,
      "대기": 7610,
      "맞이": 7611,
      "알아": 7612,
      "조회": 7613,
      "##재계": 7614,
      "##ET": 7615,
      "이른바": 7616,
      "나아가": 7617,
      "5년간": 7618,
      "감독": 7619,
      "답변": 7620,
      "모듈": 7621,
      "부가": 7622,
      "유전자": 7623,
      "장소": 7624,
      "즉시": 7625,
      "##해온": 7626,
      "##통화": 7627,
      "##로직": 7628,
      "##산화": 7629,
      "##ct": 7630,
      "기록할": 7631,
      "##그룹이": 7632,
      "22일": 7633,
      "1호": 7634,
      "교체": 7635,
      "레벨": 7636,
      "면역": 7637,
      "봉사": 7638,
      "사모": 7639,
      "인건": 7640,
      "코로나19로": 7641,
      "러시아의": 7642,
      "##가가치": 7643,
      "##브로드밴": 7644,
      "계산": 7645,
      "매주": 7646,
      "봤다": 7647,
      "스테": 7648,
      "##로그": 7649,
      "##우는": 7650,
      "수출은": 7651,
      "SK브로드밴": 7652,
      "보험료": 7653,
      "거리두": 7654,
      "내렸다": 7655,
      "상시": 7656,
      "적절": 7657,
      "정식": 7658,
      "##수수": 7659,
      "##65": 7660,
      "대한항공": 7661,
      "분석이": 7662,
      "2주": 7663,
      "레이": 7664,
      "영화": 7665,
      "##웹툰": 7666,
      "내용은": 7667,
      "기여할": 7668,
      "4대": 7669,
      "무인": 7670,
      "붕괴": 7671,
      "샌드": 7672,
      "종가": 7673,
      "##28": 7674,
      "##무원": 7675,
      "##작용": 7676,
      "한국거래소": 7677,
      "전략적": 7678,
      "성능을": 7679,
      "MS": 7680,
      "냉동": 7681,
      "만이다": 7682,
      "약세": 7683,
      "초청": 7684,
      "##해주는": 7685,
      "##om": 7686,
      "세계적인": 7687,
      "하반기에도": 7688,
      "발전을": 7689,
      "##art": 7690,
      "급감": 7691,
      "제거": 7692,
      "##변화": 7693,
      "판매가": 7694,
      "출시를": 7695,
      "상용화": 7696,
      "불확실성이": 7697,
      "Fed": 7698,
      "딜링": 7699,
      "본인": 7700,
      "예대금리": 7701,
      "주말": 7702,
      "##정이": 7703,
      "##냐는": 7704,
      "소비자들이": 7705,
      "##기술을": 7706,
      "목소리를": 7707,
      "스토어": 7708,
      "중견기업": 7709,
      "보상": 7710,
      "산출": 7711,
      "손잡고": 7712,
      "시점": 7713,
      "한미": 7714,
      "##도와": 7715,
      "##3억": 7716,
      "##들로": 7717,
      "##체계를": 7718,
      "##모터": 7719,
      "##레이드": 7720,
      "대해서도": 7721,
      "취약계층": 7722,
      "딜링룸": 7723,
      "UAM": 7724,
      "기재": 7725,
      "녹색": 7726,
      "뚜렷": 7727,
      "작동": 7728,
      "재산": 7729,
      "제도를": 7730,
      "##만원으로": 7731,
      "대통령은": 7732,
      "한일재계": 7733,
      "내는": 7734,
      "높았다": 7735,
      "신차": 7736,
      "언론": 7737,
      "의원": 7738,
      "투기": 7739,
      "##비는": 7740,
      "##신용": 7741,
      "전문기업": 7742,
      "진출을": 7743,
      "모양": 7744,
      "소형": 7745,
      "수석": 7746,
      "##까요": 7747,
      "수요를": 7748,
      "은행의": 7749,
      "##상공회의소": 7750,
      "가이드": 7751,
      "달간": 7752,
      "합성": 7753,
      "##추얼": 7754,
      "LG유플러스가": 7755,
      "성능검증": 7756,
      "방법을": 7757,
      "연방준비제도": 7758,
      "됩니다": 7759,
      "순으로": 7760,
      "일이": 7761,
      "##사들의": 7762,
      "시작된": 7763,
      "공시했다": 7764,
      "정확한": 7765,
      "알뜰폰": 7766,
      "IDC": 7767,
      "납품": 7768,
      "말까지": 7769,
      "저희": 7770,
      "##오는": 7771,
      "##실에서": 7772,
      "증가할": 7773,
      "추진한다": 7774,
      "우려를": 7775,
      "구매할": 7776,
      "나스닥": 7777,
      "노후": 7778,
      "시세": 7779,
      "일으": 7780,
      "재계": 7781,
      "##조4": 7782,
      "##조8": 7783,
      "2011년": 7784,
      "KT가": 7785,
      "합리적인": 7786,
      "보통": 7787,
      "축적": 7788,
      "이어갈": 7789,
      "경제가": 7790,
      "제품의": 7791,
      "KDI": 7792,
      "도움을": 7793,
      "범위": 7794,
      "수술": 7795,
      "역전": 7796,
      "자리를": 7797,
      "치열": 7798,
      "##조5": 7799,
      "##평양": 7800,
      "##사업자": 7801,
      "##경제인": 7802,
      "140": 7803,
      "이달부터": 7804,
      "기회가": 7805,
      "양자암호통신": 7806,
      "갖추": 7807,
      "마사": 7808,
      "위탁": 7809,
      "친구": 7810,
      "훨씬": 7811,
      "이라면서": 7812,
      "모습이다": 7813,
      "화장품": 7814,
      "공고": 7815,
      "기계": 7816,
      "기타": 7817,
      "돼지고": 7818,
      "반발": 7819,
      "즐거": 7820,
      "취급": 7821,
      "페이스": 7822,
      "흔들": 7823,
      "##고기": 7824,
      "##겠지만": 7825,
      "##수도": 7826,
      "##마을": 7827,
      "고객들의": 7828,
      "##테이너": 7829,
      "청소년": 7830,
      "선사": 7831,
      "와인": 7832,
      "유한": 7833,
      "##채널": 7834,
      "##DF": 7835,
      "##성은": 7836,
      "##3억원": 7837,
      "##PU": 7838,
      "1년간": 7839,
      "논의했다": 7840,
      "조정대상": 7841,
      "사전에": 7842,
      "휴가철": 7843,
      "다수": 7844,
      "##스에": 7845,
      "##트의": 7846,
      "##공학": 7847,
      "##축은행": 7848,
      "있는지": 7849,
      "업계는": 7850,
      "어려울": 7851,
      "사람들이": 7852,
      "P500": 7853,
      "소송": 7854,
      "철도": 7855,
      "촉진": 7856,
      "하다": 7857,
      "##력은": 7858,
      "판매하는": 7859,
      "기존의": 7860,
      "구글의": 7861,
      "##인터넷": 7862,
      "자세한": 7863,
      "5000": 7864,
      "BN": 7865,
      "열었다": 7866,
      "협상": 7867,
      "##성능": 7868,
      "##시킨": 7869,
      "##조치": 7870,
      "##un": 7871,
      "안전한": 7872,
      "부총리는": 7873,
      "OLED": 7874,
      "급여": 7875,
      "단백": 7876,
      "배치": 7877,
      "오리지": 7878,
      "올려": 7879,
      "요인으로": 7880,
      "##어야": 7881,
      "##법에": 7882,
      "##곳에서": 7883,
      "진행됐다": 7884,
      "해당하는": 7885,
      "신청을": 7886,
      "##보고서": 7887,
      "지상국": 7888,
      "400": 7889,
      "겪고": 7890,
      "목적으로": 7891,
      "수원": 7892,
      "합동": 7893,
      "##가의": 7894,
      "##에스": 7895,
      "##4억원": 7896,
      "##ra": 7897,
      "투자하는": 7898,
      "이어가고": 7899,
      "상품으로": 7900,
      "연구팀은": 7901,
      "##부의": 7902,
      "##ce": 7903,
      "##운영": 7904,
      "##중공업": 7905,
      "##카이": 7906,
      "투자에": 7907,
      "확대에": 7908,
      "기존에": 7909,
      "지금은": 7910,
      "조정대상지역": 7911,
      "아동": 7912,
      "요인이": 7913,
      "컨테이너": 7914,
      "##수로": 7915,
      "##미디어": 7916,
      "카카오페이": 7917,
      "100만": 7918,
      "지적이": 7919,
      "디폴트옵션": 7920,
      "배럴당": 7921,
      "2년간": 7922,
      "센서": 7923,
      "유료": 7924,
      "의지를": 7925,
      "적합": 7926,
      "컨소시엄": 7927,
      "폭을": 7928,
      "플러스": 7929,
      "합병": 7930,
      "##는지": 7931,
      "##PC": 7932,
      "##단으로": 7933,
      "##희룡": 7934,
      "##뉴얼": 7935,
      "금융투자": 7936,
      "가격으로": 7937,
      "매출을": 7938,
      "높아지고": 7939,
      "특별한": 7940,
      "왼쪽부터": 7941,
      "농산물": 7942,
      "신임": 7943,
      "억제": 7944,
      "입증": 7945,
      "##어도": 7946,
      "##콘텐츠": 7947,
      "증가하고": 7948,
      "브랜드를": 7949,
      "인증을": 7950,
      "가산": 7951,
      "고유가": 7952,
      "않으면": 7953,
      "원희룡": 7954,
      "있었던": 7955,
      "재개발": 7956,
      "중순": 7957,
      "##차례": 7958,
      "확대될": 7959,
      "##0년대": 7960,
      "예상되는": 7961,
      "최소화": 7962,
      "긍정적인": 7963,
      "가시": 7964,
      "느끼": 7965,
      "버추얼": 7966,
      "성적": 7967,
      "안팎": 7968,
      "##개사": 7969,
      "##므로": 7970,
      "이상으로": 7971,
      "제시한": 7972,
      "마이크론": 7973,
      "하이브리드": 7974,
      "세미나": 7975,
      "EV": 7976,
      "교환": 7977,
      "노출": 7978,
      "복잡": 7979,
      "줄일": 7980,
      "창작": 7981,
      "한때": 7982,
      "##이었던": 7983,
      "##심의": 7984,
      "고객들에게": 7985,
      "보험사": 7986,
      "전력수요": 7987,
      "CN": 7988,
      "다가": 7989,
      "대거": 7990,
      "밖에": 7991,
      "##해달": 7992,
      "##단은": 7993,
      "일본의": 7994,
      "보고서를": 7995,
      "##들과의": 7996,
      "설립된": 7997,
      "쇼핑몰": 7998,
      "GC": 7999
    }
  }
}